<unk>	0
<s>	0
</s>	0
▁t	-0
he	-1
▁the	-2
▁a	-3
▁o	-4
in	-5
..	-6
▁of	-7
nd	-8
er	-9
▁w	-10
▁s	-11
▁m	-12
▁..	-13
it	-14
re	-15
▁and	-16
ing	-17
or	-18
on	-19
▁l	-20
▁c	-21
▁h	-22
es	-23
ed	-24
ar	-25
is	-26
at	-27
▁b	-28
▁f	-29
▁...	-30
▁I	-31
ou	-32
▁g	-33
en	-34
▁p	-35
▁to	-36
al	-37
▁d	-38
▁k	-39
an	-40
▁A	-41
▁king	-42
il	-43
▁in	-44
▁my	-45
ur	-46
ro	-47
▁....	-48
ad	-49
ay	-50
ord	-51
▁go	-52
▁wh	-53
ri	-54
▁T	-55
le	-56
as	-57
▁......	-58
▁lord	-59
and	-60
ce	-61
▁he	-62
am	-63
▁N	-64
▁th	-65
ab	-66
▁n	-67
ver	-68
el	-69
▁his	-70
▁y	-71
▁M	-72
▁re	-73
ir	-74
ent	-75
▁be	-76
ess	-77
om	-78
id	-79
▁it	-80
ve	-81
▁god	-82
th	-83
im	-84
ot	-85
▁e	-86
▁you	-87
ith	-88
▁W	-89
▁The	-90
▁is	-91
▁who	-92
▁for	-93
▁on	-94
ic	-95
ill	-96
ion	-97
ss	-98
▁with	-99
et	-100
▁B	-101
▁land	-102
st	-103
se	-104
ld	-105
ut	-106
▁S	-107
ard	-108
ity	-109
gh	-110
ow	-111
ul	-112
▁me	-113
rom	-114
▁u	-115
ac	-116
▁st	-117
all	-118
▁E	-119
her	-120
▁them	-121
šš	-122
▁an	-123
ght	-124
ššur	-125
▁or	-126
ant	-127
▁se	-128
ak	-129
ness	-130
▁will	-131
▁1	-132
▁from	-133
ap	-134
ers	-135
ple	-136
od	-137
ru	-138
▁as	-139
▁al	-140
▁sh	-141
▁that	-142
▁Aššur	-143
itness	-144
est	-145
▁city	-146
▁Witness	-147
▁their	-148
reat	-149
▁your	-150
ain	-151
▁not	-152
ct	-153
▁com	-154
ave	-155
▁him	-156
um	-157
em	-158
ace	-159
abû	-160
▁H	-161
▁Ass	-162
▁Š	-163
▁pl	-164
▁day	-165
▁gods	-166
nt	-167
pp	-168
▁great	-169
qu	-170
▁con	-171
iv	-172
▁had	-173
ore	-174
ag	-175
▁Nabû	-176
▁they	-177
un	-178
▁son	-179
ich	-180
aš	-181
ig	-182
▁are	-183
▁which	-184
▁de	-185
yri	-186
▁Assyri	-187
▁—	-188
▁D	-189
ly	-190
▁have	-191
uk	-192
ear	-193
▁r	-194
▁its	-195
ch	-196
▁Assyria	-197
ation	-198
▁all	-199
erv	-200
▁one	-201
▁li	-202
▁v	-203
▁G	-204
ount	-205
▁pe	-206
▁has	-207
to	-208
ter	-209
ies	-210
res	-211
▁serv	-212
one	-213
ame	-214
▁at	-215
ong	-216
ate	-217
wn	-218
us	-219
▁...,	-220
▁ch	-221
ine	-222
▁K	-223
ell	-224
▁this	-225
▁servant	-226
▁2	-227
rou	-228
av	-229
ip	-230
▁peo	-231
▁"	-232
▁people	-233
▁up	-234
▁she	-235
ive	-236
ep	-237
▁ab	-238
te	-239
▁May	-240
ub	-241
▁U	-242
ood	-243
our	-244
ke	-245
rib	-246
▁If	-247
ered	-248
ted	-249
ors	-250
▁L	-251
arduk	-252
▁ex	-253
▁ro	-254
▁shall	-255
fe	-256
▁by	-257
▁He	-258
urn	-259
▁As	-260
▁off	-261
out	-262
red	-263
▁pr	-264
ade	-265
▁Marduk	-266
▁Šam	-267
hed	-268
ni	-269
▁do	-270
▁pro	-271
ol	-272
ould	-273
▁was	-274
▁C	-275
▁P	-276
ther	-277
able	-278
▁made	-279
▁en	-280
▁there	-281
os	-282
alace	-283
ah	-284
fore	-285
▁Šamaš	-286
ated	-287
nu	-288
dad	-289
▁'	-290
▁over	-291
ib	-292
ight	-293
tu	-294
▁we	-295
▁NN	-296
▁out	-297
▁wor	-298
▁before	-299
▁ag	-300
▁ins	-301
ide	-302
▁dis	-303
▁am	-304
ous	-305
▁may	-306
▁sp	-307
▁In	-308
▁whe	-309
if	-310
▁bl	-311
▁To	-312
▁bec	-313
▁sil	-314
▁comm	-315
▁so	-316
▁year	-317
ans	-318
...	-319
▁silver	-320
ouse	-321
▁ent	-322
tar	-323
▁min	-324
su	-325
▁Bab	-326
ities	-327
ari	-328
ie	-329
aid	-330
oin	-331
yl	-332
▁“	-333
onth	-334
▁about	-335
▁mo	-336
ment	-337
ylon	-338
reg	-339
▁command	-340
▁Babylon	-341
ty	-342
ere	-343
itto	-344
ake	-345
ps	-346
▁man	-347
ince	-348
▁app	-349
ign	-350
▁Iš	-351
▁again	-352
alth	-353
▁x	-354
ite	-355
▁say	-356
▁qu	-357
▁palace	-358
art	-359
▁should	-360
▁ar	-361
▁health	-362
▁F	-363
▁3	-364
ok	-365
▁Ar	-366
ck	-367
▁O	-368
▁Bel	-369
▁gover	-370
▁cities	-371
ra	-372
▁R	-373
ure	-374
▁Adad	-375
▁ditto	-376
▁Ḫ	-377
ons	-378
ast	-379
▁Ištar	-380
▁tem	-381
▁govern	-382
▁.......	-383
▁kings	-384
▁le	-385
▁sheep	-386
att	-387
uil	-388
▁tim	-389
yal	-390
▁fi	-391
▁II	-392
ance	-393
ands	-394
▁fl	-395
own	-396
ull	-397
▁lo	-398
▁per	-399
▁ad	-400
▁against	-401
orm	-402
ice	-403
▁El	-404
▁div	-405
▁j	-406
rought	-407
ry	-408
rote	-409
▁wrote	-410
▁like	-411
▁place	-412
▁royal	-413
▁brought	-414
▁moon	-415
▁house	-416
▁ac	-417
▁su	-418
▁cro	-419
uṣ	-420
ome	-421
▁lit	-422
▁let	-423
ning	-424
ge	-425
ort	-426
▁mount	-427
ings	-428
▁pres	-429
▁time	-430
ud	-431
▁come	-432
▁temple	-433
▁well	-434
pt	-435
man	-436
ence	-437
ions	-438
dess	-439
▁co	-440
00	-441
din	-442
▁can	-443
▁set	-444
ether	-445
▁goddess	-446
▁lands	-447
šar	-448
▁prince	-449
▁wr	-450
▁into	-451
ens	-452
▁whom	-453
ose	-454
▁did	-455
ather	-456
▁governor	-457
au	-458
uṣur	-459
▁down	-460
▁name	-461
▁enem	-462
ta	-463
▁tro	-464
▁Good	-465
orses	-466
▁They	-467
▁gold	-468
aw	-469
ops	-470
▁Es	-471
▁gr	-472
ress	-473
ult	-474
▁horses	-475
▁troops	-476
▁Y	-477
▁ri	-478
▁mountain	-479
▁wat	-480
▁cont	-481
▁were	-482
eld	-483
▁tw	-484
▁upon	-485
▁whose	-486
▁br	-487
ates	-488
kk	-489
▁good	-490
ack	-491
▁plac	-492
šum	-493
▁tog	-494
▁divin	-495
▁own	-496
▁bless	-497
very	-498
ony	-499
ious	-500
form	-501
▁no	-502
ound	-503
▁sent	-504
▁bro	-505
▁pre	-506
crib	-507
▁Elam	-508
ban	-509
und	-510
▁ret	-511
ass	-512
▁together	-513
▁men	-514
uilt	-515
▁world	-516
▁any	-517
app	-518
▁what	-519
add	-520
age	-521
per	-522
▁bo	-523
cer	-524
iz	-525
▁un	-526
bel	-527
▁divinity	-528
ched	-529
▁Wh	-530
▁Z	-531
ariot	-532
veh	-533
▁minas	-534
pl	-535
▁Nine	-536
▁str	-537
urta	-538
▁des	-539
unu	-540
ish	-541
▁days	-542
lil	-543
▁chariot	-544
▁mar	-545
▁im	-546
▁see	-547
urned	-548
ust	-549
▁give	-550
up	-551
ire	-552
▁her	-553
▁Nineveh	-554
▁but	-555
▁cap	-556
▁conqu	-557
▁Ur	-558
ist	-559
regard	-560
ft	-561
▁ne	-562
▁Dis	-563
▁5	-564
▁Disregard	-565
▁En	-566
▁then	-567
▁ep	-568
attle	-569
▁...;	-570
na	-571
▁our	-572
▁father	-573
▁4	-574
pos	-575
▁kn	-576
▁ord	-577
▁On	-578
onym	-579
ind	-580
ath	-581
gal	-582
ial	-583
arri	-584
▁dest	-585
▁sons	-586
▁eponym	-587
▁fav	-588
ov	-589
▁took	-590
▁res	-591
ief	-592
▁month	-593
▁perform	-594
▁Th	-595
▁cl	-596
uard	-597
▁brother	-598
ase	-599
▁field	-600
▁strong	-601
arh	-602
▁ext	-603
▁sub	-604
cerning	-605
▁fort	-606
▁make	-607
eng	-608
way	-609
▁An	-610
▁cam	-611
▁send	-612
mu	-613
▁est	-614
▁become	-615
▁Now	-616
▁mess	-617
hip	-618
inurta	-619
▁Akk	-620
▁work	-621
▁fir	-622
fter	-623
▁comple	-624
▁reg	-625
▁been	-626
▁Se	-627
▁fe	-628
▁placed	-629
old	-630
▁saying	-631
ār	-632
▁bre	-633
fic	-634
round	-635
ais	-636
▁crown	-637
ares	-638
▁town	-639
suit	-640
itt	-641
▁said	-642
hen	-643
▁ru	-644
▁V	-645
....	-646
cted	-647
▁battle	-648
hes	-649
▁built	-650
oney	-651
ments	-652
▁bri	-653
addon	-654
arhaddon	-655
▁......,	-656
itu	-657
▁Month	-658
▁Enlil	-659
sel	-660
īt	-661
▁Esarhaddon	-662
ki	-663
awsuit	-664
▁life	-665
▁Akkad	-666
▁now	-667
▁ter	-668
▁dec	-669
▁10	-670
▁know	-671
▁sun	-672
▁favor	-673
▁conquered	-674
▁dist	-675
▁those	-676
▁when	-677
▁found	-678
az	-679
ergal	-680
▁From	-681
aya	-682
▁sw	-683
▁lawsuit	-684
▁6	-685
ute	-686
be	-687
."	-688
du	-689
▁rem	-690
▁enemy	-691
iss	-692
▁heav	-693
▁word	-694
pe	-695
iddin	-696
▁two	-697
▁count	-698
iš	-699
▁might	-700
▁trib	-701
nder	-702
▁arm	-703
▁bel	-704
▁came	-705
▁acc	-706
▁far	-707
în	-708
mer	-709
▁Bīt	-710
▁long	-711
led	-712
▁col	-713
▁chief	-714
▁four	-715
▁lords	-716
▁offer	-717
hal	-718
▁Mount	-719
ach	-720
ars	-721
roy	-722
▁Nergal	-723
ely	-724
▁destroy	-725
▁Sîn	-726
▁giv	-727
▁away	-728
▁us	-729
▁gave	-730
▁Let	-731
▁return	-732
ged	-733
▁At	-734
▁fore	-735
ards	-736
▁spe	-737
▁wom	-738
ied	-739
uš	-740
▁Man	-741
ssar	-742
els	-743
▁heart	-744
▁pers	-745
ird	-746
lean	-747
▁vice	-748
thing	-749
ces	-750
▁ox	-751
▁adj	-752
▁camp	-753
▁rece	-754
▁appoin	-755
▁hect	-756
▁wall	-757
▁messeng	-758
pper	-759
▁tot	-760
▁scrib	-761
▁When	-762
ku	-763
anu	-764
ia	-765
regent	-766
ick	-767
▁pur	-768
▁water	-769
urban	-770
▁thr	-771
ished	-772
▁total	-773
▁tribute	-774
ened	-775
unuch	-776
oining	-777
ations	-778
ya	-779
ody	-780
▁these	-781
ary	-782
ipal	-783
▁throne	-784
▁presence	-785
▁adjoining	-786
cl	-787
▁Q	-788
ree	-789
aught	-790
atu	-791
urbanipal	-792
▁ev	-793
▁under	-794
▁mina	-795
▁Con	-796
▁sur	-797
▁left	-798
▁went	-799
▁feet	-800
iddina	-801
▁eunuch	-802
ever	-803
ady	-804
ought	-805
ile	-806
▁defe	-807
▁Ab	-808
iver	-809
▁pri	-810
▁...-	-811
▁carri	-812
▁har	-813
▁whether	-814
umb	-815
▁money	-816
ānu	-817
▁ask	-818
▁const	-819
▁hands	-820
▁cut	-821
so	-822
oke	-823
anni	-824
osit	-825
ts	-826
▁reb	-827
▁tru	-828
▁pray	-829
ail	-830
▁entire	-831
▁rest	-832
▁inside	-833
▁att	-834
▁prov	-835
pic	-836
▁very	-837
arr	-838
ipp	-839
▁bow	-840
self	-841
other	-842
▁You	-843
ived	-844
ents	-845
▁weap	-846
▁sold	-847
▁hectares	-848
▁Concerning	-849
de	-850
▁scribe	-851
lu	-852
šumu	-853
▁Ash	-854
▁other	-855
ful	-856
ian	-857
▁gl	-858
▁rul	-859
rac	-860
▁ass	-861
uture	-862
itten	-863
wer	-864
cri	-865
ēl	-866
▁put	-867
▁happ	-868
▁future	-869
▁ear	-870
šarru	-871
▁Palace	-872
...,	-873
Aššur	-874
ired	-875
ḫu	-876
▁old	-877
illed	-878
▁captu	-879
▁terr	-880
ower	-881
ased	-882
▁tre	-883
inger	-884
cript	-885
▁firm	-886
▁present	-887
Adad	-888
▁also	-889
▁brick	-890
▁pay	-891
uri	-892
ction	-893
▁mid	-894
its	-895
▁unc	-896
▁servants	-897
are	-898
ost	-899
▁back	-900
▁stre	-901
▁written	-902
oss	-903
▁does	-904
me	-905
ats	-906
arge	-907
▁received	-908
▁messenger	-909
▁rec	-910
alled	-911
▁litig	-912
▁Who	-913
▁ans	-914
▁Ninurta	-915
▁side	-916
▁tal	-917
▁plund	-918
▁contrac	-919
▁favorable	-920
▁unclean	-921
The	-922
ams	-923
▁Ah	-924
▁oxen	-925
▁ob	-926
▁inscript	-927
▁posit	-928
▁carried	-929
orn	-930
▁table	-931
▁heaven	-932
ahhe	-933
▁hand	-934
een	-935
ng	-936
erc	-937
iq	-938
▁take	-939
▁guard	-940
ayu	-941
▁order	-942
▁after	-943
▁oil	-944
▁seen	-945
▁gar	-946
▁litigation	-947
▁where	-948
▁tr	-949
▁hear	-950
abl	-951
enn	-952
med	-953
ory	-954
ws	-955
ache	-956
▁rep	-957
acherib	-958
ennacherib	-959
▁destroyed	-960
of	-961
eep	-962
bela	-963
▁bring	-964
▁Arbela	-965
li	-966
▁captured	-967
outh	-968
▁pass	-969
▁resid	-970
ale	-971
eser	-972
well	-973
▁army	-974
▁right	-975
▁commander	-976
ron	-977
▁marched	-978
▁7	-979
ives	-980
ispic	-981
▁answer	-982
▁extispic	-983
ks	-984
▁dep	-985
je	-986
▁sett	-987
▁Sennacherib	-988
▁extispicy	-989
!"	-990
▁mountains	-991
ani	-992
▁sm	-993
ili	-994
ner	-995
rough	-996
ys	-997
ise	-998
▁mighty	-999
▁among	-1000
ti	-1001
▁cross	-1002
▁given	-1003
eds	-1004
▁supp	-1005
▁enemies	-1006
oty	-1007
aḫ	-1008
arru	-1009
issu	-1010
cend	-1011
▁weapons	-1012
▁Sin	-1013
▁keep	-1014
ject	-1015
▁gate	-1016
igh	-1017
▁inc	-1018
▁sea	-1019
verse	-1020
▁heard	-1021
▁surround	-1022
ll	-1023
▁rev	-1024
▁entered	-1025
ceed	-1026
▁booty	-1027
▁Will	-1028
▁sec	-1029
▁being	-1030
▁every	-1031
▁Be	-1032
▁uni	-1033
ne	-1034
ze	-1035
▁fo	-1036
▁With	-1037
▁night	-1038
▁Whoever	-1039
ants	-1040
▁dil	-1041
▁Assurbanipal	-1042
bi	-1043
▁20	-1044
▁cour	-1045
idated	-1046
▁estate	-1047
?"	-1048
inu	-1049
▁daught	-1050
▁wine	-1051
▁dilap	-1052
▁without	-1053
▁dilapidated	-1054
▁garments	-1055
▁complet	-1056
▁shek	-1057
▁universe	-1058
▁inst	-1059
▁proper	-1060
▁seah	-1061
▁Ad	-1062
▁sl	-1063
ular	-1064
▁sac	-1065
▁reign	-1066
▁years	-1067
▁brothers	-1068
ared	-1069
ible	-1070
▁tak	-1071
cc	-1072
omes	-1073
▁became	-1074
▁road	-1075
▁kingship	-1076
▁priest	-1077
fect	-1078
Issar	-1079
▁orac	-1080
▁......;	-1081
▁becomes	-1082
ug	-1083
▁head	-1084
▁here	-1085
being	-1086
▁seal	-1087
▁surrounded	-1088
ring	-1089
quired	-1090
▁country	-1091
rict	-1092
aps	-1093
▁opp	-1094
▁through	-1095
000	-1096
▁III	-1097
▁ram	-1098
II	-1099
oy	-1100
ause	-1101
ians	-1102
▁mag	-1103
▁mouth	-1104
▁30	-1105
▁gard	-1106
low	-1107
ront	-1108
▁ste	-1109
wards	-1110
▁belong	-1111
▁8	-1112
,000	-1113
herd	-1114
ites	-1115
▁sacri	-1116
▁speak	-1117
▁district	-1118
▁We	-1119
▁Mull	-1120
lit	-1121
▁dev	-1122
▁earth	-1123
▁inscrib	-1124
▁cult	-1125
▁establ	-1126
▁hal	-1127
▁ten	-1128
ified	-1129
▁Am	-1130
▁if	-1131
pherd	-1132
▁body	-1133
sp	-1134
▁woman	-1135
▁person	-1136
▁completely	-1137
▁dwell	-1138
ntil	-1139
▁appro	-1140
ṣir	-1141
▁Na	-1142
▁Mullissu	-1143
▁paid	-1144
arters	-1145
▁shepherd	-1146
▁inscribed	-1147
▁offerings	-1148
ank	-1149
▁vis	-1150
ved	-1151
ches	-1152
ressed	-1153
▁watch	-1154
ves	-1155
▁op	-1156
▁conf	-1157
▁Mannu	-1158
▁owner	-1159
▁quarters	-1160
wor	-1161
▁vill	-1162
iri	-1163
▁numb	-1164
▁front	-1165
posed	-1166
▁Seal	-1167
▁purch	-1168
▁hom	-1169
▁turned	-1170
ached	-1171
men	-1172
row	-1173
▁Bēl	-1174
▁glad	-1175
▁many	-1176
iba	-1177
▁treat	-1178
▁talents	-1179
▁anc	-1180
▁ple	-1181
▁design	-1182
umer	-1183
▁cub	-1184
▁14	-1185
▁sacrific	-1186
ītu	-1187
▁sc	-1188
ited	-1189
▁evil	-1190
▁rais	-1191
▁fa	-1192
guard	-1193
▁beer	-1194
▁River	-1195
▁red	-1196
▁sing	-1197
▁dispos	-1198
ung	-1199
▁For	-1200
rates	-1201
ages	-1202
▁copper	-1203
oc	-1204
ollow	-1205
▁river	-1206
▁bought	-1207
ix	-1208
uring	-1209
▁Esag	-1210
▁purchased	-1211
▁Eg	-1212
▁mak	-1213
halman	-1214
▁large	-1215
▁stand	-1216
▁disposal	-1217
halmaneser	-1218
amm	-1219
▁enter	-1220
ša	-1221
adi	-1222
ery	-1223
nār	-1224
ārī	-1225
▁bar	-1226
▁seed	-1227
nārārī	-1228
▁small	-1229
▁write	-1230
▁imposed	-1231
gin	-1232
▁nor	-1233
▁until	-1234
▁follow	-1235
▁contracted	-1236
▁fled	-1237
▁prev	-1238
als	-1239
iled	-1240
antly	-1241
▁bron	-1242
uph	-1243
edar	-1244
▁yoke	-1245
▁acquired	-1246
oved	-1247
▁bronze	-1248
ones	-1249
▁gif	-1250
▁number	-1251
uphrates	-1252
ond	-1253
otal	-1254
ced	-1255
▁cor	-1256
▁Total	-1257
ict	-1258
▁fear	-1259
▁plundered	-1260
▁Shalmaneser	-1261
▁ma	-1262
▁must	-1263
▁Anu	-1264
▁just	-1265
▁lordly	-1266
▁aband	-1267
▁Euphrates	-1268
.'	-1269
bat	-1270
▁inter	-1271
▁would	-1272
▁support	-1273
▁property	-1274
uild	-1275
▁Any	-1276
▁stands	-1277
▁fortified	-1278
▁dri	-1279
▁seiz	-1280
▁Te	-1281
▁ir	-1282
▁abandon	-1283
ally	-1284
allim	-1285
miss	-1286
▁bread	-1287
di	-1288
▁Tig	-1289
▁best	-1290
▁crossed	-1291
▁shekels	-1292
ash	-1293
dle	-1294
Ninurta	-1295
nal	-1296
ined	-1297
▁visible	-1298
▁foundation	-1299
iting	-1300
▁poss	-1301
▁15	-1302
▁don	-1303
ukult	-1304
▁cubits	-1305
▁performed	-1306
Wh	-1307
pal	-1308
▁It	-1309
▁bodyguard	-1310
ue	-1311
ater	-1312
over	-1313
▁eat	-1314
▁way	-1315
▁fire	-1316
▁creat	-1317
▁foundations	-1318
▁flood	-1319
amb	-1320
ati	-1321
▁By	-1322
ang	-1323
eru	-1324
aign	-1325
-....	-1326
▁And	-1327
▁campaign	-1328
alt	-1329
▁del	-1330
▁maj	-1331
▁homers	-1332
▁killed	-1333
ilu	-1334
▁tou	-1335
▁goes	-1336
▁completed	-1337
ild	-1338
▁sk	-1339
▁bull	-1340
▁himself	-1341
.”	-1342
oid	-1343
ris	-1344
▁fri	-1345
▁look	-1346
▁cedar	-1347
▁offic	-1348
hort	-1349
▁Bit	-1350
▁case	-1351
▁words	-1352
▁cohort	-1353
ley	-1354
▁Il	-1355
▁Is	-1356
ument	-1357
▁Gate	-1358
sted	-1359
ulty	-1360
▁ritu	-1361
rin	-1362
-...	-1363
▁treaty	-1364
arg	-1365
▁query	-1366
▁grands	-1367
▁After	-1368
▁happy	-1369
▁ancest	-1370
▁established	-1371
bal	-1372
ock	-1373
ibni	-1374
▁high	-1375
▁lady	-1376
▁void	-1377
▁pleas	-1378
▁positive	-1379
ark	-1380
ife	-1381
ored	-1382
▁add	-1383
▁top	-1384
▁burned	-1385
▁defeat	-1386
▁within	-1387
▁descend	-1388
▁possess	-1389
zu	-1390
šu	-1391
uru	-1392
whe	-1393
▁taken	-1394
▁returned	-1395
aq	-1396
▁te	-1397
▁part	-1398
▁accord	-1399
ax	-1400
arp	-1401
head	-1402
▁chariots	-1403
▁garden	-1404
▁object	-1405
▁village	-1406
aster	-1407
▁constantly	-1408
īn	-1409
akk	-1410
▁than	-1411
▁barley	-1412
▁prayers	-1413
▁lead	-1414
▁list	-1415
▁three	-1416
▁mother	-1417
▁tablet	-1418
▁account	-1419
▁concerning	-1420
▁inscription	-1421
vest	-1422
▁comes	-1423
▁anything	-1424
ma	-1425
ocation	-1426
▁Tukult	-1427
▁driver	-1428
▁middle	-1429
▁.........	-1430
third	-1431
▁wife	-1432
▁along	-1433
les	-1434
▁die	-1435
▁sword	-1436
▁forces	-1437
▁another	-1438
▁revocation	-1439
clip	-1440
ruct	-1441
eriba	-1442
ition	-1443
▁each	-1444
▁told	-1445
▁bricks	-1446
▁offering	-1447
▁Zab	-1448
alted	-1449
▁star	-1450
▁ancestors	-1451
da	-1452
ila	-1453
uty	-1454
iness	-1455
▁appear	-1456
▁faulty	-1457
▁belonging	-1458
atter	-1459
▁rain	-1460
▁eclip	-1461
▁Esagil	-1462
atti	-1463
▁There	-1464
▁defeated	-1465
'-	-1466
ff	-1467
ana	-1468
▁Ea	-1469
▁saw	-1470
arṭ	-1471
ides	-1472
ules	-1473
▁Mar	-1474
▁treas	-1475
▁appointed	-1476
▁12	-1477
▁dom	-1478
▁anoin	-1479
▁first	-1480
▁knows	-1481
ik	-1482
ypt	-1483
▁wo	-1484
▁ref	-1485
▁env	-1486
▁cent	-1487
▁mine	-1488
▁Egypt	-1489
▁mules	-1490
▁statu	-1491
▁called	-1492
▁rebell	-1493
▁exalted	-1494
ez	-1495
ina	-1496
▁suc	-1497
▁chan	-1498
▁Urarṭ	-1499
belu	-1500
▁That	-1501
▁queen	-1502
▁rever	-1503
▁ruler	-1504
▁women	-1505
ier	-1506
rim	-1507
usku	-1508
▁Tukultī	-1509
▁sending	-1510
▁succeed	-1511
bu	-1512
asir	-1513
▁Nis	-1514
▁ang	-1515
▁nob	-1516
▁places	-1517
▁persons	-1518
yy	-1519
emb	-1520
▁mu	-1521
ient	-1522
▁raised	-1523
ken	-1524
ph	-1525
enty	-1526
▁This	-1527
▁Sumer	-1528
▁towards	-1529
ew	-1530
mb	-1531
aves	-1532
fold	-1533
▁lap	-1534
halde	-1535
▁magn	-1536
▁Chalde	-1537
▁fortress	-1538
ašm	-1539
▁1,	-1540
▁Ub	-1541
whel	-1542
▁Per	-1543
▁mon	-1544
▁ordin	-1545
▁eclipse	-1546
▁abandoned	-1547
abu	-1548
ges	-1549
ins	-1550
pre	-1551
haps	-1552
▁Dur	-1553
▁ever	-1554
▁stay	-1555
▁attack	-1556
▁previous	-1557
the	-1558
▁100	-1559
-...,	-1560
world	-1561
▁plan	-1562
▁oppos	-1563
▁All	-1564
asirpal	-1565
▁oracle	-1566
▁contest	-1567
▁dressed	-1568
utu	-1569
▁pit	-1570
▁host	-1571
spring	-1572
▁Issar	-1573
urnasirpal	-1574
▁governors	-1575
▁1/	-1576
▁tax	-1577
atever	-1578
finger	-1579
ove	-1580
▁God	-1581
▁bur	-1582
▁joy	-1583
▁prote	-1584
▁nam	-1585
plend	-1586
▁deeds	-1587
▁listen	-1588
▁territ	-1589
▁follows	-1590
ech	-1591
▁Nisan	-1592
▁regular	-1593
▁therein	-1594
ily	-1595
uth	-1596
eans	-1597
ereš	-1598
oving	-1599
▁bear	-1600
▁offspring	-1601
▁territory	-1602
▁Ashurnasirpal	-1603
▁om	-1604
▁former	-1605
aks	-1606
day	-1607
▁even	-1608
▁kill	-1609
▁House	-1610
▁orders	-1611
la	-1612
ṭir	-1613
cept	-1614
▁donke	-1615
▁magnates	-1616
▁live	-1617
▁march	-1618
▁stone	-1619
▁fields	-1620
▁prefect	-1621
▁tenfold	-1622
▁grandsons	-1623
alah	-1624
▁equ	-1625
ained	-1626
▁laid	-1627
▁majest	-1628
▁entirety	-1629
▁ordinary	-1630
▁9	-1631
ils	-1632
lev	-1633
iers	-1634
▁cup	-1635
▁stri	-1636
▁Moving	-1637
▁opposite	-1638
ahu	-1639
pect	-1640
▁Ahu	-1641
▁VII	-1642
▁lim	-1643
ioned	-1644
itted	-1645
▁bord	-1646
▁thus	-1647
▁report	-1648
▁overwhel	-1649
amu	-1650
▁She	-1651
▁fall	-1652
▁fight	-1653
▁harvest	-1654
▁rebuilt	-1655
op	-1656
ott	-1657
šarra	-1658
▁Bors	-1659
▁owners	-1660
kur	-1661
ush	-1662
wood	-1663
▁imp	-1664
▁midst	-1665
▁peace	-1666
▁farmer	-1667
▁Borsipp	-1668
▁constru	-1669
▁deities	-1670
▁possessions	-1671
▁fin	-1672
▁grain	-1673
▁omens	-1674
land	-1675
▁fam	-1676
▁stra	-1677
▁inscriptions	-1678
tend	-1679
aries	-1680
▁pure	-1681
▁soldiers	-1682
▁fem	-1683
▁appointe	-1684
urru	-1685
......	-1686
▁thick	-1687
▁approached	-1688
▁Sū	-1689
Nabû	-1690
▁cons	-1691
▁letter	-1692
▁appointee	-1693
▁Sh	-1694
▁merc	-1695
▁Nusku	-1696
▁seeks	-1697
▁Šarru	-1698
▁soiled	-1699
ples	-1700
▁hold	-1701
▁gates	-1702
▁around	-1703
▁myself	-1704
▁streng	-1705
▁daughter	-1706
▁monument	-1707
tw	-1708
ets	-1709
▁ho	-1710
iqbi	-1711
▁means	-1712
▁truth	-1713
▁young	-1714
▁Bal	-1715
▁capt	-1716
▁Calah	-1717
▁warri	-1718
oreover	-1719
▁splend	-1720
▁eponymy	-1721
ped	-1722
alli	-1723
▁kind	-1724
▁domin	-1725
▁seahs	-1726
▁since	-1727
▁payment	-1728
anted	-1729
▁bowl	-1730
▁face	-1731
▁full	-1732
▁iron	-1733
▁abund	-1734
▁alive	-1735
▁during	-1736
▁female	-1737
▁settle	-1738
sh	-1739
yyar	-1740
▁cav	-1741
▁City	-1742
▁news	-1743
ensive	-1744
estone	-1745
▁Iyyar	-1746
▁goats	-1747
▁while	-1748
▁ritual	-1749
▁second	-1750
ši	-1751
▁Um	-1752
alry	-1753
ruit	-1754
šuma	-1755
▁act	-1756
▁fac	-1757
irons	-1758
▁regard	-1759
▁dominion	-1760
▁environs	-1761
annu	-1762
ided	-1763
ukin	-1764
▁pal	-1765
ccess	-1766
▁halo	-1767
▁tell	-1768
▁cavalry	-1769
▁limestone	-1770
ience	-1771
▁near	-1772
▁some	-1773
liable	-1774
▁subst	-1775
▁offered	-1776
▁Assyrian	-1777
ald	-1778
▁build	-1779
▁recon	-1780
▁stones	-1781
▁majesty	-1782
▁whatever	-1783
▁16	-1784
▁orch	-1785
▁Perhaps	-1786
▁changed	-1787
▁residence	-1788
▁appearance	-1789
inc	-1790
▁disapp	-1791
▁monumental	-1792
ven	-1793
vere	-1794
ward	-1795
▁Sea	-1796
▁š	-1797
▁war	-1798
▁foot	-1799
▁gone	-1800
▁much	-1801
▁wool	-1802
▁deputy	-1803
▁Borsippa	-1804
fl	-1805
▁My	-1806
owed	-1807
▁later	-1808
▁attent	-1809
▁overse	-1810
▁Moreover	-1811
āni	-1812
side	-1813
▁Umman	-1814
▁daughters	-1815
▁val	-1816
▁speech	-1817
pi	-1818
▁er	-1819
▁hor	-1820
▁dais	-1821
▁light	-1822
missive	-1823
ulation	-1824
hem	-1825
uni	-1826
▁cit	-1827
▁cra	-1828
▁harus	-1829
▁power	-1830
▁coloss	-1831
ett	-1832
▁Šum	-1833
▁done	-1834
▁beams	-1835
aru	-1836
▁Dam	-1837
▁Sūḫu	-1838
▁today	-1839
▁whole	-1840
▁divine	-1841
▁reliable	-1842
▁according	-1843
lam	-1844
let	-1845
▁Do	-1846
allu	-1847
eṭir	-1848
▁ere	-1849
▁how	-1850
▁base	-1851
šallim	-1852
▁removed	-1853
esc	-1854
ezib	-1855
ivan	-1856
▁bed	-1857
▁car	-1858
▁area	-1859
▁mist	-1860
▁prop	-1861
▁says	-1862
▁Sivan	-1863
āya	-1864
clud	-1865
arran	-1866
▁bank	-1867
▁cast	-1868
▁male	-1869
▁extensive	-1870
▁z	-1871
anct	-1872
▁Tab	-1873
▁hel	-1874
aving	-1875
▁leng	-1876
▁sanct	-1877
▁settled	-1878
▁happiness	-1879
ulu	-1880
azed	-1881
sper	-1882
▁Rem	-1883
▁rel	-1884
ickly	-1885
▁donkeys	-1886
▁treasur	-1887
Why	-1888
▁fell	-1889
▁erected	-1890
▁overseer	-1891
air	-1892
ert	-1893
▁Ilu	-1894
▁ren	-1895
▁Zarp	-1896
▁kiss	-1897
▁Tigris	-1898
▁devast	-1899
▁overwhelmed	-1900
tween	-1901
▁form	-1902
▁same	-1903
▁wide	-1904
▁spoke	-1905
▁white	-1906
▁because	-1907
▁between	-1908
īl	-1909
bed	-1910
tak	-1911
reed	-1912
▁block	-1913
▁sovere	-1914
we	-1915
abs	-1916
▁lay	-1917
▁Arame	-1918
▁Ḫatti	-1919
▁Zarpan	-1920
▁quickly	-1921
▁everything	-1922
ha	-1923
ask	-1924
ean	-1925
ept	-1926
▁Su	-1927
iter	-1928
▁But	-1929
▁ris	-1930
▁wid	-1931
▁Šul	-1932
tered	-1933
▁Inner	-1934
▁makes	-1935
▁renov	-1936
▁prosper	-1937
▁official	-1938
▁bak	-1939
▁end	-1940
▁six	-1941
▁depos	-1942
ingerna	-1943
▁fright	-1944
▁seized	-1945
▁writing	-1946
pex	-1947
▁neck	-1948
▁colle	-1949
▁forever	-1950
▁temples	-1951
▁haruspex	-1952
▁installed	-1953
ned	-1954
▁ey	-1955
▁more	-1956
▁honey	-1957
▁mistress	-1958
▁Babylonia	-1959
▁sacrificial	-1960
unn	-1961
aged	-1962
ammu	-1963
▁Car	-1964
▁Tīl	-1965
▁jud	-1966
izier	-1967
▁appe	-1968
▁vict	-1969
▁doors	-1970
▁prais	-1971
▁camels	-1972
aba	-1973
▁One	-1974
▁det	-1975
fully	-1976
▁Tašm	-1977
upiter	-1978
▁horse	-1979
▁statue	-1980
▁plunder	-1981
▁restore	-1982
▁lordship	-1983
▁Apl	-1984
▁What	-1985
▁open	-1986
▁pour	-1987
▁prec	-1988
▁incre	-1989
▁rites	-1990
▁border	-1991
▁counted	-1992
▁Ashurbanipal	-1993
aint	-1994
▁...:	-1995
ndered	-1996
▁begin	-1997
ān	-1998
rus	-1999
▁Ša	-2000
chem	-2001
press	-2002
▁Nairi	-2003
▁going	-2004
chemish	-2005
▁regnal	-2006
▁Carchemish	-2007
▁settlements	-2008
ara	-2009
etu	-2010
enth	-2011
▁Nan	-2012
▁eter	-2013
▁added	-2014
▁rulers	-2015
▁things	-2016
▁conquer	-2017
▁distant	-2018
▁deposited	-2019
▁hung	-2020
▁trees	-2021
▁breaks	-2022
▁contract	-2023
▁substant	-2024
▁West	-2025
▁canal	-2026
▁gifts	-2027
▁twenty	-2028
▁substantial	-2029
▁DN	-2030
path	-2031
vers	-2032
▁int	-2033
argon	-2034
ouses	-2035
▁thir	-2036
▁filled	-2037
Let	-2038
not	-2039
hold	-2040
▁Uru	-2041
ither	-2042
▁rule	-2043
▁could	-2044
▁plain	-2045
▁Sargon	-2046
▁deliver	-2047
ūr	-2048
ula	-2049
▁sa	-2050
▁1/2	-2051
▁Nab	-2052
▁door	-2053
▁mass	-2054
▁razed	-2055
▁accept	-2056
uz	-2057
enus	-2058
iving	-2059
▁stood	-2060
naṣir	-2061
▁Lady	-2062
▁Mars	-2063
▁Then	-2064
▁port	-2065
▁exerc	-2066
▁lower	-2067
▁subdu	-2068
Bel	-2069
▁el	-2070
akin	-2071
duri	-2072
ough	-2073
irmed	-2074
▁sign	-2075
▁subm	-2076
▁weak	-2077
▁burnt	-2078
▁west	-2079
itious	-2080
▁coming	-2081
ingernail	-2082
▁disappear	-2083
▁propitious	-2084
hu	-2085
pri	-2086
▁af	-2087
▁too	-2088
▁half	-2089
▁rele	-2090
Marduk	-2091
▁Venus	-2092
▁citiz	-2093
▁created	-2094
▁Westland	-2095
aṣ	-2096
fer	-2097
iru	-2098
urs	-2099
▁Al	-2100
▁Ez	-2101
inces	-2102
▁Your	-2103
▁gift	-2104
▁charge	-2105
▁sanctu	-2106
nty	-2107
ues	-2108
bail	-2109
illi	-2110
less	-2111
▁dru	-2112
ignty	-2113
▁enge	-2114
▁gall	-2115
▁help	-2116
▁vine	-2117
▁blood	-2118
▁designate	-2119
▁engendered	-2120
▁sovereignty	-2121
oud	-2122
uck	-2123
aped	-2124
▁Why	-2125
▁aud	-2126
▁loc	-2127
umman	-2128
▁Nipp	-2129
▁bott	-2130
▁oath	-2131
litres	-2132
▁lives	-2133
▁vizier	-2134
▁proceed	-2135
ubmissive	-2136
▁audience	-2137
ukk	-2138
▁Ni	-2139
▁Ari	-2140
▁lib	-2141
ishri	-2142
▁disp	-2143
▁path	-2144
▁save	-2145
▁craft	-2146
▁Tishri	-2147
▁asking	-2148
▁assign	-2149
▁cannot	-2150
▁sacrifices	-2151
▁13	-2152
▁Mer	-2153
stand	-2154
▁Adar	-2155
▁dire	-2156
▁angry	-2157
▁service	-2158
▁captives	-2159
ren	-2160
šarri	-2161
▁gras	-2162
▁wild	-2163
▁wood	-2164
▁defic	-2165
▁stepp	-2166
▁litres	-2167
▁touches	-2168
▁Re	-2169
erce	-2170
▁norm	-2171
▁only	-2172
▁Manne	-2173
▁compl	-2174
▁doing	-2175
▁ascend	-2176
▁fierce	-2177
▁houses	-2178
▁greatly	-2179
▁abundance	-2180
▁performance	-2181
''	-2182
adan	-2183
adin	-2184
rink	-2185
▁Say	-2186
▁Kush	-2187
▁fash	-2188
▁radi	-2189
▁entru	-2190
▁stret	-2191
▁bright	-2192
▁beginning	-2193
kun	-2194
cour	-2195
▁Sam	-2196
▁bes	-2197
Šarru	-2198
▁Ditto	-2199
▁gives	-2200
▁Should	-2201
▁living	-2202
▁Teumman	-2203
▁increase	-2204
▁position	-2205
▁precious	-2206
gur	-2207
▁ut	-2208
ense	-2209
odach	-2210
▁horn	-2211
▁Nippur	-2212
▁bottom	-2213
▁opened	-2214
▁designs	-2215
▁pitched	-2216
,”	-2217
”:	-2218
▁40	-2219
▁wa	-2220
▁adv	-2221
▁lam	-2222
▁ser	-2223
ilani	-2224
▁kept	-2225
▁Chaldea	-2226
▁Merodach	-2227
▁mustered	-2228
▁11	-2229
gged	-2230
▁arri	-2231
▁cook	-2232
▁black	-2233
▁colossi	-2234
▁residing	-2235
▁goddesses	-2236
ida	-2237
bear	-2238
ield	-2239
▁"...	-2240
▁Šulmu	-2241
by	-2242
ašu	-2243
ead	-2244
end	-2245
pted	-2246
ures	-2247
▁lod	-2248
▁love	-2249
▁mind	-2250
▁normal	-2251
▁altered	-2252
▁forehead	-2253
▁Kal	-2254
▁cle	-2255
▁mer	-2256
▁anew	-2257
▁bound	-2258
▁cloud	-2259
▁eaten	-2260
▁fruit	-2261
▁towns	-2262
▁bearing	-2263
▁Muš	-2264
adder	-2265
uniaš	-2266
▁Kard	-2267
▁Ubru	-2268
▁eyes	-2269
▁assemb	-2270
▁steppe	-2271
▁subject	-2272
▁oracular	-2273
▁Karduniaš	-2274
”,	-2275
▁wis	-2276
▁hund	-2277
▁meat	-2278
▁plot	-2279
▁breast	-2280
▁cultiv	-2281
▁Remanni	-2282
▁Arameans	-2283
▁complaint	-2284
▁entrusted	-2285
ka	-2286
ṭu	-2287
apla	-2288
cher	-2289
ream	-2290
▁Arr	-2291
▁lie	-2292
orter	-2293
▁Urdu	-2294
▁bask	-2295
▁cens	-2296
▁hero	-2297
▁vari	-2298
▁carry	-2299
▁third	-2300
▁orchards	-2301
,"	-2302
▁dif	-2303
▁corn	-2304
▁boats	-2305
▁lodges	-2306
▁rugged	-2307
▁hundred	-2308
▁anointed	-2309
▁favorite	-2310
▁strength	-2311
▁previously	-2312
nk	-2313
ns	-2314
rew	-2315
šir	-2316
ison	-2317
▁aid	-2318
▁beh	-2319
▁ori	-2320
▁sat	-2321
▁sit	-2322
▁Šamš	-2323
▁decis	-2324
▁course	-2325
▁ph	-2326
ical	-2327
read	-2328
▁Med	-2329
▁corps	-2330
▁making	-2331
standing	-2332
▁beloved	-2333
▁decreed	-2334
▁station	-2335
▁deficient	-2336
ms	-2337
anna	-2338
ways	-2339
▁Lower	-2340
▁cattle	-2341
▁favour	-2342
▁length	-2343
▁nether	-2344
▁origin	-2345
!”	-2346
zi	-2347
der	-2348
assu	-2349
▁His	-2350
oured	-2351
stone	-2352
▁bird	-2353
▁shin	-2354
▁drunk	-2355
▁times	-2356
▁bladder	-2357
ḫa	-2358
rag	-2359
▁50	-2360
atic	-2361
▁cur	-2362
▁Uruk	-2363
▁merch	-2364
▁thres	-2365
▁archer	-2366
▁ground	-2367
▁netherworld	-2368
ṣu	-2369
abi	-2370
dom	-2371
▁Ul	-2372
cess	-2373
▁fif	-2374
▁turn	-2375
▁above	-2376
▁upper	-2377
▁perfect	-2378
▁touched	-2379
▁splendid	-2380
umu	-2381
val	-2382
▁IV	-2383
▁dy	-2384
ised	-2385
most	-2386
šumi	-2387
▁ill	-2388
ammuz	-2389
ility	-2390
▁crim	-2391
▁drink	-2392
▁flour	-2393
▁manag	-2394
▁Tammuz	-2395
▁kissed	-2396
▁ascended	-2397
▁submitted	-2398
▁constructed	-2399
▁formulation	-2400
col	-2401
uge	-2402
▁Teb	-2403
▁why	-2404
▁inde	-2405
▁Ezida	-2406
▁Šamšī	-2407
abaster	-2408
▁Ešarra	-2409
▁Shebat	-2410
▁decares	-2411
▁frightened	-2412
▁18	-2413
▁VI	-2414
used	-2415
▁esc	-2416
▁gro	-2417
▁Ḫum	-2418
hered	-2419
▁last	-2420
▁phys	-2421
father	-2422
▁clean	-2423
▁forts	-2424
▁magni	-2425
▁hostile	-2426
▁finished	-2427
▁descendant	-2428
▁Aḫ	-2429
aled	-2430
chie	-2431
lath	-2432
raid	-2433
▁arr	-2434
▁sin	-2435
▁clay	-2436
▁food	-2437
▁site	-2438
ileser	-2439
selves	-2440
ulated	-2441
▁.....	-2442
▁loaves	-2443
▁matter	-2444
▁smaller	-2445
alliṭ	-2446
▁achie	-2447
▁stars	-2448
▁straw	-2449
▁trust	-2450
▁afraid	-2451
▁single	-2452
▁Tiglath	-2453
▁princes	-2454
▁citizens	-2455
▁rebellion	-2456
You	-2457
ala	-2458
▁lin	-2459
▁new	-2460
manni	-2461
ority	-2462
▁auth	-2463
▁lung	-2464
▁mult	-2465
▁soon	-2466
ypress	-2467
▁image	-2468
▁appoint	-2469
▁eunuchs	-2470
▁thereby	-2471
▁commands	-2472
act	-2473
oun	-2474
▁Kar	-2475
▁mus	-2476
aches	-2477
▁care	-2478
▁holy	-2479
▁ruin	-2480
▁wind	-2481
umbled	-2482
▁names	-2483
▁walls	-2484
▁anoint	-2485
▁weapon	-2486
▁provides	-2487
▁Babylonians	-2488
gs	-2489
orc	-2490
umm	-2491
▁Ig	-2492
▁Ki	-2493
▁iv	-2494
▁Dūr	-2495
▁neg	-2496
▁find	-2497
▁infl	-2498
▁indeed	-2499
▁corpses	-2500
▁ordered	-2501
▁variant	-2502
▁radiance	-2503
ba	-2504
ḫul	-2505
▁Le	-2506
▁obs	-2507
▁Ḫar	-2508
▁dark	-2509
▁fast	-2510
▁death	-2511
▁ivory	-2512
▁outer	-2513
▁split	-2514
▁diffic	-2515
▁prayer	-2516
▁terrace	-2517
▁dwelling	-2518
▁foremost	-2519
▁authority	-2520
▁devastated	-2521
agg	-2522
rat	-2523
▁22	-2524
▁Li	-2525
akku	-2526
body	-2527
ific	-2528
oted	-2529
▁Šub	-2530
nadin	-2531
rines	-2532
▁Elul	-2533
▁sour	-2534
▁Šarr	-2535
▁capit	-2536
▁commanded	-2537
▁fashioned	-2538
',	-2539
,'	-2540
qa	-2541
xt	-2542
hing	-2543
▁get	-2544
▁mor	-2545
▁ran	-2546
▁Gamb	-2547
▁exem	-2548
▁child	-2549
▁includ	-2550
▁overth	-2551
▁jumbled	-2552
▁shrines	-2553
▁messengers	-2554
▁insubmissive	-2555
jo	-2556
bēl	-2557
ene	-2558
ses	-2559
urt	-2560
agan	-2561
akes	-2562
ured	-2563
yrus	-2564
zeru	-2565
▁Sub	-2566
▁age	-2567
ammar	-2568
▁east	-2569
▁hill	-2570
▁roof	-2571
ficent	-2572
▁asked	-2573
▁cause	-2574
▁decor	-2575
▁super	-2576
▁behind	-2577
ccession	-2578
▁centers	-2579
▁warriors	-2580
▁protection	-2581
ama	-2582
ann	-2583
kkal	-2584
▁200	-2585
▁elev	-2586
▁lion	-2587
▁term	-2588
bearer	-2589
▁Those	-2590
▁Inurta	-2591
▁victor	-2592
▁capital	-2593
▁original	-2594
▁treasurer	-2595
▁descendants	-2596
▁proceedings	-2597
▁sanctuaries	-2598
rd	-2599
lic	-2600
▁mix	-2601
immer	-2602
tyard	-2603
icated	-2604
uranni	-2605
▁Arrap	-2606
▁cover	-2607
▁force	-2608
▁leave	-2609
▁never	-2610
pileser	-2611
▁Amurru	-2612
entation	-2613
▁Urarṭian	-2614
▁confirmed	-2615
▁stationed	-2616
▁underworld	-2617
iša	-2618
ubuš	-2619
utha	-2620
▁run	-2621
ainer	-2622
manus	-2623
▁cuts	-2624
▁five	-2625
▁foes	-2626
ructure	-2627
▁Amanus	-2628
▁Tammar	-2629
▁hearts	-2630
▁archers	-2631
▁cypress	-2632
▁message	-2633
▁province	-2634
▁presented	-2635
ior	-2636
una	-2637
▁25	-2638
▁Aš	-2639
▁Nin	-2640
▁box	-2641
▁yet	-2642
▁Gula	-2643
▁rejo	-2644
ctions	-2645
ipment	-2646
▁Cutha	-2647
▁bulls	-2648
▁gladly	-2649
▁height	-2650
▁source	-2651
▁eternal	-2652
▁heavens	-2653
▁manager	-2654
▁pleasure	-2655
▁magnificent	-2656
▁understanding	-2657
esh	-2658
▁Ne	-2659
▁em	-2660
iful	-2661
▁Abi	-2662
▁gat	-2663
▁Great	-2664
▁reach	-2665
▁viney	-2666
▁family	-2667
▁fought	-2668
▁passed	-2669
▁talent	-2670
▁gathered	-2671
▁alabaster	-2672
abb	-2673
asc	-2674
asî	-2675
irc	-2676
▁Lu	-2677
▁Tu	-2678
▁Sil	-2679
▁swe	-2680
▁tin	-2681
▁...?	-2682
▁fine	-2683
▁baked	-2684
▁forth	-2685
▁grand	-2686
▁Šumma	-2687
▁Nikkal	-2688
▁having	-2689
▁remain	-2690
▁sealed	-2691
▁Šarrat	-2692
lew	-2693
ases	-2694
lier	-2695
with	-2696
iškun	-2697
▁Upper	-2698
▁exorc	-2699
▁ruins	-2700
▁herald	-2701
▁massac	-2702
▁Ḫumban	-2703
▁witness	-2704
▁chariotry	-2705
▁courtyard	-2706
nā	-2707
▁Pu	-2708
▁Sc	-2709
then	-2710
▁Kaš	-2711
▁spent	-2712
▁Damasc	-2713
emuranni	-2714
▁"......	-2715
▁Tašmetu	-2716
▁household	-2717
oor	-2718
xed	-2719
hest	-2720
mark	-2721
oles	-2722
▁Mel	-2723
▁fig	-2724
▁obe	-2725
▁pap	-2726
house	-2727
orted	-2728
▁repl	-2729
▁Belet	-2730
▁Medes	-2731
▁bowed	-2732
▁loves	-2733
▁mercy	-2734
▁quest	-2735
▁spans	-2736
▁Urarṭu	-2737
▁brilli	-2738
▁gardens	-2739
ls	-2740
den	-2741
lar	-2742
▁La	-2743
ival	-2744
▁Ban	-2745
▁Kis	-2746
▁Sid	-2747
▁par	-2748
▁xth	-2749
unnak	-2750
▁fate	-2751
▁true	-2752
▁......?	-2753
▁reveres	-2754
▁exorcist	-2755
▁released	-2756
▁including	-2757
hab	-2758
uli	-2759
artu	-2760
unip	-2761
▁occ	-2762
▁sky	-2763
chief	-2764
▁Sipp	-2765
▁acts	-2766
▁inner	-2767
▁named	-2768
▁stable	-2769
▁Anunnak	-2770
▁attentive	-2771
▁decorated	-2772
▁equipment	-2773
▁fortresses	-2774
fty	-2775
▁ce	-2776
oves	-2777
ship	-2778
▁Tar	-2779
▁bad	-2780
▁bag	-2781
▁ban	-2782
offer	-2783
▁hall	-2784
▁none	-2785
▁Sidon	-2786
▁exper	-2787
▁lions	-2788
▁censer	-2789
▁praise	-2790
▁protect	-2791
▁libation	-2792
▁overthrow	-2793
qq	-2794
alu	-2795
usu	-2796
▁17	-2797
▁PN	-2798
▁Gur	-2799
▁inv	-2800
▁room	-2801
▁below	-2802
▁close	-2803
▁inhab	-2804
▁mixed	-2805
▁Sippar	-2806
▁nobody	-2807
▁shekel	-2808
▁granted	-2809
▁papyrus	-2810
▁reaches	-2811
lak	-2812
rows	-2813
šezib	-2814
▁circ	-2815
▁prep	-2816
▁eight	-2817
▁rival	-2818
▁desert	-2819
▁passes	-2820
▁justice	-2821
▁subdued	-2822
▁Succession	-2823
He	-2824
idu	-2825
yre	-2826
bone	-2827
agues	-2828
▁Does	-2829
▁arom	-2830
▁coils	-2831
▁faces	-2832
▁flesh	-2833
▁sweet	-2834
▁trans	-2835
▁firmly	-2836
▁blocked	-2837
▁massacred	-2838
aut	-2839
aza	-2840
gar	-2841
beli	-2842
face	-2843
ukīn	-2844
wise	-2845
▁Ahi	-2846
▁Aya	-2847
▁Der	-2848
▁got	-2849
▁past	-2850
▁read	-2851
▁Arabs	-2852
▁colon	-2853
▁heads	-2854
▁mayor	-2855
fection	-2856
▁daises	-2857
▁destin	-2858
▁arrived	-2859
▁aromatic	-2860
▁cupbearer	-2861
▁difficult	-2862
▁threshing	-2863
min	-2864
▁2-	-2865
last	-2866
▁mil	-2867
▁Mari	-2868
Harran	-2869
▁seize	-2870
▁taxes	-2871
remanni	-2872
▁fourth	-2873
▁master	-2874
▁morning	-2875
▁warrior	-2876
▁straight	-2877
▁Zarpanitu	-2878
▁construction	-2879
ds	-2880
og	-2881
rē	-2882
ows	-2883
▁Laq	-2884
▁dug	-2885
atial	-2886
litre	-2887
▁comp	-2888
▁salt	-2889
uniper	-2890
▁supre	-2891
lasting	-2892
station	-2893
▁looked	-2894
▁rememb	-2895
▁continu	-2896
▁forward	-2897
▁surface	-2898
▁gardener	-2899
▁attention	-2900
for	-2901
xes	-2902
ains	-2903
here	-2904
▁Gil	-2905
▁dra	-2906
lešir	-2907
▁abod	-2908
▁dead	-2909
▁stip	-2910
▁Tebet	-2911
▁alone	-2912
▁swear	-2913
▁teams	-2914
ukkannu	-2915
▁contro	-2916
▁assigned	-2917
▁fighting	-2918
▁palatial	-2919
▁performs	-2920
▁musukkannu	-2921
▁stipulated	-2922
ble	-2923
iti	-2924
▁28	-2925
iced	-2926
ines	-2927
wers	-2928
▁Itu	-2929
▁Kār	-2930
▁ele	-2931
▁jar	-2932
▁saf	-2933
▁Thus	-2934
▁Tyre	-2935
▁grant	-2936
▁heavy	-2937
▁judge	-2938
▁Harran	-2939
▁encour	-2940
▁friend	-2941
▁planet	-2942
▁refined	-2943
▁slaught	-2944
Ba	-2945
cep	-2946
ibi	-2947
amaš	-2948
taku	-2949
iqiša	-2950
▁else	-2951
▁lies	-2952
▁scep	-2953
ullanu	-2954
▁linen	-2955
▁numer	-2956
▁Cimmer	-2957
▁Urtaku	-2958
▁inform	-2959
▁earlier	-2960
▁grasped	-2961
▁scepter	-2962
ification	-2963
▁elevated	-2964
▁numerous	-2965
▁Tammarītu	-2966
ems	-2967
▁Ba	-2968
▁No	-2969
ears	-2970
ilki	-2971
seah	-2972
▁Kum	-2973
▁ded	-2974
banon	-2975
ching	-2976
ement	-2977
rance	-2978
▁used	-2979
▁images	-2980
Šarruken	-2981
▁Arrapha	-2982
▁complete	-2983
▁pleasing	-2984
gū	-2985
ahi	-2986
ote	-2987
▁2,	-2988
agon	-2989
aily	-2990
rēša	-2991
▁Ḫam	-2992
iggur	-2993
▁twel	-2994
▁eleph	-2995
▁rises	-2996
▁serve	-2997
▁dispat	-2998
▁preced	-2999
▁delivered	-3000
pa	-3001
qi	-3002
ada	-3003
▁Ak	-3004
▁Id	-3005
▁Ir	-3006
▁ap	-3007
ades	-3008
ters	-3009
▁Qur	-3010
▁bit	-3011
▁dim	-3012
▁burn	-3013
▁sets	-3014
▁...."	-3015
▁Kiṣir	-3016
▁stead	-3017
▁brings	-3018
▁singers	-3019
▁supreme	-3020
▁trusted	-3021
▁merchant	-3022
▁provided	-3023
▁restored	-3024
gan	-3025
wes	-3026
▁21	-3027
igaš	-3028
osen	-3029
▁Pro	-3030
▁cho	-3031
▁eld	-3032
azuli	-3033
▁disc	-3034
▁curse	-3035
baladan	-3036
▁inhabit	-3037
▁rebuild	-3038
▁terrain	-3039
▁preceded	-3040
▁sections	-3041
▁Ummanigaš	-3042
▁purification	-3043
Ar	-3044
ʾ,	-3045
mor	-3046
▁šē	-3047
akīn	-3048
bani	-3049
gate	-3050
sued	-3051
▁Ḫab	-3052
cause	-3053
▁...!	-3054
▁arms	-3055
▁trim	-3056
ubuški	-3057
▁lapis	-3058
▁prison	-3059
▁terror	-3060
▁allowed	-3061
▁evening	-3062
▁fathers	-3063
▁subjects	-3064
▁brilliance	-3065
hi	-3066
adî	-3067
ury	-3068
ably	-3069
appa	-3070
iant	-3071
▁Dun	-3072
▁Kur	-3073
▁dem	-3074
ating	-3075
ister	-3076
▁clot	-3077
▁1,000	-3078
▁Kalḫu	-3079
▁crafts	-3080
▁crimin	-3081
▁famine	-3082
▁reconc	-3083
▁fastened	-3084
▁Zarpanītu	-3085
Am	-3086
lo	-3087
ots	-3088
irth	-3089
▁ses	-3090
▁tri	-3091
erous	-3092
▁Laqû	-3093
▁Urad	-3094
▁sele	-3095
▁stru	-3096
▁Their	-3097
▁birth	-3098
▁sesame	-3099
▁ziggur	-3100
▁planted	-3101
▁success	-3102
▁tablets	-3103
aṭ	-3104
rī	-3105
lig	-3106
nat	-3107
āri	-3108
ēnu	-3109
▁26	-3110
▁Ek	-3111
aplu	-3112
arqa	-3113
ayed	-3114
ests	-3115
oken	-3116
▁Sag	-3117
▁lab	-3118
▁able	-3119
▁duck	-3120
▁daily	-3121
▁combat	-3122
▁nobles	-3123
▁singer	-3124
▁regions	-3125
▁officials	-3126
▁fingernail	-3127
ubu	-3128
▁23	-3129
▁29	-3130
▁eb	-3131
apon	-3132
dini	-3133
igal	-3134
rees	-3135
▁How	-3136
▁Sun	-3137
▁bal	-3138
ative	-3139
Šamaš	-3140
▁Balt	-3141
▁Gilz	-3142
▁both	-3143
▁forg	-3144
▁meas	-3145
▁seat	-3146
▁text	-3147
▁agree	-3148
▁north	-3149
▁chosen	-3150
▁either	-3151
▁lazuli	-3152
▁statues	-3153
▁herewith	-3154
▁rebelled	-3155
▁themselves	-3156
iḫ	-3157
aku	-3158
api	-3159
idm	-3160
▁Im	-3161
beer	-3162
ting	-3163
▁Kan	-3164
▁Que	-3165
▁und	-3166
iless	-3167
▁Ning	-3168
▁main	-3169
▁Dagan	-3170
▁colum	-3171
▁ebony	-3172
▁reeds	-3173
▁seven	-3174
uballiṭ	-3175
▁circum	-3176
▁dwells	-3177
▁erases	-3178
▁spoken	-3179
▁weight	-3180
▁courses	-3181
▁trainer	-3182
▁........	-3183
▁Damascus	-3184
▁exercise	-3185
▁collected	-3186
▁merciless	-3187
▁forefather	-3188
▁inhabitants	-3189
ēr	-3190
fav	-3191
hin	-3192
▁Da	-3193
ized	-3194
nuri	-3195
usur	-3196
▁Mad	-3197
▁Tah	-3198
▁hon	-3199
▁hum	-3200
▁..."	-3201
▁coll	-3202
▁drag	-3203
orable	-3204
▁moved	-3205
osition	-3206
ruction	-3207
▁arable	-3208
▁attend	-3209
▁gained	-3210
▁remote	-3211
▁Lebanon	-3212
▁boxwood	-3213
▁resides	-3214
▁valiant	-3215
▁committed	-3216
▁conqueror	-3217
▁encouraged	-3218
▁everlasting	-3219
En	-3220
bo	-3221
ṣi	-3222
īgū	-3223
▁ve	-3224
aria	-3225
lord	-3226
▁Kud	-3227
▁big	-3228
▁clo	-3229
▁lev	-3230
▁vic	-3231
House	-3232
aging	-3233
ances	-3234
▁Urda	-3235
▁resp	-3236
▁wish	-3237
▁produ	-3238
▁shore	-3239
▁hunger	-3240
▁remove	-3241
▁spring	-3242
▁Because	-3243
▁columns	-3244
▁interpre	-3245
▁wherever	-3246
▁dedicated	-3247
If	-3248
▁gu	-3249
orpi	-3250
qqin	-3251
work	-3252
▁pun	-3253
stead	-3254
▁pull	-3255
▁Šeru	-3256
orpius	-3257
taqqin	-3258
▁Tabal	-3259
▁takes	-3260
▁anyone	-3261
▁exempt	-3262
▁leagues	-3263
▁mounted	-3264
▁respect	-3265
▁Scorpius	-3266
▁remember	-3267
▁Fingernail	-3268
▁opposition	-3269
▁lamentation	-3270
'.	-3271
ephe	-3272
▁300	-3273
▁Bir	-3274
▁Par	-3275
▁deb	-3276
Adini	-3277
▁ones	-3278
▁prom	-3279
itting	-3280
rement	-3281
urther	-3282
▁leads	-3283
▁nephe	-3284
▁rains	-3285
▁secre	-3286
▁storm	-3287
▁thous	-3288
▁Baltil	-3289
▁Before	-3290
▁golden	-3291
▁appropri	-3292
▁attacked	-3293
▁following	-3294
▁Afterwards	-3295
▁acceptable	-3296
▁accordance	-3297
uḫ	-3298
ape	-3299
ays	-3300
eri	-3301
usa	-3302
▁Ind	-3303
▁Sat	-3304
▁Sim	-3305
▁Like	-3306
▁VIII	-3307
▁lips	-3308
▁mars	-3309
▁ment	-3310
▁Igīgū	-3311
▁herds	-3312
▁multi	-3313
▁always	-3314
▁felled	-3315
▁region	-3316
▁sought	-3317
ervation	-3318
▁cleared	-3319
▁shining	-3320
▁messages	-3321
▁strengthen	-3322
Bal	-3323
May	-3324
ern	-3325
gil	-3326
par	-3327
▁ca	-3328
aces	-3329
adow	-3330
idri	-3331
rine	-3332
▁Eri	-3333
▁cri	-3334
Enlil	-3335
ursag	-3336
▁Arik	-3337
▁Merc	-3338
▁rein	-3339
iously	-3340
taklak	-3341
▁While	-3342
▁exped	-3343
▁slabs	-3344
colored	-3345
▁Aplaya	-3346
▁desire	-3347
▁safely	-3348
▁seated	-3349
▁towers	-3350
▁Esaggil	-3351
▁Subartu	-3352
▁reached	-3353
▁scatter	-3354
▁powerful	-3355
▁question	-3356
▁destruction	-3357
dīn	-3358
imm	-3359
ēri	-3360
ētu	-3361
▁Of	-3362
▁sn	-3363
ices	-3364
▁Han	-3365
▁pop	-3366
ready	-3367
▁stat	-3368
larged	-3369
▁still	-3370
▁widen	-3371
▁keeper	-3372
▁shrine	-3373
▁thirty	-3374
▁Instead	-3375
▁Mercury	-3376
▁addition	-3377
▁decision	-3378
▁enlarged	-3379
▁establish	-3380
In	-3381
aff	-3382
udu	-3383
van	-3384
▁19	-3385
▁60	-3386
▁ša	-3387
amua	-3388
aven	-3389
muḫu	-3390
▁doc	-3391
▁fog	-3392
▁gre	-3393
▁hig	-3394
▁kid	-3395
▁low	-3396
▁Kakk	-3397
▁call	-3398
▁dang	-3399
▁fest	-3400
▁show	-3401
▁These	-3402
▁kinds	-3403
▁lofty	-3404
▁raise	-3405
▁shine	-3406
ubuškia	-3407
▁basket	-3408
▁enters	-3409
▁rising	-3410
▁twelve	-3411
▁waters	-3412
▁Gambulu	-3413
▁reinfor	-3414
▁removes	-3415
▁thousand	-3416
▁expedition	-3417
pu	-3418
asi	-3419
get	-3420
iew	-3421
ran	-3422
▁64	-3423
▁St	-3424
heck	-3425
riba	-3426
▁Ple	-3427
▁Sal	-3428
icted	-3429
igate	-3430
iring	-3431
lamur	-3432
▁bags	-3433
▁flow	-3434
▁free	-3435
▁held	-3436
▁tail	-3437
▁team	-3438
atures	-3439
▁Illil	-3440
▁pious	-3441
▁Šerua	-3442
chesvan	-3443
olished	-3444
▁Saturn	-3445
▁facing	-3446
▁Gilzānu	-3447
▁covered	-3448
▁nothing	-3449
▁Ummanald	-3450
▁features	-3451
▁vineyard	-3452
▁Marchesvan	-3453
50	-3454
še	-3455
his	-3456
riv	-3457
▁Me	-3458
ding	-3459
▁Hab	-3460
▁Raš	-3461
▁awe	-3462
▁bef	-3463
ashed	-3464
▁Abdi	-3465
▁guil	-3466
▁lamb	-3467
▁reve	-3468
▁Ḫind	-3469
ructed	-3470
▁Kanun	-3471
▁Silim	-3472
▁horns	-3473
▁flagon	-3474
▁giving	-3475
▁replic	-3476
▁reside	-3477
▁wishes	-3478
▁Taharqa	-3479
▁Assyrians	-3480
▁Cimmerians	-3481
br	-3482
met	-3483
āra	-3484
āru	-3485
▁Az	-3486
aved	-3487
king	-3488
pped	-3489
▁Hal	-3490
▁Its	-3491
▁Til	-3492
▁aff	-3493
▁cop	-3494
itary	-3495
lands	-3496
▁annu	-3497
▁fish	-3498
▁pick	-3499
▁rise	-3500
▁wise	-3501
headed	-3502
hinxes	-3503
incial	-3504
weapon	-3505
▁Qurdi	-3506
▁insur	-3507
▁litre	-3508
▁Kislev	-3509
▁caused	-3510
▁hectare	-3511
▁receive	-3512
▁belonged	-3513
▁confined	-3514
▁military	-3515
▁physical	-3516
▁sphinxes	-3517
▁dangerous	-3518
▁provincial	-3519
dî	-3520
iši	-3521
kaš	-3522
āti	-3523
šši	-3524
▁24	-3525
▁Ch	-3526
▁Em	-3527
ault	-3528
itti	-3529
▁Kat	-3530
▁Mut	-3531
▁squ	-3532
ables	-3533
ently	-3534
nādin	-3535
quire	-3536
▁cass	-3537
▁cell	-3538
▁line	-3539
▁poin	-3540
▁thin	-3541
ainers	-3542
idmuri	-3543
iduous	-3544
stream	-3545
teenth	-3546
▁store	-3547
▁porter	-3548
▁poured	-3549
▁wooden	-3550
▁already	-3551
▁baskets	-3552
▁carries	-3553
▁inspect	-3554
▁orchard	-3555
▁destroys	-3556
▁elephant	-3557
▁portions	-3558
▁splendor	-3559
▁weakened	-3560
▁assiduous	-3561
wa	-3562
aim	-3563
erm	-3564
ify	-3565
lip	-3566
qar	-3567
raz	-3568
ssu	-3569
▁Tw	-3570
deem	-3571
hood	-3572
long	-3573
▁Raṣ	-3574
▁tor	-3575
inate	-3576
thood	-3577
urbed	-3578
▁Lord	-3579
▁garr	-3580
▁safe	-3581
▁Eanna	-3582
▁accom	-3583
▁array	-3584
▁aside	-3585
▁extre	-3586
▁halls	-3587
▁hills	-3588
▁recog	-3589
▁revol	-3590
▁skill	-3591
▁thund	-3592
▁extend	-3593
▁office	-3594
▁redeem	-3595
▁strive	-3596
▁ancient	-3597
▁harness	-3598
▁highest	-3599
▁provide	-3600
▁bringing	-3601
▁shoulder	-3602
▁inflicted	-3603
▁interpret	-3604
gi	-3605
”.	-3606
ali	-3607
eps	-3608
hil	-3609
ini	-3610
isu	-3611
kku	-3612
ria	-3613
ume	-3614
▁So	-3615
dari	-3616
umen	-3617
▁Nam	-3618
▁emb	-3619
▁exp	-3620
iades	-3621
▁Ekur	-3622
▁coun	-3623
▁dele	-3624
▁fill	-3625
▁priv	-3626
Arbail	-3627
▁Ashur	-3628
▁admin	-3629
▁bowls	-3630
▁major	-3631
▁occur	-3632
▁Balasî	-3633
▁broken	-3634
▁casser	-3635
▁direct	-3636
▁others	-3637
▁thirst	-3638
▁Kushite	-3639
▁Tašmētu	-3640
▁foreign	-3641
▁juniper	-3642
▁reconst	-3643
favorable	-3644
▁Pleiades	-3645
▁renovate	-3646
▁villages	-3647
▁favorably	-3648
ūa	-3649
bes	-3650
ime	-3651
kin	-3652
▁27	-3653
idus	-3654
ittu	-3655
keep	-3656
rānu	-3657
▁Can	-3658
▁Guz	-3659
▁Zak	-3660
▁lot	-3661
▁sev	-3662
arsip	-3663
šakin	-3664
▁most	-3665
▁wage	-3666
onidus	-3667
▁Yakin	-3668
▁abode	-3669
▁bands	-3670
▁floor	-3671
▁holds	-3672
▁pries	-3673
▁unriv	-3674
▁width	-3675
attened	-3676
rection	-3677
▁During	-3678
▁punish	-3679
▁Elamite	-3680
▁conclud	-3681
▁pursued	-3682
▁assembly	-3683
▁distance	-3684
▁treasury	-3685
▁craftsmen	-3686
▁decisions	-3687
▁lightning	-3688
▁casseroles	-3689
▁population	-3690
▁priesthood	-3691
▁stretching	-3692
▁unrivalled	-3693
▁insurrection	-3694
si	-3695
šû	-3696
ize	-3697
▁av	-3698
osts	-3699
▁New	-3700
▁Pal	-3701
▁bus	-3702
ising	-3703
▁Anat	-3704
pected	-3705
▁equal	-3706
▁stele	-3707
▁veget	-3708
cession	-3709
▁longer	-3710
▁struck	-3711
▁bitumen	-3712
▁children	-3713
▁Nabonidus	-3714
▁impressed	-3715
▁dispatched	-3716
▁Ummanaldašu	-3717
We	-3718
ii	-3719
kal	-3720
omm	-3721
oot	-3722
...;	-3723
They	-3724
fast	-3725
▁Bar	-3726
▁Zar	-3727
▁tra	-3728
▁Šar	-3729
arant	-3730
uspic	-3731
▁corv	-3732
▁prog	-3733
▁rank	-3734
▁suit	-3735
ahhešu	-3736
inanni	-3737
▁greet	-3738
▁range	-3739
▁Ningal	-3740
▁device	-3741
▁wisdom	-3742
▁Further	-3743
▁capture	-3744
▁mention	-3745
▁nephews	-3746
▁respons	-3747
▁victory	-3748
increment	-3749
uspicious	-3750
▁Anunnakū	-3751
▁Kanunayu	-3752
▁Manneans	-3753
▁likewise	-3754
▁aromatics	-3755
▁reconstructed	-3756
uh	-3757
wh	-3758
arm	-3759
tly	-3760
▁Eḫ	-3761
lict	-3762
rain	-3763
ying	-3764
▁aug	-3765
▁dog	-3766
▁use	-3767
▁Ḫal	-3768
olent	-3769
▁Dann	-3770
▁bene	-3771
▁fett	-3772
▁maid	-3773
▁want	-3774
▁Aramu	-3775
▁besie	-3776
▁birds	-3777
▁broad	-3778
▁conce	-3779
▁fixed	-3780
▁twice	-3781
Baladan	-3782
▁Dunānu	-3783
▁Mannea	-3784
▁Nanaya	-3785
▁guilty	-3786
▁manner	-3787
▁raging	-3788
▁sinned	-3789
▁Raṣappa	-3790
▁assault	-3791
▁capable	-3792
▁fetters	-3793
▁incense	-3794
▁outside	-3795
▁instruct	-3796
▁districts	-3797
▁scattered	-3798
▁steadfast	-3799
▁commanders	-3800
▁interpretation	-3801
?”	-3802
alû	-3803
bow	-3804
fts	-3805
▁Iz	-3806
What	-3807
apli	-3808
emor	-3809
ling	-3810
▁Day	-3811
▁Nag	-3812
agons	-3813
asing	-3814
bread	-3815
▁Kull	-3816
▁boat	-3817
▁rams	-3818
▁summ	-3819
▁upro	-3820
kurkur	-3821
▁Aḫunu	-3822
▁cella	-3823
▁etern	-3824
▁pours	-3825
▁utter	-3826
▁center	-3827
▁escape	-3828
▁extent	-3829
▁......"	-3830
▁achieve	-3831
▁advance	-3832
▁privile	-3833
▁rituals	-3834
▁Chaldeans	-3835
ux	-3836
asu	-3837
▁po	-3838
adel	-3839
▁Abu	-3840
▁Did	-3841
▁Ham	-3842
▁Sir	-3843
▁fur	-3844
▁pas	-3845
imals	-3846
▁awes	-3847
▁died	-3848
▁once	-3849
▁tall	-3850
ensils	-3851
▁emiss	-3852
▁ruled	-3853
▁sends	-3854
▁staff	-3855
▁Proper	-3856
▁Zababa	-3857
▁appeal	-3858
▁elders	-3859
▁builder	-3860
▁counsel	-3861
▁recruit	-3862
▁staying	-3863
▁waiting	-3864
▁document	-3865
▁structure	-3866
▁cultivation	-3867
alm	-3868
joy	-3869
psû	-3870
zuh	-3871
ēšu	-3872
▁Un	-3873
▁ak	-3874
hand	-3875
oned	-3876
ḫalt	-3877
▁Lab	-3878
▁Reg	-3879
▁wal	-3880
ander	-3881
arted	-3882
pread	-3883
▁Atar	-3884
▁Kish	-3885
▁arre	-3886
▁draw	-3887
▁mood	-3888
▁quay	-3889
▁situ	-3890
▁Assur	-3891
▁Ellip	-3892
▁Where	-3893
▁enjoy	-3894
▁homer	-3895
▁loyal	-3896
▁signs	-3897
▁slave	-3898
▁south	-3899
▁wears	-3900
▁amount	-3901
▁handed	-3902
▁neglig	-3903
▁plenty	-3904
▁spread	-3905
▁wagons	-3906
offering	-3907
▁escaped	-3908
▁instead	-3909
▁superst	-3910
▁hostages	-3911
▁utensils	-3912
▁slaughtered	-3913
▁strengthened	-3914
ua	-3915
dān	-3916
une	-3917
ūru	-3918
▁Up	-3919
mati	-3920
mith	-3921
rise	-3922
ross	-3923
ukku	-3924
▁Ant	-3925
▁Gab	-3926
▁art	-3927
▁dro	-3928
ašmaš	-3929
olesc	-3930
▁heed	-3931
▁judg	-3932
▁peak	-3933
▁sage	-3934
▁tram	-3935
▁tree	-3936
isance	-3937
nerari	-3938
zuhina	-3939
▁deems	-3940
▁dream	-3941
▁threw	-3942
ušallim	-3943
▁attain	-3944
▁concer	-3945
▁cooked	-3946
▁decree	-3947
▁determ	-3948
▁floods	-3949
▁labour	-3950
▁prayed	-3951
▁roofed	-3952
▁status	-3953
▁adolesc	-3954
▁borders	-3955
▁besieged	-3956
▁eternity	-3957
▁priestly	-3958
▁assembled	-3959
▁obeisance	-3960
▁witnesses	-3961
▁ziggurrat	-3962
▁procession	-3963
▁reinforced	-3964
▁superstructure	-3965
00,	-3966
ilī	-3967
uti	-3968
zar	-3969
āte	-3970
▁ol	-3971
alla	-3972
ccia	-3973
eroy	-3974
isse	-3975
šarr	-3976
▁Dil	-3977
▁Sar	-3978
▁erš	-3979
▁imm	-3980
▁sch	-3981
balaṭ	-3982
▁Gods	-3983
▁heir	-3984
▁miss	-3985
▁reed	-3986
▁ture	-3987
▁chant	-3988
▁dates	-3989
▁mound	-3990
▁necks	-3991
▁sharp	-3992
▁devour	-3993
▁locust	-3994
▁meadow	-3995
▁undist	-3996
▁......:	-3997
▁greater	-3998
▁secured	-3999
▁supplic	-4000
▁thereon	-4001
▁viceroy	-4002
▁achieved	-4003
▁entrance	-4004
▁interior	-4005
▁standing	-4006
▁highlands	-4007
▁auspicious	-4008
▁appropriate	-4009
▁undisturbed	-4010
It	-4011
iṣ	-4012
aḫḫ	-4013
liš	-4014
lum	-4015
nel	-4016
zib	-4017
▁GN	-4018
▁Sa	-4019
duru	-4020
rect	-4021
▁Lah	-4022
▁dry	-4023
▁ful	-4024
▁vir	-4025
▁Šep	-4026
Yakīn	-4027
board	-4028
ruits	-4029
▁Bull	-4030
▁Zeru	-4031
▁bond	-4032
▁date	-4033
Barsip	-4034
▁beaut	-4035
▁Arbail	-4036
▁courti	-4037
▁provis	-4038
▁recogn	-4039
▁Kudurru	-4040
▁Through	-4041
▁animals	-4042
▁awesome	-4043
▁breccia	-4044
▁keeping	-4045
▁administ	-4046
▁appealed	-4047
▁creation	-4048
▁directed	-4049
▁grandson	-4050
▁guardian	-4051
▁suitable	-4052
▁demolished	-4053
▁privileged	-4054
bil	-4055
utî	-4056
emph	-4057
kiah	-4058
more	-4059
stre	-4060
teen	-4061
▁Nur	-4062
ament	-4063
▁Heze	-4064
▁Kass	-4065
▁Puqu	-4066
▁lear	-4067
▁thro	-4068
▁šēpi	-4069
emphis	-4070
▁Rašil	-4071
▁parts	-4072
▁schol	-4073
▁throw	-4074
▁mounts	-4075
▁revere	-4076
▁shield	-4077
▁transp	-4078
▁Memphis	-4079
▁Hezekiah	-4080
▁Property	-4081
▁abundant	-4082
▁approach	-4083
▁regularly	-4084
▁possession	-4085
▁continually	-4086
Go	-4087
ex	-4088
ye	-4089
alâ	-4090
ata	-4091
con	-4092
igi	-4093
ikh	-4094
nip	-4095
reš	-4096
rie	-4097
īša	-4098
clos	-4099
ider	-4100
itud	-4101
rily	-4102
urtu	-4103
▁Kil	-4104
▁Mug	-4105
▁dou	-4106
▁dyn	-4107
▁eng	-4108
▁gir	-4109
▁uns	-4110
aredu	-4111
beams	-4112
rated	-4113
ulayu	-4114
▁Land	-4115
▁ally	-4116
▁buck	-4117
▁clad	-4118
▁rene	-4119
Nergal	-4120
morrow	-4121
overed	-4122
ḫaltaš	-4123
▁adorn	-4124
▁allow	-4125
▁banks	-4126
▁bedro	-4127
▁dimin	-4128
▁known	-4129
▁negle	-4130
▁piled	-4131
▁Ḫabḫu	-4132
.......	-4133
Kidmuri	-4134
ganized	-4135
mission	-4136
▁Cancer	-4137
▁Thebes	-4138
▁centre	-4139
▁guards	-4140
▁months	-4141
▁sheikh	-4142
▁stored	-4143
▁......!	-4144
▁Ašaredu	-4145
▁Katmuḫu	-4146
▁angrily	-4147
▁balance	-4148
▁collect	-4149
▁destiny	-4150
▁dispers	-4151
▁locusts	-4152
▁prolong	-4153
▁someone	-4154
▁whoever	-4155
▁......."	-4156
▁business	-4157
▁kindness	-4158
▁revealed	-4159
▁tomorrow	-4160
▁treasure	-4161
▁beautiful	-4162
▁exercised	-4163
▁renovated	-4164
▁adolescent	-4165
20	-4166
Iš	-4167
Bēl	-4168
des	-4169
pty	-4170
▁Ru	-4171
adad	-4172
arrû	-4173
lace	-4174
laid	-4175
lebr	-4176
▁dam	-4177
▁gen	-4178
▁ver	-4179
Ištar	-4180
ident	-4181
rings	-4182
▁hole	-4183
▁obey	-4184
▁slew	-4185
▁tore	-4186
▁wait	-4187
▁arrow	-4188
▁fifty	-4189
▁tents	-4190
-......	-4191
▁celebr	-4192
▁physic	-4193
▁reconf	-4194
kurkurra	-4195
▁Mugallu	-4196
▁palaces	-4197
▁replica	-4198
▁prefects	-4199
▁situated	-4200
▁punishment	-4201
▁recognition	-4202
▁recruitment	-4203
ob	-4204
Nan	-4205
ads	-4206
aki	-4207
bit	-4208
dam	-4209
ket	-4210
ney	-4211
rig	-4212
sec	-4213
wad	-4214
▁Ag	-4215
▁Qu	-4216
Amuk	-4217
anda	-4218
atnu	-4219
half	-4220
irra	-4221
issi	-4222
▁Two	-4223
▁pot	-4224
▁zaḫ	-4225
ablet	-4226
apsed	-4227
ively	-4228
▁Mati	-4229
▁Uraš	-4230
▁anne	-4231
▁clos	-4232
▁farm	-4233
▁logs	-4234
▁thri	-4235
▁Ḫiri	-4236
ertain	-4237
▁Arwad	-4238
▁crime	-4239
▁keeps	-4240
▁level	-4241
▁noble	-4242
▁plant	-4243
▁rings	-4244
▁tower	-4245
▁trium	-4246
emorial	-4247
ibility	-4248
spiring	-4249
▁Tablet	-4250
▁blocks	-4251
▁fallen	-4252
▁secure	-4253
▁zaḫalû	-4254
garments	-4255
lordship	-4256
▁Mušezib	-4257
▁Sealand	-4258
▁Ululayu	-4259
▁correct	-4260
▁desired	-4261
▁devoted	-4262
▁neither	-4263
▁pleases	-4264
▁release	-4265
▁telling	-4266
▁selected	-4267
▁Akkullanu	-4268
▁Arbailayu	-4269
▁immemorial	-4270
▁victorious	-4271
▁preservation	-4272
Ash	-4273
bar	-4274
elf	-4275
ira	-4276
kud	-4277
thy	-4278
ails	-4279
balā	-4280
edge	-4281
ists	-4282
otro	-4283
pass	-4284
rent	-4285
ried	-4286
ries	-4287
▁120	-4288
▁Bur	-4289
▁Dai	-4290
▁Zaz	-4291
▁Zer	-4292
▁cal	-4293
▁cou	-4294
▁cow	-4295
▁due	-4296
▁fod	-4297
▁hid	-4298
▁met	-4299
▁pie	-4300
▁sto	-4301
▁Šab	-4302
abibi	-4303
akkil	-4304
ences	-4305
wered	-4306
▁Hind	-4307
▁ensu	-4308
▁rear	-4309
▁requ	-4310
▁such	-4311
▁valu	-4312
otropa	-4313
streng	-4314
▁Ekron	-4315
▁akītu	-4316
▁baker	-4317
▁burns	-4318
▁loved	-4319
▁paths	-4320
▁short	-4321
▁sworn	-4322
incense	-4323
▁Heaven	-4324
▁august	-4325
▁beside	-4326
▁fodder	-4327
▁trampl	-4328
▁wonder	-4329
▁Dannaya	-4330
▁accompl	-4331
▁blessed	-4332
▁clothed	-4333
▁founded	-4334
▁located	-4335
▁praises	-4336
▁prevail	-4337
▁streets	-4338
▁thought	-4339
▁Mušallim	-4340
▁delegate	-4341
▁festival	-4342
▁relative	-4343
▁vegetable	-4344
▁rebellious	-4345
▁overlordship	-4346
Ea	-4347
zû	-4348
aḫi	-4349
dan	-4350
eed	-4351
god	-4352
kel	-4353
uly	-4354
ūtu	-4355
▁Er	-4356
▁Ti	-4357
▁ty	-4358
biṣu	-4359
dden	-4360
fted	-4361
outs	-4362
ruru	-4363
uted	-4364
▁500	-4365
▁Pat	-4366
▁Yas	-4367
▁sou	-4368
▁usu	-4369
▁vig	-4370
armer	-4371
arrān	-4372
ilāni	-4373
kelon	-4374
nihil	-4375
nikaš	-4376
ption	-4377
trees	-4378
▁bath	-4379
▁braz	-4380
▁memb	-4381
▁seas	-4382
▁wadi	-4383
ašared	-4384
▁Milki	-4385
▁grasp	-4386
▁older	-4387
▁pastu	-4388
▁wides	-4389
attukku	-4390
▁Ellipi	-4391
▁assist	-4392
▁change	-4393
▁donkey	-4394
▁finish	-4395
▁observ	-4396
▁repair	-4397
▁strife	-4398
▁taking	-4399
▁tureen	-4400
otropaic	-4401
strength	-4402
▁annihil	-4403
▁incited	-4404
▁officer	-4405
▁shorter	-4406
inspiring	-4407
offerings	-4408
▁Ashkelon	-4409
▁Elamites	-4410
▁Mutakkil	-4411
▁answered	-4412
▁crossing	-4413
▁Ḫubuškia	-4414
▁containers	-4415
▁widespread	-4416
▁reconfirmed	-4417
▁instructions	-4418
ṭi	-4419
isf	-4420
uma	-4421
ūti	-4422
▁Mu	-4423
▁Si	-4424
▁Šu	-4425
ague	-4426
alks	-4427
asty	-4428
ašuh	-4429
cent	-4430
eous	-4431
ibtu	-4432
ieft	-4433
lamû	-4434
ocks	-4435
wine	-4436
zeri	-4437
▁Dan	-4438
▁led	-4439
fruct	-4440
light	-4441
▁Sams	-4442
▁Sang	-4443
▁ears	-4444
▁glor	-4445
▁jars	-4446
▁loot	-4447
▁omen	-4448
▁sake	-4449
▁trou	-4450
▁vess	-4451
atters	-4452
formed	-4453
▁forty	-4454
▁goods	-4455
▁rebel	-4456
▁renew	-4457
▁thigh	-4458
▁wrong	-4459
šarrani	-4460
▁chieft	-4461
▁formed	-4462
▁nights	-4463
▁progen	-4464
▁ruined	-4465
▁sister	-4466
▁adorned	-4467
▁control	-4468
▁garment	-4469
▁leather	-4470
▁triumph	-4471
▁Ḫindānu	-4472
▁joyfully	-4473
▁reported	-4474
▁sattukku	-4475
▁upstream	-4476
▁usufruct	-4477
▁valuable	-4478
▁criminals	-4479
▁negligent	-4480
▁apotropaic	-4481
▁confection	-4482
▁favourable	-4483
▁performing	-4484
▁Furthermore	-4485
▁unfavorable	-4486
eg	-4487
Who	-4488
rid	-4489
sol	-4490
urb	-4491
▁80	-4492
▁Ap	-4493
abši	-4494
adne	-4495
ange	-4496
buch	-4497
five	-4498
irst	-4499
kenu	-4500
rian	-4501
uḫḫa	-4502
šunu	-4503
▁Del	-4504
▁Kul	-4505
▁Nir	-4506
▁Sap	-4507
▁eff	-4508
▁van	-4509
▁Ḫil	-4510
agger	-4511
eared	-4512
smith	-4513
▁Rapi	-4514
▁Susa	-4515
▁loan	-4516
▁puts	-4517
▁soil	-4518
▁Šala	-4519
cepted	-4520
▁Chief	-4521
▁Palil	-4522
▁Parsu	-4523
▁check	-4524
▁clear	-4525
▁irrig	-4526
▁Deluge	-4527
▁Nebuch	-4528
▁canals	-4529
▁clouds	-4530
▁crimes	-4531
▁intent	-4532
▁lifted	-4533
iliation	-4534
▁annexed	-4535
▁plotted	-4536
▁setting	-4537
▁Chaldean	-4538
▁Indabibi	-4539
▁prepared	-4540
▁yourself	-4541
▁Nebuchadne	-4542
▁disappeared	-4543
▁grandfather	-4544
▁shepherding	-4545
▁expeditionary	-4546
lī	-4547
▁:	-4548
▁ṣ	-4549
aha	-4550
cap	-4551
▁65	-4552
aktu	-4553
cell	-4554
domo	-4555
emon	-4556
ging	-4557
lets	-4558
peas	-4559
ummu	-4560
zzar	-4561
ēlet	-4562
▁Abī	-4563
▁Muṣ	-4564
▁Nip	-4565
▁Tam	-4566
▁fet	-4567
▁nin	-4568
▁pet	-4569
anges	-4570
inent	-4571
iqīša	-4572
itute	-4573
spect	-4574
▁Barh	-4575
▁apsû	-4576
▁clim	-4577
▁exam	-4578
▁humb	-4579
farmer	-4580
ourage	-4581
šumāti	-4582
▁2,000	-4583
▁chick	-4584
▁shiny	-4585
▁tribe	-4586
▁10,000	-4587
▁Daiēnu	-4588
▁Puqudu	-4589
▁Rapiqu	-4590
▁across	-4591
▁choice	-4592
▁invest	-4593
▁stalks	-4594
▁throws	-4595
▁Meluḫḫa	-4596
▁Samaria	-4597
▁brazier	-4598
▁certain	-4599
▁dynasty	-4600
▁illness	-4601
▁marshes	-4602
▁pointed	-4603
▁scribes	-4604
ellations	-4605
▁Anunnaki	-4606
▁Kassites	-4607
▁accepted	-4608
▁arrested	-4609
▁building	-4610
▁daylight	-4611
▁garrison	-4612
▁uprooted	-4613
▁destinies	-4614
▁dwellings	-4615
▁entourage	-4616
▁inspected	-4617
▁instigate	-4618
▁sanctuary	-4619
▁victories	-4620
▁Kakkullanu	-4621
▁attendants	-4622
▁Nebuchadnezzar	-4623
▁responsibility	-4624
mi	-4625
qâ	-4626
cub	-4627
tem	-4628
uba	-4629
unt	-4630
usi	-4631
alim	-4632
arem	-4633
atch	-4634
four	-4635
innu	-4636
pend	-4637
udah	-4638
umin	-4639
year	-4640
▁Kir	-4641
▁Lar	-4642
▁cre	-4643
▁fer	-4644
duced	-4645
icing	-4646
itude	-4647
kudur	-4648
metal	-4649
▁Apla	-4650
▁grew	-4651
▁prel	-4652
▁šand	-4653
balliṭ	-4654
ortant	-4655
priest	-4656
stones	-4657
▁Akitu	-4658
▁Belat	-4659
▁Iddin	-4660
▁Mukin	-4661
▁Zamua	-4662
▁claim	-4663
▁cubit	-4664
▁grown	-4665
▁oppon	-4666
eration	-4667
▁advers	-4668
▁gather	-4669
▁layers	-4670
▁leader	-4671
▁Aramean	-4672
▁Eḫursag	-4673
▁inquire	-4674
▁missing	-4675
▁passage	-4676
▁priests	-4677
▁progeny	-4678
▁springs	-4679
▁sunrise	-4680
organized	-4681
▁befitting	-4682
▁concluded	-4683
▁prisoners	-4684
▁rejoicing	-4685
▁something	-4686
▁submissive	-4687
▁reconciliation	-4688
Ab	-4689
ee	-4690
gu	-4691
ics	-4692
idi	-4693
off	-4694
uda	-4695
▁Eb	-4696
▁Wr	-4697
aced	-4698
amur	-4699
imme	-4700
irtu	-4701
kill	-4702
opol	-4703
reṣu	-4704
▁Kub	-4705
▁Sur	-4706
▁cer	-4707
▁enc	-4708
▁pen	-4709
arded	-4710
ighth	-4711
iiari	-4712
unaya	-4713
▁Also	-4714
▁Aqar	-4715
▁Eḫul	-4716
▁Haza	-4717
▁Nabu	-4718
▁arch	-4719
▁dyed	-4720
▁flew	-4721
▁need	-4722
▁pity	-4723
▁repe	-4724
▁sick	-4725
▁turt	-4726
Nanaya	-4727
enance	-4728
etting	-4729
levant	-4730
▁displ	-4731
▁harem	-4732
▁marsh	-4733
▁mobil	-4734
▁torch	-4735
▁Barhal	-4736
▁annual	-4737
▁caught	-4738
▁heroic	-4739
▁spiced	-4740
▁Eḫulḫul	-4741
▁Madaktu	-4742
▁Tarbiṣu	-4743
▁Without	-4744
▁interru	-4745
▁lamassu	-4746
▁letters	-4747
▁wording	-4748
▁Kašiiari	-4749
▁chanters	-4750
▁exempted	-4751
▁location	-4752
▁occurred	-4753
▁relevant	-4754
▁brickwork	-4755
▁physician	-4756
▁vineyards	-4757
▁prosperity	-4758
▁circumspect	-4759
▁supplications	-4760
do	-4761
oo	-4762
elt	-4763
fif	-4764
izi	-4765
oom	-4766
▁Mo	-4767
▁Ra	-4768
Dakk	-4769
aded	-4770
airs	-4771
akki	-4772
erve	-4773
immu	-4774
▁Ayy	-4775
▁Nad	-4776
▁Naṣ	-4777
▁alm	-4778
▁nom	-4779
▁pig	-4780
▁wea	-4781
-...;	-4782
abbar	-4783
aired	-4784
ilayu	-4785
isted	-4786
loose	-4787
▁Adda	-4788
▁Lull	-4789
▁Sard	-4790
▁Sasî	-4791
▁Town	-4792
▁brib	-4793
▁cone	-4794
▁cren	-4795
▁crus	-4796
▁gent	-4797
▁meal	-4798
▁mule	-4799
▁outf	-4800
▁walk	-4801
▁wors	-4802
aining	-4803
▁...?"	-4804
▁Bēlet	-4805
▁Melid	-4806
▁advan	-4807
▁armed	-4808
▁opens	-4809
▁rides	-4810
▁saved	-4811
▁waste	-4812
▁Ḫamat	-4813
▁Ayyāru	-4814
▁double	-4815
▁eating	-4816
▁ensure	-4817
▁excell	-4818
▁itself	-4819
▁mouths	-4820
▁olives	-4821
▁theirs	-4822
▁Šubaru	-4823
▁Emašmaš	-4824
▁express	-4825
▁farmers	-4826
▁however	-4827
▁objects	-4828
▁smashed	-4829
▁entirely	-4830
▁officers	-4831
▁peaceful	-4832
▁collapsed	-4833
▁shepherds	-4834
▁boundaries	-4835
▁commandant	-4836
▁skillfully	-4837
▁reorganized	-4838
▁crenellations	-4839
bâ	-4840
ec	-4841
▁i	-4842
ašš	-4843
ety	-4844
hau	-4845
mat	-4846
nks	-4847
asti	-4848
auta	-4849
perv	-4850
they	-4851
urer	-4852
▁Ber	-4853
▁Kip	-4854
▁Pan	-4855
▁Tuš	-4856
▁leg	-4857
▁mur	-4858
ammiq	-4859
ately	-4860
eenth	-4861
ettle	-4862
imate	-4863
lišir	-4864
mukin	-4865
nipha	-4866
onoun	-4867
▁Hitt	-4868
▁Kipp	-4869
▁News	-4870
▁agre	-4871
▁brid	-4872
▁lore	-4873
▁moat	-4874
▁move	-4875
▁sell	-4876
ateans	-4877
gether	-4878
reṣuwa	-4879
▁ahead	-4880
▁anger	-4881
▁avail	-4882
▁brace	-4883
▁peaks	-4884
▁picks	-4885
▁trade	-4886
balassu	-4887
kudurrī	-4888
▁Erišum	-4889
▁Mounts	-4890
▁Nanāya	-4891
▁allies	-4892
▁behalf	-4893
▁expert	-4894
▁gentle	-4895
▁secret	-4896
▁speaks	-4897
▁strike	-4898
▁superv	-4899
▁toward	-4900
▁šandab	-4901
▁changes	-4902
▁matters	-4903
▁peoples	-4904
▁pronoun	-4905
▁rations	-4906
▁chariote	-4907
▁criminal	-4908
▁departed	-4909
▁scholars	-4910
▁countless	-4911
▁harnessed	-4912
▁stretches	-4913
▁assignment	-4914
▁cultivated	-4915
▁emissaries	-4916
▁storehouse	-4917
nî	-4918
nī	-4919
rê	-4920
za	-4921
▁q	-4922
Aya	-4923
kab	-4924
law	-4925
mar	-4926
mon	-4927
pur	-4928
six	-4929
īya	-4930
▁Or	-4931
anki	-4932
dalâ	-4933
yond	-4934
▁Arb	-4935
▁Dēr	-4936
▁Her	-4937
▁Tak	-4938
▁sie	-4939
▁unt	-4940
amanu	-4941
ented	-4942
ishes	-4943
▁King	-4944
▁Padî	-4945
▁dues	-4946
▁feed	-4947
▁hamm	-4948
▁home	-4949
▁inex	-4950
▁jour	-4951
▁lieu	-4952
▁prot	-4953
▁scar	-4954
▁tear	-4955
▁trav	-4956
Ešarra	-4957
▁Gabbu	-4958
▁Kumme	-4959
▁Nipur	-4960
▁Regul	-4961
▁beast	-4962
▁break	-4963
▁broke	-4964
▁early	-4965
▁fault	-4966
▁fifth	-4967
▁Guzana	-4968
▁arrows	-4969
▁refuge	-4970
▁rivers	-4971
▁ruling	-4972
▁supply	-4973
▁tailor	-4974
▁tribes	-4975
▁virile	-4976
▁wealth	-4977
▁yearly	-4978
▁Ḫarrān	-4979
▁However	-4980
▁citadel	-4981
▁journey	-4982
▁skilled	-4983
▁started	-4984
▁deported	-4985
▁entering	-4986
▁fattened	-4987
▁necklace	-4988
▁personal	-4989
▁thunders	-4990
▁devastate	-4991
▁remainder	-4992
▁transport	-4993
▁reconciled	-4994
▁renovation	-4995
▁šandabakku	-4996
▁unsubmissive	-4997
Is	-4998
bl	-4999
co	-5000
ek	-5001
lū	-5002
cal	-5003
ees	-5004
irm	-5005
kes	-5006
pes	-5007
set	-5008
ump	-5009
▁Iq	-5010
▁Pa	-5011
▁Uš	-5012
▁dr	-5013
Send	-5014
alik	-5015
mely	-5016
olds	-5017
pani	-5018
uzur	-5019
▁1/3	-5020
▁Arp	-5021
▁Arṣ	-5022
▁Lub	-5023
▁rab	-5024
▁rob	-5025
▁sal	-5026
Ashur	-5027
arger	-5028
ellig	-5029
flour	-5030
ighty	-5031
omach	-5032
rible	-5033
▁Balā	-5034
▁Ninu	-5035
▁cold	-5036
▁corp	-5037
▁harm	-5038
▁swam	-5039
▁thor	-5040
ettled	-5041
iliary	-5042
ounded	-5043
ušabši	-5044
▁...!"	-5045
▁Imgur	-5046
▁Namri	-5047
▁Nirbu	-5048
▁Puzur	-5049
▁Remut	-5050
▁banqu	-5051
▁court	-5052
▁faith	-5053
▁goose	-5054
▁rooms	-5055
▁siege	-5056
▁spare	-5057
▁Kippat	-5058
▁Parsua	-5059
▁cultic	-5060
▁flayed	-5061
▁relied	-5062
▁satisf	-5063
▁tables	-5064
-.......	-5065
killanni	-5066
▁anybody	-5067
▁ceasing	-5068
▁climbed	-5069
▁massive	-5070
▁planned	-5071
▁stomach	-5072
▁diminish	-5073
▁interest	-5074
▁measured	-5075
▁opponent	-5076
▁properly	-5077
▁thorough	-5078
▁gentlemen	-5079
▁inspector	-5080
▁righteous	-5081
▁afterwards	-5082
▁cavalrymen	-5083
▁accordingly	-5084
▁annihilated	-5085
▁confectioner	-5086
.,	-5087
60	-5088
Sh	-5089
pâ	-5090
rā	-5091
wr	-5092
ḫi	-5093
500	-5094
Imb	-5095
Kur	-5096
aqq	-5097
use	-5098
ātu	-5099
ūma	-5100
▁33	-5101
▁Nē	-5102
▁Šū	-5103
Come	-5104
almu	-5105
held	-5106
ieth	-5107
metu	-5108
uruš	-5109
yada	-5110
šaya	-5111
▁Arz	-5112
▁Gir	-5113
▁Has	-5114
▁Isp	-5115
▁aux	-5116
▁bol	-5117
▁def	-5118
▁ind	-5119
▁orn	-5120
▁tie	-5121
▁tub	-5122
▁urn	-5123
▁Ḫan	-5124
acher	-5125
ening	-5126
ested	-5127
inter	-5128
otten	-5129
▁Alzu	-5130
▁Dadî	-5131
▁Dayy	-5132
▁Ever	-5133
▁Qutu	-5134
▁aslu	-5135
▁meet	-5136
▁onto	-5137
▁wick	-5138
ušezib	-5139
worthy	-5140
▁3,000	-5141
▁Iauta	-5142
▁Našuh	-5143
▁Until	-5144
▁feroc	-5145
▁fully	-5146
▁honor	-5147
▁lambs	-5148
▁loose	-5149
▁Ahlamû	-5150
▁Having	-5151
▁bestow	-5152
▁beyond	-5153
▁common	-5154
▁consum	-5155
▁decide	-5156
▁larger	-5157
▁review	-5158
▁slaves	-5159
▁trunks	-5160
▁......-	-5161
▁appears	-5162
▁citizen	-5163
▁decrees	-5164
▁earthqu	-5165
▁prelate	-5166
▁produce	-5167
▁revered	-5168
▁steward	-5169
▁surpass	-5170
▁trodden	-5171
▁Arzuhina	-5172
▁Egyptian	-5173
▁Whatever	-5174
▁advanced	-5175
▁controls	-5176
▁gateways	-5177
▁speaking	-5178
▁treacher	-5179
▁auxiliary	-5180
▁available	-5181
▁countries	-5182
▁extremely	-5183
▁libations	-5184
▁merchants	-5185
▁regarding	-5186
▁slaughter	-5187
▁experience	-5188
Il	-5189
How	-5190
aur	-5191
bur	-5192
ušu	-5193
ūri	-5194
▁69	-5195
▁Gu	-5196
▁bu	-5197
Imbî	-5198
Mull	-5199
akka	-5200
amma	-5201
blos	-5202
dāri	-5203
fice	-5204
foot	-5205
gran	-5206
kina	-5207
line	-5208
raud	-5209
ugit	-5210
ēzib	-5211
ṣill	-5212
▁Bet	-5213
▁Kap	-5214
▁Laṣ	-5215
▁Maz	-5216
▁Son	-5217
▁bod	-5218
▁fat	-5219
▁por	-5220
▁tun	-5221
▁ven	-5222
Nusku	-5223
Where	-5224
asted	-5225
enter	-5226
oment	-5227
ution	-5228
▁Fear	-5229
▁Gaza	-5230
▁Ukku	-5231
▁belt	-5232
▁lays	-5233
▁roll	-5234
▁soup	-5235
▁sown	-5236
▁spir	-5237
▁sust	-5238
▁ways	-5239
ficial	-5240
▁Arpad	-5241
▁Sagab	-5242
▁Tebil	-5243
▁Zaban	-5244
▁Zakir	-5245
▁depri	-5246
▁exact	-5247
▁fates	-5248
▁fraud	-5249
▁fugit	-5250
▁ready	-5251
▁sides	-5252
▁sixty	-5253
▁think	-5254
balāssu	-5255
omegran	-5256
▁Byblos	-5257
▁Hazael	-5258
▁Nagītu	-5259
▁Zarutî	-5260
▁access	-5261
▁beasts	-5262
▁bodies	-5263
▁bridge	-5264
▁onions	-5265
▁really	-5266
▁urnutu	-5267
aranteed	-5268
▁Ebabbar	-5269
▁Regulus	-5270
▁censers	-5271
▁creator	-5272
▁divided	-5273
▁prepare	-5274
▁rejoice	-5275
▁clothing	-5276
▁fullness	-5277
▁hammurtu	-5278
▁judgment	-5279
▁agreeable	-5280
▁goldsmith	-5281
▁important	-5282
▁sacrifice	-5283
▁earthquake	-5284
▁substitute	-5285
▁charioteers	-5286
▁successfully	-5287
tr	-5288
bet	-5289
eal	-5290
ham	-5291
itr	-5292
kir	-5293
ral	-5294
rif	-5295
sed	-5296
uṭu	-5297
yes	-5298
ṣur	-5299
▁70	-5300
▁gh	-5301
Give	-5302
When	-5303
agar	-5304
alem	-5305
aned	-5306
band	-5307
dish	-5308
duty	-5309
erus	-5310
gold	-5311
ibly	-5312
ilku	-5313
kind	-5314
leep	-5315
oked	-5316
orte	-5317
ṣiru	-5318
▁700	-5319
▁Bad	-5320
▁Hat	-5321
▁Kin	-5322
▁Mit	-5323
▁hit	-5324
▁hot	-5325
▁jew	-5326
▁rav	-5327
▁wed	-5328
amber	-5329
ashes	-5330
ledge	-5331
līšir	-5332
paths	-5333
▁Bahi	-5334
▁Erra	-5335
▁carp	-5336
▁grie	-5337
▁outp	-5338
▁pack	-5339
▁rich	-5340
▁scor	-5341
▁skin	-5342
▁snow	-5343
▁talk	-5344
▁type	-5345
▁wail	-5346
ingent	-5347
intend	-5348
shaped	-5349
▁Later	-5350
▁Seven	-5351
▁Yakīn	-5352
▁Yasub	-5353
▁areas	-5354
▁bones	-5355
▁emble	-5356
▁grass	-5357
▁mares	-5358
▁seals	-5359
▁togas	-5360
▁vanqu	-5361
▁yours	-5362
ensions	-5363
▁Kaštar	-5364
▁Kilizi	-5365
▁Lahiru	-5366
▁bridle	-5367
▁corpse	-5368
▁eighth	-5369
▁eighty	-5370
▁endure	-5371
▁fallow	-5372
▁heaped	-5373
▁moment	-5374
▁revolt	-5375
▁scared	-5376
▁stayed	-5377
▁swamps	-5378
▁terrif	-5379
▁wicked	-5380
▁Šuanna	-5381
antation	-5382
erusalem	-5383
ommander	-5384
together	-5385
▁Bahianu	-5386
▁Bulluṭu	-5387
▁Tebilti	-5388
▁buckled	-5389
▁chamber	-5390
▁deporte	-5391
▁inflict	-5392
▁learned	-5393
▁marshal	-5394
▁members	-5395
▁numbers	-5396
▁outflow	-5397
▁turtled	-5398
▁wedding	-5399
▁Babilayu	-5400
▁attached	-5401
▁conflict	-5402
▁detained	-5403
▁drinking	-5404
▁pastures	-5405
▁petition	-5406
▁required	-5407
▁withheld	-5408
▁alongside	-5409
▁courtiers	-5410
▁excellent	-5411
▁forgotten	-5412
▁governess	-5413
▁determined	-5414
▁dimensions	-5415
▁positioned	-5416
▁forefathers	-5417
▁shepherdship	-5418
'"	-5419
bs	-5420
.'"	-5421
200	-5422
Bun	-5423
Dak	-5424
azu	-5425
cts	-5426
dur	-5427
ift	-5428
oth	-5429
oys	-5430
ram	-5431
sam	-5432
sil	-5433
udû	-5434
ūnu	-5435
▁ra	-5436
▁ur	-5437
agal	-5438
epsy	-5439
etel	-5440
hinu	-5441
inua	-5442
ongh	-5443
reak	-5444
rība	-5445
unna	-5446
▁150	-5447
▁Ana	-5448
▁Iss	-5449
▁Lib	-5450
▁Met	-5451
▁Suḫ	-5452
▁bru	-5453
▁dur	-5454
▁eag	-5455
▁eye	-5456
▁fro	-5457
▁ped	-5458
▁sol	-5459
▁vac	-5460
amban	-5461
erday	-5462
estin	-5463
otted	-5464
uball	-5465
▁Antu	-5466
▁Išme	-5467
▁beds	-5468
▁duty	-5469
▁epil	-5470
▁loss	-5471
▁shut	-5472
▁sits	-5473
▁spec	-5474
▁stor	-5475
▁unre	-5476
igalzu	-5477
imirra	-5478
purple	-5479
urušpâ	-5480
▁Erība	-5481
▁Every	-5482
▁Igigi	-5483
▁debts	-5484
▁exist	-5485
▁imple	-5486
▁nails	-5487
▁oaths	-5488
▁parap	-5489
▁roast	-5490
▁sleep	-5491
▁strew	-5492
▁twent	-5493
▁vines	-5494
Amukani	-5495
▁Rising	-5496
▁Simānu	-5497
▁abodes	-5498
▁batter	-5499
▁brewer	-5500
▁rained	-5501
▁showed	-5502
▁vacant	-5503
▁washed	-5504
▁writes	-5505
esterday	-5506
▁distrib	-5507
▁endowed	-5508
▁fighter	-5509
▁fortune	-5510
▁furious	-5511
▁perhaps	-5512
▁portend	-5513
▁reddish	-5514
▁sanctum	-5515
▁strongh	-5516
▁colossus	-5517
▁darkness	-5518
▁interced	-5519
▁pleasant	-5520
▁pomegran	-5521
▁standard	-5522
▁terrible	-5523
▁Kaštaritu	-5524
▁battering	-5525
▁bracelets	-5526
▁childhood	-5527
▁cultivate	-5528
▁deportees	-5529
▁ferocious	-5530
▁housekeep	-5531
▁positions	-5532
▁remaining	-5533
▁shoulders	-5534
▁stretched	-5535
▁therefore	-5536
▁threshold	-5537
▁twentieth	-5538
▁permission	-5539
▁provisions	-5540
▁questioned	-5541
.’	-5542
cu	-5543
▁ē	-5544
▁ḫ	-5545
Kub	-5546
Zab	-5547
Zam	-5548
adu	-5549
apa	-5550
maš	-5551
udê	-5552
īti	-5553
ḫru	-5554
▁32	-5555
▁Ph	-5556
▁Uq	-5557
ašme	-5558
bowl	-5559
epuš	-5560
ires	-5561
medi	-5562
rabi	-5563
view	-5564
yria	-5565
zubu	-5566
ṭāya	-5567
▁Bub	-5568
▁Har	-5569
▁Ina	-5570
▁Sul	-5571
▁Tan	-5572
▁Tem	-5573
▁fre	-5574
▁hin	-5575
▁kur	-5576
▁non	-5577
Ninua	-5578
assar	-5579
field	-5580
frain	-5581
idian	-5582
ingly	-5583
nders	-5584
orrow	-5585
tuous	-5586
where	-5587
▁Babu	-5588
▁Gabb	-5589
▁Mard	-5590
▁Over	-5591
▁amid	-5592
▁born	-5593
▁budê	-5594
▁dust	-5595
▁expl	-5596
▁lack	-5597
▁next	-5598
▁rage	-5599
▁sees	-5600
▁ship	-5601
▁sure	-5602
Tukult	-5603
arruqu	-5604
cubits	-5605
illaya	-5606
nelian	-5607
šumati	-5608
▁Arṣaš	-5609
▁Hadad	-5610
▁Since	-5611
▁Syria	-5612
▁Tušḫa	-5613
▁bolts	-5614
▁chest	-5615
▁delib	-5616
▁empty	-5617
▁freed	-5618
▁grove	-5619
▁shown	-5620
▁wells	-5621
▁wheat	-5622
juniper	-5623
thening	-5624
▁Anyone	-5625
▁Inside	-5626
▁crafty	-5627
▁impris	-5628
▁plants	-5629
▁scouts	-5630
▁street	-5631
▁submit	-5632
▁summon	-5633
▁swings	-5634
▁weaned	-5635
▁Šūzubu	-5636
▁Barruqu	-5637
▁Mannean	-5638
▁Nabopol	-5639
▁bearded	-5640
▁decided	-5641
▁effaced	-5642
▁extreme	-5643
▁hinhinu	-5644
▁leaders	-5645
▁refused	-5646
▁squares	-5647
▁trained	-5648
intendent	-5649
▁Balāṭāya	-5650
▁epilepsy	-5651
▁insolent	-5652
▁intercal	-5653
▁lengthen	-5654
▁repaired	-5655
▁repeated	-5656
▁revolted	-5657
▁trusting	-5658
confection	-5659
▁correctly	-5660
▁Guaranteed	-5661
▁assistance	-5662
▁divination	-5663
▁turtledoves	-5664
▁Nabopolassar	-5665
▁processional	-5666
";	-5667
';	-5668
Be	-5669
Lû	-5670
eš	-5671
gg	-5672
ih	-5673
Kil	-5674
ahh	-5675
dod	-5676
ppa	-5677
two	-5678
ulî	-5679
zaḫ	-5680
īru	-5681
ššu	-5682
▁Du	-5683
▁ha	-5684
aḫḫē	-5685
bird	-5686
emma	-5687
ighb	-5688
iles	-5689
ištu	-5690
muše	-5691
time	-5692
unga	-5693
ving	-5694
wall	-5695
▁Acc	-5696
▁Kab	-5697
▁Kiš	-5698
▁Leo	-5699
▁Maš	-5700
▁Nar	-5701
▁cru	-5702
▁sho	-5703
▁vat	-5704
amash	-5705
igall	-5706
ilaya	-5707
lumur	-5708
resid	-5709
▁Banî	-5710
▁Have	-5711
▁Moab	-5712
▁Nanî	-5713
▁Step	-5714
▁cond	-5715
▁deep	-5716
▁fact	-5717
▁kern	-5718
▁lock	-5719
▁papp	-5720
▁pert	-5721
▁ring	-5722
▁tomb	-5723
assion	-5724
kalama	-5725
menanu	-5726
silver	-5727
▁....”	-5728
▁First	-5729
▁Naṣib	-5730
▁Samsi	-5731
▁Three	-5732
▁deity	-5733
▁drove	-5734
▁glare	-5735
▁griev	-5736
▁hides	-5737
▁human	-5738
▁meets	-5739
▁plans	-5740
▁poles	-5741
▁rules	-5742
▁scept	-5743
▁sixth	-5744
▁valor	-5745
acement	-5746
▁Asallu	-5747
▁Ashdod	-5748
▁Destin	-5749
▁Dilbat	-5750
▁Gambul	-5751
▁arrang	-5752
▁dagger	-5753
▁debris	-5754
▁detail	-5755
▁dragon	-5756
▁humble	-5757
▁immedi	-5758
▁leaves	-5759
▁murder	-5760
▁neighb	-5761
▁pedest	-5762
▁pledge	-5763
▁quakes	-5764
▁repres	-5765
▁thrice	-5766
▁walled	-5767
▁Šubria	-5768
▁Balassu	-5769
▁Mazamua	-5770
▁Refrain	-5771
▁Written	-5772
▁banquet	-5773
▁crushed	-5774
▁dragged	-5775
▁eršemma	-5776
▁fashion	-5777
▁intones	-5778
▁kernels	-5779
▁prevent	-5780
▁quinces	-5781
▁retreat	-5782
▁seventh	-5783
▁sheikhs	-5784
▁western	-5785
▁working	-5786
▁worried	-5787
igallians	-5788
šezibanni	-5789
▁almighty	-5790
▁boundary	-5791
▁collated	-5792
▁informed	-5793
▁inquired	-5794
▁obsidian	-5795
▁outposts	-5796
▁seizures	-5797
▁Destinies	-5798
▁Urarṭians	-5799
▁adversary	-5800
▁agreement	-5801
▁knowledge	-5802
lamentation	-5803
▁altogether	-5804
▁compassion	-5805
▁immediately	-5806
▁Yasubigallians	-5807
",	-5808
rî	-5809
asa	-5810
gam	-5811
ilk	-5812
jug	-5813
kka	-5814
ryg	-5815
▁Bā	-5816
▁Eš	-5817
▁ed	-5818
aked	-5819
ania	-5820
icol	-5821
irsu	-5822
nant	-5823
tain	-5824
umig	-5825
urna	-5826
weet	-5827
▁Azi	-5828
▁Ken	-5829
▁Kib	-5830
▁Sum	-5831
▁dow	-5832
▁fle	-5833
▁mal	-5834
▁sap	-5835
▁sis	-5836
▁Šer	-5837
▁Ḫat	-5838
There	-5839
after	-5840
lašme	-5841
▁dogs	-5842
▁fame	-5843
▁gown	-5844
▁grow	-5845
▁ilku	-5846
▁prof	-5847
▁rode	-5848
▁rout	-5849
▁seek	-5850
▁suck	-5851
▁vast	-5852
▁weep	-5853
Inurta	-5854
mušeṣi	-5855
▁Phryg	-5856
▁chair	-5857
▁drawn	-5858
▁entry	-5859
▁fumig	-5860
▁share	-5861
▁stock	-5862
▁wrath	-5863
▁Ḫusur	-5864
itimate	-5865
▁Nadinu	-5866
▁Naṣiru	-5867
▁Nobody	-5868
▁Subnat	-5869
▁bearer	-5870
▁cloudy	-5871
▁deluge	-5872
▁domest	-5873
▁envoys	-5874
▁plough	-5875
▁series	-5876
▁subjug	-5877
▁transg	-5878
▁treads	-5879
▁useful	-5880
umptuous	-5881
▁Kurbail	-5882
▁Ninuayu	-5883
▁afflict	-5884
▁apprent	-5885
▁guarant	-5886
▁mankind	-5887
▁measure	-5888
▁scribal	-5889
▁uttered	-5890
▁annually	-5891
▁carrying	-5892
▁fearless	-5893
▁grievous	-5894
▁marching	-5895
▁merciful	-5896
▁multicol	-5897
▁regarded	-5898
▁carnelian	-5899
▁firmament	-5900
▁discovered	-5901
▁exercising	-5902
▁arrangement	-5903
▁incantation	-5904
▁disappearance	-5905
An	-5906
As	-5907
Do	-5908
▁-	-5909
Naḫ	-5910
Pal	-5911
azi	-5912
ber	-5913
fto	-5914
ilâ	-5915
inn	-5916
ipâ	-5917
ism	-5918
mud	-5919
oms	-5920
pan	-5921
tub	-5922
ual	-5923
ura	-5924
▁3,	-5925
▁67	-5926
▁Gr	-5927
alhu	-5928
arms	-5929
ason	-5930
ator	-5931
aṣir	-5932
bred	-5933
ezer	-5934
idqâ	-5935
igni	-5936
ilic	-5937
inni	-5938
keys	-5939
mans	-5940
neys	-5941
unar	-5942
šēri	-5943
šūma	-5944
▁1/4	-5945
▁400	-5946
▁Ziz	-5947
▁bou	-5948
▁nat	-5949
Kilam	-5950
abāra	-5951
ality	-5952
amped	-5953
illon	-5954
irina	-5955
iwork	-5956
kannu	-5957
milki	-5958
obbed	-5959
seeds	-5960
▁Ahhe	-5961
▁Anzû	-5962
▁Enem	-5963
▁Even	-5964
▁Mand	-5965
▁Siri	-5966
▁bitt	-5967
▁curs	-5968
▁disk	-5969
▁less	-5970
▁lift	-5971
▁plat	-5972
▁post	-5973
▁wear	-5974
▁wing	-5975
Should	-5976
aments	-5977
bunaya	-5978
estine	-5979
turned	-5980
▁Ašipâ	-5981
▁Cilic	-5982
▁Ubulu	-5983
▁alter	-5984
▁blows	-5985
▁depth	-5986
▁falls	-5987
▁lunar	-5988
▁rafts	-5989
▁runaw	-5990
▁seats	-5991
▁sever	-5992
▁skins	-5993
▁snake	-5994
▁thing	-5995
▁wives	-5996
▁yield	-5997
cements	-5998
ersweet	-5999
ftovers	-6000
ineated	-6001
manship	-6002
▁Aḫšēri	-6003
▁Zabinu	-6004
▁alters	-6005
▁amidst	-6006
▁appurt	-6007
▁deaths	-6008
▁except	-6009
▁inlaid	-6010
▁joyful	-6011
▁kindly	-6012
▁mounds	-6013
▁ordeal	-6014
▁please	-6015
▁pulled	-6016
▁record	-6017
▁sacred	-6018
▁spared	-6019
▁spouse	-6020
▁thrown	-6021
▁weaver	-6022
▁winter	-6023
Kilamzaḫ	-6024
official	-6025
Šarrukin	-6026
▁Damkina	-6027
▁Lullumu	-6028
▁Shamash	-6029
▁bearers	-6030
▁bruised	-6031
▁closely	-6032
▁clothes	-6033
▁crowned	-6034
▁diviner	-6035
▁durable	-6036
▁holding	-6037
▁kidneys	-6038
▁knobbed	-6039
▁reduced	-6040
▁renders	-6041
▁sisalhu	-6042
▁strikes	-6043
▁travers	-6044
▁Arṣaškun	-6045
▁Ispabāra	-6046
▁accounts	-6047
▁bouillon	-6048
▁detached	-6049
▁observed	-6050
▁somebody	-6051
▁supervis	-6052
▁Ḫamatite	-6053
▁Damascene	-6054
▁concerned	-6055
▁flattened	-6056
▁handiwork	-6057
▁intercede	-6058
▁sovereign	-6059
▁..........	-6060
▁chieftains	-6061
▁implements	-6062
▁legitimate	-6063
▁personally	-6064
▁stronghold	-6065
▁bittersweet	-6066
▁information	-6067
▁investigate	-6068
Wr	-6069
dâ	-6070
nâ	-6071
zā	-6072
Sin	-6073
aṭu	-6074
epu	-6075
keh	-6076
rep	-6077
rum	-6078
son	-6079
sue	-6080
vel	-6081
zer	-6082
ūlu	-6083
▁34	-6084
▁Ex	-6085
atua	-6086
bank	-6087
bari	-6088
bled	-6089
born	-6090
echo	-6091
elry	-6092
ginu	-6093
inti	-6094
ipes	-6095
rate	-6096
umma	-6097
uses	-6098
▁800	-6099
▁Mak	-6100
▁Pap	-6101
▁Ram	-6102
▁buy	-6103
▁dap	-6104
▁gaz	-6105
▁lad	-6106
Bring	-6107
Yakin	-6108
ankal	-6109
betti	-6110
cibly	-6111
fifty	-6112
ipped	-6113
lings	-6114
paled	-6115
tekeh	-6116
udges	-6117
▁Egaš	-6118
▁Ereš	-6119
▁Etem	-6120
▁Kark	-6121
▁Minu	-6122
▁Once	-6123
▁band	-6124
▁deer	-6125
▁frag	-6126
▁impl	-6127
▁pots	-6128
▁roam	-6129
▁stir	-6130
▁suff	-6131
▁till	-6132
▁tong	-6133
volent	-6134
▁Amman	-6135
▁Check	-6136
▁Eridu	-6137
▁Kummu	-6138
▁Larak	-6139
▁Necho	-6140
▁apart	-6141
▁belie	-6142
▁dying	-6143
▁forms	-6144
▁gowns	-6145
▁overc	-6146
▁piece	-6147
▁plott	-6148
▁rumor	-6149
▁state	-6150
▁tremb	-6151
▁worry	-6152
bearers	-6153
ression	-6154
▁Damunu	-6155
▁Sirāra	-6156
▁confed	-6157
▁curled	-6158
▁dissol	-6159
▁enclos	-6160
▁finest	-6161
▁joyous	-6162
▁needed	-6163
▁quiver	-6164
▁routes	-6165
▁select	-6166
▁swords	-6167
▁tunics	-6168
▁Šumaya	-6169
.......”	-6170
ordinate	-6171
Šarrukku	-6172
▁Eltekeh	-6173
▁Hittite	-6174
▁Mitinti	-6175
▁Setting	-6176
▁bedrock	-6177
▁checked	-6178
▁cutting	-6179
▁damaged	-6180
▁daprānu	-6181
▁freedom	-6182
▁impaled	-6183
▁leading	-6184
▁strives	-6185
▁“......	-6186
Palestine	-6187
commander	-6188
uballissu	-6189
▁Hubuškia	-6190
▁blessing	-6191
▁builders	-6192
▁conquest	-6193
▁destruct	-6194
▁forcibly	-6195
▁rejoiced	-6196
▁superior	-6197
▁trampled	-6198
▁Egašankal	-6199
▁Performed	-6200
▁confident	-6201
▁“.......”	-6202
▁Babylonian	-6203
▁delineated	-6204
▁lengthening	-6205
▁steadfastly	-6206
5.	-6207
Se	-6208
rû	-6209
zē	-6210
Sîn	-6211
dub	-6212
gum	-6213
key	-6214
rog	-6215
she	-6216
zaš	-6217
▁47	-6218
▁Ma	-6219
▁Pe	-6220
▁cr	-6221
Milk	-6222
Zabd	-6223
amar	-6224
apel	-6225
arsa	-6226
base	-6227
kins	-6228
obed	-6229
ours	-6230
qepu	-6231
urzu	-6232
ēreš	-6233
▁Mal	-6234
▁Nuh	-6235
▁Rib	-6236
▁Ull	-6237
▁ant	-6238
▁fal	-6239
▁fun	-6240
▁nar	-6241
▁rib	-6242
▁veh	-6243
Illil	-6244
Write	-6245
adanu	-6246
ifest	-6247
imony	-6248
isons	-6249
kitti	-6250
parna	-6251
sting	-6252
which	-6253
▁Addî	-6254
▁Last	-6255
▁Star	-6256
▁Zizî	-6257
▁bind	-6258
▁blow	-6259
▁cler	-6260
▁dece	-6261
▁hair	-6262
▁hang	-6263
▁harb	-6264
▁heap	-6265
▁legs	-6266
▁milk	-6267
▁mour	-6268
▁pile	-6269
▁pred	-6270
▁sand	-6271
▁“...	-6272
Dakuri	-6273
aggers	-6274
ahunga	-6275
atives	-6276
ekalli	-6277
fected	-6278
laught	-6279
ḫulēnu	-6280
▁Meḫru	-6281
▁Natnu	-6282
▁Queen	-6283
▁ducks	-6284
▁girls	-6285
▁impro	-6286
▁liver	-6287
▁oblig	-6288
▁palms	-6289
▁roads	-6290
▁sided	-6291
▁swept	-6292
▁track	-6293
▁truly	-6294
▁vehic	-6295
▁Ḫubuš	-6296
Zabdāni	-6297
courses	-6298
igalbat	-6299
▁Babitu	-6300
▁Gurumu	-6301
▁consid	-6302
▁eldest	-6303
▁extrac	-6304
▁happen	-6305
▁irginu	-6306
▁loaded	-6307
▁plague	-6308
▁purple	-6309
▁rather	-6310
▁refuse	-6311
▁silent	-6312
▁travel	-6313
▁Ḫarutu	-6314
▁Ḫirimu	-6315
coloured	-6316
ellation	-6317
plendent	-6318
▁Muṣaṣir	-6319
▁copings	-6320
▁deliber	-6321
▁helpers	-6322
▁jewelry	-6323
▁leaving	-6324
▁looking	-6325
▁neglect	-6326
▁radiant	-6327
▁sceptre	-6328
▁secrets	-6329
▁treated	-6330
▁Ḫilakku	-6331
▁Phrygian	-6332
▁intellig	-6333
▁manifest	-6334
▁platform	-6335
▁plotting	-6336
▁receives	-6337
▁reverent	-6338
▁completes	-6339
▁eršahunga	-6340
▁exorcists	-6341
▁fumigants	-6342
▁ornaments	-6343
▁relatives	-6344
▁represent	-6345
▁sumptuous	-6346
▁.........;	-6347
▁benevolent	-6348
▁repeatedly	-6349
▁terrifying	-6350
▁yourselves	-6351
▁administrat	-6352
▁intercalary	-6353
▁observation	-6354
▁resplendent	-6355
▁thoroughbred	-6356
▁victoriously	-6357
1.	-6358
Abt	-6359
aga	-6360
auš	-6361
ayy	-6362
aši	-6363
gid	-6364
hee	-6365
iln	-6366
mak	-6367
nap	-6368
nir	-6369
ugu	-6370
uts	-6371
yth	-6372
īnu	-6373
▁Bi	-6374
▁Ua	-6375
Sang	-6376
abni	-6377
aisi	-6378
arna	-6379
arsh	-6380
aššî	-6381
dict	-6382
iana	-6383
ingu	-6384
oute	-6385
vess	-6386
▁Dim	-6387
▁Don	-6388
▁Fav	-6389
▁Laḫ	-6390
▁Pit	-6391
▁Pur	-6392
▁Qar	-6393
▁amb	-6394
▁exc	-6395
▁lux	-6396
▁ons	-6397
Dagan	-6398
abitu	-6399
claim	-6400
elted	-6401
eness	-6402
ighed	-6403
riage	-6404
▁Anun	-6405
▁Bēlt	-6406
▁Dadi	-6407
▁Dari	-6408
▁Eṭir	-6409
▁Give	-6410
▁Part	-6411
▁Sakk	-6412
▁blue	-6413
▁crop	-6414
▁glaz	-6415
▁hunt	-6416
▁join	-6417
▁kiln	-6418
▁mold	-6419
▁nind	-6420
▁obed	-6421
▁perp	-6422
▁pest	-6423
▁quar	-6424
▁rock	-6425
▁shak	-6426
▁test	-6427
▁torn	-6428
Abtāni	-6429
astern	-6430
establ	-6431
plants	-6432
repair	-6433
▁5,000	-6434
▁Break	-6435
▁Isana	-6436
▁Kakka	-6437
▁Parrû	-6438
▁Qedar	-6439
▁Scyth	-6440
▁Ulūlu	-6441
▁Waisi	-6442
▁acted	-6443
▁altar	-6444
▁catch	-6445
▁consp	-6446
▁depic	-6447
▁dowry	-6448
▁exhau	-6449
▁music	-6450
▁prost	-6451
▁route	-6452
▁tears	-6453
▁weigh	-6454
▁Šamši	-6455
Milkūti	-6456
ference	-6457
ourable	-6458
▁Etemen	-6459
▁Gurgum	-6460
▁Review	-6461
▁Rivers	-6462
▁bakers	-6463
▁commun	-6464
▁divide	-6465
▁expand	-6466
▁forest	-6467
▁forgot	-6468
▁issued	-6469
▁market	-6470
▁reason	-6471
▁sungod	-6472
Mullissi	-6473
▁Habasti	-6474
▁bedroom	-6475
▁commiss	-6476
▁consign	-6477
▁delayed	-6478
▁drawing	-6479
▁flashes	-6480
▁heroism	-6481
▁pleased	-6482
▁praying	-6483
▁pursuit	-6484
▁renewed	-6485
▁roasted	-6486
▁serving	-6487
▁stopped	-6488
▁vessels	-6489
▁weighed	-6490
▁wherein	-6491
▁Šubrian	-6492
priestess	-6493
▁Irḫulēnu	-6494
▁Karkaššî	-6495
▁Tabalayu	-6496
▁capturer	-6497
▁dispatch	-6498
▁extended	-6499
▁formerly	-6500
▁harvests	-6501
▁marriage	-6502
▁overlaid	-6503
▁reporter	-6504
▁securing	-6505
▁totality	-6506
šallimanni	-6507
▁container	-6508
▁determine	-6509
▁disrepair	-6510
▁elephants	-6511
▁fragrance	-6512
▁garrisons	-6513
▁irrigated	-6514
▁onslaught	-6515
▁overturned	-6516
▁overwhelms	-6517
▁rebuilding	-6518
▁Ḫanigalbat	-6519
▁confederation	-6520
!’	-6521
':	-6522
30	-6523
nû	-6524
aka	-6525
asp	-6526
bro	-6527
cst	-6528
esi	-6529
igu	-6530
isi	-6531
kiš	-6532
mun	-6533
niš	-6534
udi	-6535
šim	-6536
ṣab	-6537
▁5,	-6538
▁90	-6539
▁Bū	-6540
▁Go	-6541
▁Ib	-6542
▁Op	-6543
▁Uk	-6544
▁cu	-6545
▁ef	-6546
Bāri	-6547
angu	-6548
apsi	-6549
atar	-6550
avil	-6551
bers	-6552
immê	-6553
inth	-6554
quer	-6555
stri	-6556
urtî	-6557
▁600	-6558
▁Are	-6559
▁Cit	-6560
▁Ent	-6561
▁Ner	-6562
▁Tom	-6563
▁Umb	-6564
▁bas	-6565
▁inl	-6566
▁jug	-6567
▁unf	-6568
acles	-6569
erted	-6570
floor	-6571
ibūti	-6572
idalu	-6573
iding	-6574
ously	-6575
psalm	-6576
thern	-6577
usion	-6578
▁Egal	-6579
▁alle	-6580
▁bows	-6581
▁cane	-6582
▁cart	-6583
▁cust	-6584
▁ecst	-6585
▁emer	-6586
▁ewes	-6587
▁ghee	-6588
▁haul	-6589
▁plus	-6590
▁rose	-6591
▁Šuma	-6592
▁šēdu	-6593
▁Ḫard	-6594
aḫḫēšu	-6595
ranean	-6596
ration	-6597
thirds	-6598
▁Ahabû	-6599
▁Enuma	-6600
▁Eriba	-6601
▁Marad	-6602
▁Nabay	-6603
▁Sirqu	-6604
▁Uaite	-6605
▁Ulāya	-6606
▁agate	-6607
▁bales	-6608
▁besee	-6609
▁blank	-6610
▁couch	-6611
▁flash	-6612
▁frost	-6613
▁funer	-6614
▁harsh	-6615
▁langu	-6616
▁lumin	-6617
▁nests	-6618
▁pavil	-6619
▁plent	-6620
▁ramps	-6621
▁reven	-6622
▁rolls	-6623
▁shoot	-6624
▁sings	-6625
▁spate	-6626
▁start	-6627
▁works	-6628
▁Šalim	-6629
Kubatti	-6630
garment	-6631
lawsuit	-6632
writing	-6633
▁Taklak	-6634
▁advice	-6635
▁bitter	-6636
▁bribes	-6637
▁flocks	-6638
▁flowed	-6639
▁hidden	-6640
▁kisses	-6641
▁narrow	-6642
▁plains	-6643
▁proced	-6644
▁remind	-6645
▁served	-6646
▁steady	-6647
▁strews	-6648
▁strugg	-6649
▁subdue	-6650
▁subter	-6651
▁sunset	-6652
▁united	-6653
▁vessel	-6654
▁wrists	-6655
▁Sangara	-6656
▁blesses	-6657
▁captive	-6658
▁ceremon	-6659
▁disobed	-6660
▁fifteen	-6661
▁inexper	-6662
▁install	-6663
▁invited	-6664
▁monthly	-6665
▁praised	-6666
▁vehicle	-6667
▁Ḫamrānu	-6668
Kurigalzu	-6669
▁Asalluhi	-6670
▁Tomorrow	-6671
▁appoints	-6672
▁detailed	-6673
▁ecstatic	-6674
▁enduring	-6675
▁examined	-6676
▁summoned	-6677
▁thinking	-6678
muballissu	-6679
residences	-6680
▁Cimmerian	-6681
▁certainly	-6682
▁dispersal	-6683
▁fifteenth	-6684
▁hostility	-6685
▁leftovers	-6686
▁neglected	-6687
▁sharpened	-6688
▁thundered	-6689
▁traversed	-6690
▁yesterday	-6691
established	-6692
▁Etemenanki	-6693
▁considered	-6694
▁contingent	-6695
▁difficulty	-6696
▁outstanding	-6697
▁celebrations	-6698
▁interruption	-6699
▁pomegranates	-6700
▁subterranean	-6701
▁constellation	-6702
▁superintendent	-6703
,1	-6704
pī	-6705
ḫe	-6706
400	-6707
Now	-6708
ete	-6709
htu	-6710
iḫu	-6711
lif	-6712
oci	-6713
paš	-6714
uss	-6715
zag	-6716
āṭu	-6717
ūzu	-6718
▁1-	-6719
▁38	-6720
▁BC	-6721
▁Ep	-6722
▁Tr	-6723
▁Us	-6724
▁Ya	-6725
▁aš	-6726
▁je	-6727
▁pi	-6728
Dadi	-6729
Gula	-6730
This	-6731
adar	-6732
duce	-6733
hend	-6734
iara	-6735
illê	-6736
iram	-6737
itor	-6738
išpu	-6739
lled	-6740
otan	-6741
room	-6742
tinu	-6743
urri	-6744
zēri	-6745
ēriš	-6746
▁Add	-6747
▁Bun	-6748
▁Dad	-6749
▁Edu	-6750
▁Kun	-6751
▁Kut	-6752
▁Nuš	-6753
▁Old	-6754
▁Pre	-6755
▁Qir	-6756
▁Upp	-6757
▁Uri	-6758
▁abs	-6759
▁cry	-6760
▁dit	-6761
▁paš	-6762
▁pub	-6763
▁sen	-6764
▁tan	-6765
▁try	-6766
ading	-6767
aggil	-6768
alaḫu	-6769
aṣbat	-6770
damiq	-6771
demon	-6772
dubbu	-6773
elled	-6774
emony	-6775
image	-6776
ittar	-6777
iṣṣir	-6778
nugal	-6779
nāṣir	-6780
udimm	-6781
usāte	-6782
zākir	-6783
▁645.	-6784
▁Araḫ	-6785
▁Atta	-6786
▁Bact	-6787
▁Dais	-6788
▁Ekiš	-6789
▁Enzi	-6790
▁Fire	-6791
▁Kenî	-6792
▁Kusu	-6793
▁Mali	-6794
▁Nash	-6795
▁Pill	-6796
▁Sarr	-6797
▁boys	-6798
▁didn	-6799
▁drew	-6800
▁empl	-6801
▁flee	-6802
▁fors	-6803
▁game	-6804
▁loin	-6805
▁palm	-6806
▁pays	-6807
▁sank	-6808
▁stud	-6809
▁womb	-6810
action	-6811
akannu	-6812
ašanni	-6813
ingers	-6814
though	-6815
▁Gurre	-6816
▁Image	-6817
▁Kudur	-6818
▁Media	-6819
▁Nanna	-6820
▁Rival	-6821
▁alert	-6822
▁armor	-6823
▁botan	-6824
▁carav	-6825
▁desol	-6826
▁extra	-6827
▁fetch	-6828
▁heaps	-6829
▁ident	-6830
▁lines	-6831
▁looks	-6832
▁occup	-6833
▁pierc	-6834
▁prays	-6835
▁pulls	-6836
▁scorp	-6837
▁turns	-6838
▁wings	-6839
▁worth	-6840
Dakkuri	-6841
eminent	-6842
priests	-6843
quently	-6844
▁Hamath	-6845
▁Malaḫu	-6846
▁Ninlil	-6847
▁Patinu	-6848
▁Vizier	-6849
▁arrive	-6850
▁associ	-6851
▁chapel	-6852
▁covers	-6853
▁eagles	-6854
▁figure	-6855
▁fruits	-6856
▁heeded	-6857
▁hiding	-6858
▁jewell	-6859
▁pestil	-6860
▁pieces	-6861
▁public	-6862
▁shaken	-6863
▁tanner	-6864
▁though	-6865
▁unsuit	-6866
▁waited	-6867
natively	-6868
▁Citadel	-6869
▁Enemies	-6870
▁Mušēzib	-6871
▁Nuhšaya	-6872
▁Sebetti	-6873
▁archite	-6874
▁believe	-6875
▁quality	-6876
▁revived	-6877
▁subduer	-6878
▁trouble	-6879
▁Bactrian	-6880
▁Naṣibina	-6881
▁Urzuhina	-6882
▁appeared	-6883
▁constant	-6884
▁courtier	-6885
▁depicted	-6886
▁deprived	-6887
▁distress	-6888
▁doorways	-6889
▁herdsman	-6890
▁litigate	-6891
▁northern	-6892
▁parapets	-6893
▁prisoner	-6894
▁remained	-6895
▁trampler	-6896
▁ziggurat	-6897
▁Ḫardišpu	-6898
▁botanical	-6899
▁conquests	-6900
▁creatures	-6901
▁foreigner	-6902
▁fugitives	-6903
▁greatness	-6904
▁protected	-6905
▁treasures	-6906
ursagkalama	-6907
▁distressed	-6908
▁harbakannu	-6909
▁irrigation	-6910
▁manageress	-6911
▁procedures	-6912
▁supervisor	-6913
▁utterances	-6914
▁Nabayateans	-6915
▁distributed	-6916
▁............	-6917
▁satisfaction	-6918
▁triumphantly	-6919
▁Eḫursagkurkurra	-6920
On	-6921
ga	-6922
gy	-6923
my	-6924
no	-6925
oe	-6926
Per	-6927
alc	-6928
amp	-6929
cam	-6930
gir	-6931
hat	-6932
hur	-6933
ibu	-6934
ilû	-6935
imu	-6936
mmu	-6937
ndû	-6938
tle	-6939
uku	-6940
umn	-6941
yss	-6942
zan	-6943
ālu	-6944
āna	-6945
▁44	-6946
▁7,	-6947
▁Bo	-6948
▁Gi	-6949
▁Gy	-6950
▁Ta	-6951
▁tu	-6952
▁vi	-6953
From	-6954
alam	-6955
apes	-6956
dinu	-6957
egis	-6958
ereb	-6959
fare	-6960
ibrê	-6961
illu	-6962
lies	-6963
lime	-6964
manu	-6965
namm	-6966
ople	-6967
reši	-6968
rutu	-6969
ukki	-6970
utam	-6971
utes	-6972
will	-6973
šaru	-6974
▁Haš	-6975
▁Huz	-6976
▁Ila	-6977
▁Lam	-6978
▁Qat	-6979
▁ago	-6980
▁ann	-6981
▁boy	-6982
▁dir	-6983
▁enl	-6984
▁inf	-6985
▁pus	-6986
▁wax	-6987
▁wol	-6988
▁Šid	-6989
abria	-6990
aeans	-6991
anged	-6992
asons	-6993
bound	-6994
eroom	-6995
irešu	-6996
itter	-6997
larim	-6998
lypty	-6999
water	-7000
▁651.	-7001
▁Ammi	-7002
▁Bari	-7003
▁Edom	-7004
▁Humb	-7005
▁Kumm	-7006
▁Puṭu	-7007
▁Send	-7008
▁beat	-7009
▁clan	-7010
▁dren	-7011
▁fold	-7012
▁furn	-7013
▁gems	-7014
▁girl	-7015
▁inac	-7016
▁inqu	-7017
▁obst	-7018
▁preg	-7019
▁sins	-7020
▁slay	-7021
Hamban	-7022
ammaku	-7023
camels	-7024
closed	-7025
enters	-7026
fruits	-7027
idence	-7028
nammir	-7029
nišēšu	-7030
▁6,000	-7031
▁Abyss	-7032
▁Akkud	-7033
▁Akītu	-7034
▁Ariye	-7035
▁Gibrê	-7036
▁Grand	-7037
▁Gyges	-7038
▁Kulla	-7039
▁Right	-7040
▁Tabnî	-7041
▁Tillê	-7042
▁aegis	-7043
▁finds	-7044
▁flask	-7045
▁intro	-7046
▁lying	-7047
▁meals	-7048
▁ninth	-7049
▁organ	-7050
▁pendû	-7051
▁pride	-7052
▁reply	-7053
▁rough	-7054
▁scent	-7055
▁separ	-7056
▁skull	-7057
▁sound	-7058
▁swift	-7059
▁tenth	-7060
▁trays	-7061
artinnu	-7062
iṣṣirtu	-7063
lyptych	-7064
udimmud	-7065
▁Arbayu	-7066
▁Dayyan	-7067
▁Qirbit	-7068
▁Tabale	-7069
▁cloaks	-7070
▁consec	-7071
▁deport	-7072
▁effect	-7073
▁felted	-7074
▁glazed	-7075
▁impost	-7076
▁invoke	-7077
▁mortar	-7078
▁offers	-7079
▁perish	-7080
▁perman	-7081
▁refurb	-7082
▁safety	-7083
▁severe	-7084
cessible	-7085
▁Belšunu	-7086
▁Habruru	-7087
▁Sarduri	-7088
▁belongs	-7089
▁central	-7090
▁conceal	-7091
▁consume	-7092
▁defeats	-7093
▁entreat	-7094
▁forsake	-7095
▁happens	-7096
▁killing	-7097
▁knotted	-7098
▁marches	-7099
▁recover	-7100
▁running	-7101
▁silence	-7102
▁sublime	-7103
▁warfare	-7104
▁younger	-7105
▁Ḫindaru	-7106
▁Ḫirimmu	-7107
▁Barhalzi	-7108
▁Nudimmud	-7109
▁colossal	-7110
▁conclude	-7111
▁emissary	-7112
▁expertly	-7113
▁friendly	-7114
▁funerary	-7115
▁listened	-7116
▁pregnant	-7117
▁prompted	-7118
▁provider	-7119
▁purchase	-7120
▁replicas	-7121
▁suckling	-7122
▁troubled	-7123
▁weighing	-7124
▁Šabirešu	-7125
ingernails	-7126
▁Tammaritu	-7127
▁accession	-7128
▁beseeched	-7129
▁disclosed	-7130
▁dispersed	-7131
▁guarantor	-7132
▁jewellery	-7133
▁ourselves	-7134
▁pavilions	-7135
▁polyptych	-7136
▁requested	-7137
▁servitude	-7138
▁storeroom	-7139
▁treachery	-7140
▁Eḫursaggal	-7141
▁colleagues	-7142
▁directions	-7143
▁pestilence	-7144
▁plundering	-7145
▁thirteenth	-7146
▁unsuitable	-7147
▁Unfavorable	-7148
▁countryside	-7149
▁destructive	-7150
▁trustworthy	-7151
▁accomplished	-7152
▁inaccessible	-7153
▁Carchemishite	-7154
▁administrator	-7155
10	-7156
Re	-7157
lâ	-7158
sa	-7159
uq	-7160
āt	-7161
ūk	-7162
All	-7163
acy	-7164
aly	-7165
bra	-7166
fth	-7167
ger	-7168
iet	-7169
iff	-7170
iod	-7171
ius	-7172
išu	-7173
ogh	-7174
rah	-7175
teg	-7176
who	-7177
▁35	-7178
▁Di	-7179
▁Ik	-7180
▁di	-7181
▁iš	-7182
acle	-7183
altâ	-7184
aqqu	-7185
bīti	-7186
cles	-7187
gabb	-7188
ikni	-7189
ises	-7190
išši	-7191
nice	-7192
qunu	-7193
ults	-7194
zēra	-7195
ēṭir	-7196
▁180	-7197
▁360	-7198
▁Ear	-7199
▁Kam	-7200
▁Kaḫ	-7201
▁Kid	-7202
▁Lip	-7203
▁Men	-7204
▁Mes	-7205
▁Muq	-7206
▁Paq	-7207
▁San	-7208
▁Sec	-7209
▁Sik	-7210
▁Tun	-7211
▁Tur	-7212
▁Yad	-7213
▁amu	-7214
▁ate	-7215
▁dig	-7216
▁few	-7217
▁hoe	-7218
▁job	-7219
▁kor	-7220
▁med	-7221
▁mis	-7222
▁mud	-7223
▁tab	-7224
▁Šib	-7225
▁Ḫaz	-7226
Ammon	-7227
Milki	-7228
aling	-7229
erved	-7230
etent	-7231
kabti	-7232
leans	-7233
rehtu	-7234
right	-7235
river	-7236
tebra	-7237
▁Bird	-7238
▁Bāzu	-7239
▁Comm	-7240
▁Enam	-7241
▁Make	-7242
▁Pars	-7243
▁Raḫi	-7244
▁Riba	-7245
▁Uṣur	-7246
▁Year	-7247
▁afar	-7248
▁calf	-7249
▁exec	-7250
▁fulf	-7251
▁huge	-7252
▁nine	-7253
▁nose	-7254
▁palû	-7255
▁rely	-7256
▁shed	-7257
▁stel	-7258
▁vats	-7259
▁wash	-7260
argilâ	-7261
change	-7262
hipper	-7263
immeri	-7264
isting	-7265
itated	-7266
jected	-7267
oghurt	-7268
onging	-7269
pector	-7270
utamon	-7271
▁Alter	-7272
▁Bikni	-7273
▁Daltâ	-7274
▁Ekall	-7275
▁Haldi	-7276
▁Nušku	-7277
▁Purul	-7278
▁Suḫme	-7279
▁armch	-7280
▁boars	-7281
▁camel	-7282
▁charm	-7283
▁chose	-7284
▁drive	-7285
▁elite	-7286
▁insub	-7287
▁irons	-7288
▁knees	-7289
▁learn	-7290
▁maint	-7291
▁point	-7292
▁quiet	-7293
▁raged	-7294
▁sense	-7295
▁steps	-7296
▁tereb	-7297
▁tried	-7298
▁value	-7299
▁vener	-7300
▁vigil	-7301
Dakkūri	-7302
estival	-7303
hamatua	-7304
outside	-7305
▁Accord	-7306
▁Herald	-7307
▁Kisiru	-7308
▁Nabatu	-7309
▁Patine	-7310
▁Ulluba	-7311
▁ambush	-7312
▁bonded	-7313
▁canebr	-7314
▁circle	-7315
▁clergy	-7316
▁deceit	-7317
▁depart	-7318
▁emblem	-7319
▁enough	-7320
▁feared	-7321
▁instit	-7322
▁kamanu	-7323
▁period	-7324
▁profit	-7325
▁riding	-7326
▁scarce	-7327
▁senior	-7328
▁stakes	-7329
▁wanted	-7330
ittarius	-7331
▁Anunitu	-7332
▁Arrapḫa	-7333
▁Cilicia	-7334
▁Gabbaru	-7335
▁Kummuḫu	-7336
▁arrival	-7337
▁barbari	-7338
▁cornice	-7339
▁drivers	-7340
▁figures	-7341
▁friends	-7342
▁hitched	-7343
▁offices	-7344
▁opening	-7345
▁returns	-7346
▁seventy	-7347
▁strange	-7348
▁twelfth	-7349
▁wailing	-7350
▁washing	-7351
▁worship	-7352
tubašanni	-7353
▁......?"	-7354
▁Gurreans	-7355
▁antimony	-7356
▁arranged	-7357
▁ceremony	-7358
▁confused	-7359
▁implored	-7360
▁language	-7361
▁nominate	-7362
▁portends	-7363
▁proclaim	-7364
▁relented	-7365
▁ritually	-7366
▁stomachs	-7367
▁vertebra	-7368
▁Belonging	-7369
▁Gambulian	-7370
▁Tanutamon	-7371
▁brilliant	-7372
▁buildings	-7373
▁chieftain	-7374
▁dissolved	-7375
▁enclosure	-7376
▁gardeners	-7377
▁perfected	-7378
▁plentiful	-7379
▁proceeded	-7380
▁providing	-7381
▁renovates	-7382
▁terebinth	-7383
▁carpenters	-7384
▁confidence	-7385
▁consisting	-7386
▁downstream	-7387
▁perfection	-7388
▁successful	-7389
▁worshipper	-7390
▁Sagittarius	-7391
▁administers	-7392
▁battlefield	-7393
▁fingernails	-7394
▁responsible	-7395
▁intelligence	-7396
▁Ḫursagkalama	-7397
▁Alternatively	-7398
▁circumference	-7399
▁compassionate	-7400
▁insubordinate	-7401
▁multicoloured	-7402
▁thoroughbreds	-7403
af	-7404
dê	-7405
ūn	-7406
600	-7407
ffs	-7408
gim	-7409
him	-7410
iaš	-7411
ien	-7412
iga	-7413
igl	-7414
iya	-7415
izu	-7416
ntu	-7417
pak	-7418
rua	-7419
ruk	-7420
sak	-7421
taš	-7422
šam	-7423
▁95	-7424
▁Ay	-7425
▁Ka	-7426
▁Kê	-7427
▁sy	-7428
▁—,	-7429
Yate	-7430
aith	-7431
ales	-7432
allî	-7433
amru	-7434
arra	-7435
ezes	-7436
izon	-7437
lied	-7438
marû	-7439
peak	-7440
rion	-7441
rown	-7442
stay	-7443
ulmu	-7444
upat	-7445
yard	-7446
šiku	-7447
▁250	-7448
▁Ahû	-7449
▁Ame	-7450
▁Arg	-7451
▁Bas	-7452
▁Dag	-7453
▁Gut	-7454
▁Nik	-7455
▁Paš	-7456
▁Riḫ	-7457
▁Yet	-7458
▁beg	-7459
▁bīt	-7460
▁hus	-7461
▁inj	-7462
▁išk	-7463
▁lac	-7464
▁roe	-7465
▁spo	-7466
▁vot	-7467
Barrû	-7468
appro	-7469
aratu	-7470
aring	-7471
build	-7472
cuffs	-7473
eries	-7474
essed	-7475
issar	-7476
lamši	-7477
otion	-7478
pašir	-7479
pices	-7480
▁Aplu	-7481
▁Balṭ	-7482
▁Care	-7483
▁Come	-7484
▁Four	-7485
▁Gall	-7486
▁Itti	-7487
▁Marq	-7488
▁Padd	-7489
▁Tard	-7490
▁Ukke	-7491
▁atro	-7492
▁barn	-7493
▁blew	-7494
▁bund	-7495
▁conv	-7496
▁dise	-7497
▁edge	-7498
▁graz	-7499
▁hewn	-7500
▁hord	-7501
▁lost	-7502
▁mutu	-7503
▁pond	-7504
▁poor	-7505
▁rods	-7506
▁sack	-7507
▁sear	-7508
▁slip	-7509
▁ēntu	-7510
▁Šadi	-7511
Zamāni	-7512
ardilû	-7513
arried	-7514
arture	-7515
essunu	-7516
ricted	-7517
ubištu	-7518
velous	-7519
šumate	-7520
▁1,200	-7521
▁4,000	-7522
▁Kittu	-7523
▁Orion	-7524
▁Sanda	-7525
▁Tummu	-7526
▁Ubudu	-7527
▁absol	-7528
▁bears	-7529
▁board	-7530
▁crush	-7531
▁demon	-7532
▁ghost	-7533
▁guide	-7534
▁initi	-7535
▁pluck	-7536
▁posts	-7537
▁princ	-7538
▁risen	-7539
▁scion	-7540
▁spend	-7541
▁stage	-7542
▁tells	-7543
▁tiara	-7544
aithful	-7545
appings	-7546
enances	-7547
eskannu	-7548
▁Commag	-7549
▁Eponym	-7550
▁Izalla	-7551
▁Izirtu	-7552
▁Kubabu	-7553
▁Nerigl	-7554
▁Riḫiḫu	-7555
▁Sirius	-7556
▁agreed	-7557
▁bigger	-7558
▁breach	-7559
▁embank	-7560
▁festiv	-7561
▁garlic	-7562
▁glance	-7563
▁grapes	-7564
▁judges	-7565
▁little	-7566
▁livers	-7567
▁luxuri	-7568
▁obtain	-7569
▁ordain	-7570
▁ripped	-7571
▁shadow	-7572
▁spirit	-7573
▁sprink	-7574
▁thighs	-7575
▁worked	-7576
▁Ḫidalu	-7577
mudammiq	-7578
therwise	-7579
▁Akkuddu	-7580
▁Bēltīya	-7581
▁Kirruru	-7582
▁Lubarna	-7583
▁Ninšiku	-7584
▁Pillatu	-7585
▁beneath	-7586
▁breasts	-7587
▁confirm	-7588
▁disturb	-7589
▁fearful	-7590
▁forests	-7591
▁godhead	-7592
▁horizon	-7593
▁kettled	-7594
▁leveled	-7595
▁plaster	-7596
▁product	-7597
▁rainbow	-7598
▁refuses	-7599
▁regards	-7600
▁stretch	-7601
▁utterly	-7602
▁various	-7603
▁watched	-7604
alabaster	-7605
inspector	-7606
▁Barhalza	-7607
▁Patinean	-7608
▁Sakkannu	-7609
▁accompan	-7610
▁appeased	-7611
▁creature	-7612
▁diviners	-7613
▁eclipsed	-7614
▁glorious	-7615
▁goodwill	-7616
▁humility	-7617
▁mainstay	-7618
▁majestic	-7619
▁managers	-7620
▁mourning	-7621
▁obedient	-7622
▁saplings	-7623
▁treaties	-7624
▁attendant	-7625
▁barbarian	-7626
▁circumamb	-7627
▁departure	-7628
▁deserters	-7629
▁judgement	-7630
▁marvelous	-7631
▁pedestals	-7632
▁resettled	-7633
▁splendour	-7634
Sennacherib	-7635
▁.........,	-7636
▁embankment	-7637
▁everywhere	-7638
▁haruspices	-7639
▁pappardilû	-7640
▁protective	-7641
▁remembered	-7642
▁residences	-7643
▁submission	-7644
▁Neriglissar	-7645
▁consecrated	-7646
▁constricted	-7647
▁consumption	-7648
▁establishes	-7649
▁appropriated	-7650
▁housekeepers	-7651
▁appurtenances	-7652
/3	-7653
/4	-7654
Im	-7655
To	-7656
Ur	-7657
go	-7658
ām	-7659
šî	-7660
ṣh	-7661
▁0	-7662
Teš	-7663
anâ	-7664
apu	-7665
bid	-7666
het	-7667
iye	-7668
ler	-7669
opy	-7670
ror	-7671
sia	-7672
tel	-7673
usî	-7674
ūgi	-7675
ūnī	-7676
▁71	-7677
▁75	-7678
▁Bu	-7679
▁Fl	-7680
▁Hu	-7681
▁eš	-7682
Your	-7683
aniš	-7684
apil	-7685
emed	-7686
ezin	-7687
jamb	-7688
niše	-7689
orse	-7690
ramu	-7691
rank	-7692
roud	-7693
suri	-7694
ubil	-7695
ultu	-7696
zanu	-7697
▁10,	-7698
▁2/3	-7699
▁20,	-7700
▁208	-7701
▁DNN	-7702
▁Din	-7703
▁Had	-7704
▁Hub	-7705
▁Hum	-7706
▁Mud	-7707
▁Niq	-7708
▁Niḫ	-7709
▁Pil	-7710
▁Tre	-7711
▁Und	-7712
▁Whe	-7713
▁bet	-7714
▁ign	-7715
▁ing	-7716
▁lep	-7717
▁pac	-7718
▁rod	-7719
▁Šap	-7720
Kapsi	-7721
Tešub	-7722
abānu	-7723
adarâ	-7724
amnir	-7725
ašmar	-7726
birds	-7727
cribe	-7728
ecess	-7729
gamil	-7730
icate	-7731
isher	-7732
iture	-7733
mannu	-7734
night	-7735
osion	-7736
phied	-7737
urity	-7738
ṣhatu	-7739
▁Duri	-7740
▁Eris	-7741
▁Lulî	-7742
▁Munn	-7743
▁Narg	-7744
▁Opis	-7745
▁Pulu	-7746
▁Puṭi	-7747
▁Sukk	-7748
▁Sūru	-7749
▁Upon	-7750
▁anom	-7751
▁drug	-7752
▁grou	-7753
▁hast	-7754
▁levy	-7755
▁pānu	-7756
▁stab	-7757
▁tent	-7758
▁Šakk	-7759
▁Ḫarḫ	-7760
alcitr	-7761
amašši	-7762
aneans	-7763
arding	-7764
arikka	-7765
elling	-7766
icious	-7767
issiya	-7768
queror	-7769
temple	-7770
uṣalli	-7771
vation	-7772
▁Above	-7773
▁Adian	-7774
▁Adūnī	-7775
▁Ameka	-7776
▁Aridu	-7777
▁Banbâ	-7778
▁Dimtu	-7779
▁Eṭiru	-7780
▁Nadin	-7781
▁Rezin	-7782
▁Sukki	-7783
▁Tiara	-7784
▁ashes	-7785
▁crack	-7786
▁dance	-7787
▁drops	-7788
▁figur	-7789
▁hards	-7790
▁incom	-7791
▁jubil	-7792
▁labor	-7793
▁loins	-7794
▁nobly	-7795
▁nomin	-7796
▁pitch	-7797
▁resin	-7798
▁smith	-7799
▁swing	-7800
▁visit	-7801
▁youth	-7802
▁Ḫabur	-7803
......,	-7804
Tukulti	-7805
andered	-7806
bessunu	-7807
hearted	-7808
theless	-7809
▁Balaṭu	-7810
▁Enamḫe	-7811
▁Kalkal	-7812
▁Kipani	-7813
▁Narudi	-7814
▁Scribe	-7815
▁Undasu	-7816
▁Within	-7817
▁afflic	-7818
▁basalt	-7819
▁chased	-7820
▁claims	-7821
▁compan	-7822
▁conver	-7823
▁dishes	-7824
▁ešmarû	-7825
▁finger	-7826
▁forbid	-7827
▁herons	-7828
▁income	-7829
▁inlays	-7830
▁iškāru	-7831
▁legate	-7832
▁reaped	-7833
▁sevent	-7834
▁straps	-7835
▁walked	-7836
appropri	-7837
cription	-7838
▁Apladad	-7839
▁Kidmuri	-7840
▁Mandanu	-7841
▁Raḫiānu	-7842
▁Tukulti	-7843
▁Yadaqqu	-7844
▁architr	-7845
▁boatmen	-7846
▁copious	-7847
▁disease	-7848
▁erosion	-7849
▁guarded	-7850
▁maṣhatu	-7851
▁pašallu	-7852
▁pierced	-7853
▁ravaged	-7854
▁spirits	-7855
▁subdues	-7856
▁wounded	-7857
Sangibūti	-7858
alcitrant	-7859
▁.......,	-7860
▁Ammanāna	-7861
▁Overwhel	-7862
▁Umbadarâ	-7863
▁assemble	-7864
▁deserted	-7865
▁discards	-7866
▁exchange	-7867
▁faithful	-7868
▁gatekeep	-7869
▁goodness	-7870
▁hardship	-7871
▁overcast	-7872
▁polished	-7873
▁possible	-7874
▁presents	-7875
▁rebuilds	-7876
▁recessed	-7877
▁recorded	-7878
▁resettle	-7879
▁sartinnu	-7880
▁Ḫararatu	-7881
▁Otherwise	-7882
▁Scythians	-7883
▁architect	-7884
▁atrophied	-7885
▁blessings	-7886
▁competent	-7887
▁conceived	-7888
▁displayed	-7889
▁exhausted	-7890
▁handcuffs	-7891
▁luxuriant	-7892
▁mobilized	-7893
▁predecess	-7894
▁provision	-7895
▁utterance	-7896
▁battleline	-7897
▁disappears	-7898
▁eighteenth	-7899
▁friendship	-7900
▁inappropri	-7901
▁leadership	-7902
▁ordinances	-7903
▁respectful	-7904
▁splendidly	-7905
▁subjugated	-7906
▁surpassing	-7907
▁unfaithful	-7908
▁countenance	-7909
▁seventeenth	-7910
▁governorship	-7911
▁recalcitrant	-7912
▁reinforcements	-7913
.5	-7914
2,	-7915
Le	-7916
My	-7917
kn	-7918
’,	-7919
▁,	-7920
300	-7921
Anu	-7922
Dag	-7923
Did	-7924
adû	-7925
arb	-7926
ašr	-7927
beh	-7928
bān	-7929
dem	-7930
gue	-7931
igs	-7932
int	-7933
ipe	-7934
isk	-7935
niz	-7936
pro	-7937
ric	-7938
utû	-7939
vil	-7940
zēr	-7941
▁45	-7942
▁52	-7943
▁Pl	-7944
▁Ro	-7945
▁Ut	-7946
▁Uz	-7947
▁da	-7948
Lady	-7949
alua	-7950
amme	-7951
anim	-7952
anks	-7953
arda	-7954
aḫum	-7955
back	-7956
bāni	-7957
city	-7958
deni	-7959
eter	-7960
immi	-7961
ipar	-7962
oast	-7963
pada	-7964
pale	-7965
phor	-7966
ruth	-7967
tide	-7968
uber	-7969
ugul	-7970
umzu	-7971
zera	-7972
ūnum	-7973
▁1,1	-7974
▁190	-7975
▁3/4	-7976
▁Dab	-7977
▁Iba	-7978
▁Nah	-7979
▁Nat	-7980
▁Nūr	-7981
▁Pis	-7982
▁Qib	-7983
▁Qum	-7984
▁Rūk	-7985
▁Urk	-7986
▁Zan	-7987
▁anx	-7988
▁bat	-7989
▁cul	-7990
▁fit	-7991
▁hem	-7992
▁huh	-7993
▁inn	-7994
▁mod	-7995
▁nap	-7996
▁sim	-7997
▁tow	-7998
ababa	-7999
ahhir	-8000
aller	-8001
aming	-8002
aniba	-8003
aning	-8004
annan	-8005
aqqin	-8006
assed	-8007
assus	-8008
cakes	-8009
cloth	-8010
court	-8011
first	-8012
gates	-8013
haust	-8014
idean	-8015
kuṣur	-8016
oking	-8017
osing	-8018
reath	-8019
salim	-8020
urnat	-8021
urrum	-8022
šumki	-8023
▁Adia	-8024
▁Anti	-8025
▁Arzâ	-8026
▁Cour	-8027
▁Elen	-8028
▁Five	-8029
▁Gold	-8030
▁Hall	-8031
▁Hand	-8032
▁Izbu	-8033
▁Išum	-8034
▁Lall	-8035
▁Nunn	-8036
▁Phil	-8037
▁Talm	-8038
▁Tarḫ	-8039
▁argu	-8040
▁aven	-8041
▁bury	-8042
▁cans	-8043
▁copy	-8044
▁cous	-8045
▁cows	-8046
▁debt	-8047
▁goat	-8048
▁gran	-8049
▁gush	-8050
▁hard	-8051
▁late	-8052
▁lest	-8053
▁mare	-8054
▁size	-8055
▁sort	-8056
▁tuft	-8057
▁tunn	-8058
▁vass	-8059
▁Šama	-8060
Palace	-8061
ainous	-8062
asters	-8063
cation	-8064
column	-8065
itions	-8066
loaves	-8067
ortune	-8068
riders	-8069
rising	-8070
▁1,500	-8071
▁Agade	-8072
▁Birat	-8073
▁Dummu	-8074
▁Lands	-8075
▁Larsa	-8076
▁Lugal	-8077
▁Maybe	-8078
▁Nargî	-8079
▁Nemed	-8080
▁Never	-8081
▁Nēmet	-8082
▁accum	-8083
▁align	-8084
▁asses	-8085
▁aveng	-8086
▁blasp	-8087
▁bribe	-8088
▁fissu	-8089
▁glaze	-8090
▁glory	-8091
▁hangs	-8092
▁hears	-8093
▁issue	-8094
▁knelt	-8095
▁lover	-8096
▁maker	-8097
▁molds	-8098
▁newly	-8099
▁olive	-8100
▁pater	-8101
▁piles	-8102
▁pipes	-8103
▁price	-8104
▁proud	-8105
▁qirsu	-8106
▁sated	-8107
▁seeds	-8108
▁shame	-8109
▁taboo	-8110
▁tombs	-8111
▁train	-8112
▁tubes	-8113
▁using	-8114
▁victu	-8115
▁Šarur	-8116
▁Ḫagar	-8117
▁Ḫilmu	-8118
centers	-8119
daggers	-8120
ilities	-8121
ivalent	-8122
mešarra	-8123
ranking	-8124
▁20,000	-8125
▁Aplāya	-8126
▁Bubilu	-8127
▁Dananu	-8128
▁Eunuch	-8129
▁Ibašši	-8130
▁Ikūnum	-8131
▁Ilumma	-8132
▁Inurtî	-8133
▁Maniye	-8134
▁Mašmaš	-8135
▁People	-8136
▁Silver	-8137
▁Tuqunu	-8138
▁Zabban	-8139
▁absent	-8140
▁amphor	-8141
▁begins	-8142
▁better	-8143
▁bucket	-8144
▁curses	-8145
▁differ	-8146
▁draped	-8147
▁exceed	-8148
▁ghosts	-8149
▁groats	-8150
▁groves	-8151
▁instig	-8152
▁intact	-8153
▁laying	-8154
▁lights	-8155
▁locked	-8156
▁nephew	-8157
▁ninety	-8158
▁nought	-8159
▁prepar	-8160
▁roamed	-8161
▁season	-8162
▁shaved	-8163
▁shines	-8164
▁shoots	-8165
▁shouts	-8166
▁waging	-8167
▁winged	-8168
▁Ḫalman	-8169
▁Ḫašmar	-8170
▁Hindanu	-8171
▁Hubuški	-8172
▁Meturna	-8173
▁Ninagal	-8174
▁Philist	-8175
▁Rūkibtu	-8176
▁Sukkaya	-8177
▁Whether	-8178
▁appease	-8179
▁brewers	-8180
▁concern	-8181
▁custody	-8182
▁desires	-8183
▁eastern	-8184
▁estates	-8185
▁exactly	-8186
▁exempts	-8187
▁existed	-8188
▁favours	-8189
▁friezes	-8190
▁further	-8191
▁getting	-8192
▁illumin	-8193
▁lasting	-8194
▁lineage	-8195
▁observe	-8196
▁parched	-8197
▁putting	-8198
▁quarter	-8199
▁quivers	-8200
▁raining	-8201
▁request	-8202
▁selling	-8203
▁sheaves	-8204
▁singing	-8205
▁tremble	-8206
▁verdict	-8207
▁weeping	-8208
haustible	-8209
heartedly	-8210
▁Melidean	-8211
▁bestowed	-8212
▁consumed	-8213
▁controll	-8214
▁drenched	-8215
▁firewood	-8216
▁flourish	-8217
▁imprison	-8218
▁inflated	-8219
▁neighbor	-8220
▁openings	-8221
▁paternal	-8222
▁preserve	-8223
▁princess	-8224
▁progress	-8225
▁rendered	-8226
▁restores	-8227
▁runaways	-8228
▁struggle	-8229
▁supplies	-8230
▁uprising	-8231
▁watering	-8232
▁Ḫagarānu	-8233
ifications	-8234
▁Ekišnugal	-8235
▁Munnabitu	-8236
▁Nunnamnir	-8237
▁Purulumzu	-8238
▁Regarding	-8239
▁campaigns	-8240
▁conscript	-8241
▁festivals	-8242
▁horseback	-8243
▁prevailed	-8244
▁recovered	-8245
▁relations	-8246
▁respected	-8247
▁thickness	-8248
▁vertebrae	-8249
Shalmaneser	-8250
▁Thereafter	-8251
▁Throughout	-8252
▁bodyguards	-8253
▁equivalent	-8254
▁imprisoned	-8255
▁inexpertly	-8256
▁kettledrum	-8257
▁victualler	-8258
▁villainous	-8259
▁accumulated	-8260
▁architraves	-8261
▁battlements	-8262
▁celebration	-8263
▁emplacement	-8264
▁hostilities	-8265
▁interrupted	-8266
▁refurbished	-8267
▁transported	-8268
▁craftsmanship	-8269
▁inexhaustible	-8270
▁righteousness	-8271
▁representative	-8272
!'	-8273
,’	-8274
No	-8275
bû	-8276
nê	-8277
tî	-8278
šê	-8279
Con	-8280
abî	-8281
agi	-8282
amû	-8283
bir	-8284
cle	-8285
ded	-8286
fig	-8287
inû	-8288
išt	-8289
kar	-8290
lad	-8291
qia	-8292
sag	-8293
uct	-8294
upp	-8295
uṣu	-8296
āsi	-8297
ūmu	-8298
▁31	-8299
▁41	-8300
▁58	-8301
▁59	-8302
▁6,	-8303
▁Eh	-8304
▁Ha	-8305
▁dw	-8306
▁mē	-8307
▁ps	-8308
▁sg	-8309
▁Še	-8310
Take	-8311
Zual	-8312
addî	-8313
alty	-8314
appu	-8315
asta	-8316
attu	-8317
auld	-8318
bina	-8319
biya	-8320
bānî	-8321
cake	-8322
ctor	-8323
eech	-8324
fall	-8325
gium	-8326
gunu	-8327
imur	-8328
madi	-8329
matu	-8330
opes	-8331
pest	-8332
qamu	-8333
rick	-8334
ritu	-8335
rook	-8336
rope	-8337
unnu	-8338
urra	-8339
yoke	-8340
zana	-8341
šadû	-8342
ṭuru	-8343
▁Amm	-8344
▁Baq	-8345
▁Div	-8346
▁Fin	-8347
▁Hur	-8348
▁Kus	-8349
▁Kuš	-8350
▁Mah	-8351
▁Mat	-8352
▁Maḫ	-8353
▁Qal	-8354
▁Tru	-8355
▁Tug	-8356
▁Tum	-8357
▁Yab	-8358
▁agg	-8359
▁che	-8360
▁fly	-8361
▁fow	-8362
▁gor	-8363
▁kne	-8364
▁riv	-8365
▁rub	-8366
abiya	-8367
allak	-8368
aninu	-8369
arged	-8370
asper	-8371
aḫlum	-8372
damqu	-8373
erily	-8374
fifth	-8375
horse	-8376
ilies	-8377
ketti	-8378
limmu	-8379
owers	-8380
phist	-8381
sheep	-8382
sters	-8383
stood	-8384
three	-8385
ulate	-8386
umuna	-8387
uties	-8388
ṣabat	-8389
▁800,	-8390
▁Ammu	-8391
▁Apsû	-8392
▁Dakk	-8393
▁Ebeh	-8394
▁Firm	-8395
▁Giri	-8396
▁Iata	-8397
▁Iqbi	-8398
▁Issi	-8399
▁Katê	-8400
▁Raši	-8401
▁Saba	-8402
▁axes	-8403
▁comb	-8404
▁cres	-8405
▁deed	-8406
▁dirt	-8407
▁exit	-8408
▁gore	-8409
▁hate	-8410
▁hoes	-8411
▁kids	-8412
▁ramp	-8413
▁reck	-8414
▁sail	-8415
▁scul	-8416
▁seac	-8417
▁stop	-8418
▁surv	-8419
▁thie	-8420
▁tubs	-8421
▁viol	-8422
anther	-8423
asurer	-8424
balaṭi	-8425
copper	-8426
ctacle	-8427
dammiq	-8428
idmuru	-8429
keness	-8430
resses	-8431
uments	-8432
▁Adapa	-8433
▁Aries	-8434
▁Brook	-8435
▁Bēlat	-8436
▁Cyrus	-8437
▁Field	-8438
▁Halah	-8439
▁Irsia	-8440
▁Makan	-8441
▁Qatnu	-8442
▁Samnu	-8443
▁Third	-8444
▁Would	-8445
▁advis	-8446
▁amūmu	-8447
▁apple	-8448
▁artis	-8449
▁cakes	-8450
▁carts	-8451
▁cauld	-8452
▁ditch	-8453
▁diver	-8454
▁doves	-8455
▁drank	-8456
▁faint	-8457
▁gallû	-8458
▁laden	-8459
▁midru	-8460
▁naked	-8461
▁penet	-8462
▁smash	-8463
▁solid	-8464
▁stays	-8465
▁stern	-8466
▁sting	-8467
▁suits	-8468
▁sweep	-8469
▁types	-8470
▁urudû	-8471
▁vigor	-8472
Tukultī	-8473
erously	-8474
estines	-8475
gabbāri	-8476
gimilli	-8477
ionally	-8478
respect	-8479
upahhir	-8480
vessels	-8481
šimanni	-8482
▁Araḫtu	-8483
▁Bitter	-8484
▁Egipar	-8485
▁Issete	-8486
▁Laḫīru	-8487
▁Nashir	-8488
▁Ukkean	-8489
▁armory	-8490
▁befell	-8491
▁behold	-8492
▁burden	-8493
▁chains	-8494
▁choose	-8495
▁closed	-8496
▁comply	-8497
▁compre	-8498
▁edging	-8499
▁expend	-8500
▁exuber	-8501
▁guided	-8502
▁helped	-8503
▁intend	-8504
▁magnif	-8505
▁masons	-8506
▁muster	-8507
▁rebels	-8508
▁relief	-8509
▁result	-8510
▁slopes	-8511
▁steeds	-8512
▁steles	-8513
▁vigour	-8514
▁Ḫamānu	-8515
eṭiranni	-8516
festival	-8517
▁208,000	-8518
▁Elenzaš	-8519
▁Finally	-8520
▁Gutians	-8521
▁Hindana	-8522
▁Issaran	-8523
▁Nisannu	-8524
▁affairs	-8525
▁beseech	-8526
▁chanter	-8527
▁consent	-8528
▁content	-8529
▁deficit	-8530
▁discuss	-8531
▁display	-8532
▁emblems	-8533
▁enlarge	-8534
▁fetched	-8535
▁gaining	-8536
▁gateway	-8537
▁glorify	-8538
▁husband	-8539
▁insides	-8540
▁insight	-8541
▁insigni	-8542
▁invoked	-8543
▁loyalty	-8544
▁masters	-8545
▁oracles	-8546
▁passing	-8547
▁pasture	-8548
▁portent	-8549
▁prophet	-8550
▁ravines	-8551
▁reports	-8552
▁scholar	-8553
▁serious	-8554
▁sophist	-8555
▁tempest	-8556
▁visited	-8557
▁watered	-8558
sequently	-8559
▁Salamanu	-8560
▁Tumurrum	-8561
▁Wherever	-8562
▁ancestor	-8563
▁barnyard	-8564
▁blasphem	-8565
▁carriage	-8566
▁concerns	-8567
▁covering	-8568
▁families	-8569
▁guarding	-8570
▁investig	-8571
▁likeness	-8572
▁luminary	-8573
▁meskannu	-8574
▁promoted	-8575
▁seacoast	-8576
▁shallots	-8577
▁suffered	-8578
▁transfer	-8579
▁According	-8580
▁Commagene	-8581
▁Egyptians	-8582
▁Kummaḫlum	-8583
▁carefully	-8584
▁collegium	-8585
▁concealed	-8586
▁condition	-8587
▁construct	-8588
▁descended	-8589
▁documents	-8590
▁ecstatics	-8591
▁extracted	-8592
▁increased	-8593
▁inhabited	-8594
▁neighbour	-8595
▁obstinate	-8596
▁pronounce	-8597
▁reporters	-8598
▁returning	-8599
▁sixteenth	-8600
▁spectacle	-8601
▁Everything	-8602
▁accomplish	-8603
▁apprentice	-8604
▁disrespect	-8605
▁intestines	-8606
▁polyptychs	-8607
▁protectors	-8608
▁shepherded	-8609
▁thresholds	-8610
▁unreliable	-8611
▁vanquished	-8612
▁apprentices	-8613
▁housekeeper	-8614
▁replacement	-8615
▁treacherous	-8616
▁Egašankalama	-8617
▁neighborhood	-8618
▁praiseworthy	-8619
▁exceptionally	-8620
▁inappropriate	-8621
▁sophisticated	-8622
▁wholeheartedly	-8623
Th	-8624
eb	-8625
iṭ	-8626
kû	-8627
lî	-8628
lā	-8629
zâ	-8630
ēḫ	-8631
ʾ.	-8632
ʾʾ	-8633
▁.	-8634
Und	-8635
apî	-8636
aše	-8637
cav	-8638
dia	-8639
dug	-8640
eks	-8641
eti	-8642
irâ	-8643
isc	-8644
ium	-8645
kil	-8646
kki	-8647
nad	-8648
ole	-8649
oti	-8650
ppo	-8651
riš	-8652
ulê	-8653
zig	-8654
īdu	-8655
ḫil	-8656
▁37	-8657
▁53	-8658
▁55	-8659
▁Ed	-8660
▁Ia	-8661
▁Mī	-8662
▁Za	-8663
▁ly	-8664
aean	-8665
ammû	-8666
ayab	-8667
bali	-8668
beru	-8669
damm	-8670
elle	-8671
ells	-8672
hari	-8673
iatu	-8674
ibur	-8675
kala	-8676
mena	-8677
napš	-8678
nean	-8679
oded	-8680
olen	-8681
oors	-8682
oppa	-8683
stro	-8684
tiya	-8685
ture	-8686
ugal	-8687
ukua	-8688
undi	-8689
undu	-8690
unia	-8691
upon	-8692
ušpa	-8693
▁130	-8694
▁160	-8695
▁650	-8696
▁Ala	-8697
▁Ale	-8698
▁Gag	-8699
▁Gem	-8700
▁Gub	-8701
▁Ikk	-8702
▁Int	-8703
▁Ish	-8704
▁Kad	-8705
▁Mam	-8706
▁Mas	-8707
▁Out	-8708
▁Qab	-8709
▁Qau	-8710
▁Rah	-8711
▁Sab	-8712
▁Sad	-8713
▁Tep	-8714
▁Ter	-8715
▁Zik	-8716
▁din	-8717
▁fil	-8718
▁fox	-8719
▁hab	-8720
▁kin	-8721
▁sex	-8722
▁Šut	-8723
▁Ḫad	-8724
▁Ḫuz	-8725
-...-	-8726
acted	-8727
adows	-8728
adānu	-8729
alite	-8730
allal	-8731
amaya	-8732
apiku	-8733
asion	-8734
atati	-8735
brick	-8736
colle	-8737
gines	-8738
ignif	-8739
isten	-8740
jambs	-8741
mount	-8742
mouth	-8743
nadbi	-8744
nsell	-8745
oring	-8746
ounds	-8747
power	-8748
prise	-8749
reams	-8750
rince	-8751
tabni	-8752
ulers	-8753
uriaš	-8754
utely	-8755
šarum	-8756
ḫitti	-8757
▁700,	-8758
▁Būdi	-8759
▁Down	-8760
▁Erua	-8761
▁Haya	-8762
▁Kašt	-8763
▁Labd	-8764
▁Only	-8765
▁Sais	-8766
▁Some	-8767
▁Upaq	-8768
▁Zerî	-8769
▁blaz	-8770
▁cage	-8771
▁cups	-8772
▁decl	-8773
▁dish	-8774
▁disl	-8775
▁dism	-8776
▁ease	-8777
▁enth	-8778
▁ginû	-8779
▁gird	-8780
▁jugs	-8781
▁juni	-8782
▁kall	-8783
▁mart	-8784
▁mēzu	-8785
▁nice	-8786
▁oust	-8787
▁outs	-8788
▁pige	-8789
▁popl	-8790
▁quot	-8791
▁resc	-8792
▁shel	-8793
▁soot	-8794
▁styl	-8795
▁task	-8796
▁ward	-8797
▁Šumu	-8798
Bunaki	-8799
Zamani	-8800
apping	-8801
arratu	-8802
ashore	-8803
cavity	-8804
course	-8805
driver	-8806
ements	-8807
houses	-8808
ighted	-8809
liness	-8810
onight	-8811
ontinu	-8812
paleya	-8813
pleted	-8814
rontes	-8815
utions	-8816
utukua	-8817
ēḫasta	-8818
▁"..."	-8819
▁"....	-8820
▁...,"	-8821
▁Adinu	-8822
▁Again	-8823
▁Azuru	-8824
▁Bless	-8825
▁Booty	-8826
▁Dayan	-8827
▁Grain	-8828
▁Guard	-8829
▁Manna	-8830
▁Nēmed	-8831
▁Papḫu	-8832
▁Patti	-8833
▁Salam	-8834
▁Sulum	-8835
▁Taboo	-8836
▁Tamnâ	-8837
▁Uallî	-8838
▁Ubaru	-8839
▁Water	-8840
▁Whose	-8841
▁Zamru	-8842
▁Zazaz	-8843
▁adult	-8844
▁allot	-8845
▁cloak	-8846
▁cooks	-8847
▁crops	-8848
▁decap	-8849
▁decre	-8850
▁drain	-8851
▁dread	-8852
▁fears	-8853
▁fills	-8854
▁genie	-8855
▁haršu	-8856
▁horde	-8857
▁ingen	-8858
▁invol	-8859
▁leeks	-8860
▁legal	-8861
▁limbs	-8862
▁maids	-8863
▁metal	-8864
▁natur	-8865
▁ostri	-8866
▁plots	-8867
▁prime	-8868
▁robes	-8869
▁ropes	-8870
▁shape	-8871
▁ships	-8872
▁stool	-8873
▁wider	-8874
▁Šubrû	-8875
▁“...,	-8876
Amukāni	-8877
Bunakki	-8878
Daganna	-8879
aughter	-8880
isterns	-8881
iveness	-8882
lifting	-8883
trained	-8884
▁Addaru	-8885
▁Aleppo	-8886
▁Banaya	-8887
▁Banitu	-8888
▁Divine	-8889
▁Gannan	-8890
▁Gemini	-8891
▁Lallar	-8892
▁Ninkur	-8893
▁Qumānu	-8894
▁Sarugu	-8895
▁Second	-8896
▁Series	-8897
▁Temple	-8898
▁Teušpa	-8899
▁chests	-8900
▁corrid	-8901
▁culmin	-8902
▁engine	-8903
▁eroded	-8904
▁freely	-8905
▁furrow	-8906
▁gorges	-8907
▁grains	-8908
▁grasps	-8909
▁hauled	-8910
▁honest	-8911
▁impose	-8912
▁jasper	-8913
▁justly	-8914
▁lackey	-8915
▁motion	-8916
▁namely	-8917
▁negoti	-8918
▁occurs	-8919
▁paving	-8920
▁prompt	-8921
▁remiss	-8922
▁retrie	-8923
▁signif	-8924
▁skulls	-8925
▁square	-8926
▁stolen	-8927
▁storms	-8928
▁surely	-8929
▁taught	-8930
▁tilled	-8931
▁unable	-8932
▁uncles	-8933
▁wastel	-8934
▁wolves	-8935
▁Ḫarḫar	-8936
ayabarqa	-8937
mušallim	-8938
▁Balṭaya	-8939
▁Dummuqu	-8940
▁Egalzag	-8941
▁Halahhu	-8942
▁Kidmuru	-8943
▁Neither	-8944
▁Orontes	-8945
▁Sumurzu	-8946
▁Tarditu	-8947
▁amongst	-8948
▁anomaly	-8949
▁caravan	-8950
▁clamped	-8951
▁daytime	-8952
▁deprive	-8953
▁engines	-8954
▁exposed	-8955
▁grazing	-8956
▁happily	-8957
▁kurunnu	-8958
▁lacking	-8959
▁married	-8960
▁meadows	-8961
▁nindanu	-8962
▁penalty	-8963
▁perpetu	-8964
▁replied	-8965
▁resided	-8966
▁sandals	-8967
▁several	-8968
▁sitting	-8969
▁slander	-8970
▁tailors	-8971
▁throats	-8972
▁tongues	-8973
▁traitor	-8974
▁turning	-8975
▁weavers	-8976
▁weighty	-8977
▁Ḫubušna	-8978
▁......!"	-8979
▁Ahhešaya	-8980
▁Hittites	-8981
▁Kummeans	-8982
▁Kutatati	-8983
▁Tarḫular	-8984
▁although	-8985
▁choosing	-8986
▁crescent	-8987
▁cresting	-8988
▁designed	-8989
▁domestic	-8990
▁elammaku	-8991
▁encamped	-8992
▁equipped	-8993
▁figurine	-8994
▁finishes	-8995
▁fugitive	-8996
▁included	-8997
▁organize	-8998
▁portable	-8999
▁portents	-9000
▁princely	-9001
▁punished	-9002
▁recruits	-9003
▁seashore	-9004
▁secretly	-9005
▁security	-9006
▁whenever	-9007
taqqinanni	-9008
▁Hubuškian	-9009
▁Treasurer	-9010
▁broadened	-9011
▁consigned	-9012
▁continued	-9013
▁deceitful	-9014
▁delegates	-9015
▁different	-9016
▁disregard	-9017
▁domestics	-9018
▁expensive	-9019
▁furiously	-9020
▁goatskins	-9021
▁mentioned	-9022
▁objective	-9023
▁outriders	-9024
▁overwhelm	-9025
▁personnel	-9026
▁retreated	-9027
▁reverence	-9028
▁safeguard	-9029
▁absolutely	-9030
▁approaches	-9031
▁ceremonial	-9032
▁controller	-9033
▁designated	-9034
▁desolation	-9035
▁discontinu	-9036
▁entreaties	-9037
▁flourished	-9038
▁meadowland	-9039
▁petitioned	-9040
▁pronounced	-9041
▁reverently	-9042
▁sacrificed	-9043
▁understand	-9044
▁Banayabarqa	-9045
▁approaching	-9046
▁decapitated	-9047
▁expressions	-9048
▁storehouses	-9049
▁Nevertheless	-9050
▁commissioned	-9051
▁imprisonment	-9052
▁prolongation	-9053
▁supplication	-9054
▁transgressed	-9055
,0	-9056
15	-9057
2.	-9058
8.	-9059
Aš	-9060
BI	-9061
Es	-9062
Sa	-9063
ai	-9064
iy	-9065
sy	-9066
uf	-9067
xe	-9068
āi	-9069
ṣî	-9070
Agū	-9071
Bab	-9072
For	-9073
Lib	-9074
Mar	-9075
atâ	-9076
dou	-9077
dun	-9078
eli	-9079
gab	-9080
gen	-9081
han	-9082
ico	-9083
ipi	-9084
ipl	-9085
mic	-9086
mir	-9087
mus	-9088
ook	-9089
por	-9090
ruc	-9091
ubi	-9092
uša	-9093
uḫī	-9094
yed	-9095
yps	-9096
zaq	-9097
īsu	-9098
šan	-9099
ḫir	-9100
▁3-	-9101
▁39	-9102
▁3:	-9103
▁4,	-9104
▁5;	-9105
▁79	-9106
▁Ly	-9107
▁Mi	-9108
▁Mê	-9109
▁Ud	-9110
▁aw	-9111
,150	-9112
Fear	-9113
Make	-9114
Uruk	-9115
abor	-9116
abua	-9117
addi	-9118
adis	-9119
adur	-9120
anšu	-9121
anšê	-9122
appi	-9123
arbi	-9124
cing	-9125
cked	-9126
deer	-9127
dina	-9128
ench	-9129
gods	-9130
ifur	-9131
iltu	-9132
imru	-9133
išhu	-9134
kumu	-9135
lain	-9136
oped	-9137
ouch	-9138
race	-9139
rosy	-9140
rāpi	-9141
take	-9142
ukur	-9143
ullu	-9144
umps	-9145
unch	-9146
uous	-9147
āmat	-9148
▁140	-9149
▁Aru	-9150
▁Bow	-9151
▁Diḫ	-9152
▁Ili	-9153
▁Kuz	-9154
▁Mil	-9155
▁Mon	-9156
▁Mus	-9157
▁Rim	-9158
▁Sib	-9159
▁Tuḫ	-9160
▁Urb	-9161
▁Ušû	-9162
▁Yam	-9163
▁abl	-9164
▁cel	-9165
▁cos	-9166
▁cun	-9167
▁den	-9168
▁mut	-9169
▁net	-9170
▁pil	-9171
▁rus	-9172
▁sed	-9173
▁Šim	-9174
▁Ḫur	-9175
Agūsi	-9176
Speak	-9177
ammes	-9178
araqu	-9179
augur	-9180
bitqi	-9181
bowls	-9182
doing	-9183
eslam	-9184
icest	-9185
ilanu	-9186
inded	-9187
integ	-9188
išpak	-9189
kettu	-9190
kigal	-9191
ladīn	-9192
liest	-9193
nipḫi	-9194
ongue	-9195
pliaš	-9196
quest	-9197
rafts	-9198
rites	-9199
sixth	-9200
suing	-9201
tment	-9202
uarri	-9203
ukkal	-9204
ulmaš	-9205
umanu	-9206
urian	-9207
uḫīli	-9208
▁Amul	-9209
▁Amur	-9210
▁Badn	-9211
▁Bubê	-9212
▁Bāra	-9213
▁Egiš	-9214
▁Guti	-9215
▁Harm	-9216
▁Haur	-9217
▁Hinn	-9218
▁Hiri	-9219
▁Kaqq	-9220
▁Luqu	-9221
▁Mašq	-9222
▁Sumu	-9223
▁Tamn	-9224
▁Tand	-9225
▁Tarh	-9226
▁Tašr	-9227
▁Uarb	-9228
▁Ukka	-9229
▁Unqi	-9230
▁Yoke	-9231
▁arts	-9232
▁bell	-9233
▁clam	-9234
▁dawn	-9235
▁drom	-9236
▁engr	-9237
▁exto	-9238
▁fail	-9239
▁figs	-9240
▁gain	-9241
▁grac	-9242
▁knew	-9243
▁ladd	-9244
▁lone	-9245
▁onag	-9246
▁oven	-9247
▁perf	-9248
▁serp	-9249
▁twin	-9250
▁undo	-9251
▁unit	-9252
▁unto	-9253
▁wipe	-9254
▁Šumâ	-9255
Bitter	-9256
Undāsi	-9257
dagger	-9258
demons	-9259
double	-9260
ential	-9261
estial	-9262
handed	-9263
images	-9264
mother	-9265
natkil	-9266
onical	-9267
ummānu	-9268
ustice	-9269
uṣalla	-9270
Ḫamban	-9271
▁Ahunu	-9272
▁Arama	-9273
▁Attar	-9274
▁Baliḫ	-9275
▁Dilil	-9276
▁Egall	-9277
▁Gambu	-9278
▁Halzi	-9279
▁Kapar	-9280
▁Lanšê	-9281
▁Mardî	-9282
▁Mouth	-9283
▁Muṣri	-9284
▁Quean	-9285
▁Sangû	-9286
▁Tasti	-9287
▁Ulaya	-9288
▁Urumu	-9289
▁Zabdî	-9290
▁appre	-9291
▁arbit	-9292
▁bifur	-9293
▁bount	-9294
▁clash	-9295
▁color	-9296
▁cones	-9297
▁contr	-9298
▁crews	-9299
▁defin	-9300
▁dress	-9301
▁emmer	-9302
▁flame	-9303
▁grave	-9304
▁kimru	-9305
▁kneel	-9306
▁lived	-9307
▁local	-9308
▁paste	-9309
▁quant	-9310
▁quite	-9311
▁stirs	-9312
▁stole	-9313
▁story	-9314
▁surve	-9315
▁swore	-9316
▁tamar	-9317
▁thorn	-9318
▁touch	-9319
▁valid	-9320
▁wants	-9321
▁wield	-9322
▁wines	-9323
▁Ḫammu	-9324
Lebanon	-9325
Naḫundu	-9326
Pileser	-9327
clusion	-9328
cripted	-9329
elliger	-9330
mušezib	-9331
napšati	-9332
rogated	-9333
viously	-9334
▁Dayyān	-9335
▁Kullar	-9336
▁Madanu	-9337
▁Maliḫu	-9338
▁Niḫanu	-9339
▁Simesi	-9340
▁Tabira	-9341
▁Tiāmat	-9342
▁Urzana	-9343
▁announ	-9344
▁arrest	-9345
▁avenge	-9346
▁banded	-9347
▁breath	-9348
▁clothe	-9349
▁coated	-9350
▁consol	-9351
▁cosmic	-9352
▁depend	-9353
▁depths	-9354
▁dinner	-9355
▁domain	-9356
▁dreams	-9357
▁effort	-9358
▁feeder	-9359
▁grants	-9360
▁grooms	-9361
▁hither	-9362
▁incite	-9363
▁island	-9364
▁junior	-9365
▁ledges	-9366
▁mayors	-9367
▁member	-9368
▁parūtu	-9369
▁ration	-9370
▁recite	-9371
▁reject	-9372
▁render	-9373
▁sexual	-9374
▁snakes	-9375
▁spoils	-9376
▁string	-9377
▁suited	-9378
▁uproot	-9379
▁upward	-9380
▁vision	-9381
▁worthy	-9382
▁Šabāṭu	-9383
▁Šakkan	-9384
apsukkal	-9385
ightning	-9386
▁Asuḫīli	-9387
▁Chariot	-9388
▁Earlier	-9389
▁Emeslam	-9390
▁Goddess	-9391
▁Hinnumu	-9392
▁Marratu	-9393
▁Mīšarum	-9394
▁Sulumal	-9395
▁Tandāya	-9396
▁Tašrītu	-9397
▁Tepurzu	-9398
▁Tupliaš	-9399
▁Urkittu	-9400
▁accepts	-9401
▁anxious	-9402
▁applied	-9403
▁bellies	-9404
▁bundles	-9405
▁burning	-9406
▁cleaned	-9407
▁cooking	-9408
▁cunning	-9409
▁disband	-9410
▁dismant	-9411
▁donated	-9412
▁enquire	-9413
▁equally	-9414
▁exacted	-9415
▁extingu	-9416
▁filling	-9417
▁foreman	-9418
▁gazelle	-9419
▁honored	-9420
▁inaugur	-9421
▁ladders	-9422
▁leprosy	-9423
▁natural	-9424
▁papparm	-9425
▁pigeons	-9426
▁portico	-9427
▁promise	-9428
▁recited	-9429
▁revenge	-9430
▁runaway	-9431
▁sapping	-9432
▁sixteen	-9433
▁stepped	-9434
▁stirred	-9435
▁storage	-9436
▁thieves	-9437
▁thirsty	-9438
▁timbers	-9439
▁torrent	-9440
▁uplands	-9441
▁workmen	-9442
dinutukua	-9443
performed	-9444
▁Ningirsu	-9445
▁Tastiate	-9446
▁allotted	-9447
▁artisans	-9448
▁attained	-9449
▁bathroom	-9450
▁belliger	-9451
▁counsell	-9452
▁depleted	-9453
▁descends	-9454
▁deserved	-9455
▁disinteg	-9456
▁downfall	-9457
▁earliest	-9458
▁eleventh	-9459
▁followed	-9460
▁happened	-9461
▁insignia	-9462
▁lamassus	-9463
▁manacles	-9464
▁measures	-9465
▁moreover	-9466
▁pedestal	-9467
▁pondered	-9468
▁protects	-9469
▁purified	-9470
▁quarried	-9471
▁receiver	-9472
▁rejected	-9473
▁rejoices	-9474
▁scorpion	-9475
▁services	-9476
▁sustains	-9477
▁tamarisk	-9478
▁vanquish	-9479
▁virility	-9480
▁Šibaniba	-9481
favourable	-9482
šallimšunu	-9483
▁Ereškigal	-9484
▁Gannanāte	-9485
▁Guzummānu	-9486
▁Kaqqadanu	-9487
▁Tabaleans	-9488
▁Tarḫulara	-9489
▁Ummanappa	-9490
▁afflicted	-9491
▁answering	-9492
▁bountiful	-9493
▁carpenter	-9494
▁celestial	-9495
▁converted	-9496
▁cornfield	-9497
▁corridors	-9498
▁direction	-9499
▁engineers	-9500
▁everybody	-9501
▁forecourt	-9502
▁glorified	-9503
▁ostriches	-9504
▁overthrew	-9505
▁remission	-9506
▁revetment	-9507
▁undertake	-9508
▁Ḫarēḫasta	-9509
▁Egallammes	-9510
▁Favourable	-9511
▁Kullimmeri	-9512
▁additional	-9513
▁cavalryman	-9514
▁comprehend	-9515
▁devastator	-9516
▁faithfully	-9517
▁generation	-9518
▁generously	-9519
▁instituted	-9520
▁introduced	-9521
▁wrongdoing	-9522
▁Borsippeans	-9523
▁abandonment	-9524
▁adversaries	-9525
▁bifurcation	-9526
▁chamberlain	-9527
▁conscripted	-9528
▁cultivating	-9529
▁expenditure	-9530
▁interpreter	-9531
▁surrounding	-9532
▁tempestuous	-9533
▁discontinued	-9534
▁disobedience	-9535
▁slaughtering	-9536
▁Egašankalamma	-9537
/6	-9538
14	-9539
4,	-9540
?'	-9541
Ag	-9542
Ig	-9543
Op	-9544
cy	-9545
kī	-9546
mē	-9547
oi	-9548
sâ	-9549
yâ	-9550
ēt	-9551
’-	-9552
!,”	-9553
Set	-9554
She	-9555
Ukû	-9556
div	-9557
dus	-9558
eze	-9559
haw	-9560
hel	-9561
ika	-9562
ilî	-9563
nte	-9564
oll	-9565
ope	-9566
pie	-9567
qur	-9568
qus	-9569
siy	-9570
tur	-9571
uls	-9572
ēši	-9573
īte	-9574
šap	-9575
ūna	-9576
ūrī	-9577
ūsu	-9578
Ḫal	-9579
Ḫum	-9580
ḫat	-9581
▁1.	-9582
▁2:	-9583
▁3.	-9584
▁5:	-9585
▁61	-9586
▁9,	-9587
▁Aq	-9588
▁Ga	-9589
▁Ku	-9590
▁Rā	-9591
▁lā	-9592
▁nā	-9593
▁Ši	-9594
Barr	-9595
Kari	-9596
adru	-9597
aste	-9598
baši	-9599
bend	-9600
bles	-9601
come	-9602
cruc	-9603
cued	-9604
hern	-9605
hour	-9606
ibar	-9607
inna	-9608
irim	-9609
like	-9610
lâma	-9611
līmu	-9612
mule	-9613
nana	-9614
nāru	-9615
osed	-9616
palê	-9617
quis	-9618
rael	-9619
rams	-9620
raze	-9621
ridu	-9622
rāmu	-9623
serv	-9624
tešî	-9625
them	-9626
ufac	-9627
umaš	-9628
upap	-9629
urse	-9630
verb	-9631
ītam	-9632
ṣabi	-9633
ṣeri	-9634
▁1/6	-9635
▁440	-9636
▁470	-9637
▁5/6	-9638
▁Abd	-9639
▁App	-9640
▁Dar	-9641
▁Enz	-9642
▁Gid	-9643
▁Haz	-9644
▁Ilī	-9645
▁Kiq	-9646
▁Lit	-9647
▁Lus	-9648
▁Mid	-9649
▁Not	-9650
▁Sah	-9651
▁Ušp	-9652
▁Yah	-9653
▁giš	-9654
▁lal	-9655
▁pat	-9656
▁sic	-9657
▁sum	-9658
▁sus	-9659
▁tar	-9660
▁vol	-9661
▁wit	-9662
▁Šuz	-9663
▁Ḫay	-9664
Matti	-9665
Naḫḫu	-9666
abled	-9667
agged	-9668
ahuṭu	-9669
angor	-9670
antry	-9671
argaz	-9672
ayabi	-9673
ceeds	-9674
child	-9675
doors	-9676
ibles	-9677
inder	-9678
isure	-9679
kirts	-9680
known	-9681
lišhu	-9682
odged	-9683
onded	-9684
plete	-9685
quent	-9686
secut	-9687
ubunu	-9688
ulliṭ	-9689
ulsed	-9690
ultiv	-9691
unītu	-9692
upusu	-9693
usunu	-9694
zaqip	-9695
āriru	-9696
šumma	-9697
Ḫalup	-9698
▁Door	-9699
▁Dūru	-9700
▁Eliz	-9701
▁Evil	-9702
▁Fort	-9703
▁Hanî	-9704
▁Hear	-9705
▁Kašp	-9706
▁Moon	-9707
▁Near	-9708
▁None	-9709
▁Prov	-9710
▁Qiti	-9711
▁Tamb	-9712
▁Trib	-9713
▁Uabu	-9714
▁Ubur	-9715
▁batt	-9716
▁cure	-9717
▁deaf	-9718
▁dign	-9719
▁dorm	-9720
▁flat	-9721
▁fury	-9722
▁gets	-9723
▁goal	-9724
▁hide	-9725
▁latt	-9726
▁mete	-9727
▁pain	-9728
▁pati	-9729
▁pier	-9730
▁pigs	-9731
▁pith	-9732
▁plen	-9733
▁sate	-9734
▁span	-9735
▁trap	-9736
▁tray	-9737
▁wars	-9738
▁whip	-9739
▁wire	-9740
▁wrap	-9741
▁zamû	-9742
▁Ḫall	-9743
Barrūa	-9744
Tongue	-9745
allaya	-9746
areans	-9747
arrows	-9748
broken	-9749
entine	-9750
ervent	-9751
fourth	-9752
iliašu	-9753
irrutu	-9754
isters	-9755
labria	-9756
nišešu	-9757
opolis	-9758
ourish	-9759
places	-9760
second	-9761
ulates	-9762
urious	-9763
ursion	-9764
ḫilāni	-9765
▁Abund	-9766
▁Adasi	-9767
▁Asari	-9768
▁Birtu	-9769
▁Cults	-9770
▁Hatti	-9771
▁Kalbi	-9772
▁Makes	-9773
▁Manṣu	-9774
▁Mušku	-9775
▁Ninev	-9776
▁Niqqu	-9777
▁Sinqi	-9778
▁Suḫni	-9779
▁Under	-9780
▁Utulu	-9781
▁Which	-9782
▁behav	-9783
▁bonds	-9784
▁boxes	-9785
▁braid	-9786
▁cress	-9787
▁cried	-9788
▁dwelt	-9789
▁erase	-9790
▁feast	-9791
▁giver	-9792
▁graze	-9793
▁habit	-9794
▁liter	-9795
▁lowly	-9796
▁meant	-9797
▁merry	-9798
▁mišhu	-9799
▁psalm	-9800
▁refer	-9801
▁round	-9802
▁socle	-9803
▁solar	-9804
▁swarm	-9805
▁terms	-9806
▁waist	-9807
▁walks	-9808
▁Šidir	-9809
▁Šutur	-9810
▁Šītam	-9811
▁šēdus	-9812
▁Ḫimme	-9813
▁“....	-9814
Libbali	-9815
Perhaps	-9816
Zualzaš	-9817
divided	-9818
figures	-9819
lâmašši	-9820
outhern	-9821
request	-9822
zigallu	-9823
▁"...."	-9824
▁.....,	-9825
▁Asakku	-9826
▁Barsip	-9827
▁Battle	-9828
▁Birati	-9829
▁Crafts	-9830
▁Dabigu	-9831
▁Dilmun	-9832
▁Dinitu	-9833
▁Elugal	-9834
▁Eulmaš	-9835
▁Hašanu	-9836
▁Ikkaru	-9837
▁Indian	-9838
▁Israel	-9839
▁Kibaku	-9840
▁Kubaba	-9841
▁Makiru	-9842
▁Maḫall	-9843
▁Mesean	-9844
▁Mišaru	-9845
▁Nisaba	-9846
▁Sharru	-9847
▁Tariba	-9848
▁Yahuṭu	-9849
▁Zazaya	-9850
▁alleys	-9851
▁allied	-9852
▁allure	-9853
▁almond	-9854
▁amulet	-9855
▁apport	-9856
▁arches	-9857
▁assume	-9858
▁bathed	-9859
▁burial	-9860
▁commit	-9861
▁create	-9862
▁darkly	-9863
▁deadly	-9864
▁decare	-9865
▁defect	-9866
▁falcon	-9867
▁famous	-9868
▁fellow	-9869
▁fuller	-9870
▁incess	-9871
▁ladies	-9872
▁lalgar	-9873
▁league	-9874
▁levied	-9875
▁looted	-9876
▁mutual	-9877
▁nature	-9878
▁necess	-9879
▁occupy	-9880
▁perpet	-9881
▁picked	-9882
▁plates	-9883
▁purify	-9884
▁pursue	-9885
▁pushed	-9886
▁rescue	-9887
▁scream	-9888
▁signet	-9889
▁suffer	-9890
▁tongue	-9891
▁valley	-9892
▁verily	-9893
▁votive	-9894
▁warden	-9895
▁watcht	-9896
▁Šargaz	-9897
▁ṣāriru	-9898
Mullissu	-9899
Naḫḫunte	-9900
children	-9901
crucible	-9902
lessness	-9903
▁200,150	-9904
▁Andaria	-9905
▁Cypress	-9906
▁	-9907
e	-9908
t	-9909
a	-9910
o	-9911
n	-9912
i	-9913
r	-9914
h	-9915
s	-9916
.	-9917
d	-9918
l	-9919
u	-9920
m	-9921
f	-9922
,	-9923
g	-9924
y	-9925
c	-9926
p	-9927
w	-9928
b	-9929
k	-9930
v	-9931
I	-9932
-	-9933
A	-9934
š	-9935
T	-9936
N	-9937
M	-9938
;	-9939
:	-9940
W	-9941
B	-9942
'	-9943
S	-9944
E	-9945
x	-9946
1	-9947
q	-9948
0	-9949
"	-9950
û	-9951
z	-9952
!	-9953
H	-9954
Š	-9955
D	-9956
—	-9957
2	-9958
G	-9959
ī	-9960
ā	-9961
j	-9962
K	-9963
L	-9964
U	-9965
ṣ	-9966
?	-9967
C	-9968
P	-9969
ḫ	-9970
3	-9971
î	-9972
5	-9973
“	-9974
4	-9975
F	-9976
”	-9977
O	-9978
R	-9979
ē	-9980
Ḫ	-9981
Y	-9982
6	-9983
ū	-9984
Z	-9985
ṭ	-9986
V	-9987
â	-9988
7	-9989
8	-9990
ʾ	-9991
’	-9992
/	-9993
Q	-9994
9	-9995
ê	-9996
