<unk>	0
<s>	0
</s>	0
▁t	-0
he	-1
▁the	-2
▁o	-3
in	-4
an	-5
▁of	-6
er	-7
and	-8
▁s	-9
▁w	-10
▁m	-11
it	-12
re	-13
▁a	-14
ing	-15
or	-16
▁(	-17
on	-18
▁l	-19
▁h	-20
is	-21
ar	-22
es	-23
▁c	-24
ed	-25
at	-26
▁b	-27
ou	-28
en	-29
▁f	-30
▁and	-31
▁g	-32
al	-33
▁I	-34
▁p	-35
▁to	-36
▁d	-37
▁k	-38
▁king	-39
▁A	-40
il	-41
..	-42
...	-43
▁in	-44
▁my	-45
ur	-46
▁...	-47
ro	-48
ord	-49
ay	-50
ad	-51
▁T	-52
▁go	-53
ri	-54
le	-55
▁lord	-56
▁wh	-57
as	-58
▁N	-59
▁he	-60
ab	-61
ce	-62
am	-63
▁n	-64
el	-65
▁y	-66
▁th	-67
ver	-68
th	-69
ess	-70
▁be	-71
▁his	-72
om	-73
▁M	-74
ir	-75
ve	-76
id	-77
ent	-78
▁re	-79
ot	-80
▁god	-81
▁you	-82
im	-83
▁W	-84
▁e	-85
▁is	-86
▁The	-87
▁it	-88
ill	-89
ith	-90
ic	-91
un	-92
▁on	-93
et	-94
ion	-95
se	-96
▁for	-97
ss	-98
st	-99
▁who	-100
▁B	-101
ld	-102
ard	-103
▁with	-104
ow	-105
▁land	-106
ut	-107
▁S	-108
ul	-109
the	-110
all	-111
gh	-112
▁me	-113
▁1	-114
ity	-115
ac	-116
▁st	-117
ness	-118
▁an	-119
▁will	-120
▁E	-121
šš	-122
rom	-123
ant	-124
ak	-125
ššur	-126
itness	-127
▁or	-128
▁sh	-129
▁Witness	-130
ght	-131
od	-132
▁your	-133
ap	-134
ers	-135
▁as	-136
▁not	-137
est	-138
▁Aššur	-139
▁that	-140
ple	-141
ave	-142
▁al	-143
▁com	-144
reat	-145
ru	-146
ct	-147
oun	-148
ain	-149
▁from	-150
▁their	-151
um	-152
▁se	-153
abû	-154
▁,	-155
▁him	-156
▁them	-157
ace	-158
▁day	-159
em	-160
▁Š	-161
▁Nabû	-162
▁city	-163
up	-164
▁Ass	-165
▁H	-166
▁pl	-167
),	-168
▁they	-169
iv	-170
ag	-171
▁are	-172
▁gods	-173
▁son	-174
▁great	-175
qu	-176
her	-177
▁con	-178
ig	-179
aš	-180
ore	-181
▁have	-182
▁had	-183
ich	-184
yri	-185
▁—	-186
▁Assyri	-187
ep	-188
▁D	-189
us	-190
uk	-191
▁which	-192
ly	-193
ch	-194
erv	-195
ear	-196
ation	-197
▁r	-198
ip	-199
to	-200
▁Assyria	-201
▁"	-202
▁serv	-203
▁has	-204
▁v	-205
▁G	-206
▁2	-207
one	-208
res	-209
▁one	-210
if	-211
▁its	-212
▁all	-213
ter	-214
ate	-215
▁servant	-216
ive	-217
▁pe	-218
▁de	-219
▁ch	-220
wn	-221
▁at	-222
ount	-223
ong	-224
ine	-225
ame	-226
av	-227
ell	-228
▁May	-229
▁K	-230
▁she	-231
ople	-232
▁If	-233
ies	-234
▁shall	-235
ood	-236
▁up	-237
our	-238
▁ab	-239
▁people	-240
▁un	-241
▁U	-242
arduk	-243
ke	-244
pp	-245
der	-246
ub	-247
te	-248
rib	-249
▁L	-250
ould	-251
ors	-252
out	-253
▁ex	-254
▁br	-255
▁do	-256
ted	-257
ib	-258
▁by	-259
▁Šam	-260
able	-261
▁He	-262
ah	-263
▁'	-264
▁C	-265
urn	-266
▁en	-267
ther	-268
ann	-269
▁pr	-270
ol	-271
▁pro	-272
▁NN	-273
alace	-274
▁ro	-275
▁P	-276
▁this	-277
os	-278
▁Marduk	-279
▁Šamaš	-280
ade	-281
ure	-282
▁sp	-283
fore	-284
▁was	-285
▁off	-286
▁wor	-287
end	-288
ight	-289
▁To	-290
▁there	-291
dad	-292
▁we	-293
▁dis	-294
▁made	-295
▁bl	-296
▁am	-297
▁out	-298
ated	-299
▁may	-300
▁over	-301
ouse	-302
ie	-303
▁before	-304
▁ag	-305
hed	-306
ide	-307
▁comm	-308
▁min	-309
▁sil	-310
ought	-311
▁bec	-312
ound	-313
▁In	-314
▁3	-315
ans	-316
▁ar	-317
).	-318
ous	-319
▁silver	-320
ire	-321
tar	-322
itto	-323
▁ins	-324
aid	-325
▁whe	-326
su	-327
▁so	-328
▁year	-329
ign	-330
ty	-331
▁x	-332
alth	-333
▁mo	-334
onth	-335
oin	-336
II	-337
for	-338
reg	-339
ake	-340
▁health	-341
ari	-342
▁;	-343
art	-344
▁command	-345
▁As	-346
▁about	-347
▁ent	-348
▁Bel	-349
ince	-350
ment	-351
▁An	-352
▁should	-353
ere	-354
yl	-355
▁qu	-356
▁ditto	-357
▁palace	-358
▁Iš	-359
▁say	-360
rit	-361
ho	-362
ylon	-363
ast	-364
abylon	-365
▁again	-366
ck	-367
ered	-368
▁F	-369
vern	-370
▁man	-371
▁“	-372
▁sheep	-373
▁le	-374
ons	-375
▁O	-376
aw	-377
own	-378
ect	-379
▁moon	-380
▁Ištar	-381
▁app	-382
▁house	-383
rote	-384
▁wrote	-385
▁R	-386
ance	-387
▁Ar	-388
ities	-389
▁ad	-390
▁per	-391
▁let	-392
▁El	-393
▁fl	-394
uṣ	-395
ok	-396
ull	-397
▁Adad	-398
ning	-399
▁govern	-400
them	-401
▁Babylon	-402
of	-403
ike	-404
▁tem	-405
ands	-406
ome	-407
uil	-408
ps	-409
▁place	-410
▁j	-411
▁gr	-412
▁5	-413
ice	-414
▁against	-415
▁kings	-416
▁ac	-417
form	-418
att	-419
▁div	-420
▁come	-421
▁Good	-422
ry	-423
▁pres	-424
ort	-425
šar	-426
yal	-427
▁lo	-428
uṣur	-429
▁brought	-430
ings	-431
▁well	-432
ud	-433
▁co	-434
▁like	-435
ence	-436
tu	-437
▁10	-438
▁tim	-439
din	-440
▁whom	-441
▁prince	-442
▁cro	-443
▁did	-444
▁set	-445
ether	-446
▁Y	-447
orses	-448
eld	-449
ens	-450
▁enem	-451
kk	-452
au	-453
▁Es	-454
▁temple	-455
ra	-456
ta	-457
▁cities	-458
▁into	-459
▁wat	-460
▁bless	-461
šum	-462
pt	-463
ather	-464
▁cont	-465
▁fi	-466
▁mount	-467
▁4	-468
▁writ	-469
dess	-470
very	-471
▁They	-472
▁were	-473
▁governor	-474
▁ri	-475
▁horses	-476
▁gold	-477
ony	-478
▁royal	-479
ress	-480
▁what	-481
pl	-482
▁sent	-483
▁goddess	-484
cer	-485
▁time	-486
▁can	-487
app	-488
▁divin	-489
▁good	-490
ge	-491
ack	-492
▁Elam	-493
age	-494
▁give	-495
▁plac	-496
ite	-497
crib	-498
▁down	-499
▁name	-500
▁lands	-501
bel	-502
per	-503
▁bro	-504
red	-505
▁no	-506
my	-507
ban	-508
gether	-509
▁world	-510
regard	-511
ions	-512
▁ret	-513
▁minas	-514
▁whose	-515
ife	-516
▁Dis	-517
ose	-518
▁see	-519
▁Disregard	-520
iz	-521
▁tro	-522
ult	-523
▁tw	-524
▁divinity	-525
▁pre	-526
▁thr	-527
▁str	-528
▁Ḫ	-529
unu	-530
▁upon	-531
iver	-532
▁our	-533
▁men	-534
ious	-535
ops	-536
▁mountain	-537
ish	-538
▁ep	-539
ief	-540
▁any	-541
▁kn	-542
▁Nine	-543
▁days	-544
▁troops	-545
gal	-546
veh	-547
▁together	-548
▁Ur	-549
lil	-550
ates	-551
ust	-552
ariot	-553
▁Nineveh	-554
▁buil	-555
▁En	-556
▁des	-557
ial	-558
▁return	-559
cerning	-560
ind	-561
man	-562
▁epony	-563
▁chariot	-564
arh	-565
▁perform	-566
add	-567
uard	-568
▁own	-569
▁field	-570
▁ext	-571
▁ne	-572
urta	-573
▁sons	-574
ase	-575
▁Z	-576
ath	-577
▁im	-578
ft	-579
ist	-580
▁fav	-581
▁send	-582
▁bo	-583
ger	-584
hen	-585
lit	-586
00	-587
▁father	-588
▁brother	-589
suit	-590
ass	-591
▁On	-592
▁Akk	-593
▁Now	-594
▁work	-595
▁crown	-596
▁make	-597
ares	-598
nu	-599
▁become	-600
attle	-601
▁lit	-602
▁been	-603
▁bre	-604
▁est	-605
arri	-606
▁mess	-607
▁month	-608
addon	-609
▁Month	-610
arhaddon	-611
oney	-612
awsuit	-613
▁fe	-614
▁placed	-615
▁her	-616
mu	-617
▁cl	-618
▁Esarhaddon	-619
hip	-620
▁fir	-621
ched	-622
▁Se	-623
▁lawsuit	-624
ii	-625
fter	-626
▁but	-627
▁town	-628
▁conqu	-629
▁comple	-630
▁chief	-631
ais	-632
osit	-633
▁know	-634
ail	-635
▁sub	-636
▁said	-637
▁Akkad	-638
way	-639
▁sun	-640
pa	-641
hes	-642
iš	-643
▁mar	-644
ergal	-645
▁strong	-646
be	-647
▁cap	-648
ār	-649
aya	-650
▁saying	-651
▁fort	-652
▁took	-653
anni	-654
▁enemy	-655
iddin	-656
▁res	-657
▁dest	-658
▁Enlil	-659
inurta	-660
▁From	-661
▁us	-662
du	-663
▁favor	-664
iss	-665
pos	-666
▁count	-667
ni	-668
▁cam	-669
▁-	-670
ki	-671
sel	-672
ach	-673
▁bri	-674
▁dec	-675
itu	-676
ments	-677
▁dist	-678
▁eponym	-679
▁def	-680
▁wom	-681
."	-682
▁ter	-683
▁giv	-684
▁built	-685
az	-686
▁Nergal	-687
▁life	-688
▁bel	-689
▁heav	-690
▁6	-691
lean	-692
▁col	-693
ssar	-694
▁Let	-695
mer	-696
▁adj	-697
▁far	-698
ely	-699
▁pers	-700
led	-701
its	-702
▁now	-703
▁two	-704
tal	-705
5)	-706
oining	-707
As	-708
▁battle	-709
els	-710
thing	-711
▁found	-712
▁scrib	-713
anu	-714
old	-715
▁rem	-716
unuch	-717
▁came	-718
▁offer	-719
▁acc	-720
▁word	-721
▁adjoining	-722
īt	-723
▁total	-724
▁gave	-725
Aššur	-726
▁dep	-727
▁sw	-728
▁messen	-729
ten	-730
▁Th	-731
▁eunuch	-732
ars	-733
▁money	-734
▁when	-735
pe	-736
ever	-737
▁Con	-738
ved	-739
ird	-740
ards	-741
▁spe	-742
▁long	-743
▁lords	-744
urban	-745
ody	-746
annu	-747
▁pur	-748
other	-749
iddina	-750
ick	-751
▁hect	-752
▁left	-753
')	-754
port	-755
ipal	-756
▁ask	-757
▁heart	-758
ya	-759
▁mina	-760
ruct	-761
▁reg	-762
urbanipal	-763
▁sup	-764
▁Ab	-765
▁away	-766
cl	-767
me	-768
▁presence	-769
de	-770
so	-771
▁fore	-772
The	-773
▁water	-774
ough	-775
▁order	-776
šumu	-777
▁har	-778
în	-779
▁When	-780
ku	-781
▁sur	-782
▁feet	-783
▁scribe	-784
▁throne	-785
▁Concerning	-786
▁att	-787
uš	-788
▁conquered	-789
▁You	-790
▁Bīt	-791
aught	-792
▁under	-793
hal	-794
uri	-795
▁might	-796
lu	-797
umb	-798
▁appoin	-799
šarru	-800
▁four	-801
ged	-802
rac	-803
▁happ	-804
ree	-805
wer	-806
▁wall	-807
oke	-808
ary	-809
▁pri	-810
ished	-811
▁foundation	-812
ady	-813
▁Q	-814
▁Sîn	-815
inger	-816
▁vice	-817
▁ru	-818
▁ox	-819
▁bow	-820
▁these	-821
0)	-822
pic	-823
▁tr	-824
▁capt	-825
▁hands	-826
▁very	-827
ened	-828
▁ear	-829
regent	-830
ian	-831
urned	-832
▁those	-833
roy	-834
▁su	-835
▁prov	-836
▁whether	-837
ased	-838
▁unc	-839
▁destroy	-840
▁present	-841
▁ev	-842
ired	-843
▁litig	-844
▁Palace	-845
▁At	-846
▁hectares	-847
Adad	-848
▁messenger	-849
na	-850
ied	-851
▁sold	-852
▁servants	-853
ful	-854
atu	-855
▁gl	-856
self	-857
ti	-858
▁Ah	-859
▁ans	-860
▁const	-861
ile	-862
ute	-863
fect	-864
▁contrac	-865
arr	-866
▁firm	-867
▁unclean	-868
this	-869
are	-870
▁pray	-871
orn	-872
▁does	-873
▁Who	-874
▁rest	-875
▁pay	-876
▁written	-877
▁tre	-878
uture	-879
▁went	-880
▁7	-881
arge	-882
▁litigation	-883
▁future	-884
ia	-885
ts	-886
ats	-887
▁put	-888
con	-889
fic	-890
▁seen	-891
▁mid	-892
▁guard	-893
ahhe	-894
▁rul	-895
ces	-896
▁old	-897
▁bring	-898
▁inside	-899
who	-900
▁tru	-901
▁kill	-902
▁then	-903
▁carri	-904
hy	-905
iq	-906
▁side	-907
▁favorable	-908
▁hand	-909
▁posit	-910
▁commander	-911
enn	-912
▁ob	-913
▁table	-914
ache	-915
ents	-916
acherib	-917
ennacherib	-918
ower	-919
▁answer	-920
under	-921
▁take	-922
li	-923
een	-924
eep	-925
til	-926
then	-927
ēl	-928
outh	-929
▁defe	-930
▁hear	-931
▁cut	-932
ispic	-933
▁right	-934
▁weap	-935
▁other	-936
!"	-937
▁entire	-938
▁extispic	-939
▁army	-940
▁brick	-941
▁extispicy	-942
oss	-943
bela	-944
ceed	-945
ject	-946
▁Arbela	-947
ws	-948
ani	-949
ron	-950
▁20	-951
▁tal	-952
med	-953
▁Ash	-954
▁nor	-955
▁ram	-956
▁given	-957
▁heaven	-958
▁Sennacherib	-959
▁Assurbanipal	-960
▁8	-961
ayu	-962
ili	-963
▁oil	-964
▁sm	-965
pper	-966
▁Ninurta	-967
arru	-968
▁rece	-969
▁stre	-970
ks	-971
well	-972
ale	-973
cri	-974
▁plunder	-975
▁Sin	-976
alled	-977
▁back	-978
▁dr	-979
▁rev	-980
▁after	-981
ng	-982
ost	-983
▁keep	-984
ānu	-985
ured	-986
▁Mount	-987
▁being	-988
III	-989
▁estate	-990
cript	-991
▁gar	-992
▁inc	-993
ise	-994
▁where	-995
round	-996
▁also	-997
▁30	-998
▁Be	-999
▁Will	-1000
▁seah	-1001
▁sett	-1002
ribute	-1003
ible	-1004
sp	-1005
erc	-1006
▁surround	-1007
▁complet	-1008
und	-1009
ves	-1010
▁gate	-1011
▁every	-1012
?"	-1013
bi	-1014
oy	-1015
issu	-1016
▁brothers	-1017
abl	-1018
Issar	-1019
▁tribute	-1020
▁inscript	-1021
ll	-1022
omes	-1023
▁seal	-1024
▁heard	-1025
▁inst	-1026
▁oxen	-1027
▁Whoever	-1028
oty	-1029
▁priest	-1030
▁carried	-1031
▁shek	-1032
▁tak	-1033
aḫ	-1034
▁Ad	-1035
▁becomes	-1036
▁orac	-1037
quired	-1038
▁daught	-1039
▁country	-1040
ory	-1041
▁cour	-1042
aps	-1043
▁ten	-1044
ams	-1045
low	-1046
rict	-1047
▁mag	-1048
▁mighty	-1049
▁booty	-1050
▁mouth	-1051
▁pass	-1052
men	-1053
▁hal	-1054
▁woman	-1055
▁without	-1056
cc	-1057
ived	-1058
▁owner	-1059
igh	-1060
inu	-1061
ives	-1062
▁road	-1063
ular	-1064
▁dev	-1065
▁here	-1066
▁among	-1067
▁surrounded	-1068
▁magn	-1069
▁years	-1070
▁vis	-1071
▁resid	-1072
▁person	-1073
▁kingship	-1074
▁univer	-1075
his	-1076
being	-1077
▁head	-1078
eds	-1079
eser	-1080
▁paid	-1081
▁completely	-1082
▁We	-1083
▁speak	-1084
▁if	-1085
▁sac	-1086
▁Mannu	-1087
▁mountains	-1088
▁ass	-1089
▁gard	-1090
▁15	-1091
▁belong	-1092
▁universe	-1093
mb	-1094
ṣir	-1095
▁sl	-1096
▁dil	-1097
▁watch	-1098
▁14	-1099
▁Seal	-1100
▁glad	-1101
ix	-1102
idated	-1103
▁enemies	-1104
▁district	-1105
▁destroyed	-1106
ring	-1107
▁body	-1108
▁dispos	-1109
ause	-1110
herd	-1111
ront	-1112
▁reb	-1113
▁dilap	-1114
▁earth	-1115
▁dilapidated	-1116
iba	-1117
row	-1118
▁fo	-1119
▁Mull	-1120
ipp	-1121
▁purch	-1122
▁wine	-1123
▁weapons	-1124
cted	-1125
▁op	-1126
▁vill	-1127
▁reign	-1128
▁through	-1129
▁rais	-1130
▁bought	-1131
▁disposal	-1132
▁fa	-1133
▁opp	-1134
guard	-1135
pherd	-1136
▁garments	-1137
ner	-1138
▁evil	-1139
▁front	-1140
▁Mullissu	-1141
▁contracted	-1142
ians	-1143
▁treat	-1144
wor	-1145
▁tow	-1146
perty	-1147
▁sing	-1148
ressed	-1149
▁small	-1150
▁shepherd	-1151
):	-1152
oc	-1153
ollow	-1154
ared	-1155
▁numb	-1156
▁sacri	-1157
▁became	-1158
▁design	-1159
▁purchased	-1160
▁cult	-1161
▁dwell	-1162
iii	-1163
ery	-1164
▁acquired	-1165
otal	-1166
▁With	-1167
▁entered	-1168
ug	-1169
cend	-1170
ches	-1171
▁received	-1172
ḫu	-1173
arters	-1174
ants	-1175
▁beer	-1176
▁dri	-1177
▁enter	-1178
▁offerings	-1179
▁establ	-1180
amm	-1181
▁hom	-1182
▁night	-1183
▁write	-1184
ew	-1185
000	-1186
▁sc	-1187
▁Total	-1188
▁copper	-1189
▁quarters	-1190
.'	-1191
▁bar	-1192
allim	-1193
Marduk	-1194
▁until	-1195
▁follow	-1196
iled	-1197
umer	-1198
di	-1199
whe	-1200
▁conf	-1201
▁stand	-1202
▁would	-1203
▁1,	-1204
▁mak	-1205
▁ple	-1206
cribed	-1207
▁large	-1208
▁marched	-1209
ank	-1210
▁Anu	-1211
▁fled	-1212
▁visible	-1213
eru	-1214
▁Any	-1215
▁sacrific	-1216
▁number	-1217
▁turned	-1218
▁Am	-1219
posed	-1220
▁happy	-1221
▁inscribed	-1222
▁š	-1223
▁eat	-1224
hort	-1225
▁red	-1226
▁cohort	-1227
▁captured	-1228
”)	-1229
▁yoke	-1230
▁river	-1231
▁stands	-1232
-...	-1233
▁bodyguard	-1234
oid	-1235
▁Eg	-1236
▁And	-1237
▁gif	-1238
▁seed	-1239
▁shekels	-1240
nār	-1241
ven	-1242
ārī	-1243
▁best	-1244
nārārī	-1245
▁bread	-1246
ez	-1247
ley	-1248
▁It	-1249
▁Na	-1250
with	-1251
▁cub	-1252
▁don	-1253
▁Gate	-1254
▁performed	-1255
ites	-1256
▁Bēl	-1257
ue	-1258
ders	-1259
miss	-1260
▁Bit	-1261
▁Dur	-1262
▁just	-1263
dle	-1264
▁ir	-1265
ally	-1266
▁rec	-1267
▁Esag	-1268
▁anc	-1269
▁seiz	-1270
▁inter	-1271
▁talents	-1272
oved	-1273
ulty	-1274
▁void	-1275
ītu	-1276
over	-1277
▁prev	-1278
ati	-1279
▁case	-1280
amb	-1281
bal	-1282
ones	-1283
▁tou	-1284
ction	-1285
▁positive	-1286
▁imposed	-1287
▁:	-1288
adi	-1289
▁query	-1290
▁treaty	-1291
▁property	-1292
wh	-1293
ina	-1294
▁Is	-1295
▁goes	-1296
▁many	-1297
▁driver	-1298
ges	-1299
ilu	-1300
▁Bal	-1301
▁For	-1302
▁del	-1303
▁plundered	-1304
ark	-1305
ced	-1306
off	-1307
▁Il	-1308
clip	-1309
▁fire	-1310
▁taken	-1311
▁Te	-1312
antly	-1313
▁chan	-1314
ocation	-1315
key	-1316
▁die	-1317
bat	-1318
▁eclip	-1319
ified	-1320
▁fear	-1321
▁garden	-1322
▁revocation	-1323
gin	-1324
iri	-1325
ater	-1326
sted	-1327
▁aband	-1328
ock	-1329
▁ma	-1330
vest	-1331
aster	-1332
eriba	-1333
third	-1334
▁star	-1335
▁object	-1336
▁himself	-1337
ma	-1338
▁offic	-1339
akk	-1340
ibni	-1341
▁terr	-1342
▁faulty	-1343
▁mother	-1344
▁abandon	-1345
▁village	-1346
▁part	-1347
▁wife	-1348
ash	-1349
ict	-1350
ung	-1351
cceed	-1352
▁lordly	-1353
▁concerning	-1354
▁sk	-1355
▁add	-1356
▁River	-1357
▁9	-1358
als	-1359
▁By	-1360
ations	-1361
▁cross	-1362
▁grands	-1363
▁succeed	-1364
'-	-1365
abu	-1366
▁Wh	-1367
belu	-1368
eans	-1369
fold	-1370
ined	-1371
▁tablet	-1372
▁sending	-1373
▁belonging	-1374
uty	-1375
▁way	-1376
paign	-1377
▁bull	-1378
▁homers	-1379
▁poss	-1380
▁campaign	-1381
▁offering	-1382
ana	-1383
arp	-1384
ild	-1385
halman	-1386
▁pleas	-1387
▁accord	-1388
▁barley	-1389
▁anything	-1390
▁cor	-1391
▁knows	-1392
▁women	-1393
ik	-1394
edar	-1395
▁eclipse	-1396
halmaneser	-1397
▁)	-1398
ila	-1399
head	-1400
ules	-1401
▁lap	-1402
▁sea	-1403
▁middle	-1404
ze	-1405
šu	-1406
Nabû	-1407
haps	-1408
▁top	-1409
iness	-1410
ument	-1411
▁After	-1412
▁There	-1413
▁appear	-1414
zu	-1415
▁Ub	-1416
▁Mar	-1417
finger	-1418
yy	-1419
▁That	-1420
▁told	-1421
▁mules	-1422
▁treas	-1423
▁persons	-1424
▁support	-1425
▁12	-1426
▁Per	-1427
▁ref	-1428
▁each	-1429
▁lady	-1430
▁cubits	-1431
▁ren	-1432
▁rain	-1433
▁three	-1434
▁contest	-1435
▁look	-1436
Ninurta	-1437
▁raised	-1438
▁returned	-1439
▁established	-1440
day	-1441
aves	-1442
▁Nis	-1443
▁flood	-1444
da	-1445
,000	-1446
▁cup	-1447
▁saw	-1448
ition	-1449
▁mine	-1450
▁ritu	-1451
▁queen	-1452
▁killed	-1453
▁completed	-1454
ff	-1455
▁mu	-1456
▁maj	-1457
uring	-1458
▁cent	-1459
▁Shalmaneser	-1460
);	-1461
ech	-1462
▁fri	-1463
▁Issar	-1464
▁within	-1465
▁account	-1466
▁tenfold	-1467
.”	-1468
ukult	-1469
▁must	-1470
atever	-1471
▁oracle	-1472
▁descend	-1473
ier	-1474
ient	-1475
atter	-1476
▁creat	-1477
▁ancest	-1478
ašm	-1479
▁Ahu	-1480
▁follows	-1481
▁prefect	-1482
īn	-1483
ored	-1484
▁Sumer	-1485
▁magnates	-1486
ages	-1487
ides	-1488
▁high	-1489
▁anoin	-1490
▁bricks	-1491
▁possess	-1492
▁live	-1493
▁stay	-1494
▁comes	-1495
▁defeat	-1496
▁fields	-1497
▁dressed	-1498
uru	-1499
▁1/	-1500
▁Ea	-1501
alah	-1502
land	-1503
▁ordin	-1504
ead	-1505
ereš	-1506
▁joy	-1507
▁(...	-1508
▁ruler	-1509
ahu	-1510
▁bord	-1511
▁words	-1512
▁donkey	-1513
▁another	-1514
la	-1515
▁100	-1516
▁God	-1517
▁Zab	-1518
▁than	-1519
▁House	-1520
▁constantly	-1521
ink	-1522
ken	-1523
les	-1524
yyar	-1525
▁lim	-1526
▁lead	-1527
▁Iyyar	-1528
▁first	-1529
▁farmer	-1530
aks	-1531
arg	-1532
pal	-1533
▁appro	-1534
▁cedar	-1535
▁harvest	-1536
ṭir	-1537
cept	-1538
alted	-1539
world	-1540
▁bear	-1541
▁along	-1542
▁stone	-1543
▁rebell	-1544
▁grandsons	-1545
ypt	-1546
ting	-1547
▁nob	-1548
▁Nisan	-1549
▁owners	-1550
▁ordinary	-1551
ax	-1552
ific	-1553
ines	-1554
usku	-1555
▁list	-1556
▁letter	-1557
▁fortress	-1558
▁ancestors	-1559
▁All	-1560
ṭu	-1561
uth	-1562
▁Egypt	-1563
▁grain	-1564
▁seahs	-1565
▁seeks	-1566
▁report	-1567
▁fortified	-1568
ukin	-1569
▁fin	-1570
▁camp	-1571
▁fall	-1572
▁Šarru	-1573
▁Esagil	-1574
▁attack	-1575
▁towards	-1576
▁appointed	-1577
▁V	-1578
utu	-1579
alli	-1580
iqbi	-1581
ached	-1582
halde	-1583
liable	-1584
▁Calah	-1585
▁Chalde	-1586
▁construct	-1587
▁?	-1588
pect	-1589
▁inscription	-1590
ins	-1591
ped	-1592
▁equ	-1593
▁kind	-1594
▁pure	-1595
▁orders	-1596
▁exalted	-1597
ool	-1598
▁om	-1599
▁plan	-1600
▁thick	-1601
▁chariots	-1602
▁daughter	-1603
▁previous	-1604
▁governors	-1605
ils	-1606
▁Tig	-1607
▁bowl	-1608
▁bron	-1609
▁rele	-1610
▁oppos	-1611
▁sword	-1612
▁soiled	-1613
hould	-1614
ioned	-1615
▁stri	-1616
▁midst	-1617
▁peace	-1618
▁Perhaps	-1619
▁regular	-1620
bu	-1621
inc	-1622
ris	-1623
▁She	-1624
▁nam	-1625
estone	-1626
▁goats	-1627
▁rever	-1628
▁bronze	-1629
▁forces	-1630
▁overse	-1631
▁prayers	-1632
▁fam	-1633
šarra	-1634
▁fill	-1635
▁hold	-1636
▁prote	-1637
▁Tukult	-1638
ša	-1639
lam	-1640
▁fem	-1641
▁Urar	-1642
▁ever	-1643
▁whatever	-1644
▁limestone	-1645
ove	-1646
ience	-1647
▁This	-1648
▁march	-1649
▁defeated	-1650
ms	-1651
ov	-1652
ši	-1653
ily	-1654
kur	-1655
ush	-1656
▁ed	-1657
▁ho	-1658
▁te	-1659
▁news	-1660
▁omens	-1661
ulation	-1662
▁places	-1663
alt	-1664
orse	-1665
▁halo	-1666
▁host	-1667
▁near	-1668
spring	-1669
▁former	-1670
▁speech	-1671
▁changed	-1672
▁entirety	-1673
ivan	-1674
▁env	-1675
▁pal	-1676
▁tell	-1677
▁Sivan	-1678
▁around	-1679
▁female	-1680
▁settle	-1681
▁reliable	-1682
▁abandoned	-1683
▁appearance	-1684
ets	-1685
ruit	-1686
▁mon	-1687
▁disapp	-1688
▁payment	-1689
let	-1690
▁Šum	-1691
▁today	-1692
▁truth	-1693
aq	-1694
tain	-1695
anted	-1696
▁gift	-1697
▁gone	-1698
▁harus	-1699
▁called	-1700
▁ritual	-1701
▁overseer	-1702
▁offspring	-1703
▁16	-1704
▁cri	-1705
▁Bors	-1706
▁full	-1707
▁Nusku	-1708
▁deputy	-1709
▁Rem	-1710
▁tax	-1711
šallim	-1712
▁gates	-1713
ters	-1714
▁City	-1715
▁base	-1716
▁laid	-1717
ritory	-1718
▁young	-1719
▁burned	-1720
▁opposite	-1721
Why	-1722
enty	-1723
arran	-1724
▁much	-1725
▁orch	-1726
▁statu	-1727
▁listen	-1728
▁eponymy	-1729
tee	-1730
eṭir	-1731
ided	-1732
▁Ilu	-1733
▁sec	-1734
▁wool	-1735
▁since	-1736
oreover	-1737
ald	-1738
owed	-1739
tern	-1740
wood	-1741
▁Šul	-1742
ccess	-1743
▁cons	-1744
▁abund	-1745
▁Tukultī	-1746
▁territory	-1747
pi	-1748
min	-1749
rus	-1750
ezib	-1751
sper	-1752
▁subst	-1753
▁therein	-1754
▁appointee	-1755
▁possessions	-1756
ean	-1757
uilt	-1758
▁act	-1759
itted	-1760
▁dais	-1761
▁Borsip	-1762
esc	-1763
▁ang	-1764
aving	-1765
▁done	-1766
▁border	-1767
▁streng	-1768
ha	-1769
eng	-1770
tak	-1771
omin	-1772
ples	-1773
whel	-1774
▁burn	-1775
▁prop	-1776
▁step	-1777
▁whole	-1778
▁majest	-1779
▁donkeys	-1780
▁treasur	-1781
▁inscriptions	-1782
abs	-1783
but	-1784
▁Do	-1785
iers	-1786
šuma	-1787
▁cit	-1788
▁fac	-1789
▁light	-1790
▁warri	-1791
▁devast	-1792
▁happiness	-1793
▁sacrificial	-1794
we	-1795
▁z	-1796
asir	-1797
mman	-1798
that	-1799
▁car	-1800
▁ele	-1801
ickly	-1802
▁iron	-1803
▁alive	-1804
tw	-1805
pex	-1806
unn	-1807
▁(6	-1808
cond	-1809
side	-1810
▁says	-1811
▁some	-1812
▁spoke	-1813
▁prosper	-1814
▁haruspex	-1815
ulu	-1816
aries	-1817
▁pour	-1818
▁colle	-1819
umental	-1820
▁Moreover	-1821
▁(1	-1822
▁My	-1823
▁cav	-1824
▁val	-1825
▁Tašm	-1826
▁male	-1827
missive	-1828
▁deities	-1829
▁quickly	-1830
▁foundations	-1831
allu	-1832
▁spl	-1833
tered	-1834
their	-1835
▁leng	-1836
▁horse	-1837
▁counted	-1838
▁overwhel	-1839
▁daughters	-1840
▁monumental	-1841
ds	-1842
nd	-1843
aba	-1844
hem	-1845
alry	-1846
atti	-1847
naṣir	-1848
▁during	-1849
▁cavalry	-1850
▁writing	-1851
aru	-1852
ask	-1853
nail	-1854
reed	-1855
▁ris	-1856
arpan	-1857
▁kiss	-1858
▁makes	-1859
asirpal	-1860
▁coloss	-1861
▁stones	-1862
ingernail	-1863
▁Borsippa	-1864
▁soldiers	-1865
urnasirpal	-1866
op	-1867
gen	-1868
ren	-1869
urru	-1870
▁Tam	-1871
press	-1872
▁area	-1873
▁camels	-1874
▁myself	-1875
▁splend	-1876
▁according	-1877
ph	-1878
enus	-1879
▁bed	-1880
▁What	-1881
▁incre	-1882
▁residence	-1883
etu	-1884
▁DN	-1885
iter	-1886
path	-1887
▁One	-1888
▁Inner	-1889
▁white	-1890
▁Ashurnasirpal	-1891
▁er	-1892
hold	-1893
▁Sea	-1894
fully	-1895
▁face	-1896
▁open	-1897
▁deeds	-1898
▁forever	-1899
▁installed	-1900
▁everything	-1901
Bel	-1902
Let	-1903
uni	-1904
▁Tab	-1905
▁war	-1906
ained	-1907
izier	-1908
▁half	-1909
▁sign	-1910
upiter	-1911
▁deliver	-1912
▁lordship	-1913
āya	-1914
duri	-1915
ither	-1916
▁West	-1917
▁cast	-1918
▁merc	-1919
▁neck	-1920
▁seized	-1921
▁proceed	-1922
by	-1923
▁Ša	-1924
akin	-1925
clud	-1926
read	-1927
▁bak	-1928
▁foot	-1929
litres	-1930
▁added	-1931
▁honey	-1932
▁trees	-1933
▁charge	-1934
▁regard	-1935
▁removed	-1936
''	-1937
af	-1938
raft	-1939
▁det	-1940
▁int	-1941
▁shr	-1942
▁beams	-1943
▁canal	-1944
▁fight	-1945
▁later	-1946
▁power	-1947
▁second	-1948
▁contract	-1949
▁Uru	-1950
▁end	-1951
▁hel	-1952
▁even	-1953
▁vine	-1954
▁lower	-1955
▁Assyrian	-1956
hu	-1957
ept	-1958
mal	-1959
urs	-1960
▁ey	-1961
▁1/2	-1962
ouses	-1963
▁gall	-1964
▁wide	-1965
▁Venus	-1966
▁asking	-1967
▁because	-1968
▁deposit	-1969
▁majesty	-1970
▁settled	-1971
▁temples	-1972
▁settlements	-1973
▁imp	-1974
▁Nipp	-1975
▁corn	-1976
▁Arame	-1977
▁means	-1978
▁Zarpan	-1979
▁official	-1980
urb	-1981
▁Car	-1982
▁how	-1983
▁Mars	-1984
itious	-1985
▁Umman	-1986
▁doors	-1987
▁Westland	-1988
▁propitious	-1989
uz	-1990
adan	-1991
chem	-1992
argon	-1993
VII	-1994
▁11	-1995
▁Apl	-1996
▁aud	-1997
▁jud	-1998
▁too	-1999
irons	-2000
rates	-2001
▁Lady	-2002
▁Your	-2003
▁going	-2004
chemish	-2005
▁breaks	-2006
▁audience	-2007
▁environs	-2008
ang	-2009
▁Ni	-2010
erod	-2011
ures	-2012
▁Say	-2013
▁san	-2014
▁wid	-2015
iving	-2016
šarri	-2017
▁door	-2018
ensive	-2019
▁block	-2020
erodach	-2021
▁Sargon	-2022
▁accept	-2023
▁coming	-2024
▁Carchemish	-2025
iru	-2026
pri	-2027
aint	-2028
ited	-2029
vere	-2030
▁rel	-2031
▁Adar	-2032
▁oath	-2033
▁rule	-2034
▁sanct	-2035
▁disappear	-2036
XII	-2037
now	-2038
rem	-2039
▁Dam	-2040
▁"...	-2041
▁disp	-2042
▁defic	-2043
▁Šulmu	-2044
Babylon	-2045
▁vizier	-2046
▁deposited	-2047
▁performance	-2048
bear	-2049
▁six	-2050
dered	-2051
ishri	-2052
▁appe	-2053
▁mist	-2054
▁doing	-2055
▁etern	-2056
▁gives	-2057
▁image	-2058
▁Nippur	-2059
▁Tishri	-2060
▁rulers	-2061
▁substant	-2062
fl	-2063
uck	-2064
▁Ez	-2065
▁bot	-2066
▁pit	-2067
stand	-2068
tween	-2069
Šarru	-2070
▁Mann	-2071
▁plot	-2072
▁same	-2073
▁compl	-2074
▁stood	-2075
▁between	-2076
▁greatly	-2077
▁designate	-2078
▁overwhelmed	-2079
▁substantial	-2080
ūr	-2081
”:	-2082
▁Why	-2083
▁sit	-2084
irmed	-2085
▁exerc	-2086
▁plain	-2087
▁crossed	-2088
ret	-2089
▁13	-2090
adin	-2091
ense	-2092
▁rep	-2093
ilani	-2094
which	-2095
▁meat	-2096
▁entru	-2097
▁Remanni	-2098
▁altered	-2099
aṣ	-2100
vi	-2101
rap	-2102
▁40	-2103
aged	-2104
▁lib	-2105
▁Urdu	-2106
▁cook	-2107
▁begin	-2108
▁citiz	-2109
▁rites	-2110
▁Should	-2111
▁breast	-2112
▁subject	-2113
▁increase	-2114
ne	-2115
ula	-2116
▁af	-2117
aped	-2118
▁Sam	-2119
▁Ubru	-2120
▁prec	-2121
▁assign	-2122
▁distant	-2123
▁service	-2124
▁!	-2125
āni	-2126
▁Su	-2127
cour	-2128
▁lay	-2129
adder	-2130
there	-2131
▁cann	-2132
▁attent	-2133
▁divine	-2134
▁filled	-2135
▁steppe	-2136
▁touches	-2137
sh	-2138
gur	-2139
uph	-2140
▁25	-2141
▁el	-2142
anna	-2143
▁lam	-2144
▁gras	-2145
▁horn	-2146
▁could	-2147
▁bright	-2148
▁cannot	-2149
▁cattle	-2150
▁litres	-2151
▁normal	-2152
uphrates	-2153
▁designs	-2154
▁perfect	-2155
him	-2156
šir	-2157
▁lie	-2158
▁mer	-2159
▁craft	-2160
▁domin	-2161
▁houses	-2162
▁colossi	-2163
ues	-2164
ukk	-2165
▁Al	-2166
▁lod	-2167
▁ser	-2168
▁bank	-2169
▁wood	-2170
▁eaten	-2171
offered	-2172
ding	-2173
illi	-2174
stone	-2175
▁dire	-2176
▁past	-2177
▁opened	-2178
▁mistress	-2179
▁position	-2180
▁abundance	-2181
▁complaint	-2182
,"	-2183
ara	-2184
unk	-2185
▁wa	-2186
apla	-2187
ield	-2188
▁saf	-2189
▁cens	-2190
▁more	-2191
▁path	-2192
▁port	-2193
▁Ditto	-2194
▁black	-2195
▁cultiv	-2196
ubmissive	-2197
▁dominion	-2198
▁oracular	-2199
▁extensive	-2200
▁descendant	-2201
ida	-2202
less	-2203
▁Teb	-2204
inces	-2205
▁arri	-2206
▁bask	-2207
▁fash	-2208
▁blood	-2209
▁prais	-2210
▁renov	-2211
▁favour	-2212
▁lodges	-2213
▁bladder	-2214
▁forehead	-2215
▁deficient	-2216
▁entrusted	-2217
act	-2218
amu	-2219
semb	-2220
▁Ari	-2221
▁loc	-2222
▁wis	-2223
▁angry	-2224
▁fruit	-2225
▁things	-2226
▁Euphrates	-2227
abi	-2228
▁50	-2229
▁Re	-2230
ical	-2231
▁Uruk	-2232
▁vict	-2233
▁flour	-2234
▁towns	-2235
vereign	-2236
▁touched	-2237
▁sovereign	-2238
formulation	-2239
cep	-2240
ned	-2241
aled	-2242
assu	-2243
plic	-2244
oured	-2245
▁mind	-2246
▁weak	-2247
▁boats	-2248
▁clean	-2249
▁decis	-2250
▁fright	-2251
▁sanctu	-2252
▁bearing	-2253
▁conquer	-2254
,”	-2255
IV	-2256
XI	-2257
ašu	-2258
▁Nan	-2259
▁esc	-2260
those	-2261
▁bott	-2262
▁fell	-2263
▁help	-2264
▁thir	-2265
struct	-2266
▁carry	-2267
▁drunk	-2268
▁manag	-2269
▁merch	-2270
▁course	-2271
▁living	-2272
▁decares	-2273
▁decreed	-2274
▁restore	-2275
▁residing	-2276
▁Ashurbanipal	-2277
cher	-2278
▁Med	-2279
▁adv	-2280
▁beh	-2281
▁cle	-2282
▁Kush	-2283
bearer	-2284
muz	-2285
▁18	-2286
atic	-2287
used	-2288
alliṭ	-2289
orter	-2290
▁bird	-2291
▁clou	-2292
▁eyes	-2293
▁kept	-2294
ulated	-2295
▁split	-2296
▁Shebat	-2297
▁Tammuz	-2298
standing	-2299
▁precious	-2300
most	-2301
▁Kar	-2302
▁ill	-2303
▁love	-2304
▁lung	-2305
▁wild	-2306
▁assemb	-2307
▁ground	-2308
▁length	-2309
▁nether	-2310
▁eunuchs	-2311
▁anointed	-2312
▁finished	-2313
VI	-2314
ṣu	-2315
emb	-2316
išk	-2317
body	-2318
▁get	-2319
▁beloved	-2320
▁orchards	-2321
▁rebellion	-2322
dom	-2323
▁Ig	-2324
▁cur	-2325
▁tri	-2326
▁dark	-2327
▁turn	-2328
▁Urarṭ	-2329
▁thres	-2330
▁archer	-2331
▁bottom	-2332
▁prayer	-2333
▁statue	-2334
▁appoint	-2335
▁beginning	-2336
▁netherworld	-2337
!”	-2338
hys	-2339
deed	-2340
erce	-2341
hose	-2342
šumi	-2343
▁Nab	-2344
▁mor	-2345
ility	-2346
umman	-2347
▁vari	-2348
▁Šamš	-2349
▁drink	-2350
▁engen	-2351
▁fierce	-2352
▁loaves	-2353
▁station	-2354
▁goddesses	-2355
▁engendered	-2356
▁dy	-2357
▁His	-2358
▁dif	-2359
▁phys	-2360
▁site	-2361
▁soon	-2362
ypress	-2363
▁bound	-2364
▁stars	-2365
▁proceedings	-2366
ān	-2367
rew	-2368
kkal	-2369
thus	-2370
▁Muš	-2371
aches	-2372
▁wind	-2373
▁death	-2374
▁Inurta	-2375
▁constructed	-2376
',	-2377
go	-2378
rd	-2379
”),	-2380
▁ut	-2381
agan	-2382
bail	-2383
vers	-2384
▁aid	-2385
▁sat	-2386
▁why	-2387
ority	-2388
▁Elul	-2389
▁auth	-2390
▁exem	-2391
▁five	-2392
▁last	-2393
▁Ezida	-2394
▁leave	-2395
▁upper	-2396
abaster	-2397
▁kissed	-2398
▁making	-2399
▁variant	-2400
▁dwelling	-2401
▁devastated	-2402
You	-2403
uge	-2404
umu	-2405
▁Ki	-2406
agon	-2407
hing	-2408
ison	-2409
▁Abi	-2410
▁anew	-2411
▁care	-2412
▁term	-2413
umbled	-2414
uranni	-2415
▁deser	-2416
▁lives	-2417
▁subdu	-2418
▁matter	-2419
▁Chaldea	-2420
▁message	-2421
▁strength	-2422
orc	-2423
una	-2424
zeru	-2425
hered	-2426
▁find	-2427
▁subm	-2428
▁west	-2429
▁forts	-2430
▁Šamšī	-2431
▁height	-2432
▁twenty	-2433
▁inspect	-2434
▁jumbled	-2435
▁captives	-2436
ka	-2437
asî	-2438
iša	-2439
vii	-2440
gers	-2441
ital	-2442
▁obs	-2443
nadin	-2444
father	-2445
▁Those	-2446
▁asked	-2447
▁viney	-2448
▁gladly	-2449
▁indeed	-2450
▁Tašmetu	-2451
▁created	-2452
▁manager	-2453
▁Arameans	-2454
▁authority	-2455
▁previously	-2456
bo	-2457
any	-2458
esh	-2459
oub	-2460
akku	-2461
ised	-2462
▁arr	-2463
▁run	-2464
wards	-2465
▁Gamb	-2466
▁Arrap	-2467
▁names	-2468
▁third	-2469
▁while	-2470
▁Nikkal	-2471
▁ordered	-2472
▁terrace	-2473
▁sovereignty	-2474
,'	-2475
ele	-2476
eri	-2477
ses	-2478
▁22	-2479
ream	-2480
yrus	-2481
▁age	-2482
▁ere	-2483
▁sin	-2484
▁food	-2485
▁grand	-2486
▁capital	-2487
▁citizens	-2488
▁released	-2489
▁fashioned	-2490
If	-2491
jo	-2492
qq	-2493
'')	-2494
ama	-2495
lar	-2496
umm	-2497
▁Sū	-2498
here	-2499
▁bes	-2500
ainer	-2501
unnak	-2502
▁Kard	-2503
▁clay	-2504
▁Belet	-2505
▁corps	-2506
▁outer	-2507
▁times	-2508
▁Šumma	-2509
▁Ešarra	-2510
emuranni	-2511
entation	-2512
▁favorite	-2513
▁treasurer	-2514
Ḫum	-2515
▁gro	-2516
immer	-2517
uniaš	-2518
▁east	-2519
▁holy	-2520
▁roof	-2521
▁recon	-2522
station	-2523
▁Tigris	-2524
▁behind	-2525
▁talent	-2526
ccession	-2527
▁Anunnak	-2528
▁cypress	-2529
▁confirmed	-2530
▁sacrifices	-2531
ond	-2532
oor	-2533
rat	-2534
▁Sc	-2535
▁Ul	-2536
▁wr	-2537
raid	-2538
▁Ban	-2539
▁But	-2540
▁Dūr	-2541
▁bit	-2542
▁mus	-2543
▁pap	-2544
▁radi	-2545
▁rejo	-2546
▁child	-2547
▁reach	-2548
▁spans	-2549
ificent	-2550
▁single	-2551
▁stable	-2552
Babylonia	-2553
▁provides	-2554
▁Karduniaš	-2555
▁household	-2556
He	-2557
abb	-2558
▁Pu	-2559
cess	-2560
▁Sub	-2561
▁new	-2562
▁burnt	-2563
▁Ḫatti	-2564
▁afraid	-2565
▁Teumman	-2566
▁heavens	-2567
▁foremost	-2568
▁magnificent	-2569
▁PN	-2570
▁Sil	-2571
▁fig	-2572
▁xth	-2573
iškun	-2574
▁lion	-2575
▁save	-2576
▁above	-2577
▁stret	-2578
▁anoint	-2579
▁weapon	-2580
▁erected	-2581
īl	-2582
air	-2583
irc	-2584
▁Aš	-2585
bone	-2586
ival	-2587
lath	-2588
mark	-2589
▁Tar	-2590
▁bag	-2591
▁box	-2592
▁Šarr	-2593
ileser	-2594
selves	-2595
▁Medes	-2596
▁Nairi	-2597
▁cause	-2598
▁coils	-2599
▁flesh	-2600
▁quest	-2601
▁diffic	-2602
zi	-2603
beli	-2604
ward	-2605
▁gat	-2606
▁inv	-2607
▁neg	-2608
▁ori	-2609
chief	-2610
▁fast	-2611
▁fine	-2612
▁hund	-2613
▁true	-2614
▁colon	-2615
▁rememb	-2616
▁archers	-2617
▁centers	-2618
▁hostile	-2619
▁morning	-2620
▁papyrus	-2621
▁gathered	-2622
▁alabaster	-2623
▁cupbearer	-2624
qa	-2625
bēl	-2626
▁La	-2627
▁Lu	-2628
lier	-2629
viii	-2630
▁fif	-2631
▁par	-2632
ammar	-2633
▁Gula	-2634
▁Sūḫu	-2635
▁hall	-2636
▁hero	-2637
▁Arabs	-2638
▁exorc	-2639
▁gifts	-2640
▁straw	-2641
▁having	-2642
▁master	-2643
▁overth	-2644
▁Tiglath	-2645
▁rebuilt	-2646
▁commanded	-2647
▁frightened	-2648
col	-2649
den	-2650
lak	-2651
val	-2652
▁2-	-2653
▁5)	-2654
▁Un	-2655
last	-2656
oted	-2657
wise	-2658
▁200	-2659
▁bad	-2660
▁obe	-2661
litre	-2662
offer	-2663
▁Does	-2664
▁wait	-2665
▁force	-2666
▁trust	-2667
▁origin	-2668
▁blocked	-2669
▁eternal	-2670
▁hundred	-2671
▁mustered	-2672
▁province	-2673
▁splendid	-2674
▁underworld	-2675
▁insubmissive	-2676
▁understanding	-2677
ba	-2678
gs	-2679
lo	-2680
5')	-2681
uli	-2682
▁17	-2683
▁iv	-2684
from	-2685
ixed	-2686
utha	-2687
▁(5)	-2688
▁Sid	-2689
▁fet	-2690
▁occ	-2691
atial	-2692
lešir	-2693
šezib	-2694
▁room	-2695
Harran	-2696
▁Tebet	-2697
▁ivory	-2698
▁censer	-2699
▁princes	-2700
▁reaches	-2701
▁stationed	-2702
▁protection	-2703
Ar	-2704
In	-2705
ḫa	-2706
▁Ek	-2707
▁Tu	-2708
gged	-2709
iced	-2710
▁Der	-2711
▁Tīl	-2712
▁sky	-2713
tyard	-2714
▁dead	-2715
▁stra	-2716
▁Cutha	-2717
▁close	-2718
▁exper	-2719
▁planet	-2720
▁sealed	-2721
▁witness	-2722
▁exorcist	-2723
▁palatial	-2724
▁Zarpanitu	-2725
▁Babylonians	-2726
ls	-2727
use	-2728
xed	-2729
▁Ne	-2730
akes	-2731
iful	-2732
▁Ahi	-2733
▁Itu	-2734
▁jar	-2735
▁Lower	-2736
▁Sidon	-2737
▁never	-2738
lasting	-2739
remanni	-2740
▁herald	-2741
▁commands	-2742
▁threshing	-2743
▁fingernail	-2744
gil	-2745
mor	-2746
chie	-2747
▁Kis	-2748
▁Šub	-2749
▁stip	-2750
▁stor	-2751
▁surf	-2752
▁thus	-2753
Ḫumban	-2754
▁achie	-2755
▁bulls	-2756
▁cover	-2757
▁mercy	-2758
▁ruins	-2759
▁trans	-2760
▁family	-2761
▁passed	-2762
▁remain	-2763
▁shekel	-2764
▁Šarrat	-2765
▁corpses	-2766
▁shrines	-2767
▁gardener	-2768
▁straight	-2769
▁warriors	-2770
▁approached	-2771
▁stipulated	-2772
ahi	-2773
ows	-2774
ury	-2775
▁28	-2776
▁II	-2777
▁Le	-2778
▁em	-2779
artu	-2780
pted	-2781
reme	-2782
▁swe	-2783
house	-2784
ippar	-2785
▁arom	-2786
▁comp	-2787
▁salt	-2788
▁scep	-2789
▁used	-2790
icated	-2791
ipment	-2792
ullanu	-2793
▁Upper	-2794
▁baked	-2795
▁faces	-2796
▁mayor	-2797
▁swear	-2798
pileser	-2799
▁Tammar	-2800
▁friend	-2801
▁inform	-2802
▁nobody	-2803
▁protect	-2804
▁refined	-2805
▁scepter	-2806
▁surface	-2807
▁aromatic	-2808
▁performs	-2809
▁overthrow	-2810
nā	-2811
qi	-2812
▁”	-2813
ems	-2814
ett	-2815
seah	-2816
▁Gur	-2817
▁got	-2818
iggur	-2819
iqiša	-2820
▁fate	-2821
▁shin	-2822
vernor	-2823
▁alone	-2824
▁rises	-2825
▁seven	-2826
cluding	-2827
▁Harran	-2828
▁Sippar	-2829
▁praise	-2830
▁singers	-2831
▁Urarṭian	-2832
▁libation	-2833
▁merchant	-2834
▁courtyard	-2835
▁delivered	-2836
▁presented	-2837
▁messengers	-2838
ala	-2839
gar	-2840
iti	-2841
usu	-2842
ably	-2843
amaš	-2844
ases	-2845
gate	-2846
hest	-2847
▁Aya	-2848
▁Mel	-2849
▁Qur	-2850
▁hun	-2851
▁read	-2852
▁forth	-2853
▁heavy	-2854
▁judge	-2855
▁loves	-2856
▁walls	-2857
baladan	-2858
▁Succession	-2859
aza	-2860
ibi	-2861
ots	-2862
Then	-2863
azed	-2864
bani	-2865
ilki	-2866
king	-2867
▁10)	-2868
▁Kal	-2869
▁dim	-2870
agues	-2871
▁abod	-2872
▁foes	-2873
▁sets	-2874
▁skill	-2875
▁taxes	-2876
governor	-2877
Šarruken	-2878
▁Arrapha	-2879
▁granted	-2880
▁justice	-2881
▁subjects	-2882
▁sanctuaries	-2883
Ba	-2884
xt	-2885
▁21	-2886
▁šē	-2887
ades	-2888
beer	-2889
ears	-2890
ways	-2891
▁yet	-2892
cause	-2893
▁elev	-2894
▁none	-2895
▁named	-2896
▁brilli	-2897
▁rugged	-2898
▁arrived	-2899
▁earlier	-2900
ification	-2901
▁radiance	-2902
Am	-2903
aṭ	-2904
aut	-2905
cut	-2906
umn	-2907
▁Id	-2908
four	-2909
ship	-2910
unip	-2911
▁Kār	-2912
azuli	-2913
▁clot	-2914
▁Kiṣir	-2915
▁below	-2916
osition	-2917
▁Cimmer	-2918
▁contro	-2919
▁famine	-2920
▁gardens	-2921
▁warrior	-2922
▁pleasure	-2923
og	-2924
ene	-2925
wes	-2926
▁23	-2927
▁26	-2928
▁ap	-2929
aplu	-2930
taku	-2931
orted	-2932
rance	-2933
▁mult	-2934
▁only	-2935
▁bowed	-2936
▁lapis	-2937
▁lions	-2938
▁seize	-2939
▁sweet	-2940
ukkannu	-2941
▁singer	-2942
▁ziggur	-2943
▁grasped	-2944
▁elevated	-2945
▁herewith	-2946
▁provided	-2947
▁musukkannu	-2948
lew	-2949
oves	-2950
qqin	-2951
rows	-2952
▁cho	-2953
▁und	-2954
anner	-2955
▁mass	-2956
▁ruin	-2957
taqqin	-2958
▁Great	-2959
▁agree	-2960
▁curse	-2961
▁north	-2962
▁stead	-2963
▁firmly	-2964
▁reconc	-2965
▁terror	-2966
▁equipment	-2967
▁submitted	-2968
▁purification	-2969
rē	-2970
hat	-2971
ran	-2972
xes	-2973
▁Kum	-2974
▁Sag	-2975
▁ses	-2976
ursag	-2977
▁acts	-2978
▁main	-2979
▁arable	-2980
▁either	-2981
▁sesame	-2982
Merodach	-2983
▁pleasing	-2984
▁remember	-2985
▁difficult	-2986
▁including	-2987
alu	-2988
ote	-2989
urt	-2990
yre	-2991
akīn	-2992
appa	-2993
Šamaš	-2994
▁Urad	-2995
▁stru	-2996
▁Šeru	-2997
▁grant	-2998
▁serve	-2999
▁Amurru	-3000
▁Urarṭu	-3001
▁attend	-3002
▁dispat	-3003
▁victor	-3004
▁courses	-3005
▁reveres	-3006
▁assigned	-3007
▁original	-3008
▁restored	-3009
▁collected	-3010
▁construction	-3011
May	-3012
fav	-3013
hab	-3014
idu	-3015
lig	-3016
▁2,	-3017
▁Ba	-3018
ephe	-3019
nuri	-3020
ating	-3021
ative	-3022
while	-3023
▁circ	-3024
▁hung	-3025
▁cloud	-3026
▁nephe	-3027
▁super	-3028
▁teams	-3029
fection	-3030
uballiṭ	-3031
▁ascend	-3032
▁brings	-3033
▁daises	-3034
▁fourth	-3035
▁lazuli	-3036
▁tablets	-3037
▁committed	-3038
▁fortresses	-3039
ob	-3040
ada	-3041
ape	-3042
gan	-3043
ubu	-3044
▁29	-3045
aily	-3046
igaš	-3047
irth	-3048
rees	-3049
▁Kaš	-3050
▁arm	-3051
▁deb	-3052
▁lif	-3053
icted	-3054
▁able	-3055
▁infl	-3056
uniper	-3057
▁Dagan	-3058
▁birth	-3059
▁crimin	-3060
▁destin	-3061
▁encour	-3062
▁evening	-3063
▁respect	-3064
▁trainer	-3065
gū	-3066
ṣi	-3067
Bal	-3068
adî	-3069
ify	-3070
ogn	-3071
▁ša	-3072
apon	-3073
ized	-3074
orpi	-3075
riba	-3076
▁Bab	-3077
▁Sun	-3078
▁Ḫar	-3079
▁lies	-3080
▁wish	-3081
orable	-3082
orpius	-3083
▁Their	-3084
▁build	-3085
▁rival	-3086
▁Urtaku	-3087
▁crafts	-3088
▁golden	-3089
▁allowed	-3090
▁continu	-3091
▁Scorpius	-3092
▁destruct	-3093
▁everlasting	-3094
.)	-3095
īgū	-3096
aria	-3097
inen	-3098
rēša	-3099
usur	-3100
▁bal	-3101
▁ban	-3102
built	-3103
ement	-3104
lamur	-3105
▁Urda	-3106
▁pull	-3107
▁seat	-3108
orated	-3109
▁reeds	-3110
▁Aplaya	-3111
▁direct	-3112
▁exempt	-3113
▁hearts	-3114
▁interp	-3115
▁exercise	-3116
▁fastened	-3117
▁chariotry	-3118
▁Fingernail	-3119
▁opposition	-3120
pu	-3121
idm	-3122
nal	-3123
▁60	-3124
ukīn	-3125
work	-3126
▁20)	-3127
▁Eri	-3128
▁Han	-3129
▁cer	-3130
▁clo	-3131
▁exp	-3132
▁lab	-3133
▁pun	-3134
▁vic	-3135
▁disc	-3136
▁duck	-3137
▁resp	-3138
▁eleph	-3139
▁enlar	-3140
▁numer	-3141
▁raise	-3142
whether	-3143
▁Before	-3144
▁desert	-3145
▁looked	-3146
▁Subartu	-3147
▁leagues	-3148
▁slaught	-3149
▁numerous	-3150
▁accordance	-3151
50	-3152
hin	-3153
▁Eḫ	-3154
▁gu	-3155
ayed	-3156
heck	-3157
oken	-3158
▁big	-3159
▁dem	-3160
▁hon	-3161
▁pop	-3162
aging	-3163
stead	-3164
▁else	-3165
▁sele	-3166
rement	-3167
taklak	-3168
▁Igīgū	-3169
▁daily	-3170
▁inner	-3171
▁kinds	-3172
▁rains	-3173
▁Šerua	-3174
▁basket	-3175
▁hunger	-3176
▁spoken	-3177
▁spring	-3178
▁Esaggil	-3179
▁trusted	-3180
▁complete	-3181
▁question	-3182
▁wherever	-3183
▁lamentation	-3184
asc	-3185
udu	-3186
lord	-3187
osen	-3188
sued	-3189
▁Dun	-3190
▁mil	-3191
▁spr	-3192
igate	-3193
▁Kakk	-3194
▁circum	-3195
▁passes	-3196
ervation	-3197
▁section	-3198
▁subdued	-3199
▁decision	-3200
▁attentive	-3201
▁acceptable	-3202
▁descendants	-3203
ex	-3204
hur	-3205
ney	-3206
omm	-3207
āti	-3208
▁1)	-3209
▁Er	-3210
VIII	-3211
anun	-3212
iant	-3213
▁15)	-3214
▁Bir	-3215
▁Nin	-3216
▁Raš	-3217
▁eld	-3218
▁hum	-3219
▁sis	-3220
House	-3221
ouble	-3222
ready	-3223
▁Tyre	-3224
▁ones	-3225
▁rein	-3226
▁tail	-3227
▁team	-3228
urther	-3229
▁Illil	-3230
▁horns	-3231
▁insur	-3232
▁linen	-3233
▁dwells	-3234
▁addition	-3235
ays	-3236
get	-3237
ips	-3238
par	-3239
▁No	-3240
▁Of	-3241
▁St	-3242
▁eb	-3243
▁Hal	-3244
▁doc	-3245
▁fog	-3246
anger	-3247
urbed	-3248
▁arms	-3249
▁bags	-3250
▁cuts	-3251
▁fish	-3252
▁hill	-3253
▁prom	-3254
▁repa	-3255
▁crime	-3256
▁eight	-3257
▁chosen	-3258
▁column	-3259
▁combat	-3260
▁hectare	-3261
▁success	-3262
▁terrain	-3263
▁Merodach	-3264
▁enlarged	-3265
▁shoulder	-3266
▁Tammarītu	-3267
▁brilliance	-3268
ēr	-3269
iši	-3270
lev	-3271
▁Ak	-3272
▁ve	-3273
teen	-3274
trib	-3275
ubuš	-3276
▁Man	-3277
▁Ple	-3278
▁ded	-3279
▁dug	-3280
▁hig	-3281
▁Ḫam	-3282
iring	-3283
▁Ning	-3284
▁coll	-3285
▁coun	-3286
▁held	-3287
▁Qurdi	-3288
▁Tabal	-3289
▁ebony	-3290
▁pious	-3291
▁prepa	-3292
▁Balasî	-3293
▁nobles	-3294
▁remote	-3295
▁wishes	-3296
▁wooden	-3297
▁Gambulu	-3298
▁boxwood	-3299
▁columns	-3300
▁pitched	-3301
▁planted	-3302
▁regions	-3303
▁reinfor	-3304
▁appropri	-3305
▁vineyard	-3306
▁favorably	-3307
▁interpret	-3308
▁forefather	-3309
En	-3310
iḫ	-3311
van	-3312
was	-3313
▁(2	-3314
▁19	-3315
▁24	-3316
▁27	-3317
▁Tw	-3318
When	-3319
adow	-3320
aved	-3321
long	-3322
▁5')	-3323
▁Sat	-3324
▁aff	-3325
▁gre	-3326
▁kid	-3327
royal	-3328
▁Abdi	-3329
▁guil	-3330
ercury	-3331
people	-3332
▁1,000	-3333
▁Silim	-3334
▁These	-3335
▁Yakin	-3336
▁litre	-3337
▁produ	-3338
chesvan	-3339
rection	-3340
▁keeper	-3341
▁seated	-3342
▁valiant	-3343
▁attention	-3344
▁Marchesvan	-3345
▁insurrection	-3346
bl	-3347
šû	-3348
aku	-3349
fit	-3350
iew	-3351
imm	-3352
ize	-3353
ssu	-3354
usa	-3355
šši	-3356
▁ca	-3357
aven	-3358
igal	-3359
itti	-3360
▁Til	-3361
▁squ	-3362
▁tin	-3363
agons	-3364
nādin	-3365
spect	-3366
▁(10)	-3367
▁Arik	-3368
▁flow	-3369
incial	-3370
▁Ashur	-3371
▁equal	-3372
▁heads	-3373
▁inhab	-3374
▁shore	-3375
▁slabs	-3376
▁widen	-3377
▁Damasc	-3378
▁enters	-3379
▁shrine	-3380
▁towers	-3381
▁waters	-3382
offering	-3383
together	-3384
▁orchard	-3385
▁statues	-3386
▁bringing	-3387
▁physical	-3388
▁Ummanigaš	-3389
▁encouraged	-3390
▁provincial	-3391
▁themselves	-3392
Th	-3393
dî	-3394
wa	-3395
dīn	-3396
kaš	-3397
kku	-3398
pro	-3399
▁Im	-3400
dari	-3401
▁Mad	-3402
▁Raṣ	-3403
▁dog	-3404
ently	-3405
iades	-3406
▁10')	-3407
▁Like	-3408
▁line	-3409
▁mars	-3410
▁ment	-3411
▁rise	-3412
Arbail	-3413
idmuri	-3414
▁halls	-3415
▁herds	-3416
▁holds	-3417
▁store	-3418
▁takes	-3419
▁Baltil	-3420
▁Saturn	-3421
▁danger	-3422
▁preced	-3423
▁prison	-3424
▁replic	-3425
▁Because	-3426
▁Mercury	-3427
▁forward	-3428
▁nothing	-3429
▁provide	-3430
▁receive	-3431
▁shining	-3432
▁powerful	-3433
▁following	-3434
▁Afterwards	-3435
▁population	-3436
'.	-3437
ʾ,	-3438
ads	-3439
aff	-3440
api	-3441
ior	-3442
ētu	-3443
muḫu	-3444
only	-3445
word	-3446
▁300	-3447
▁Kud	-3448
banon	-3449
quire	-3450
šakin	-3451
▁Lord	-3452
▁reve	-3453
▁twel	-3454
▁“...	-3455
hinxes	-3456
weapon	-3457
▁razed	-3458
▁shine	-3459
▁caused	-3460
▁erases	-3461
▁flagon	-3462
▁giving	-3463
▁office	-3464
▁recogn	-3465
▁fathers	-3466
▁highest	-3467
▁nephews	-3468
favorable	-3469
▁Pleiades	-3470
▁sphinxes	-3471
▁strengthen	-3472
We	-3473
uḫ	-3474
kin	-3475
lip	-3476
rev	-3477
āru	-3478
They	-3479
apli	-3480
arqa	-3481
buil	-3482
deem	-3483
ittu	-3484
▁40)	-3485
▁Ham	-3486
▁How	-3487
▁Its	-3488
▁Que	-3489
▁Sal	-3490
▁lev	-3491
ables	-3492
ander	-3493
means	-3494
▁cell	-3495
▁dele	-3496
▁garr	-3497
▁stat	-3498
▁Kanun	-3499
▁floor	-3500
▁loyal	-3501
▁occur	-3502
Baladan	-3503
▁Kislev	-3504
▁desire	-3505
▁redeem	-3506
▁rising	-3507
▁weight	-3508
structed	-3509
▁Instead	-3510
▁capture	-3511
▁cleared	-3512
▁supreme	-3513
▁Anunnakū	-3514
▁distance	-3515
▁elephant	-3516
▁likewise	-3517
▁preceded	-3518
▁rebelled	-3519
▁treasury	-3520
▁dangerous	-3521
▁lightning	-3522
▁officials	-3523
▁Cimmerians	-3524
▁interpretation	-3525
br	-3526
ea	-3527
gi	-3528
aim	-3529
ham	-3530
itt	-3531
kal	-3532
oot	-3533
▁(“	-3534
▁Ch	-3535
ests	-3536
hood	-3537
▁35)	-3538
▁Guz	-3539
▁Zar	-3540
▁low	-3541
▁use	-3542
▁Šar	-3543
Enlil	-3544
about	-3545
▁Ekur	-3546
▁annu	-3547
▁call	-3548
▁forg	-3549
▁free	-3550
▁lamb	-3551
▁maid	-3552
▁poin	-3553
▁rank	-3554
▁pours	-3555
▁escape	-3556
▁others	-3557
▁porter	-3558
▁poured	-3559
▁punish	-3560
▁remove	-3561
▁strive	-3562
▁thirty	-3563
▁carries	-3564
▁reached	-3565
▁scatter	-3566
▁Zarpanītu	-3567
ūa	-3568
But	-3569
asu	-3570
iya	-3571
riv	-3572
zib	-3573
back	-3574
ocks	-3575
ofty	-3576
pped	-3577
they	-3578
when	-3579
▁45)	-3580
▁Pal	-3581
▁lot	-3582
▁ran	-3583
ising	-3584
rough	-3585
▁Dann	-3586
▁arre	-3587
▁draw	-3588
▁fest	-3589
▁pick	-3590
▁show	-3591
▁want	-3592
▁Ḫind	-3593
inanni	-3594
itants	-3595
▁broad	-3596
▁thous	-3597
attened	-3598
olished	-3599
▁Nanaya	-3600
▁extend	-3601
▁fought	-3602
▁manner	-3603
▁struck	-3604
▁Elamite	-3605
▁Raṣappa	-3606
▁baskets	-3607
▁incense	-3608
▁offered	-3609
▁respons	-3610
increment	-3611
▁Ummanald	-3612
▁ascended	-3613
▁Assyrians	-3614
▁districts	-3615
▁impressed	-3616
▁destruction	-3617
IX	-3618
uf	-3619
aḫḫ	-3620
ini	-3621
ual	-3622
āri	-3623
▁Aḫ	-3624
▁Ir	-3625
What	-3626
ault	-3627
even	-3628
keep	-3629
▁Did	-3630
▁Zak	-3631
bread	-3632
oving	-3633
▁Mari	-3634
▁safe	-3635
Nergal	-3636
ahhešu	-3637
▁abode	-3638
▁admin	-3639
▁bowls	-3640
▁exped	-3641
▁lofty	-3642
▁major	-3643
▁revol	-3644
▁sends	-3645
▁wears	-3646
▁cooked	-3647
▁undist	-3648
▁wagons	-3649
▁Kushite	-3650
▁Tašmētu	-3651
▁conclud	-3652
▁covered	-3653
▁mounted	-3654
▁removes	-3655
▁Damascus	-3656
▁Manneans	-3657
▁dedicated	-3658
▁ziggurrat	-3659
▁cultivation	-3660
▁undisturbed	-3661
It	-3662
0')	-3663
bes	-3664
isu	-3665
joy	-3666
liš	-3667
qar	-3668
ēri	-3669
idri	-3670
mati	-3671
rānu	-3672
umen	-3673
▁art	-3674
▁cop	-3675
▁tor	-3676
arant	-3677
balaṭ	-3678
manus	-3679
▁Zeru	-3680
▁meas	-3681
▁wise	-3682
atures	-3683
headed	-3684
nerari	-3685
▁Eanna	-3686
▁array	-3687
▁conce	-3688
▁enjoy	-3689
▁homer	-3690
▁slave	-3691
▁twice	-3692
▁unriv	-3693
▁Amanus	-3694
▁Zababa	-3695
▁guilty	-3696
▁raging	-3697
▁region	-3698
▁Further	-3699
▁instead	-3700
▁recruit	-3701
▁Kanunayu	-3702
▁features	-3703
▁villages	-3704
▁decisions	-3705
)-	-3706
Iš	-3707
hi	-3708
ux	-3709
bar	-3710
bow	-3711
ime	-3712
ēšu	-3713
▁?"	-3714
This	-3715
ccia	-3716
mith	-3717
▁Abu	-3718
▁Can	-3719
▁Kil	-3720
▁New	-3721
▁Par	-3722
▁sou	-3723
▁won	-3724
▁miss	-3725
▁rams	-3726
▁aside	-3727
▁cella	-3728
▁chant	-3729
▁emiss	-3730
▁greet	-3731
▁veget	-3732
thereby	-3733
▁attain	-3734
▁concer	-3735
▁extent	-3736
▁safely	-3737
▁sinned	-3738
▁builder	-3739
▁fetters	-3740
▁greater	-3741
▁document	-3742
▁instruct	-3743
▁aromatics	-3744
▁craftsmen	-3745
▁establish	-3746
▁expedition	-3747
eg	-3748
uh	-3749
00,	-3750
Who	-3751
alm	-3752
utî	-3753
āra	-3754
ague	-3755
alks	-3756
hand	-3757
isse	-3758
ling	-3759
oles	-3760
rain	-3761
▁25)	-3762
▁Bar	-3763
▁Nag	-3764
▁awe	-3765
▁emb	-3766
▁Šep	-3767
Ištar	-3768
board	-3769
▁ally	-3770
▁mood	-3771
▁once	-3772
▁suit	-3773
▁summ	-3774
▁šēpi	-3775
iously	-3776
kurkur	-3777
▁Assur	-3778
▁Ellip	-3779
▁deems	-3780
▁south	-3781
ušallim	-3782
▁anyone	-3783
▁center	-3784
▁centre	-3785
▁device	-3786
▁devour	-3787
▁thirst	-3788
▁twelve	-3789
▁bitumen	-3790
▁breccia	-3791
▁escaped	-3792
▁mention	-3793
▁outside	-3794
▁thereby	-3795
▁belonged	-3796
▁fighting	-3797
▁thousand	-3798
Go	-3799
še	-3800
’)	-3801
int	-3802
ume	-3803
▁Da	-3804
Thus	-3805
aces	-3806
ains	-3807
chol	-3808
▁Ind	-3809
▁Mut	-3810
▁Pro	-3811
▁bus	-3812
▁dro	-3813
▁pot	-3814
ablet	-3815
ruits	-3816
▁awes	-3817
▁trim	-3818
▁accom	-3819
▁arrow	-3820
▁mound	-3821
▁staff	-3822
▁storm	-3823
▁amount	-3824
▁expert	-3825
▁plenty	-3826
▁prayed	-3827
▁proper	-3828
▁regnal	-3829
▁wisdom	-3830
▁juniper	-3831
▁pursued	-3832
▁replica	-3833
▁staying	-3834
▁waiting	-3835
▁assembly	-3836
▁children	-3837
▁destroys	-3838
▁guardian	-3839
▁splendor	-3840
▁dispatched	-3841
▁unrivalled	-3842
asi	-3843
des	-3844
god	-3845
hil	-3846
igi	-3847
lic	-3848
nat	-3849
ria	-3850
zuh	-3851
▁Em	-3852
▁ol	-3853
adel	-3854
duru	-3855
ener	-3856
fast	-3857
ices	-3858
irra	-3859
kiah	-3860
more	-3861
ukku	-3862
▁Mug	-3863
▁Tah	-3864
Yakīn	-3865
beams	-3866
▁Kish	-3867
▁Puqu	-3868
▁boat	-3869
▁lips	-3870
▁obey	-3871
▁sour	-3872
▁ture	-3873
ensils	-3874
ficial	-3875
stream	-3876
ubuški	-3877
zuhina	-3878
▁Rašil	-3879
▁tents	-3880
▁width	-3881
▁Moving	-3882
▁labour	-3883
▁locust	-3884
▁neglig	-3885
▁secret	-3886
▁struct	-3887
▁Lebanon	-3888
▁assault	-3889
▁garment	-3890
▁harness	-3891
▁pleases	-3892
structure	-3893
▁appealed	-3894
▁standing	-3895
▁Chaldeans	-3896
▁steadfast	-3897
▁commanders	-3898
▁reinforced	-3899
▁superstructure	-3900
ali	-3901
arm	-3902
gul	-3903
lum	-3904
nel	-3905
reš	-3906
▁!"	-3907
▁GN	-3908
▁Sa	-3909
lace	-3910
lict	-3911
reng	-3912
wine	-3913
šarr	-3914
▁Lab	-3915
▁Lah	-3916
▁Two	-3917
▁erš	-3918
▁fur	-3919
▁ver	-3920
again	-3921
ident	-3922
▁Bull	-3923
▁Land	-3924
▁crus	-3925
▁date	-3926
▁died	-3927
▁hole	-3928
▁priv	-3929
▁quay	-3930
▁situ	-3931
▁tore	-3932
▁tree	-3933
endent	-3934
iduous	-3935
▁Where	-3936
▁birds	-3937
▁dimin	-3938
▁throw	-3939
mission	-3940
▁broken	-3941
▁decree	-3942
▁handed	-3943
▁provis	-3944
▁shield	-3945
▁Mugallu	-3946
▁ancient	-3947
▁release	-3948
▁entrance	-3949
▁utensils	-3950
▁assiduous	-3951
▁decorated	-3952
▁scattered	-3953
▁Ummanaldašu	-3954
Ea	-3955
ye	-3956
adn	-3957
alû	-3958
dān	-3959
ern	-3960
fer	-3961
ikh	-3962
met	-3963
pty	-3964
rig	-3965
tem	-3966
▁).	-3967
▁Iz	-3968
▁Qu	-3969
abbu	-3970
eroy	-3971
ross	-3972
ḫalt	-3973
▁30)	-3974
▁Day	-3975
▁cal	-3976
▁eng	-3977
▁imm	-3978
▁tra	-3979
▁Ḫab	-3980
arted	-3981
imals	-3982
mixed	-3983
uspic	-3984
where	-3985
▁Atar	-3986
▁heed	-3987
▁rear	-3988
▁reed	-3989
▁thri	-3990
morrow	-3991
streng	-3992
▁baker	-3993
▁beaut	-3994
▁dates	-3995
▁fixed	-3996
▁schol	-3997
▁short	-3998
▁stele	-3999
▁think	-4000
colored	-4001
▁Arbail	-4002
▁Mannea	-4003
▁Ningal	-4004
▁always	-4005
▁meadow	-4006
▁mounts	-4007
▁sheikh	-4008
▁Through	-4009
▁balance	-4010
▁counsel	-4011
▁dispers	-4012
▁viceroy	-4013
▁victory	-4014
uspicious	-4015
▁attacked	-4016
▁prefects	-4017
▁relative	-4018
▁tomorrow	-4019
▁chieftain	-4020
▁structure	-4021
▁appropriate	-4022
▁inhabitants	-4023
)?	-4024
bb	-4025
alâ	-4026
ata	-4027
erm	-4028
ilī	-4029
rie	-4030
▁80	-4031
▁Ru	-4032
▁Si	-4033
▁ak	-4034
▁av	-4035
alla	-4036
arrû	-4037
emon	-4038
otro	-4039
rect	-4040
said	-4041
▁(64	-4042
▁55)	-4043
▁Hab	-4044
▁Kur	-4045
▁dyn	-4046
ašmaš	-4047
ching	-4048
▁omen	-4049
otropa	-4050
▁Ekron	-4051
▁leads	-4052
▁mixed	-4053
▁older	-4054
▁rings	-4055
▁ruled	-4056
Kidmuri	-4057
cession	-4058
▁Dunānu	-4059
▁Tablet	-4060
▁elders	-4061
▁facing	-4062
▁fallen	-4063
▁months	-4064
▁reside	-4065
▁roofed	-4066
▁sought	-4067
▁source	-4068
▁summon	-4069
▁wonder	-4070
kurkurra	-4071
▁Dannaya	-4072
▁Mušezib	-4073
▁advance	-4074
▁awesome	-4075
▁collect	-4076
▁devoted	-4077
▁locusts	-4078
▁secured	-4079
▁someone	-4080
▁priestly	-4081
▁renovate	-4082
▁suitable	-4083
▁Akkullanu	-4084
▁beautiful	-4085
▁recruitment	-4086
Nan	-4087
kel	-4088
ūru	-4089
▁Az	-4090
▁Li	-4091
▁ce	-4092
Amuk	-4093
cuts	-4094
half	-4095
kill	-4096
laid	-4097
rian	-4098
rise	-4099
ying	-4100
zeri	-4101
āssu	-4102
▁aug	-4103
▁vir	-4104
iless	-4105
kelon	-4106
lemen	-4107
olesc	-4108
ption	-4109
ulayu	-4110
▁Gods	-4111
▁Hind	-4112
▁Kass	-4113
▁anne	-4114
▁bene	-4115
▁buck	-4116
▁drag	-4117
▁lear	-4118
▁loan	-4119
▁sage	-4120
▁tall	-4121
▁vess	-4122
isance	-4123
šumāti	-4124
▁Milki	-4125
▁allow	-4126
▁bands	-4127
▁check	-4128
▁moved	-4129
▁piled	-4130
▁sharp	-4131
▁threw	-4132
ibility	-4133
incense	-4134
▁Cancer	-4135
▁secure	-4136
▁status	-4137
▁tureen	-4138
otropaic	-4139
strength	-4140
▁Kudurru	-4141
▁adolesc	-4142
▁capable	-4143
▁clothed	-4144
▁keeping	-4145
▁officer	-4146
▁telling	-4147
▁Ashkelon	-4148
▁administ	-4149
▁delegate	-4150
▁eternity	-4151
▁kindness	-4152
▁assembled	-4153
▁obeisance	-4154
▁punishment	-4155
▁recognition	-4156
▁strengthened	-4157
gu	-4158
sy	-4159
ua	-4160
)."	-4161
cap	-4162
cub	-4163
dan	-4164
psû	-4165
une	-4166
▁(7	-4167
▁So	-4168
amua	-4169
ason	-4170
biṣu	-4171
emor	-4172
ider	-4173
kenu	-4174
pass	-4175
peas	-4176
text	-4177
šunu	-4178
▁Kul	-4179
▁Laq	-4180
▁Ḫal	-4181
aredu	-4182
asing	-4183
eared	-4184
place	-4185
trees	-4186
▁Kull	-4187
▁anni	-4188
▁heir	-4189
▁usuf	-4190
ašared	-4191
▁Chief	-4192
▁chick	-4193
▁known	-4194
▁multi	-4195
▁renew	-4196
▁signs	-4197
ganized	-4198
▁assist	-4199
▁clouds	-4200
▁courti	-4201
▁guards	-4202
▁physic	-4203
▁stored	-4204
garments	-4205
iliation	-4206
lordship	-4207
official	-4208
▁Ašaredu	-4209
▁Eḫursag	-4210
▁Sealand	-4211
▁animals	-4212
▁destiny	-4213
▁privile	-4214
▁resides	-4215
▁rituals	-4216
▁Anunnaki	-4217
▁Chaldean	-4218
▁Mušallim	-4219
▁achieved	-4220
▁approach	-4221
▁business	-4222
▁directed	-4223
▁messages	-4224
▁revealed	-4225
▁usufruct	-4226
▁witnesses	-4227
constructed	-4228
▁apotropaic	-4229
▁auspicious	-4230
▁disappeared	-4231
▁overlordship	-4232
▁preservation	-4233
▁ṣ	-4234
.).	-4235
Bēl	-4236
elf	-4237
ket	-4238
mak	-4239
mon	-4240
uma	-4241
▁Me	-4242
ašuh	-4243
clos	-4244
hect	-4245
lamû	-4246
outs	-4247
vant	-4248
year	-4249
▁Nur	-4250
▁bur	-4251
▁dry	-4252
▁fod	-4253
▁led	-4254
▁wal	-4255
abibi	-4256
ashed	-4257
itary	-4258
itute	-4259
ively	-4260
olent	-4261
thood	-4262
unaya	-4263
▁Nabu	-4264
▁Uraš	-4265
▁bath	-4266
▁both	-4267
▁clos	-4268
▁most	-4269
▁soil	-4270
▁thro	-4271
formed	-4272
▁Belat	-4273
▁Mukin	-4274
▁adorn	-4275
▁bedro	-4276
▁cubit	-4277
▁irrig	-4278
▁keeps	-4279
▁plant	-4280
▁utter	-4281
emorial	-4282
spiring	-4283
▁appeal	-4284
▁fodder	-4285
▁lifted	-4286
▁stalks	-4287
▁taking	-4288
hectares	-4289
▁Ululayu	-4290
▁borders	-4291
▁thought	-4292
▁whoever	-4293
▁arrested	-4294
▁creation	-4295
▁military	-4296
▁situated	-4297
▁weakened	-4298
▁Arbailayu	-4299
▁inflicted	-4300
▁inspected	-4301
▁instigate	-4302
▁merciless	-4303
▁vineyards	-4304
▁Kakkullanu	-4305
▁confection	-4306
▁immemorial	-4307
▁continually	-4308
▁unfavorable	-4309
20	-4310
fe	-4311
si	-4312
Pro	-4313
bil	-4314
bit	-4315
dam	-4316
eed	-4317
uti	-4318
▁po	-4319
abši	-4320
aced	-4321
aktu	-4322
asty	-4323
ibtu	-4324
ists	-4325
rick	-4326
▁60)	-4327
▁Dan	-4328
▁Dil	-4329
▁Nam	-4330
▁Pan	-4331
▁dom	-4332
▁gir	-4333
▁uns	-4334
ament	-4335
iding	-4336
nikaš	-4337
omers	-4338
smith	-4339
▁(15)	-4340
▁braz	-4341
▁corv	-4342
▁glor	-4343
▁jars	-4344
▁judg	-4345
▁wage	-4346
▁šand	-4347
atters	-4348
overed	-4349
ḫaltaš	-4350
▁Iddin	-4351
▁fifty	-4352
▁goods	-4353
▁spent	-4354
▁tower	-4355
▁wrong	-4356
attukku	-4357
▁Ellipi	-4358
▁Puqudu	-4359
▁change	-4360
▁finish	-4361
▁gather	-4362
▁repair	-4363
▁tailor	-4364
▁Aramean	-4365
▁Samaria	-4366
▁Taharqa	-4367
▁annexed	-4368
▁blessed	-4369
▁illness	-4370
▁incited	-4371
▁missing	-4372
▁supplic	-4373
▁abundant	-4374
▁garrison	-4375
▁joyfully	-4376
▁treasure	-4377
▁exercised	-4378
▁vegetable	-4379
▁attendants	-4380
▁performing	-4381
▁possession	-4382
▁procession	-4383
▁reconciliation	-4384
do	-4385
ṭi	-4386
nip	-4387
sol	-4388
īša	-4389
▁Ag	-4390
▁Mu	-4391
alim	-4392
arem	-4393
cent	-4394
innu	-4395
lets	-4396
ries	-4397
udah	-4398
urtu	-4399
▁Del	-4400
▁Kat	-4401
▁Nip	-4402
▁Yas	-4403
▁Zaz	-4404
▁Zer	-4405
▁cow	-4406
▁due	-4407
agger	-4408
ailed	-4409
armer	-4410
arsip	-4411
duced	-4412
rated	-4413
these	-4414
▁Sams	-4415
▁bond	-4416
▁farm	-4417
▁prel	-4418
▁puts	-4419
▁tram	-4420
balliṭ	-4421
ritten	-4422
▁Palil	-4423
▁While	-4424
▁clear	-4425
▁dream	-4426
▁liver	-4427
▁plann	-4428
▁pries	-4429
▁still	-4430
▁thigh	-4431
▁thing	-4432
▁10,000	-4433
▁Deluge	-4434
▁Heaven	-4435
▁determ	-4436
▁invest	-4437
▁nights	-4438
▁sister	-4439
▁spiced	-4440
▁superv	-4441
▁Hubuški	-4442
▁Without	-4443
▁adorned	-4444
▁certain	-4445
▁desired	-4446
▁leather	-4447
▁marshes	-4448
▁pointed	-4449
▁priests	-4450
▁setting	-4451
▁springs	-4452
inspiring	-4453
▁chanters	-4454
▁confined	-4455
▁festival	-4456
▁relevant	-4457
▁sattukku	-4458
▁selected	-4459
▁adolescent	-4460
▁demolished	-4461
▁favourable	-4462
▁priesthood	-4463
▁shepherding	-4464
ek	-4465
kū	-4466
qâ	-4467
zû	-4468
aha	-4469
she	-4470
uly	-4471
wad	-4472
ēnu	-4473
ḫul	-4474
▁(3	-4475
▁Ap	-4476
▁Mo	-4477
▁bu	-4478
domo	-4479
eder	-4480
eous	-4481
reṣu	-4482
▁50)	-4483
▁Lar	-4484
▁kne	-4485
▁vig	-4486
aying	-4487
aḫalû	-4488
elebr	-4489
erved	-4490
lišir	-4491
wered	-4492
▁Kipp	-4493
▁Susa	-4494
▁Town	-4495
▁gent	-4496
▁hamm	-4497
▁humb	-4498
▁need	-4499
▁trod	-4500
homers	-4501
▁Arwad	-4502
▁grasp	-4503
šarrani	-4504
▁During	-4505
▁across	-4506
▁beside	-4507
▁caught	-4508
▁celebr	-4509
▁choice	-4510
▁double	-4511
▁forgot	-4512
▁massac	-4513
▁Katmuḫu	-4514
▁Madaktu	-4515
▁correct	-4516
▁dynasty	-4517
▁neither	-4518
▁Elamites	-4519
▁building	-4520
▁exempted	-4521
▁peaceful	-4522
▁conqueror	-4523
▁criminals	-4524
▁devastate	-4525
▁sanctuary	-4526
▁Babylonian	-4527
▁submissive	-4528
▁Furthermore	-4529
▁instructions	-4530
▁responsibility	-4531
lī	-4532
aki	-4533
ašš	-4534
cal	-4535
gas	-4536
hau	-4537
izi	-4538
orm	-4539
rag	-4540
uda	-4541
zar	-4542
ūtu	-4543
”).	-4544
▁Ti	-4545
▁cr	-4546
▁sn	-4547
ange	-4548
atch	-4549
cell	-4550
conf	-4551
erve	-4552
idus	-4553
imme	-4554
uḫḫa	-4555
ēlet	-4556
▁Fir	-4557
▁Kip	-4558
▁Nad	-4559
▁met	-4560
▁mur	-4561
▁Ḫil	-4562
akkil	-4563
inter	-4564
iting	-4565
pread	-4566
quest	-4567
▁(5')	-4568
▁20')	-4569
▁Also	-4570
▁Hitt	-4571
▁Sasî	-4572
▁exam	-4573
▁inex	-4574
▁lieu	-4575
▁loot	-4576
▁sake	-4577
▁sell	-4578
▁walk	-4579
▁Šala	-4580
Ešarra	-4581
Nanaya	-4582
onidus	-4583
ourage	-4584
▁Akitu	-4585
▁Kalḫu	-4586
▁akītu	-4587
▁avail	-4588
▁claim	-4589
▁loved	-4590
▁spare	-4591
▁floods	-4592
▁toward	-4593
▁šandab	-4594
▁Tarbiṣu	-4595
▁achieve	-4596
▁brazier	-4597
▁control	-4598
▁lamassu	-4599
▁palaces	-4600
▁passage	-4601
▁streets	-4602
▁grandson	-4603
▁concluded	-4604
▁entourage	-4605
▁negligent	-4606
▁renovated	-4607
▁privileged	-4608
Is	-4609
oo	-4610
yu	-4611
How	-4612
emp	-4613
idi	-4614
mes	-4615
ply	-4616
pur	-4617
thy	-4618
airs	-4619
amur	-4620
ging	-4621
ouch	-4622
rily	-4623
umin	-4624
▁Abī	-4625
▁Bur	-4626
▁Gil	-4627
▁Kub	-4628
▁Sar	-4629
▁Sim	-4630
▁ful	-4631
▁leg	-4632
▁rab	-4633
▁sal	-4634
▁van	-4635
ammiq	-4636
ences	-4637
ettle	-4638
gress	-4639
ilayu	-4640
mukin	-4641
nipha	-4642
oment	-4643
▁Aqar	-4644
▁Barh	-4645
▁Heze	-4646
▁clad	-4647
▁form	-4648
▁grew	-4649
▁home	-4650
▁repe	-4651
▁scar	-4652
▁tear	-4653
emphis	-4654
farmer	-4655
reṣuwa	-4656
▁Regul	-4657
▁break	-4658
▁burns	-4659
▁loose	-4660
▁rebel	-4661
▁rides	-4662
▁saved	-4663
▁wides	-4664
balassu	-4665
contain	-4666
portant	-4667
▁Guzana	-4668
▁Kippat	-4669
▁eating	-4670
▁intent	-4671
▁itself	-4672
▁longer	-4673
▁olives	-4674
▁progen	-4675
killanni	-4676
▁angrily	-4677
▁interru	-4678
▁letters	-4679
▁rations	-4680
▁shorter	-4681
▁Hezekiah	-4682
▁Kassites	-4683
▁Mutakkil	-4684
▁answered	-4685
▁chariote	-4686
▁entering	-4687
▁necklace	-4688
▁officers	-4689
▁yourself	-4690
▁brickwork	-4691
▁physician	-4692
▁regularly	-4693
▁transport	-4694
▁assignment	-4695
▁skillfully	-4696
▁widespread	-4697
▁šandabakku	-4698
▁accordingly	-4699
▁circumspect	-4700
▁grandfather	-4701
▁slaughtered	-4702
-(	-4703
bâ	-4704
co	-4705
Now	-4706
cam	-4707
ics	-4708
kab	-4709
law	-4710
uba	-4711
ušu	-4712
ūma	-4713
ūri	-4714
▁),	-4715
▁Or	-4716
Dakk	-4717
With	-4718
ails	-4719
almu	-4720
anda	-4721
anki	-4722
dalâ	-4723
ends	-4724
leep	-4725
unks	-4726
uted	-4727
whom	-4728
šaya	-4729
▁(65	-4730
▁500	-4731
▁65)	-4732
▁Naṣ	-4733
▁Tak	-4734
▁dam	-4735
▁tie	-4736
▁wea	-4737
There	-4738
after	-4739
apsed	-4740
arded	-4741
ately	-4742
brick	-4743
igned	-4744
ilāni	-4745
light	-4746
omach	-4747
rible	-4748
tribe	-4749
▁15')	-4750
▁News	-4751
▁Step	-4752
▁arch	-4753
▁dues	-4754
▁ears	-4755
▁logs	-4756
▁meal	-4757
▁memb	-4758
▁moat	-4759
▁palm	-4760
▁pity	-4761
▁till	-4762
▁valu	-4763
cepted	-4764
priest	-4765
ušezib	-4766
▁Bēlet	-4767
▁Gabbu	-4768
▁Remut	-4769
▁befit	-4770
▁brace	-4771
▁goose	-4772
▁negle	-4773
▁noble	-4774
▁opens	-4775
▁torch	-4776
▁trium	-4777
▁Having	-4778
▁advers	-4779
▁behalf	-4780
▁canals	-4781
▁decide	-4782
▁excell	-4783
▁formed	-4784
▁strike	-4785
▁theirs	-4786
▁throws	-4787
▁trampl	-4788
ommander	-4789
▁Meluḫḫa	-4790
▁objects	-4791
▁planned	-4792
▁stomach	-4793
▁Ḫindānu	-4794
confirmed	-4795
organized	-4796
▁Egyptian	-4797
▁hammurtu	-4798
▁hostages	-4799
▁occurred	-4800
▁prepared	-4801
▁Nabonidus	-4802
▁gentlemen	-4803
▁inspector	-4804
▁cavalrymen	-4805
▁commandant	-4806
▁confectioner	-4807
?”	-4808
Te	-4809
aḫi	-4810
dur	-4811
ert	-4812
fif	-4813
oom	-4814
īya	-4815
Mull	-4816
akka	-4817
akki	-4818
amma	-4819
aned	-4820
asti	-4821
eled	-4822
five	-4823
flow	-4824
foot	-4825
gran	-4826
host	-4827
itud	-4828
line	-4829
metu	-4830
post	-4831
▁120	-4832
▁70)	-4833
▁75)	-4834
▁Bet	-4835
▁Has	-4836
▁ayu	-4837
▁Šab	-4838
Ashur	-4839
eness	-4840
iqīša	-4841
ously	-4842
▁Ever	-4843
▁Padî	-4844
▁Qutu	-4845
▁brib	-4846
▁corp	-4847
▁flew	-4848
▁meet	-4849
▁roll	-4850
▁sick	-4851
▁stew	-4852
▁wadi	-4853
▁Ḫiri	-4854
horses	-4855
ounded	-4856
should	-4857
stones	-4858
unders	-4859
urbail	-4860
▁Nipur	-4861
▁Tebil	-4862
▁ahead	-4863
▁displ	-4864
▁early	-4865
▁faith	-4866
▁fates	-4867
▁grown	-4868
▁hills	-4869
▁necks	-4870
▁sleep	-4871
omegran	-4872
▁Barhal	-4873
▁Erišum	-4874
▁Thebes	-4875
▁annual	-4876
▁august	-4877
▁kidney	-4878
▁leader	-4879
▁mouths	-4880
▁revere	-4881
▁ruined	-4882
▁street	-4883
▁supply	-4884
Property	-4885
▁Memphis	-4886
▁anybody	-4887
▁express	-4888
▁inquire	-4889
▁prolong	-4890
▁triumph	-4891
▁Indabibi	-4892
▁accepted	-4893
▁controls	-4894
▁criminal	-4895
▁diminish	-4896
▁personal	-4897
▁scholars	-4898
containers	-4899
▁available	-4900
▁befitting	-4901
▁regarding	-4902
▁something	-4903
▁emissaries	-4904
iṣ	-4905
sl	-4906
tr	-4907
Aya	-4908
aze	-4909
ift	-4910
inn	-4911
ira	-4912
niš	-4913
pad	-4914
rum	-4915
son	-4916
Come	-4917
Send	-4918
duty	-4919
kind	-4920
pani	-4921
rawn	-4922
ried	-4923
ummu	-4924
upon	-4925
ṣill	-4926
▁Her	-4927
▁Nat	-4928
▁Sap	-4929
▁lar	-4930
▁pen	-4931
▁sto	-4932
▁vac	-4933
amanu	-4934
lands	-4935
▁Adda	-4936
▁Gaza	-4937
▁King	-4938
▁Mati	-4939
▁Ninu	-4940
▁Ukku	-4941
▁belt	-4942
▁cone	-4943
▁mule	-4944
▁onto	-4945
▁post	-4946
▁soup	-4947
▁sown	-4948
▁sust	-4949
▁swam	-4950
▁talk	-4951
▁turt	-4952
▁weep	-4953
cubits	-4954
iliary	-4955
remely	-4956
saying	-4957
ušabši	-4958
▁Našuh	-4959
▁Until	-4960
▁marri	-4961
▁marsh	-4962
▁mobil	-4963
▁rooms	-4964
▁sides	-4965
▁trade	-4966
▁yours	-4967
already	-4968
▁Ahlamû	-4969
▁Kilizi	-4970
▁Lahiru	-4971
▁Zarutî	-4972
▁archit	-4973
▁common	-4974
▁felled	-4975
▁images	-4976
▁larger	-4977
▁refuge	-4978
▁review	-4979
▁ruling	-4980
▁tables	-4981
▁vacant	-4982
▁Regulus	-4983
▁Tebilti	-4984
▁annihil	-4985
▁censers	-4986
▁farmers	-4987
▁prelate	-4988
▁prevent	-4989
▁progeny	-4990
▁rejoice	-4991
▁started	-4992
▁wording	-4993
ellations	-4994
▁daylight	-4995
▁detained	-4996
▁interest	-4997
▁location	-4998
▁reported	-4999
▁speaking	-5000
▁thunders	-5001
▁valuable	-5002
▁massacred	-5003
▁slaughter	-5004
▁victories	-5005
▁prosperity	-5006
▁reconciled	-5007
▁storehouse	-5008
▁substitute	-5009
▁reorganized	-5010
On	-5011
āṭ	-5012
▁ḫ	-5013
ety	-5014
ram	-5015
set	-5016
urr	-5017
āte	-5018
▁33	-5019
▁Iq	-5020
▁Up	-5021
▁ef	-5022
▁ty	-5023
▁ur	-5024
▁Šu	-5025
adad	-5026
held	-5027
ilku	-5028
oked	-5029
raud	-5030
reak	-5031
rent	-5032
rite	-5033
yada	-5034
your	-5035
ēzib	-5036
▁1/3	-5037
▁Gir	-5038
▁Har	-5039
▁III	-5040
▁Sir	-5041
▁aux	-5042
▁bol	-5043
▁hit	-5044
▁pig	-5045
▁sol	-5046
icing	-5047
ighty	-5048
imate	-5049
ishes	-5050
isted	-5051
ledge	-5052
loose	-5053
quake	-5054
▁Bahi	-5055
▁Fear	-5056
▁Išme	-5057
▁Laqû	-5058
▁Mard	-5059
▁band	-5060
▁bese	-5061
▁cold	-5062
▁prot	-5063
▁snow	-5064
▁spir	-5065
▁thor	-5066
▁tomb	-5067
▁trav	-5068
▁upro	-5069
Barsip	-5070
ettled	-5071
imirra	-5072
ourney	-5073
purple	-5074
ritual	-5075
shaped	-5076
▁(10')	-5077
▁2,000	-5078
▁Igigi	-5079
▁Later	-5080
▁anger	-5081
▁court	-5082
▁debts	-5083
▁fraud	-5084
▁lambs	-5085
▁nomin	-5086
▁parap	-5087
▁peaks	-5088
▁roast	-5089
balāssu	-5090
▁allies	-5091
▁bridle	-5092
▁moment	-5093
▁onions	-5094
▁plants	-5095
▁spread	-5096
▁virile	-5097
▁wealth	-5098
▁weaned	-5099
▁Šubaru	-5100
aranteed	-5101
▁Bahianu	-5102
▁appears	-5103
▁citizen	-5104
▁matters	-5105
▁outflow	-5106
▁plotted	-5107
▁steward	-5108
▁Whatever	-5109
▁departed	-5110
▁fattened	-5111
▁interior	-5112
▁pleasant	-5113
▁pomegran	-5114
▁thorough	-5115
▁Babylonia	-5116
▁alongside	-5117
▁auxiliary	-5118
▁extremely	-5119
▁rejoicing	-5120
▁shepherds	-5121
▁stretches	-5122
▁cultivated	-5123
▁provisions	-5124
▁charioteers	-5125
▁unsubmissive	-5126
Il	-5127
bs	-5128
lū	-5129
mi	-5130
Kub	-5131
aqq	-5132
bed	-5133
kes	-5134
oud	-5135
sed	-5136
sil	-5137
six	-5138
usi	-5139
▁70	-5140
▁Uq	-5141
alem	-5142
alik	-5143
auta	-5144
edge	-5145
erus	-5146
iece	-5147
inua	-5148
issi	-5149
kina	-5150
olds	-5151
tees	-5152
uzur	-5153
yond	-5154
yria	-5155
▁Hat	-5156
▁Laṣ	-5157
▁Maz	-5158
▁Son	-5159
▁alm	-5160
▁cre	-5161
▁eff	-5162
▁jew	-5163
▁pet	-5164
Where	-5165
ening	-5166
erday	-5167
frain	-5168
līšir	-5169
paths	-5170
▁Gabb	-5171
▁apsû	-5172
▁dyed	-5173
▁lore	-5174
▁shut	-5175
nelian	-5176
reated	-5177
▁Arpad	-5178
▁bones	-5179
▁depor	-5180
▁depri	-5181
▁envoy	-5182
▁fault	-5183
▁forty	-5184
▁ghost	-5185
▁gover	-5186
▁harem	-5187
▁imple	-5188
▁mares	-5189
▁paths	-5190
▁seals	-5191
▁togas	-5192
ensions	-5193
▁Nagītu	-5194
▁Nanāya	-5195
▁Rising	-5196
▁brewer	-5197
▁corpse	-5198
▁revolt	-5199
▁scared	-5200
▁trunks	-5201
▁yearly	-5202
▁zaḫalû	-5203
erusalem	-5204
esterday	-5205
▁Mannean	-5206
▁decrees	-5207
▁endowed	-5208
▁located	-5209
▁prepare	-5210
▁produce	-5211
▁scribes	-5212
▁sunrise	-5213
▁trodden	-5214
offerings	-5215
▁darkness	-5216
▁terrible	-5217
▁agreeable	-5218
▁destinies	-5219
▁goldsmith	-5220
▁governess	-5221
▁libations	-5222
▁merchants	-5223
▁remainder	-5224
▁righteous	-5225
▁dimensions	-5226
▁earthquake	-5227
▁experience	-5228
▁rebellious	-5229
▁expeditionary	-5230
";	-5231
(-	-5232
)!	-5233
60	-5234
ih	-5235
▁i	-5236
Kil	-5237
adu	-5238
bet	-5239
dge	-5240
elt	-5241
isf	-5242
mar	-5243
mat	-5244
nam	-5245
ump	-5246
uṭu	-5247
yes	-5248
ība	-5249
ūnu	-5250
▁Eb	-5251
▁Ph	-5252
▁Sh	-5253
▁ti	-5254
Give	-5255
aded	-5256
agar	-5257
ašme	-5258
buch	-5259
epsy	-5260
hinu	-5261
igin	-5262
irtu	-5263
medi	-5264
time	-5265
▁Arz	-5266
▁Ber	-5267
▁Dēr	-5268
▁Ina	-5269
▁Kap	-5270
▁Leo	-5271
▁Lib	-5272
▁Sum	-5273
▁boy	-5274
▁bud	-5275
▁fer	-5276
▁hin	-5277
▁ind	-5278
▁tun	-5279
▁urn	-5280
Ninua	-5281
adnez	-5282
amber	-5283
ashes	-5284
ellig	-5285
enter	-5286
flour	-5287
idian	-5288
leads	-5289
metal	-5290
onoun	-5291
otted	-5292
resid	-5293
thern	-5294
uball	-5295
▁Dadî	-5296
▁Haza	-5297
▁Moab	-5298
▁carp	-5299
▁cren	-5300
▁epil	-5301
▁loss	-5302
▁move	-5303
▁sits	-5304
▁slew	-5305
Inurta	-5306
Tukult	-5307
arruqu	-5308
ateans	-5309
resent	-5310
teenth	-5311
šumati	-5312
▁Erība	-5313
▁Naṣib	-5314
▁Puzur	-5315
▁Sagab	-5316
▁Seven	-5317
▁Since	-5318
▁Zakir	-5319
▁advan	-5320
▁areas	-5321
▁armed	-5322
▁banks	-5323
▁banqu	-5324
▁grass	-5325
▁scept	-5326
▁share	-5327
▁stock	-5328
▁strew	-5329
▁waste	-5330
▁abodes	-5331
▁arrows	-5332
▁bestow	-5333
▁beyond	-5334
▁fallow	-5335
▁flayed	-5336
▁pledge	-5337
▁satisf	-5338
▁stayed	-5339
▁swamps	-5340
▁swings	-5341
▁walled	-5342
adnezzar	-5343
antation	-5344
▁Barruqu	-5345
▁Bulluṭu	-5346
▁Emašmaš	-5347
▁Refrain	-5348
▁already	-5349
▁chamber	-5350
▁changes	-5351
▁citadel	-5352
▁concern	-5353
▁effaced	-5354
▁foreign	-5355
▁furious	-5356
▁journey	-5357
▁mankind	-5358
▁pronoun	-5359
▁request	-5360
▁skilled	-5361
▁trained	-5362
▁Babilayu	-5363
▁colossus	-5364
▁deported	-5365
▁withheld	-5366
confection	-5367
▁countries	-5368
▁courtiers	-5369
▁cultivate	-5370
▁deportees	-5371
▁important	-5372
▁stretched	-5373
▁assistance	-5374
▁permission	-5375
▁victorious	-5376
buchadnezzar	-5377
▁forefathers	-5378
▁crenellations	-5379
Ab	-5380
Gu	-5381
pâ	-5382
ūz	-5383
▁q	-5384
.'"	-5385
Dak	-5386
Per	-5387
Sin	-5388
bro	-5389
dod	-5390
kka	-5391
oth	-5392
pes	-5393
rif	-5394
ṣur	-5395
▁32	-5396
▁Ta	-5397
▁Uš	-5398
▁tu	-5399
alhu	-5400
band	-5401
bowl	-5402
deal	-5403
dāri	-5404
gold	-5405
ibly	-5406
immu	-5407
inth	-5408
muše	-5409
opol	-5410
wall	-5411
šūma	-5412
▁Ken	-5413
▁Mit	-5414
▁bod	-5415
▁fat	-5416
▁hot	-5417
▁kur	-5418
▁mal	-5419
▁mis	-5420
▁ste	-5421
▁vat	-5422
▁Šer	-5423
acher	-5424
adanu	-5425
amban	-5426
ances	-5427
estin	-5428
ipped	-5429
itude	-5430
lašme	-5431
orrow	-5432
āṭāya	-5433
ūzubu	-5434
▁Have	-5435
▁aslu	-5436
▁born	-5437
▁duty	-5438
▁fact	-5439
▁gown	-5440
▁kern	-5441
▁lock	-5442
▁peak	-5443
▁ring	-5444
▁sees	-5445
▁such	-5446
▁sure	-5447
aining	-5448
edient	-5449
hamash	-5450
illaya	-5451
silver	-5452
▁beast	-5453
▁besie	-5454
▁drove	-5455
▁empty	-5456
▁honor	-5457
▁oppon	-5458
▁parts	-5459
▁picks	-5460
▁Ḫabḫu	-5461
Amukani	-5462
thening	-5463
▁Ashdod	-5464
▁Kaštar	-5465
▁Nadinu	-5466
▁bodies	-5467
▁heaped	-5468
▁plough	-5469
▁really	-5470
▁relied	-5471
▁strife	-5472
▁submit	-5473
▁terrif	-5474
▁urnutu	-5475
▁writes	-5476
portions	-5477
▁Balassu	-5478
▁bearded	-5479
▁ceasing	-5480
▁creator	-5481
▁extreme	-5482
▁hinhinu	-5483
▁intones	-5484
▁kernels	-5485
▁leaders	-5486
▁learned	-5487
▁outpost	-5488
▁prevail	-5489
▁refused	-5490
▁revered	-5491
▁sheikhs	-5492
▁sisalhu	-5493
▁surpass	-5494
▁working	-5495
commander	-5496
mediately	-5497
▁Arzuhina	-5498
▁Balāṭāya	-5499
▁attached	-5500
▁clothing	-5501
▁drinking	-5502
▁entirely	-5503
▁epilepsy	-5504
▁fullness	-5505
▁intercal	-5506
▁petition	-5507
▁seizures	-5508
▁supervis	-5509
▁treacher	-5510
▁upstream	-5511
Guaranteed	-5512
▁carnelian	-5513
▁collapsed	-5514
▁dwellings	-5515
▁excellent	-5516
▁afterwards	-5517
▁altogether	-5518
▁chieftains	-5519
▁disappearance	-5520
▁Nebuchadnezzar	-5521
cu	-5522
gg	-5523
nî	-5524
nī	-5525
za	-5526
For	-5527
Pal	-5528
amz	-5529
azu	-5530
ilâ	-5531
keh	-5532
ral	-5533
ryg	-5534
sam	-5535
two	-5536
udû	-5537
yan	-5538
ššu	-5539
▁Pa	-5540
agal	-5541
aked	-5542
atua	-5543
blos	-5544
bred	-5545
ginu	-5546
iber	-5547
ighb	-5548
keys	-5549
made	-5550
mina	-5551
spab	-5552
ulum	-5553
unga	-5554
uruš	-5555
ṣiru	-5556
▁80)	-5557
▁Bub	-5558
▁Kab	-5559
▁Kiš	-5560
▁Mal	-5561
▁Muṣ	-5562
▁Ram	-5563
▁Sur	-5564
▁Tem	-5565
▁eye	-5566
▁ord	-5567
▁ped	-5568
▁sap	-5569
▁sho	-5570
▁wed	-5571
▁Ḫan	-5572
Bring	-5573
abbar	-5574
amzaḫ	-5575
build	-5576
erior	-5577
inate	-5578
inent	-5579
tekeh	-5580
▁Alzu	-5581
▁Banî	-5582
▁Erra	-5583
▁Nanî	-5584
▁Rapi	-5585
▁agre	-5586
▁grie	-5587
▁ilku	-5588
▁lays	-5589
▁pack	-5590
▁robb	-5591
▁seek	-5592
▁suck	-5593
▁wear	-5594
Should	-5595
ainers	-5596
bunaya	-5597
kalama	-5598
making	-5599
mušeṣi	-5600
tribes	-5601
▁Eridu	-5602
▁Every	-5603
▁Phryg	-5604
▁Yakīn	-5605
▁Yasub	-5606
▁drawn	-5607
▁fifth	-5608
▁gener	-5609
▁human	-5610
▁poles	-5611
▁sixty	-5612
▁vanqu	-5613
▁vines	-5614
▁wells	-5615
▁wheat	-5616
▁wives	-5617
▁worry	-5618
foreign	-5619
spabāra	-5620
▁Byblos	-5621
▁Nobody	-5622
▁Zabinu	-5623
▁crimes	-5624
▁deaths	-5625
▁debris	-5626
▁domest	-5627
▁gained	-5628
▁murder	-5629
▁neighb	-5630
▁quakes	-5631
▁rebuil	-5632
▁sacred	-5633
▁scouts	-5634
▁series	-5635
▁slaves	-5636
▁speaks	-5637
▁thrice	-5638
▁useful	-5639
Kilamzaḫ	-5640
▁Eltekeh	-5641
▁accompl	-5642
▁afflict	-5643
▁clothes	-5644
▁deliber	-5645
▁dragged	-5646
▁fighter	-5647
▁members	-5648
▁reduced	-5649
▁scribal	-5650
▁strikes	-5651
▁wedding	-5652
intendent	-5653
▁accounts	-5654
▁advanced	-5655
▁collated	-5656
▁interced	-5657
▁obsidian	-5658
▁rejoiced	-5659
▁repeated	-5660
▁required	-5661
▁reverent	-5662
▁Kaštaritu	-5663
▁bracelets	-5664
▁childhood	-5665
▁harnessed	-5666
▁knowledge	-5667
▁remaining	-5668
▁shoulders	-5669
Sennacherib	-5670
▁questioned	-5671
▁stretching	-5672
▁immediately	-5673
▁information	-5674
▁investigate	-5675
▁successfully	-5676
.,	-5677
gr	-5678
500	-5679
Bun	-5680
Sîn	-5681
rid	-5682
str	-5683
sue	-5684
ulî	-5685
▁34	-5686
▁Ex	-5687
away	-5688
base	-5689
both	-5690
city	-5691
emma	-5692
prov	-5693
rabi	-5694
view	-5695
weet	-5696
ēreš	-5697
▁85)	-5698
▁Iss	-5699
▁Kir	-5700
▁Met	-5701
▁Nir	-5702
▁Nuh	-5703
▁Qat	-5704
▁Set	-5705
▁Ziz	-5706
▁bru	-5707
▁eag	-5708
▁ens	-5709
▁rav	-5710
▁sev	-5711
Syria	-5712
azing	-5713
idden	-5714
ighth	-5715
inner	-5716
lumur	-5717
ongue	-5718
seeds	-5719
▁(20)	-5720
▁Ahhe	-5721
▁Anzû	-5722
▁Babu	-5723
▁Gilz	-5724
▁Lull	-5725
▁Sard	-5726
▁Tamn	-5727
▁Then	-5728
▁curs	-5729
▁dust	-5730
▁fame	-5731
▁grow	-5732
▁harm	-5733
▁less	-5734
▁next	-5735
▁papp	-5736
▁rage	-5737
▁skin	-5738
▁unre	-5739
▁wick	-5740
▁wing	-5741
ekalli	-5742
ingent	-5743
ušēzib	-5744
worthy	-5745
▁Imgur	-5746
▁Larak	-5747
▁Ubulu	-5748
▁emble	-5749
▁entry	-5750
▁freed	-5751
▁gowns	-5752
▁meets	-5753
▁shiny	-5754
▁valor	-5755
▁works	-5756
▁Ḫusur	-5757
▁Asallu	-5758
▁Damunu	-5759
▁Destin	-5760
▁Rapiqu	-5761
▁access	-5762
▁arrang	-5763
▁bearer	-5764
▁consum	-5765
▁dagger	-5766
▁endure	-5767
▁heroic	-5768
▁humble	-5769
▁irginu	-5770
▁kindly	-5771
▁pedest	-5772
▁showed	-5773
▁spouse	-5774
▁swords	-5775
▁winter	-5776
▁Šumaya	-5777
▁Šūzubu	-5778
coloured	-5779
ellation	-5780
Šarrukin	-5781
▁Hittite	-5782
▁Kurbail	-5783
▁Mazamua	-5784
▁Ninuayu	-5785
▁Shamash	-5786
▁apprent	-5787
▁bruised	-5788
▁buckled	-5789
▁checked	-5790
▁decided	-5791
▁diviner	-5792
▁eršemma	-5793
▁massive	-5794
▁perhaps	-5795
▁renders	-5796
▁sceptre	-5797
▁smaller	-5798
▁squares	-5799
▁strives	-5800
▁turtled	-5801
▁worried	-5802
▁Hubuškia	-5803
▁boundary	-5804
▁crossing	-5805
▁detached	-5806
▁informed	-5807
▁judgment	-5808
▁measured	-5809
▁outposts	-5810
▁repaired	-5811
▁superior	-5812
▁Destinies	-5813
▁correctly	-5814
▁countless	-5815
▁flattened	-5816
lamentation	-5817
▁implements	-5818
▁positioned	-5819
▁incantation	-5820
▁supplications	-5821
",	-5822
';	-5823
Be	-5824
Lû	-5825
Ur	-5826
dâ	-5827
Con	-5828
ahh	-5829
apa	-5830
aṭu	-5831
bur	-5832
eze	-5833
fto	-5834
fts	-5835
ipâ	-5836
lib	-5837
maš	-5838
oms	-5839
tub	-5840
zaš	-5841
zer	-5842
ātu	-5843
▁Nē	-5844
▁aš	-5845
▁ha	-5846
angu	-5847
born	-5848
dini	-5849
epuš	-5850
etel	-5851
fall	-5852
fice	-5853
idqâ	-5854
ilic	-5855
inni	-5856
inti	-5857
ištu	-5858
mans	-5859
umig	-5860
▁150	-5861
▁Acc	-5862
▁Arb	-5863
▁Azi	-5864
▁Lub	-5865
▁buy	-5866
▁exc	-5867
▁fre	-5868
▁fro	-5869
▁rib	-5870
Dagan	-5871
Nusku	-5872
ankal	-5873
arrow	-5874
ilaya	-5875
kitti	-5876
udges	-5877
▁Antu	-5878
▁Dari	-5879
▁Egaš	-5880
▁Enem	-5881
▁Etem	-5882
▁clam	-5883
▁deer	-5884
▁harb	-5885
▁lift	-5886
▁plat	-5887
▁pots	-5888
▁rode	-5889
▁test	-5890
▁wail	-5891
Dakuri	-5892
estine	-5893
proper	-5894
urušpâ	-5895
▁Amman	-5896
▁Ašipâ	-5897
▁Check	-5898
▁First	-5899
▁Melid	-5900
▁Parsu	-5901
▁Queen	-5902
▁Samsi	-5903
▁belie	-5904
▁blows	-5905
▁broke	-5906
▁chair	-5907
▁dying	-5908
▁fumig	-5909
▁grove	-5910
▁impro	-5911
▁overc	-5912
▁sixth	-5913
▁wrath	-5914
ftovers	-5915
keepers	-5916
manship	-5917
▁Gurumu	-5918
▁Naṣiru	-5919
▁batter	-5920
▁beasts	-5921
▁depart	-5922
▁mounds	-5923
▁ordeal	-5924
▁rivers	-5925
▁silent	-5926
▁vessel	-5927
▁weaver	-5928
Mullissi	-5929
tersweet	-5930
Šarrukku	-5931
▁Written	-5932
▁fortune	-5933
▁numbers	-5934
▁quinces	-5935
▁smashed	-5936
▁Šubrian	-5937
uballissu	-5938
šezibanni	-5939
▁annually	-5940
▁besieged	-5941
▁builders	-5942
▁confeder	-5943
▁opponent	-5944
▁pastures	-5945
▁somebody	-5946
▁trampled	-5947
▁Egašankal	-5948
▁adversary	-5949
▁battering	-5950
▁concerned	-5951
▁confident	-5952
▁forgotten	-5953
▁intercede	-5954
▁sacrifice	-5955
▁determined	-5956
▁discovered	-5957
▁yourselves	-5958
▁arrangement	-5959
▁bittersweet	-5960
▁lengthening	-5961
▁thoroughbred	-5962
Do	-5963
Es	-5964
Se	-5965
To	-5966
▁ē	-5967
200	-5968
5).	-5969
Imb	-5970
dec	-5971
ded	-5972
div	-5973
epu	-5974
jug	-5975
orp	-5976
rim	-5977
āna	-5978
ḫru	-5979
▁(4	-5980
▁Bi	-5981
▁Eš	-5982
▁Go	-5983
▁Ha	-5984
▁ra	-5985
also	-5986
ammu	-5987
arsh	-5988
bird	-5989
dict	-5990
dish	-5991
elry	-5992
fill	-5993
ipes	-5994
ongh	-5995
ugit	-5996
urer	-5997
urzu	-5998
uses	-5999
▁(67	-6000
▁1/4	-6001
▁400	-6002
▁Ana	-6003
▁Ayy	-6004
▁Maš	-6005
▁bou	-6006
Yakin	-6007
aeans	-6008
demon	-6009
ented	-6010
field	-6011
fifty	-6012
horse	-6013
igall	-6014
illon	-6015
ingly	-6016
irina	-6017
milki	-6018
parna	-6019
still	-6020
ually	-6021
water	-6022
▁Addî	-6023
▁Last	-6024
▁Mand	-6025
▁Once	-6026
▁Part	-6027
▁bind	-6028
▁chap	-6029
▁eans	-6030
▁expl	-6031
▁feed	-6032
▁lack	-6033
▁suff	-6034
▁type	-6035
action	-6036
atives	-6037
keeper	-6038
menanu	-6039
origin	-6040
thirds	-6041
▁Ahabû	-6042
▁Enuma	-6043
▁Eriba	-6044
▁Isana	-6045
▁Kumme	-6046
▁altar	-6047
▁deity	-6048
▁exist	-6049
▁fugit	-6050
▁griev	-6051
▁harsh	-6052
▁oblig	-6053
▁overt	-6054
▁ready	-6055
▁seats	-6056
▁sever	-6057
▁skins	-6058
▁snake	-6059
▁state	-6060
▁troub	-6061
▁Šamši	-6062
courses	-6063
itimate	-6064
juniper	-6065
▁Ayyāru	-6066
▁Gambul	-6067
▁Hazael	-6068
▁Inside	-6069
▁alters	-6070
▁blocks	-6071
▁bridge	-6072
▁cloudy	-6073
▁commun	-6074
▁cultic	-6075
▁curled	-6076
▁ensure	-6077
▁except	-6078
▁finest	-6079
▁needed	-6080
▁plague	-6081
▁plains	-6082
▁please	-6083
▁pulled	-6084
▁rained	-6085
▁select	-6086
▁subjug	-6087
▁wicked	-6088
▁Damkina	-6089
▁Setting	-6090
▁blesses	-6091
▁closely	-6092
▁delayed	-6093
▁divided	-6094
▁founded	-6095
▁guarant	-6096
▁pasture	-6097
▁reddish	-6098
▁renewed	-6099
▁strongh	-6100
▁thereon	-6101
Palestine	-6102
igallians	-6103
▁Phrygian	-6104
▁almighty	-6105
▁bouillon	-6106
▁carrying	-6107
▁formerly	-6108
▁inquired	-6109
▁lengthen	-6110
▁marching	-6111
▁plotting	-6112
▁properly	-6113
▁reporter	-6114
▁revolted	-6115
▁Cimmerian	-6116
▁completes	-6117
▁irrigated	-6118
▁represent	-6119
▁threshold	-6120
▁personally	-6121
▁annihilated	-6122
▁turtledoves	-6123
▁constellation	-6124
▁Yasubigallians	-6125
ny	-6126
All	-6127
Mil	-6128
aḫu	-6129
dub	-6130
hee	-6131
mud	-6132
nap	-6133
nir	-6134
nor	-6135
ths	-6136
tim	-6137
tro	-6138
yth	-6139
šim	-6140
▁"(	-6141
▁3,	-6142
▁35	-6143
▁90	-6144
▁Bā	-6145
▁Du	-6146
▁Pe	-6147
Imbî	-6148
abri	-6149
apsi	-6150
avil	-6151
aḫḫē	-6152
bari	-6153
icol	-6154
irsu	-6155
išnu	-6156
lled	-6157
oriz	-6158
oute	-6159
pert	-6160
qepu	-6161
umma	-6162
unar	-6163
urri	-6164
▁800	-6165
▁Are	-6166
▁Cit	-6167
▁Kut	-6168
▁Nar	-6169
▁Pap	-6170
▁Pur	-6171
▁Upp	-6172
▁amb	-6173
▁cra	-6174
▁dur	-6175
▁fit	-6176
▁hoe	-6177
▁ing	-6178
▁lad	-6179
▁lux	-6180
▁non	-6181
▁sie	-6182
Illil	-6183
Write	-6184
assar	-6185
asted	-6186
betti	-6187
deeds	-6188
eries	-6189
haust	-6190
ifest	-6191
image	-6192
ister	-6193
iwork	-6194
lings	-6195
rehen	-6196
rison	-6197
ution	-6198
▁25')	-6199
▁Anun	-6200
▁Ereš	-6201
▁Kenî	-6202
▁Zizî	-6203
▁blue	-6204
▁cler	-6205
▁cust	-6206
▁dece	-6207
▁didn	-6208
▁dogs	-6209
▁ewes	-6210
▁frag	-6211
▁hide	-6212
▁milk	-6213
▁quar	-6214
▁seas	-6215
▁womb	-6216
▁Šuma	-6217
▁Ḫard	-6218
Palace	-6219
ahunga	-6220
akannu	-6221
assion	-6222
aḫḫēšu	-6223
closed	-6224
enance	-6225
igalzu	-6226
temple	-6227
▁Kakka	-6228
▁Marad	-6229
▁Qedar	-6230
▁Rival	-6231
▁Scyth	-6232
▁agate	-6233
▁alert	-6234
▁chest	-6235
▁consp	-6236
▁exact	-6237
▁pavil	-6238
▁reven	-6239
▁roads	-6240
▁rolls	-6241
▁route	-6242
▁shown	-6243
▁sings	-6244
▁sworn	-6245
Kubatti	-6246
atively	-6247
ourable	-6248
▁Dilbat	-6249
▁Etemen	-6250
▁Hamath	-6251
▁Sirāra	-6252
▁advice	-6253
▁consid	-6254
▁dissol	-6255
▁eighty	-6256
▁eldest	-6257
▁expand	-6258
▁figure	-6259
▁flowed	-6260
▁layers	-6261
▁market	-6262
▁narrow	-6263
▁reason	-6264
▁tanner	-6265
▁Šuanna	-6266
▁Šubria	-6267
original	-6268
▁Ebabbar	-6269
▁However	-6270
▁Mitinti	-6271
▁Nuhšaya	-6272
▁banquet	-6273
▁bearers	-6274
▁bedrock	-6275
▁captive	-6276
▁commiss	-6277
▁crushed	-6278
▁cutting	-6279
▁distrib	-6280
▁drawing	-6281
▁gateway	-6282
▁holding	-6283
▁however	-6284
▁inflict	-6285
▁jewelry	-6286
▁leaving	-6287
▁product	-6288
▁treated	-6289
opolassar	-6290
placement	-6291
▁Naṣibina	-6292
▁Urzuhina	-6293
▁conflict	-6294
▁conquest	-6295
▁detailed	-6296
▁dispatch	-6297
▁grievous	-6298
▁inexpert	-6299
▁insolent	-6300
▁manifest	-6301
▁merciful	-6302
▁multicol	-6303
▁observed	-6304
▁platform	-6305
▁securing	-6306
residences	-6307
▁Urarṭians	-6308
▁container	-6309
▁dispersal	-6310
▁eršahunga	-6311
▁handiwork	-6312
▁positions	-6313
▁boundaries	-6314
▁compassion	-6315
▁divination	-6316
▁exercising	-6317
▁harbakannu	-6318
▁legitimate	-6319
▁repeatedly	-6320
▁supervisor	-6321
▁intercalary	-6322
▁observation	-6323
▁outstanding	-6324
▁steadfastly	-6325
▁confederation	-6326
'"	-6327
':	-6328
,)	-6329
-)	-6330
ga	-6331
oe	-6332
Zam	-6333
aly	-6334
aši	-6335
can	-6336
cst	-6337
fty	-6338
ibr	-6339
iln	-6340
ism	-6341
kir	-6342
kud	-6343
lif	-6344
oci	-6345
paš	-6346
udi	-6347
īru	-6348
īti	-6349
▁1-	-6350
▁Bū	-6351
▁Ma	-6352
▁Ya	-6353
▁je	-6354
▁ni	-6355
From	-6356
Sang	-6357
acle	-6358
aken	-6359
amar	-6360
arms	-6361
aste	-6362
aššî	-6363
circ	-6364
echo	-6365
fort	-6366
hour	-6367
ingu	-6368
ires	-6369
itor	-6370
išpu	-6371
kūti	-6372
like	-6373
rant	-6374
urtî	-6375
vess	-6376
ving	-6377
will	-6378
šaru	-6379
▁Edu	-6380
▁Kib	-6381
▁Nuš	-6382
▁Rib	-6383
▁Tan	-6384
▁Tom	-6385
▁fal	-6386
▁fle	-6387
▁inl	-6388
▁mud	-6389
▁peo	-6390
▁pub	-6391
▁tub	-6392
▁Šid	-6393
abitu	-6394
cibly	-6395
dubbu	-6396
ighed	-6397
ittar	-6398
reans	-6399
▁(651	-6400
▁Atta	-6401
▁Bact	-6402
▁Dadi	-6403
▁Egal	-6404
▁Give	-6405
▁Kark	-6406
▁Minu	-6407
▁Nash	-6408
▁Pill	-6409
▁Sakk	-6410
▁Sarr	-6411
▁Till	-6412
▁blow	-6413
▁cane	-6414
▁crop	-6415
▁deep	-6416
▁dren	-6417
▁ecst	-6418
▁ghee	-6419
▁heap	-6420
▁inqu	-6421
▁kiln	-6422
▁mour	-6423
▁pest	-6424
▁plus	-6425
▁roam	-6426
▁rock	-6427
▁torn	-6428
▁vast	-6429
▁ways	-6430
▁šēdu	-6431
astern	-6432
former	-6433
ingers	-6434
orship	-6435
ranean	-6436
▁Meḫru	-6437
▁Nanna	-6438
▁Parrû	-6439
▁Right	-6440
▁Tabnî	-6441
▁apart	-6442
▁disob	-6443
▁fully	-6444
▁ident	-6445
▁prays	-6446
▁ramps	-6447
▁respl	-6448
▁rumor	-6449
▁shoot	-6450
▁spate	-6451
▁track	-6452
▁truly	-6453
▁turns	-6454
▁wings	-6455
▁Šalim	-6456
Milkūti	-6457
igalbat	-6458
▁(645).	-6459
▁Taklak	-6460
▁arrive	-6461
▁chapel	-6462
▁eighth	-6463
▁envoys	-6464
▁forest	-6465
▁fruits	-6466
▁kisses	-6467
▁public	-6468
▁record	-6469
▁refuse	-6470
▁strugg	-6471
▁thrown	-6472
▁tunics	-6473
▁Šabire	-6474
building	-6475
▁Belšunu	-6476
▁Citadel	-6477
▁Gilzānu	-6478
▁believe	-6479
▁freedom	-6480
▁install	-6481
▁invited	-6482
▁kidneys	-6483
▁looking	-6484
▁peoples	-6485
▁revived	-6486
▁roasted	-6487
▁sanctum	-6488
▁serving	-6489
▁stopped	-6490
▁vessels	-6491
▁weighed	-6492
▁Ḫamrānu	-6493
▁Ḫilakku	-6494
▁Bactrian	-6495
▁Karkaššî	-6496
▁Tabalayu	-6497
▁Tomorrow	-6498
▁ecstatic	-6499
▁extended	-6500
▁forcibly	-6501
▁imprison	-6502
▁litigate	-6503
▁marriage	-6504
▁overlaid	-6505
▁parapets	-6506
▁receives	-6507
▁Ḫardišpu	-6508
muballissu	-6509
šallimanni	-6510
▁Performed	-6511
▁Tammaritu	-6512
▁agreement	-6513
▁architect	-6514
▁firmament	-6515
▁fumigants	-6516
▁hostility	-6517
▁prisoners	-6518
▁utterance	-6519
▁yesterday	-6520
▁Etemenanki	-6521
▁manageress	-6522
▁terrifying	-6523
▁resplendent	-6524
▁interruption	-6525
▁pomegranates	-6526
▁satisfaction	-6527
▁superintendent	-6528
,1	-6529
30	-6530
;)	-6531
gy	-6532
sw	-6533
aka	-6534
bis	-6535
dag	-6536
dem	-6537
gir	-6538
htu	-6539
iet	-6540
iḫu	-6541
may	-6542
mmu	-6543
mun	-6544
rog	-6545
uku	-6546
ura	-6547
uts	-6548
īnu	-6549
šub	-6550
▁38	-6551
▁BC	-6552
▁Ep	-6553
▁Op	-6554
Dadi	-6555
atar	-6556
bank	-6557
cons	-6558
duce	-6559
illu	-6560
itch	-6561
▁(69	-6562
▁180	-6563
▁Dim	-6564
▁Fav	-6565
▁Huz	-6566
▁Men	-6567
▁abs	-6568
▁bas	-6569
▁dap	-6570
▁paš	-6571
▁pon	-6572
▁pus	-6573
▁sen	-6574
▁Šib	-6575
Adini	-6576
ality	-6577
aniye	-6578
arrān	-6579
asons	-6580
claim	-6581
cribe	-6582
elted	-6583
emony	-6584
floor	-6585
idalu	-6586
isons	-6587
lypty	-6588
plant	-6589
psalm	-6590
rying	-6591
umptu	-6592
▁30')	-6593
▁Araḫ	-6594
▁Bari	-6595
▁Even	-6596
▁Eṭir	-6597
▁Gibr	-6598
▁Kumm	-6599
▁Kusu	-6600
▁Make	-6601
▁Mali	-6602
▁Star	-6603
▁beds	-6604
▁calf	-6605
▁disk	-6606
▁fold	-6607
▁hair	-6608
▁haul	-6609
▁impl	-6610
▁legs	-6611
▁perp	-6612
▁pile	-6613
▁sand	-6614
▁stud	-6615
argilâ	-6616
ighing	-6617
▁3,000	-6618
▁6,000	-6619
▁Break	-6620
▁Image	-6621
▁Kašii	-6622
▁Three	-6623
▁besee	-6624
▁feroc	-6625
▁fetch	-6626
▁finds	-6627
▁langu	-6628
▁nails	-6629
▁ornam	-6630
▁piece	-6631
▁pulls	-6632
▁quiet	-6633
▁reply	-6634
▁siege	-6635
▁sound	-6636
▁steps	-6637
▁swift	-6638
▁tremb	-6639
▁value	-6640
▁vener	-6641
Dakkūri	-6642
artinnu	-6643
hamatua	-6644
lawsuit	-6645
lyptych	-6646
priests	-6647
quently	-6648
▁Dayyan	-6649
▁associ	-6650
▁bakers	-6651
▁bitter	-6652
▁crafty	-6653
▁deluge	-6654
▁dragon	-6655
▁extrac	-6656
▁feared	-6657
▁happen	-6658
▁hidden	-6659
▁instit	-6660
▁invoke	-6661
▁jewell	-6662
▁joyful	-6663
▁offers	-6664
▁pestil	-6665
▁reject	-6666
▁safety	-6667
▁senior	-6668
▁served	-6669
▁severe	-6670
▁shaken	-6671
▁spirit	-6672
▁steady	-6673
▁strews	-6674
▁wrists	-6675
▁Anunitu	-6676
▁Kummuḫu	-6677
▁bedroom	-6678
▁ceremon	-6679
▁conceal	-6680
▁consume	-6681
▁daprānu	-6682
▁fashion	-6683
▁flashes	-6684
▁helpers	-6685
▁killing	-6686
▁knotted	-6687
▁marshal	-6688
▁measure	-6689
▁praised	-6690
▁recover	-6691
▁wherein	-6692
terranean	-6693
▁Asalluhi	-6694
▁appeared	-6695
▁blessing	-6696
▁creature	-6697
▁emissary	-6698
▁enduring	-6699
▁examined	-6700
▁intellig	-6701
▁portends	-6702
▁prisoner	-6703
▁suckling	-6704
▁totality	-6705
▁Šabirešu	-6706
▁buildings	-6707
▁certainly	-6708
▁fragrance	-6709
▁highlands	-6710
▁leftovers	-6711
▁neglected	-6712
▁pronounce	-6713
▁relatives	-6714
▁sharpened	-6715
▁treasures	-6716
ternatively	-6717
ursagkalama	-6718
▁considered	-6719
▁contingent	-6720
▁difficulty	-6721
▁directions	-6722
▁irrigation	-6723
▁overturned	-6724
▁renovation	-6725
▁Ḫanigalbat	-6726
▁administrat	-6727
▁Nabopolassar	-6728
So	-6729
no	-6730
rā	-6731
Kur	-6732
adâ	-6733
ber	-6734
gam	-6735
how	-6736
ibū	-6737
iga	-6738
ius	-6739
lab	-6740
rul	-6741
sal	-6742
sec	-6743
tle	-6744
āṭu	-6745
ūlu	-6746
▁,"	-6747
▁5,	-6748
▁Hu	-6749
▁Ib	-6750
▁Uk	-6751
▁di	-6752
▁vi	-6753
Your	-6754
aisi	-6755
arts	-6756
ator	-6757
endû	-6758
fare	-6759
full	-6760
ikni	-6761
ises	-6762
namm	-6763
pers	-6764
regn	-6765
reši	-6766
ruru	-6767
stay	-6768
tinu	-6769
upat	-6770
wers	-6771
yges	-6772
ēriš	-6773
▁360	-6774
▁600	-6775
▁90)	-6776
▁Add	-6777
▁Dai	-6778
▁Don	-6779
▁Ila	-6780
▁Kid	-6781
▁Lip	-6782
▁Mes	-6783
▁Muq	-6784
▁Tuq	-6785
▁Ull	-6786
▁Umb	-6787
▁inf	-6788
▁job	-6789
▁lik	-6790
▁med	-6791
▁nat	-6792
▁pil	-6793
▁roe	-6794
▁vot	-6795
▁Ḫat	-6796
Ammon	-6797
Umman	-6798
anged	-6799
aratu	-6800
bound	-6801
damiq	-6802
eenth	-6803
elled	-6804
etent	-6805
ibūti	-6806
kabti	-6807
larim	-6808
manni	-6809
mount	-6810
nāṣir	-6811
ommag	-6812
right	-6813
river	-6814
ropri	-6815
urten	-6816
usion	-6817
ṣirtu	-6818
▁(25)	-6819
▁(30)	-6820
▁Aplu	-6821
▁Balṭ	-6822
▁Come	-6823
▁Edom	-6824
▁Raḫi	-6825
▁Send	-6826
▁Siri	-6827
▁Thus	-6828
▁afar	-6829
▁amid	-6830
▁bows	-6831
▁drew	-6832
▁exac	-6833
▁fors	-6834
▁game	-6835
▁join	-6836
▁loin	-6837
▁lost	-6838
▁nine	-6839
▁rods	-6840
▁rout	-6841
▁ship	-6842
▁slay	-6843
▁spec	-6844
Hamban	-6845
aneans	-6846
anical	-6847
enters	-6848
essunu	-6849
fruits	-6850
nammir	-6851
ording	-6852
ration	-6853
ubištu	-6854
▁Akkud	-6855
▁Ariye	-6856
▁Bikni	-6857
▁Cilic	-6858
▁Haldi	-6859
▁Kittu	-6860
▁Nušku	-6861
▁Ulāya	-6862
▁Waisi	-6863
▁alter	-6864
▁boars	-6865
▁bolts	-6866
▁camel	-6867
▁catch	-6868
▁couch	-6869
▁extra	-6870
▁guide	-6871
▁irons	-6872
▁level	-6873
▁lumin	-6874
▁lunar	-6875
▁lying	-6876
▁organ	-6877
▁pendû	-6878
▁pluck	-6879
▁pride	-6880
▁scion	-6881
▁swept	-6882
▁tiara	-6883
▁worth	-6884
▁yield	-6885
closure	-6886
garment	-6887
outside	-6888
▁Commag	-6889
▁Kisiru	-6890
▁Nabatu	-6891
▁Review	-6892
▁Simānu	-6893
▁Tabale	-6894
▁canebr	-6895
▁clergy	-6896
▁cloaks	-6897
▁deceit	-6898
▁divide	-6899
▁flocks	-6900
▁issued	-6901
▁kamanu	-6902
▁ordain	-6903
▁perish	-6904
▁proced	-6905
▁quiver	-6906
▁refurb	-6907
▁riding	-6908
▁scarce	-6909
▁sunset	-6910
▁though	-6911
▁worked	-6912
ittarius	-6913
ordinate	-6914
▁Arrapḫa	-6915
▁Enemies	-6916
▁Gabbaru	-6917
▁Habasti	-6918
▁Sarduri	-6919
▁Sebetti	-6920
▁crowned	-6921
▁disturb	-6922
▁fifteen	-6923
▁friends	-6924
▁happens	-6925
▁hitched	-6926
▁kettled	-6927
▁plaster	-6928
▁uttered	-6929
▁warfare	-6930
▁watched	-6931
▁Ḫirimmu	-6932
priestess	-6933
▁Gurreans	-6934
▁appoints	-6935
▁appurten	-6936
▁confused	-6937
▁diviners	-6938
▁eclipsed	-6939
▁glorious	-6940
▁herdsman	-6941
▁regarded	-6942
▁summoned	-6943
▁troubled	-6944
▁uprooted	-6945
▁ziggurat	-6946
Esarhaddon	-6947
▁botanical	-6948
▁dispersed	-6949
▁exorcists	-6950
▁foreigner	-6951
▁garrisons	-6952
▁jewellery	-6953
▁ornaments	-6954
galkurkurra	-6955
▁downstream	-6956
▁pestilence	-6957
▁stronghold	-6958
▁Sagittarius	-6959
▁Unfavorable	-6960
▁responsible	-6961
▁trustworthy	-6962
▁processional	-6963
▁shepherdship	-6964
▁subterranean	-6965
▁thoroughbreds	-6966
▁Eḫursagkurkurra	-6967
/4	-6968
kn	-6969
uc	-6970
uq	-6971
ḫi	-6972
)?"	-6973
400	-6974
Bīt	-6975
Rez	-6976
acy	-6977
asa	-6978
asp	-6979
ete	-6980
gim	-6981
ien	-6982
imu	-6983
iod	-6984
kūn	-6985
pan	-6986
rah	-6987
taš	-6988
uss	-6989
zan	-6990
ālu	-6991
ūgi	-6992
▁95	-6993
▁Fl	-6994
▁Gr	-6995
▁nu	-6996
▁pi	-6997
Gula	-6998
abat	-6999
aite	-7000
apes	-7001
aqqu	-7002
attu	-7003
cles	-7004
egis	-7005
jamb	-7006
peak	-7007
quer	-7008
room	-7009
rutu	-7010
uner	-7011
urna	-7012
utam	-7013
šēri	-7014
▁Bas	-7015
▁Kin	-7016
▁Kun	-7017
▁Ner	-7018
▁Paš	-7019
▁Riḫ	-7020
▁Und	-7021
▁Yad	-7022
▁amu	-7023
▁aya	-7024
▁che	-7025
▁dig	-7026
▁few	-7027
▁gaz	-7028
▁išk	-7029
▁jug	-7030
▁spo	-7031
Barrû	-7032
Ditto	-7033
Milki	-7034
Rezin	-7035
Tešub	-7036
abānu	-7037
acing	-7038
amnir	-7039
eroom	-7040
gamil	-7041
great	-7042
ieces	-7043
ifies	-7044
kibtu	-7045
lamši	-7046
obbed	-7047
osion	-7048
pašir	-7049
rehtu	-7050
sworn	-7051
ulḫul	-7052
▁Dais	-7053
▁Fire	-7054
▁Marq	-7055
▁Puṭu	-7056
▁Riba	-7057
▁Sang	-7058
▁Ukke	-7059
▁Uṣur	-7060
▁Year	-7061
▁deed	-7062
▁dise	-7063
▁gems	-7064
▁girl	-7065
▁hang	-7066
▁inac	-7067
▁onsl	-7068
▁poor	-7069
▁sack	-7070
▁shed	-7071
▁sins	-7072
aching	-7073
ammaku	-7074
ašanni	-7075
blocks	-7076
camels	-7077
ending	-7078
immeri	-7079
isting	-7080
itated	-7081
loaves	-7082
nišēšu	-7083
volent	-7084
▁10'')	-7085
▁15'')	-7086
▁Aramu	-7087
▁Ekall	-7088
▁Epony	-7089
▁Kummu	-7090
▁Namri	-7091
▁Necho	-7092
▁Nirbu	-7093
▁Ubudu	-7094
▁Zamua	-7095
▁absol	-7096
▁acted	-7097
▁aegis	-7098
▁armch	-7099
▁ashes	-7100
▁board	-7101
▁carav	-7102
▁flask	-7103
▁frost	-7104
▁funer	-7105
▁girls	-7106
▁heaps	-7107
▁knees	-7108
▁looks	-7109
▁music	-7110
▁outri	-7111
▁pierc	-7112
▁pitch	-7113
▁plans	-7114
▁princ	-7115
▁rules	-7116
▁scorp	-7117
▁sided	-7118
▁stage	-7119
▁suppl	-7120
▁swing	-7121
▁vigil	-7122
Tukulti	-7123
against	-7124
appings	-7125
bearers	-7126
bessunu	-7127
created	-7128
eminent	-7129
estival	-7130
ference	-7131
išnugal	-7132
▁(651).	-7133
▁Arbayu	-7134
▁Izalla	-7135
▁Kipani	-7136
▁Parsua	-7137
▁Riḫiḫu	-7138
▁Undasu	-7139
▁bribes	-7140
▁effect	-7141
▁garlic	-7142
▁heeded	-7143
▁inlaid	-7144
▁leaves	-7145
▁luxuri	-7146
▁mortar	-7147
▁observ	-7148
▁perman	-7149
▁routes	-7150
▁shadow	-7151
▁spared	-7152
▁sprink	-7153
▁sumptu	-7154
▁treads	-7155
▁walked	-7156
anything	-7157
appropri	-7158
cessible	-7159
ritually	-7160
▁Akkuddu	-7161
▁Lullumu	-7162
▁Pillatu	-7163
▁Tukulti	-7164
▁arrival	-7165
▁belongs	-7166
▁beneath	-7167
▁breasts	-7168
▁copings	-7169
▁drivers	-7170
▁durable	-7171
▁entreat	-7172
▁erosion	-7173
▁figures	-7174
▁forsake	-7175
▁heroism	-7176
▁knobbed	-7177
▁marches	-7178
▁monthly	-7179
▁offices	-7180
▁pleased	-7181
▁praises	-7182
▁praying	-7183
▁pursuit	-7184
▁ravaged	-7185
▁returns	-7186
▁running	-7187
▁seventh	-7188
▁subduer	-7189
▁worship	-7190
▁Ḫindaru	-7191
decorated	-7192
▁Barhalzi	-7193
▁Kašiiari	-7194
▁Property	-7195
▁arranged	-7196
▁assemble	-7197
▁conclude	-7198
▁depicted	-7199
▁deprived	-7200
▁distress	-7201
▁friendly	-7202
▁language	-7203
▁mainstay	-7204
▁overcast	-7205
▁possible	-7206
▁stomachs	-7207
▁thinking	-7208
▁Ḫararatu	-7209
▁attendant	-7210
▁beseeched	-7211
▁deserters	-7212
▁disclosed	-7213
▁dissolved	-7214
▁ferocious	-7215
▁onslaught	-7216
▁perfected	-7217
▁requested	-7218
▁splendour	-7219
▁storeroom	-7220
▁apprentice	-7221
▁benevolent	-7222
▁carpenters	-7223
▁procedures	-7224
▁remembered	-7225
▁successful	-7226
▁administers	-7227
▁countryside	-7228
▁inaccessible	-7229
▁intelligence	-7230
▁Ḫursagkalama	-7231
▁Alternatively	-7232
.’	-7233
10	-7234
Im	-7235
Le	-7236
My	-7237
ec	-7238
nû	-7239
pī	-7240
āt	-7241
ṣh	-7242
▁0	-7243
)!"	-7244
Dag	-7245
Naḫ	-7246
Zab	-7247
adû	-7248
adī	-7249
alc	-7250
arâ	-7251
auš	-7252
azi	-7253
beh	-7254
bra	-7255
cle	-7256
com	-7257
elo	-7258
ffs	-7259
fig	-7260
gid	-7261
gue	-7262
gum	-7263
igs	-7264
ogh	-7265
opp	-7266
opy	-7267
pak	-7268
rec	-7269
tab	-7270
tow	-7271
usî	-7272
utû	-7273
vil	-7274
you	-7275
yss	-7276
zag	-7277
ūzu	-7278
▁,”	-7279
▁52	-7280
▁55	-7281
▁7,	-7282
▁75	-7283
▁Ay	-7284
▁Bo	-7285
▁Di	-7286
▁Pr	-7287
▁Ra	-7288
▁Tr	-7289
▁da	-7290
apil	-7291
arda	-7292
arsa	-7293
aḫum	-7294
aṣir	-7295
emed	-7296
iana	-7297
iram	-7298
išši	-7299
kins	-7300
liaš	-7301
madi	-7302
rank	-7303
ranu	-7304
rion	-7305
rope	-7306
roph	-7307
rown	-7308
suri	-7309
tīya	-7310
ubil	-7311
ulmu	-7312
utes	-7313
writ	-7314
zēri	-7315
▁20,	-7316
▁208	-7317
▁3/4	-7318
▁Ahû	-7319
▁DNN	-7320
▁Had	-7321
▁Haš	-7322
▁Lam	-7323
▁Laḫ	-7324
▁Mak	-7325
▁Mil	-7326
▁Niq	-7327
▁Uri	-7328
▁Whe	-7329
▁ate	-7330
▁bef	-7331
▁dir	-7332
▁gen	-7333
▁hus	-7334
▁ign	-7335
▁lep	-7336
▁rod	-7337
▁unf	-7338
Kapsi	-7339
Lower	-7340
aller	-7341
aning	-7342
cuffs	-7343
idean	-7344
inded	-7345
inder	-7346
kūnum	-7347
leans	-7348
paled	-7349
pices	-7350
rites	-7351
sting	-7352
tebra	-7353
udimm	-7354
urrum	-7355
ṣhatu	-7356
▁Apla	-7357
▁Care	-7358
▁Duri	-7359
▁Humb	-7360
▁Munn	-7361
▁Narg	-7362
▁Nunn	-7363
▁Pulu	-7364
▁Tard	-7365
▁anom	-7366
▁aven	-7367
▁blew	-7368
▁cans	-7369
▁clim	-7370
▁debt	-7371
▁hewn	-7372
▁huge	-7373
▁levy	-7374
▁mold	-7375
▁palû	-7376
▁pred	-7377
▁rich	-7378
▁sear	-7379
▁slip	-7380
▁sort	-7381
▁tent	-7382
▁wash	-7383
arikka	-7384
arried	-7385
change	-7386
facing	-7387
houses	-7388
icious	-7389
issiya	-7390
oghurt	-7391
orizon	-7392
utamon	-7393
vation	-7394
šumate	-7395
▁4,000	-7396
▁5,000	-7397
▁Abyss	-7398
▁Adian	-7399
▁Banbâ	-7400
▁Birat	-7401
▁Iauta	-7402
▁Kulla	-7403
▁Lands	-7404
▁Maybe	-7405
▁Media	-7406
▁Nadin	-7407
▁Natnu	-7408
▁Orion	-7409
▁Ulūlu	-7410
▁Zaban	-7411
▁bales	-7412
▁cloak	-7413
▁crush	-7414
▁demon	-7415
▁drive	-7416
▁ducks	-7417
▁encam	-7418
▁exhau	-7419
▁falls	-7420
▁forms	-7421
▁glare	-7422
▁glaze	-7423
▁initi	-7424
▁intro	-7425
▁jubil	-7426
▁learn	-7427
▁maker	-7428
▁point	-7429
▁proud	-7430
▁rafts	-7431
▁raged	-7432
▁risen	-7433
▁scent	-7434
▁sense	-7435
▁smith	-7436
▁tears	-7437
▁trays	-7438
▁victu	-7439
▁visit	-7440
▁Šarur	-7441
▁Ḫamat	-7442
Dakkuri	-7443
Mušēzib	-7444
andered	-7445
cements	-7446
continu	-7447
edience	-7448
ivalent	-7449
rophied	-7450
spector	-7451
written	-7452
▁Balaṭu	-7453
▁Daiēnu	-7454
▁Dananu	-7455
▁Herald	-7456
▁Ikūnum	-7457
▁Kubabu	-7458
▁Mašmaš	-7459
▁Ninlil	-7460
▁Rivers	-7461
▁Scribe	-7462
▁affect	-7463
▁ambush	-7464
▁amidst	-7465
▁bonded	-7466
▁bucket	-7467
▁chased	-7468
▁conver	-7469
▁covers	-7470
▁deport	-7471
▁emblem	-7472
▁felted	-7473
▁instig	-7474
▁iškāru	-7475
▁joyous	-7476
▁legate	-7477
▁little	-7478
▁loaded	-7479
▁locked	-7480
▁nephew	-7481
▁purple	-7482
▁season	-7483
▁shoots	-7484
▁waited	-7485
▁Apladad	-7486
▁Bēltīya	-7487
▁Eḫulḫul	-7488
▁Kidmuri	-7489
▁Raḫiānu	-7490
▁Whether	-7491
▁Yadaqqu	-7492
▁barbari	-7493
▁boatmen	-7494
▁central	-7495
▁cornice	-7496
▁disease	-7497
▁fulfill	-7498
▁horizon	-7499
▁impaled	-7500
▁maṣhatu	-7501
▁neglect	-7502
▁portent	-7503
▁raining	-7504
▁refuses	-7505
▁retreat	-7506
▁selling	-7507
▁seventy	-7508
▁silence	-7509
▁strange	-7510
▁thunder	-7511
▁trouble	-7512
▁utterly	-7513
▁wailing	-7514
Kurigalzu	-7515
haustible	-7516
tubašanni	-7517
▁Ammanāna	-7518
▁Melidean	-7519
▁Sakkannu	-7520
▁constant	-7521
▁deserted	-7522
▁discards	-7523
▁drenched	-7524
▁expertly	-7525
▁fearless	-7526
▁firewood	-7527
▁funerary	-7528
▁implored	-7529
▁majestic	-7530
▁mourning	-7531
▁obedient	-7532
▁polished	-7533
▁purchase	-7534
▁saplings	-7535
▁sartinnu	-7536
▁vertebra	-7537
▁Nunnamnir	-7538
▁Tanutamon	-7539
▁accession	-7540
▁atrophied	-7541
▁brilliant	-7542
▁circumamb	-7543
▁competent	-7544
▁exhausted	-7545
▁guarantor	-7546
▁luxuriant	-7547
▁renovates	-7548
▁battleline	-7549
▁distressed	-7550
▁everywhere	-7551
▁haruspices	-7552
▁kettledrum	-7553
▁plundering	-7554
▁submission	-7555
▁victualler	-7556
▁distributed	-7557
▁establishes	-7558
▁accomplished	-7559
▁celebrations	-7560
▁triumphantly	-7561
▁victoriously	-7562
▁administrator	-7563
▁inexhaustible	-7564
▁multicoloured	-7565
▁reinforcements	-7566
▁representative	-7567
/3	-7568
15	-7569
40	-7570
An	-7571
Re	-7572
Wh	-7573
eb	-7574
lâ	-7575
tî	-7576
šî	-7577
Anu	-7578
abî	-7579
aga	-7580
anâ	-7581
apu	-7582
don	-7583
het	-7584
iff	-7585
ilû	-7586
inû	-7587
ipl	-7588
irm	-7589
kun	-7590
ntu	-7591
upp	-7592
uṣu	-7593
yet	-7594
zēr	-7595
ūnī	-7596
ḫar	-7597
ṣar	-7598
▁1.	-7599
▁31	-7600
▁47	-7601
▁59	-7602
▁Ka	-7603
▁Pl	-7604
▁Ro	-7605
▁Rū	-7606
▁Us	-7607
▁—,	-7608
)...	-7609
Lady	-7610
That	-7611
Yate	-7612
ales	-7613
alty	-7614
altâ	-7615
ania	-7616
anks	-7617
appu	-7618
arra	-7619
auld	-7620
bāni	-7621
deni	-7622
ereb	-7623
gods	-7624
ieth	-7625
just	-7626
manu	-7627
matu	-7628
meas	-7629
nger	-7630
oast	-7631
pair	-7632
race	-7633
sons	-7634
ukki	-7635
unna	-7636
zanu	-7637
zera	-7638
šiku	-7639
▁10,	-7640
▁2/3	-7641
▁700	-7642
▁Bun	-7643
▁Din	-7644
▁Ent	-7645
▁Hub	-7646
▁Hum	-7647
▁Hur	-7648
▁Iba	-7649
▁Kuš	-7650
▁Old	-7651
▁Pis	-7652
▁Qab	-7653
▁Qar	-7654
▁Qum	-7655
▁Sup	-7656
▁Tum	-7657
▁Tur	-7658
▁ann	-7659
▁beg	-7660
▁cul	-7661
▁lac	-7662
▁mod	-7663
▁wax	-7664
▁wol	-7665
ababa	-7666
abiya	-7667
ading	-7668
aggil	-7669
ahhir	-7670
akkan	-7671
alcit	-7672
asser	-7673
birds	-7674
cakes	-7675
damqu	-7676
doing	-7677
enzaš	-7678
essed	-7679
every	-7680
gates	-7681
iture	-7682
kannu	-7683
kuṣur	-7684
oking	-7685
otion	-7686
reath	-7687
salim	-7688
sheep	-7689
whose	-7690
▁35')	-7691
▁Adia	-7692
▁Anti	-7693
▁Bird	-7694
▁Bāzu	-7695
▁Cour	-7696
▁Down	-7697
▁Four	-7698
▁Hall	-7699
▁Issi	-7700
▁Izbu	-7701
▁Lulî	-7702
▁Opis	-7703
▁Puṭi	-7704
▁Raši	-7705
▁Sukk	-7706
▁argu	-7707
▁beat	-7708
▁copy	-7709
▁cows	-7710
▁emer	-7711
▁exit	-7712
▁flee	-7713
▁forb	-7714
▁furn	-7715
▁gran	-7716
▁gush	-7717
▁hord	-7718
▁late	-7719
▁mare	-7720
▁nind	-7721
▁nose	-7722
▁pays	-7723
▁rely	-7724
▁rose	-7725
▁tuft	-7726
▁vats	-7727
▁viol	-7728
▁ēntu	-7729
ainous	-7730
amašši	-7731
ardilû	-7732
asters	-7733
copper	-7734
course	-7735
dammiq	-7736
hiding	-7737
images	-7738
istern	-7739
onging	-7740
ported	-7741
ricted	-7742
rising	-7743
▁1,500	-7744
▁Above	-7745
▁Adapa	-7746
▁Adūnī	-7747
▁Daltâ	-7748
▁Dimtu	-7749
▁Grand	-7750
▁Lugal	-7751
▁Nabay	-7752
▁Nargî	-7753
▁Nemed	-7754
▁Samnu	-7755
▁Tiara	-7756
▁accum	-7757
▁bribe	-7758
▁cauld	-7759
▁dance	-7760
▁desol	-7761
▁dress	-7762
▁elite	-7763
▁faint	-7764
▁hards	-7765
▁incom	-7766
▁issue	-7767
▁loins	-7768
▁lover	-7769
▁midru	-7770
▁newly	-7771
▁oaths	-7772
▁occup	-7773
▁plent	-7774
▁sated	-7775
▁seeds	-7776
▁start	-7777
▁stays	-7778
▁sting	-7779
▁suits	-7780
▁sweep	-7781
▁tells	-7782
▁tereb	-7783
▁tried	-7784
▁Ḫagar	-7785
▁Ḫilmu	-7786
Perhaps	-7787
brother	-7788
donkeys	-7789
estines	-7790
hearted	-7791
ranking	-7792
regnant	-7793
udimmud	-7794
writing	-7795
▁Anyone	-7796
▁Aplāya	-7797
▁Bubilu	-7798
▁Gurgum	-7799
▁Ibašši	-7800
▁Inurtî	-7801
▁Kalkal	-7802
▁Narudi	-7803
▁People	-7804
▁Tuqunu	-7805
▁Ukkean	-7806
▁Vizier	-7807
▁agreed	-7808
▁begins	-7809
▁behold	-7810
▁bigger	-7811
▁casser	-7812
▁chains	-7813
▁claims	-7814
▁defect	-7815
▁deline	-7816
▁differ	-7817
▁eagles	-7818
▁enough	-7819
▁exceed	-7820
▁finger	-7821
▁ghosts	-7822
▁grapes	-7823
▁impost	-7824
▁income	-7825
▁inlays	-7826
▁livers	-7827
▁nought	-7828
▁shouts	-7829
▁straps	-7830
▁thighs	-7831
▁tongue	-7832
▁travel	-7833
▁wanted	-7834
▁winged	-7835
▁Ḫidalu	-7836
mudammiq	-7837
▁Elenzaš	-7838
▁Hindana	-7839
▁Hindanu	-7840
▁Mandanu	-7841
▁Muṣaṣir	-7842
▁Ninšiku	-7843
▁Rūkibtu	-7844
▁appease	-7845
▁custody	-7846
▁damaged	-7847
▁discuss	-7848
▁favours	-7849
▁forests	-7850
▁gaining	-7851
▁getting	-7852
▁illumin	-7853
▁leading	-7854
▁leveled	-7855
▁loyalty	-7856
▁observe	-7857
▁parched	-7858
▁pertain	-7859
▁pierced	-7860
▁radiant	-7861
▁rainbow	-7862
▁rebuild	-7863
▁regards	-7864
▁travers	-7865
▁verdict	-7866
▁visited	-7867
▁watered	-7868
▁wounded	-7869
▁younger	-7870
Sangibūti	-7871
alabaster	-7872
alcitrant	-7873
inspector	-7874
▁Nudimmud	-7875
▁Tumurrum	-7876
▁courtier	-7877
▁faithful	-7878
▁flourish	-7879
▁guarding	-7880
▁hardship	-7881
▁managers	-7882
▁neighbor	-7883
▁nominate	-7884
▁princess	-7885
▁promoted	-7886
▁prompted	-7887
▁provider	-7888
▁recorded	-7889
▁shallots	-7890
▁uprising	-7891
▁Ḫagarānu	-7892
▁Commagene	-7893
▁Munnabitu	-7894
▁Scythians	-7895
▁barbarian	-7896
▁colleague	-7897
▁concealed	-7898
▁fugitives	-7899
▁greatness	-7900
▁handcuffs	-7901
▁pavilions	-7902
▁recovered	-7903
▁reporters	-7904
▁terebinth	-7905
▁therefore	-7906
▁thickness	-7907
appropriate	-7908
▁Throughout	-7909
▁casseroles	-7910
▁disappears	-7911
▁friendship	-7912
▁inexpertly	-7913
▁intestines	-7914
▁leadership	-7915
▁overwhelms	-7916
▁pappardilû	-7917
▁perfection	-7918
▁protectors	-7919
▁surpassing	-7920
▁villainous	-7921
▁accumulated	-7922
▁constricted	-7923
▁consumption	-7924
▁fingernails	-7925
▁refurbished	-7926
▁appropriated	-7927
▁recalcitrant	-7928
▁supplication	-7929
▁craftsmanship	-7930
▁reconstructed	-7931
(!	-7932
No	-7933
Uk	-7934
dr	-7935
gl	-7936
po	-7937
rī	-7938
zā	-7939
300	-7940
Lib	-7941
Und	-7942
amp	-7943
amû	-7944
apî	-7945
cav	-7946
dep	-7947
ees	-7948
igl	-7949
owl	-7950
riš	-7951
sag	-7952
ton	-7953
āsi	-7954
ūmu	-7955
▁(5	-7956
▁37	-7957
▁41	-7958
▁45	-7959
▁Bu	-7960
▁Ut	-7961
▁mē	-7962
Heze	-7963
Take	-7964
Zual	-7965
aboo	-7966
aean	-7967
aith	-7968
alam	-7969
allî	-7970
anim	-7971
arna	-7972
ayab	-7973
beru	-7974
bina	-7975
bīti	-7976
cake	-7977
ctor	-7978
eter	-7979
gabb	-7980
gium	-7981
gunu	-7982
hari	-7983
ibur	-7984
ipar	-7985
lime	-7986
mess	-7987
napš	-7988
niše	-7989
olen	-7990
oned	-7991
oppa	-7992
oses	-7993
pada	-7994
tter	-7995
uber	-7996
ukua	-7997
ults	-7998
undi	-7999
urra	-8000
urrī	-8001
vari	-8002
yoke	-8003
šadû	-8004
▁Ear	-8005
▁Gut	-8006
▁Kam	-8007
▁Kaḫ	-8008
▁Mah	-8009
▁Mud	-8010
▁Nah	-8011
▁Niḫ	-8012
▁Sul	-8013
▁Ter	-8014
▁Tup	-8015
▁Tuš	-8016
▁Upa	-8017
▁Zik	-8018
▁anx	-8019
▁bat	-8020
▁dru	-8021
▁ean	-8022
▁flo	-8023
▁fly	-8024
▁mix	-8025
▁nap	-8026
▁pac	-8027
▁pan	-8028
▁ven	-8029
▁Ḫay	-8030
Mount	-8031
adarâ	-8032
aling	-8033
allak	-8034
aming	-8035
aninu	-8036
apiku	-8037
aqqin	-8038
arbis	-8039
aring	-8040
asper	-8041
assed	-8042
assus	-8043
atati	-8044
atinu	-8045
aways	-8046
aḫlum	-8047
blank	-8048
icate	-8049
issar	-8050
nyard	-8051
rafts	-8052
secut	-8053
sters	-8054
stood	-8055
umuna	-8056
uties	-8057
▁(35)	-8058
▁100)	-8059
▁Apsû	-8060
▁Dakk	-8061
▁Ebeh	-8062
▁Firm	-8063
▁Gall	-8064
▁Hinn	-8065
▁Iqbi	-8066
▁Išum	-8067
▁Nink	-8068
▁Phil	-8069
▁Saba	-8070
▁Tarḫ	-8071
▁bolt	-8072
▁bund	-8073
▁cond	-8074
▁conv	-8075
▁cous	-8076
▁decl	-8077
▁dirt	-8078
▁ease	-8079
▁enth	-8080
▁fowl	-8081
▁ginû	-8082
▁goat	-8083
▁lest	-8084
▁mutu	-8085
▁nice	-8086
▁seac	-8087
▁shel	-8088
▁song	-8089
▁stel	-8090
▁surv	-8091
▁thie	-8092
▁ward	-8093
▁Šadi	-8094
Zamani	-8095
Zarpan	-8096
arding	-8097
balaṭi	-8098
cavity	-8099
circle	-8100
dagger	-8101
demons	-8102
pleted	-8103
repair	-8104
timony	-8105
ulumzu	-8106
uments	-8107
utukua	-8108
uṣalli	-8109
▁Aries	-8110
▁Azuru	-8111
▁Bless	-8112
▁Dayan	-8113
▁Field	-8114
▁Halah	-8115
▁Larsa	-8116
▁Salam	-8117
▁Sanda	-8118
▁Tamnâ	-8119
▁Third	-8120
▁Uaite	-8121
▁Would	-8122
▁Zazaz	-8123
▁alley	-8124
▁amūmu	-8125
▁apple	-8126
▁artis	-8127
▁charm	-8128
▁condu	-8129
▁decap	-8130
▁ditch	-8131
▁doves	-8132
▁drops	-8133
▁figur	-8134
▁fills	-8135
▁gallû	-8136
▁hears	-8137
▁lines	-8138
▁maids	-8139
▁olive	-8140
▁price	-8141
▁prost	-8142
▁range	-8143
▁rough	-8144
▁shame	-8145
▁shape	-8146
▁solid	-8147
▁taboo	-8148
▁tombs	-8149
▁train	-8150
▁tubes	-8151
▁twent	-8152
▁Ḫubuš	-8153
Daganna	-8154
aithful	-8155
aughter	-8156
daggers	-8157
everthe	-8158
gimilli	-8159
however	-8160
ilities	-8161
kudurrī	-8162
mešarra	-8163
upahhir	-8164
various	-8165
šimanni	-8166
▁Araḫtu	-8167
▁Aḫšēri	-8168
▁Bitter	-8169
▁Eponym	-8170
▁Ilumma	-8171
▁Maniye	-8172
▁Nashir	-8173
▁Nerigl	-8174
▁Samsim	-8175
▁Series	-8176
▁Subnat	-8177
▁Ulluba	-8178
▁Within	-8179
▁Zabban	-8180
▁absent	-8181
▁basalt	-8182
▁choose	-8183
▁consec	-8184
▁culmin	-8185
▁curses	-8186
▁exuber	-8187
▁furrow	-8188
▁glance	-8189
▁grains	-8190
▁groats	-8191
▁guided	-8192
▁honest	-8193
▁laying	-8194
▁lights	-8195
▁masons	-8196
▁obtain	-8197
▁occurs	-8198
▁period	-8199
▁profit	-8200
▁ripped	-8201
▁shaved	-8202
▁shines	-8203
▁stolen	-8204
▁uncles	-8205
▁vigour	-8206
▁washed	-8207
▁Ḫamānu	-8208
▁Ḫarrān	-8209
▁Ḫarḫar	-8210
Hezekiah	-8211
Ispabāra	-8212
assigned	-8213
ayabarqa	-8214
eṭiranni	-8215
libation	-8216
lyptychs	-8217
therwise	-8218
▁208,000	-8219
▁Balṭaya	-8220
▁Egalzag	-8221
▁Neither	-8222
▁Philist	-8223
▁Sukkaya	-8224
▁brewers	-8225
▁chanter	-8226
▁deficit	-8227
▁deprive	-8228
▁display	-8229
▁estates	-8230
▁exactly	-8231
▁exempts	-8232
▁fetched	-8233
▁grazing	-8234
▁guarded	-8235
▁insides	-8236
▁lasting	-8237
▁masters	-8238
▁opening	-8239
▁oppress	-8240
▁pašallu	-8241
▁penalty	-8242
▁prophet	-8243
▁putting	-8244
▁quality	-8245
▁quarter	-8246
▁reports	-8247
▁scholar	-8248
▁serious	-8249
▁sheaves	-8250
▁singing	-8251
▁sublime	-8252
▁weeping	-8253
heartedly	-8254
sequently	-8255
▁Barhalza	-8256
▁Ispabāra	-8257
▁Kutatati	-8258
▁Umbadarâ	-8259
▁ancestor	-8260
▁antimony	-8261
▁barnyard	-8262
▁concerns	-8263
▁elammaku	-8264
▁equipped	-8265
▁exchange	-8266
▁goodwill	-8267
▁harvests	-8268
▁humility	-8269
▁listened	-8270
▁openings	-8271
▁opposing	-8272
▁pedestal	-8273
▁pregnant	-8274
▁presents	-8275
▁preserve	-8276
▁princely	-8277
▁progress	-8278
▁recessed	-8279
▁relented	-8280
▁remained	-8281
▁rendered	-8282
▁runaways	-8283
▁seacoast	-8284
▁standard	-8285
▁struggle	-8286
▁transfer	-8287
Concerning	-8288
taqqinanni	-8289
▁Belonging	-8290
▁Egyptians	-8291
▁Gambulian	-8292
▁Hubuškian	-8293
▁Kummaḫlum	-8294
▁Purulumzu	-8295
▁broadened	-8296
▁collegium	-8297
▁condition	-8298
▁conquests	-8299
▁determine	-8300
▁different	-8301
▁disrepair	-8302
▁documents	-8303
▁gardeners	-8304
▁objective	-8305
▁outriders	-8306
▁proceeded	-8307
▁protected	-8308
▁providing	-8309
▁sumptuous	-8310
▁treachery	-8311
▁twentieth	-8312
▁vertebrae	-8313
evertheless	-8314
▁Thereafter	-8315
▁delineated	-8316
▁protective	-8317
▁respectful	-8318
▁transgress	-8319
▁unreliable	-8320
▁vanquished	-8321
▁Banayabarqa	-8322
▁Nabayateans	-8323
▁Neriglissar	-8324
▁decapitated	-8325
▁hostilities	-8326
▁storehouses	-8327
▁treacherous	-8328
▁housekeepers	-8329
▁imprisonment	-8330
▁neighborhood	-8331
▁circumference	-8332
▁righteousness	-8333
!’	-8334
,’	-8335
Aš	-8336
ox	-8337
rî	-8338
rû	-8339
sg	-8340
xe	-8341
ām	-8342
ēt	-8343
Ša	-8344
ṣî	-8345
100	-8346
Did	-8347
Mal	-8348
Reg	-8349
agi	-8350
apt	-8351
atî	-8352
bir	-8353
dim	-8354
dun	-8355
eks	-8356
equ	-8357
eti	-8358
hop	-8359
ipe	-8360
isk	-8361
kar	-8362
mus	-8363
nad	-8364
not	-8365
ruc	-8366
sak	-8367
ste	-8368
teg	-8369
tel	-8370
urc	-8371
yed	-8372
zig	-8373
šam	-8374
ʾ),	-8375
ḫil	-8376
▁3:	-8377
▁53	-8378
▁58	-8379
▁5;	-8380
▁64	-8381
▁69	-8382
▁Br	-8383
▁Eh	-8384
▁Mi	-8385
▁Za	-8386
▁dw	-8387
▁li	-8388
▁sy	-8389
Make	-8390
addi	-8391
addî	-8392
bali	-8393
biya	-8394
dina	-8395
dinu	-8396
ecut	-8397
elle	-8398
ezes	-8399
marû	-8400
oded	-8401
ours	-8402
pale	-8403
pest	-8404
phor	-8405
ramu	-8406
reas	-8407
serv	-8408
take	-8409
ulli	-8410
unch	-8411
undu	-8412
ural	-8413
ušpa	-8414
were	-8415
zana	-8416
ēṭir	-8417
▁(71	-8418
▁130	-8419
▁160	-8420
▁95)	-8421
▁Ala	-8422
▁Eru	-8423
▁Gem	-8424
▁Kuz	-8425
▁Mus	-8426
▁Out	-8427
▁Qib	-8428
▁Rah	-8429
▁Sad	-8430
▁Sas	-8431
▁Sik	-8432
▁Taš	-8433
▁Tuḫ	-8434
▁Urb	-8435
▁Urk	-8436
▁Ušû	-8437
▁Zan	-8438
▁bif	-8439
▁bīt	-8440
▁dow	-8441
▁enl	-8442
▁fil	-8443
▁inn	-8444
▁kin	-8445
▁nin	-8446
▁tex	-8447
▁Ḫaz	-8448
Speak	-8449
While	-8450
acles	-8451
adows	-8452
amaya	-8453
aniba	-8454
asion	-8455
bitqi	-8456
cloth	-8457
court	-8458
ecess	-8459
erily	-8460
gines	-8461
ilanu	-8462
irred	-8463
isher	-8464
ketti	-8465
nadbi	-8466
phist	-8467
plete	-8468
prise	-8469
ruler	-8470
statu	-8471
suing	-8472
tabni	-8473
usāte	-8474
utely	-8475
šmarû	-8476
ṣabat	-8477
▁40')	-8478
▁5'')	-8479
▁700,	-8480
▁800,	-8481
▁Ammu	-8482
▁Amul	-8483
▁Būdi	-8484
▁Eris	-8485
▁Gold	-8486
▁Hand	-8487
▁Itti	-8488
▁Labd	-8489
▁Nann	-8490
▁Pars	-8491
▁Some	-8492
▁Tarh	-8493
▁Ukka	-8494
▁Yoke	-8495
▁Zerî	-8496
▁affl	-8497
▁appl	-8498
▁bone	-8499
▁bury	-8500
▁cage	-8501
▁char	-8502
▁cres	-8503
▁disl	-8504
▁drug	-8505
▁edge	-8506
▁exto	-8507
▁hunt	-8508
▁juni	-8509
▁kids	-8510
▁lone	-8511
▁mart	-8512
▁mēzu	-8513
▁nest	-8514
▁oust	-8515
▁popl	-8516
▁quot	-8517
▁ramp	-8518
▁rubb	-8519
▁sail	-8520
▁sank	-8521
▁scul	-8522
▁styl	-8523
▁Šumu	-8524
▁Šumâ	-8525
Undāsi	-8526
apping	-8527
column	-8528
divine	-8529
double	-8530
driver	-8531
elling	-8532
glazed	-8533
ibitti	-8534
idence	-8535
ighted	-8536
onical	-8537
onight	-8538
spread	-8539
though	-8540
▁Agade	-8541
▁Bēlat	-8542
▁Dummu	-8543
▁Eṭiru	-8544
▁Gambu	-8545
▁Grain	-8546
▁Guard	-8547
▁Hadad	-8548
▁Halzi	-8549
▁Mardî	-8550
▁Sukki	-8551
▁Sulum	-8552
▁Tasti	-8553
▁Ubaru	-8554
▁Whose	-8555
▁advis	-8556
▁arbit	-8557
▁armor	-8558
▁blasp	-8559
▁cakes	-8560
▁cones	-8561
▁contr	-8562
▁crack	-8563
▁crews	-8564
▁crops	-8565
▁diver	-8566
▁dread	-8567
▁emmer	-8568
▁hangs	-8569
▁haršu	-8570
▁ignor	-8571
▁invol	-8572
▁leeks	-8573
▁limbs	-8574
▁local	-8575
▁naked	-8576
▁ninth	-8577
▁pater	-8578
▁quite	-8579
▁ropes	-8580
▁skull	-8581
▁spect	-8582
▁stole	-8583
▁urudû	-8584
▁using	-8585
▁wield	-8586
▁wines	-8587
Amukāni	-8588
Tukultī	-8589
Whoever	-8590
ability	-8591
because	-8592
himself	-8593
iveness	-8594
joining	-8595
mušezib	-8596
napšati	-8597
ormally	-8598
rogated	-8599
vessels	-8600
▁Banaya	-8601
▁Banitu	-8602
▁Egipar	-8603
▁Eunuch	-8604
▁Gemini	-8605
▁Laḫīru	-8606
▁Mounts	-8607
▁Qumānu	-8608
▁Silver	-8609
▁Sirius	-8610
▁Teušpa	-8611
▁Uarbis	-8612
▁amphor	-8613
▁armory	-8614
▁arrest	-8615
▁bifurc	-8616
▁breath	-8617
▁burden	-8618
▁closed	-8619
▁commit	-8620
▁draped	-8621
▁eleven	-8622
▁embank	-8623
▁engine	-8624
▁eroded	-8625
▁execut	-8626
▁expend	-8627
▁feeder	-8628
▁grasps	-8629
▁hither	-8630
▁intact	-8631
▁jasper	-8632
▁ledges	-8633
▁prepar	-8634
▁recite	-8635
▁retrie	-8636
▁roamed	-8637
▁square	-8638
▁string	-8639
▁taught	-8640
▁tilled	-8641
▁unable	-8642
▁united	-8643
▁waging	-8644
festival	-8645
ightning	-8646
mušallim	-8647
province	-8648
suitable	-8649
▁Halahhu	-8650
▁Hinnumu	-8651
▁Issaran	-8652
▁Sumurzu	-8653
▁Tupliaš	-8654
▁anomaly	-8655
▁architr	-8656
▁beseech	-8657
▁consent	-8658
▁disband	-8659
▁eastern	-8660
▁engines	-8661
▁enlarge	-8662
▁enquire	-8663
▁exacted	-8664
▁existed	-8665
▁exposed	-8666
▁filling	-8667
▁foreman	-8668
▁husband	-8669
▁invoked	-8670
▁lacking	-8671
▁lineage	-8672
▁married	-8673
▁meadows	-8674
▁passing	-8675
▁revenge	-8676
▁slander	-8677
▁sophist	-8678
▁spirits	-8679
▁stretch	-8680
▁tempest	-8681
▁traitor	-8682
▁washing	-8683
▁Ḫubušna	-8684
Ummanigaš	-8685
Zarpanītu	-8686
dinutukua	-8687
officials	-8688
reviously	-8689
▁Ahhešaya	-8690
▁Hittites	-8691
▁Kummeans	-8692
▁Salamanu	-8693
▁Tastiate	-8694
▁Wherever	-8695
▁appeased	-8696
▁bestowed	-8697
▁carriage	-8698
▁ceremony	-8699
▁depleted	-8700
▁domestic	-8701
▁doorways	-8702
▁downfall	-8703
▁encamped	-8704
▁gateways	-8705
▁happened	-8706
▁investig	-8707
▁luminary	-8708
▁paternal	-8709
▁pondered	-8710
▁portents	-8711
▁portions	-8712
▁proclaim	-8713
▁quarried	-8714
▁recruits	-8715
▁suffered	-8716
▁sustains	-8717
▁treaties	-8718
▁trusting	-8719
▁vanquish	-8720
▁watering	-8721
▁Šibaniba	-8722
consisting	-8723
everything	-8724
favourable	-8725
šallimšunu	-8726
▁Ekišnugal	-8727
▁afflicted	-8728
▁answering	-8729
▁comprehen	-8730
▁conceived	-8731
▁conscript	-8732
▁creatures	-8733
▁deceitful	-8734
▁delegates	-8735
▁displayed	-8736
▁disregard	-8737
▁domestics	-8738
▁ecstatics	-8739
▁elephants	-8740
▁extracted	-8741
▁horseback	-8742
▁increased	-8743
▁mobilized	-8744
▁neighbour	-8745
▁pedestals	-8746
▁personnel	-8747
▁predecess	-8748
▁provision	-8749
▁relations	-8750
▁returning	-8751
▁safeguard	-8752
▁spectacle	-8753
▁undertake	-8754
Shalmaneser	-8755
▁Everything	-8756
▁absolutely	-8757
▁bodyguards	-8758
▁confidence	-8759
▁containers	-8760
▁embankment	-8761
▁entreaties	-8762
▁flourished	-8763
▁instituted	-8764
▁meadowland	-8765
▁petitioned	-8766
▁sacrificed	-8767
▁shepherded	-8768
▁thresholds	-8769
▁understand	-8770
▁unfaithful	-8771
▁wrongdoing	-8772
▁approaching	-8773
▁battlements	-8774
▁bifurcation	-8775
▁celebration	-8776
▁consecrated	-8777
▁destructive	-8778
▁interrupted	-8779
▁transported	-8780
▁Egašankalama	-8781
▁appurtenance	-8782
▁commissioned	-8783
▁Egašankalamma	-8784
▁pronouncement	-8785
▁sophisticated	-8786
▁wholeheartedly	-8787
!'	-8788
Aḫ	-8789
NN	-8790
Sa	-8791
bû	-8792
oi	-8793
wr	-8794
zâ	-8795
’-	-8796
600	-8797
Bit	-8798
Kud	-8799
Mar	-8800
Ukû	-8801
anš	-8802
fir	-8803
ibu	-8804
ika	-8805
ilî	-8806
isc	-8807
isi	-8808
ium	-8809
kil	-8810
leg	-8811
new	-8812
oll	-8813
oti	-8814
qus	-8815
ubi	-8816
urg	-8817
zaq	-8818
ēši	-8819
īsu	-8820
Šut	-8821
šap	-8822
ūna	-8823
▁2:	-8824
▁39	-8825
▁4,	-8826
▁5:	-8827
▁6,	-8828
▁81	-8829
▁Gi	-8830
▁Ia	-8831
▁aw	-8832
▁ps	-8833
▁Ši	-8834
▁“(	-8835
,150	-8836
Kari	-8837
Zabd	-8838
amme	-8839
come	-8840
corn	-8841
cruc	-8842
ells	-8843
ench	-8844
icle	-8845
iltu	-8846
immi	-8847
išhu	-8848
išti	-8849
lâma	-8850
memb	-8851
qamu	-8852
rate	-8853
ridu	-8854
rone	-8855
rook	-8856
rosy	-8857
ruth	-8858
sell	-8859
ugul	-8860
umaš	-8861
unnu	-8862
upap	-8863
ṣeri	-8864
▁190	-8865
▁Baq	-8866
▁Dag	-8867
▁Gag	-8868
▁Gid	-8869
▁Gub	-8870
▁Haz	-8871
▁Ili	-8872
▁Ish	-8873
▁Kad	-8874
▁Mam	-8875
▁Mas	-8876
▁Maḫ	-8877
▁Mid	-8878
▁Not	-8879
▁Pit	-8880
▁Qir	-8881
▁Rim	-8882
▁Sah	-8883
▁San	-8884
▁Tep	-8885
▁Yah	-8886
▁Yet	-8887
▁enc	-8888
▁gor	-8889
▁hab	-8890
▁kor	-8891
▁lip	-8892
▁mut	-8893
▁rus	-8894
▁sed	-8895
▁try	-8896
▁veh	-8897
▁Šap	-8898
▁Šim	-8899
Gyges	-8900
Iauta	-8901
abled	-8902
ahuṭu	-8903
allal	-8904
ammes	-8905
anūnu	-8906
argaz	-8907
augur	-8908
ayabi	-8909
aṣbat	-8910
bowls	-8911
child	-8912
elope	-8913
ended	-8914
erate	-8915
ested	-8916
fifth	-8917
first	-8918
heart	-8919
hurtu	-8920
icest	-8921
kigal	-8922
known	-8923
liest	-8924
lišhu	-8925
mannu	-8926
night	-8927
osing	-8928
piece	-8929
raved	-8930
stret	-8931
tiles	-8932
tment	-8933
ufact	-8934
ulara	-8935
uried	-8936
urina	-8937
zākir	-8938
šumma	-8939
▁(40)	-8940
▁(650	-8941
▁Amat	-8942
▁Ammi	-8943
▁Arzâ	-8944
▁Eliz	-8945
▁Erua	-8946
▁Giri	-8947
▁Haya	-8948
▁Hear	-8949
▁Hiri	-8950
▁Kaqq	-8951
▁Kašp	-8952
▁Kiss	-8953
▁Lanš	-8954
▁Over	-8955
▁Prov	-8956
▁Qiti	-8957
▁Talm	-8958
▁Unqi	-8959
▁Upon	-8960
▁boys	-8961
▁cups	-8962
▁dawn	-8963
▁deaf	-8964
▁doub	-8965
▁gain	-8966
▁gird	-8967
▁gore	-8968
▁hard	-8969
▁knew	-8970
▁marv	-8971
▁outs	-8972
▁oven	-8973
▁pith	-8974
▁plen	-8975
▁pānu	-8976
▁reck	-8977
▁resc	-8978
▁size	-8979
▁soot	-8980
▁span	-8981
▁thin	-8982
▁tray	-8983
▁trib	-8984
▁undo	-8985
▁unit	-8986
▁vass	-8987
▁wrap	-8988
Malaḫu	-8989
arrows	-8990
barley	-8991
broken	-8992
cluded	-8993
ential	-8994
estial	-8995
handed	-8996
inally	-8997
ission	-8998
labria	-8999
liness	-9000
natkil	-9001
paleya	-9002
queror	-9003
steeds	-9004
ummānu	-9005
ursion	-9006
uṣalla	-9007
▁(15')	-9008
▁1,200	-9009
▁Adasi	-9010
▁Attar	-9011
▁Booty	-9012
▁Dilil	-9013
▁Egall	-9014
▁Kalbi	-9015
▁Kapar	-9016
▁Kudur	-9017
▁Mouth	-9018
▁Ninev	-9019
▁Niqqu	-9020
▁Nēmed	-9021
▁Treas	-9022
▁Tummu	-9023
▁Which	-9024
▁Zabdî	-9025
▁bears	-9026
▁boxes	-9027
▁carts	-9028
▁chose	-9029
▁decre	-9030
▁drank	-9031
▁feast	-9032
▁flame	-9033
▁glory	-9034
▁grave	-9035
▁hides	-9036
▁ingen	-9037
▁insub	-9038
▁laden	-9039
▁legal	-9040
▁nests	-9041
▁paste	-9042
▁piles	-9043
▁pipes	-9044
▁psalm	-9045
▁qirsu	-9046
▁resin	-9047
▁robes	-9048
▁secre	-9049
▁socle	-9050
▁solar	-9051
▁spend	-9052
▁surve	-9053
▁swore	-9054
▁waist	-9055
▁youth	-9056
▁Šidir	-9057
▁Šulpa	-9058
Lebanon	-9059
Libbali	-9060
Naḫundu	-9061
Teumman	-9062
Zabdāni	-9063
cripted	-9064
figures	-9065
lifting	-9066
lâmašši	-9067
respect	-9068
▁Addaru	-9069
▁Asakku	-9070
▁Birati	-9071
▁Kubaba	-9072
▁Maliḫu	-9073
▁Mesean	-9074
▁Mišaru	-9075
▁Nisaba	-9076
▁Niḫanu	-9077
▁Second	-9078
▁Temple	-9079
▁Yahuṭu	-9080
▁apport	-9081
▁better	-9082
▁clothe	-9083
▁coated	-9084
▁compan	-9085
▁consol	-9086
▁corrid	-9087
▁darkly	-9088
▁deadly	-9089
▁depths	-9090
▁dinner	-9091
▁ešmarû	-9092
▁famous	-9093
▁freely	-9094
▁fuller	-9095
▁gorges	-9096
▁groves	-9097
▁impose	-9098
▁incess	-9099
▁junior	-9100
▁lackey	-9101
▁league	-9102
▁looted	-9103
▁motion	-9104
▁negoti	-9105
▁paving	-9106
▁plates	-9107
▁purify	-9108
▁pushed	-9109
▁ration	-9110
▁render	-9111
▁signet	-9112
▁spoils	-9113
▁subdue	-9114
▁suffer	-9115
▁suited	-9116
▁upward	-9117
▁valley	-9118
▁votive	-9119
▁warden	-9120
▁wastel	-9121
▁Šargaz	-9122
▁Ḫarutu	-9123
▁Ḫirimu	-9124
children	-9125
crucible	-9126
lessness	-9127
northern	-9128
▁Andaria	-9129
▁Chariot	-9130
▁Gutians	-9131
▁Ištaran	-9132
▁Lamassu	-9133
▁Marqasa	-9134
▁Meturna	-9135
▁Nisannu	-9136
▁Sulumal	-9137
▁Tarditu	-9138
▁Tepurzu	-9139
▁ability	-9140
▁affairs	-9141
▁ascends	-9142
▁clamped	-9143
▁cleaned	-9144
▁consult	-9145
▁content	-9146
▁cooking	-9147
▁defeats	-9148
▁donated	-9149
▁enabled	-9150
▁entrust	-9151
▁examine	-9152
▁gazelle	-9153
▁glorify	-9154
▁inaugur	-9155
▁insight	-9156
▁kurunnu	-9157
▁leprosy	-9158
▁oracles	-9159
▁papparm	-9160
▁promise	-9161
▁retired	-9162
▁robbers	-9163
▁sandals	-9164
▁sapping	-9165
▁several	-9166
▁sitting	-9167
▁thieves	-9168
▁thrived	-9169
▁torches	-9170
▁tremble	-9171
▁turning	-9172
▁uplands	-9173
▁vehicle	-9174
▁weavers	-9175
▁weighty	-9176
therefore	-9177
▁Borsippe	-9178
▁Ekallate	-9179
▁Ningirsu	-9180
▁artisans	-9181
▁choosing	-9182
▁consider	-9183
▁controll	-9184
▁crescent	-9185
▁cresting	-9186
▁declared	-9187
▁descends	-9188
▁deserved	-9189
▁designed	-9190
▁downward	-9191
▁earliest	-9192
▁figurine	-9193
▁finishes	-9194
▁goodness	-9195
▁improper	-9196
▁lamassus	-9197
▁likeness	-9198
▁maintain	-9199
▁manacles	-9200
▁manufact	-9201
▁mobilize	-9202
▁moreover	-9203
▁organize	-9204
▁punished	-9205
▁purified	-9206
▁rebuilds	-9207
▁rejoices	-9208
▁replicas	-9209
▁retiring	-9210
▁reviewed	-9211
▁saplišhu	-9212
▁supplies	-9213
▁weighing	-9214
▁Ereškigal	-9215
▁Guzummānu	-9216
▁Kaqqadanu	-9217
▁Otherwise	-9218
▁Sarrabānu	-9219
▁Tarḫulara	-9220
▁Treasurer	-9221
▁armchairs	-9222
▁blessings	-9223
▁carefully	-9224
▁community	-9225
▁consigned	-9226
▁conspired	-9227
▁cornfield	-9228
▁enclosure	-9229
▁engineers	-9230
▁everybody	-9231
▁excrement	-9232
▁exemption	-9233
▁expensive	-9234
▁forecourt	-9235
▁glorified	-9236
▁incursion	-9237
▁inhabited	-9238
▁judgement	-9239
▁plenitude	-9240
▁plentiful	-9241
▁remission	-9242
▁respected	-9243
▁reverence	-9244
▁revetment	-9245
▁thundered	-9246
▁traversed	-9247
▁Egallammes	-9248
▁additional	-9249
▁approaches	-9250
▁associates	-9251
▁colleagues	-9252
▁designated	-9253
▁disbanding	-9254
▁discontinu	-9255
▁disrespect	-9256
▁equivalent	-9257
▁faithfully	-9258
▁generation	-9259
▁jubilation	-9260
▁subjugated	-9261
▁sustenance	-9262
▁abandonment	-9263
▁conscripted	-9264
▁countenance	-9265
▁culmination	-9266
▁cultivating	-9267
▁deliberates	-9268
▁devastation	-9269
▁emplacement	-9270
▁expenditure	-9271
▁housekeeper	-9272
▁pomegranate	-9273
▁replacement	-9274
▁disobedience	-9275
▁interrogated	-9276
▁compassionate	-9277
▁grandchildren	-9278
▁inappropriate	-9279
▁insubordinate	-9280
)"	-9281
,5	-9282
/2	-9283
At	-9284
BI	-9285
Ha	-9286
ai	-9287
cy	-9288
eš	-9289
kī	-9290
pr	-9291
yn	-9292
zē	-9293
!,”	-9294
(!)	-9295
).”	-9296
.),	-9297
Abt	-9298
Ash	-9299
Ass	-9300
Lag	-9301
Rem	-9302
She	-9303
Tig	-9304
atī	-9305
aue	-9306
aše	-9307
dus	-9308
fam	-9309
han	-9310
hut	-9311
ico	-9312
iia	-9313
ipi	-9314
ipu	-9315
irâ	-9316
išt	-9317
jar	-9318
kki	-9319
mic	-9320
mir	-9321
mit	-9322
miš	-9323
nun	-9324
pta	-9325
qia	-9326
que	-9327
run	-9328
ugu	-9329
uha	-9330
ukl	-9331
uls	-9332
uqu	-9333
yps	-9334
īpu	-9335
īzu	-9336
▁'"	-9337
▁3-	-9338
▁57	-9339
▁Aq	-9340
▁Ku	-9341
▁Ly	-9342
▁Rā	-9343
▁Uz	-9344
▁gi	-9345
▁la	-9346
▁lā	-9347
▁Še	-9348
''')	-9349
Fear	-9350
Naḫḫ	-9351
Only	-9352
Star	-9353
ager	-9354
akil	-9355
ammû	-9356
appi	-9357
bust	-9358
cked	-9359
cued	-9360
emly	-9361
eons	-9362
have	-9363
iašu	-9364
ibar	-9365
imru	-9366
inct	-9367
iven	-9368
kala	-9369
kall	-9370
kumu	-9371
lain	-9372
mena	-9373
oint	-9374
omen	-9375
qaya	-9376
quis	-9377
ract	-9378
rahî	-9379
resp	-9380
rāmu	-9381
rītu	-9382
size	-9383
some	-9384
stri	-9385
such	-9386
tešî	-9387
ugal	-9388
ullu	-9389
unte	-9390
uous	-9391
uris	-9392
verb	-9393
ween	-9394
what	-9395
yata	-9396
ṣabi	-9397
▁1/6	-9398
▁11,	-9399
▁140	-9400
▁250	-9401
▁App	-9402
▁Arr	-9403
▁Aru	-9404
▁Dar	-9405
▁Gab	-9406
▁Ikk	-9407
▁Ion	-9408
▁Išt	-9409
▁Kim	-9410
▁Kiq	-9411
▁Kit	-9412
▁Lit	-9413
▁Mon	-9414
▁Nap	-9415
▁Nūr	-9416
▁Pab	-9417
▁Paq	-9418
▁Rap	-9419
▁Reg	-9420
▁Yab	-9421
▁abl	-9422
▁ago	-9423
▁bēt	-9424
▁cat	-9425
▁cry	-9426
▁fox	-9427
▁hem	-9428
▁mes	-9429
▁net	-9430
▁sum	-9431
▁tar	-9432
▁tot	-9433
Ladin	-9434
Matti	-9435
Venus	-9436
abbed	-9437
alter	-9438
anayu	-9439
colle	-9440
dugul	-9441
elous	-9442
grand	-9443
ibles	-9444
ilies	-9445
ilsag	-9446
inhab	-9447
išpak	-9448
kašid	-9449
kašir	-9450
kians	-9451
maker	-9452
odged	-9453
onded	-9454
osmic	-9455
power	-9456
qatar	-9457
quent	-9458
tašpi	-9459
uarri	-9460
ulliṭ	-9461
ulmaš	-9462
uriaš	-9463
zaqip	-9464
ṣarbi	-9465
▁(45)	-9466
▁(648	-9467
▁45')	-9468
▁Abdî	-9469
▁Acco	-9470
▁Baal	-9471
▁Badn	-9472
▁Badâ	-9473
▁Bani	-9474
▁Bitt	-9475
▁Cuts	-9476
▁Didî	-9477
▁Evil	-9478
▁Five	-9479
▁Fort	-9480
▁Hanî	-9481
▁Harm	-9482
▁Kašš	-9483
▁Kidm	-9484
▁Misu	-9485
▁Moon	-9486
▁Near	-9487
▁Padd	-9488
▁Path	-9489
▁Patu	-9490
▁Rear	-9491
▁Tamb	-9492
▁Ubur	-9493
▁Vill	-9494
▁Yadi	-9495
▁Zazî	-9496
▁arts	-9497
▁bell	-9498
▁cure	-9499
▁figs	-9500
▁fury	-9501
▁glow	-9502
▁grac	-9503
▁grou	-9504
▁hate	-9505
▁heat	-9506
▁jugs	-9507
▁kall	-9508
▁ladd	-9509
▁latt	-9510
▁lush	-9511
▁lyre	-9512
▁mark	-9513
▁mūgi	-9514
▁ours	-9515
▁pert	-9516
▁pier	-9517
▁prof	-9518
▁repl	-9519
▁sate	-9520
▁serp	-9521
▁stop	-9522
▁text	-9523
▁trap	-9524
▁tunn	-9525
▁twin	-9526
▁unto	-9527
▁wire	-9528
▁zamû	-9529
▁Ḫand	-9530
▁Ḫaya	-9531
Abtāni	-9532
Bunaki	-9533
Tongue	-9534
allaya	-9535
anyone	-9536
arepta	-9537
arture	-9538
atient	-9539
boards	-9540
cribes	-9541
ctions	-9542
family	-9543
follow	-9544
gidanu	-9545
ground	-9546
leaves	-9547
lifted	-9548
ounder	-9549
ources	-9550
ourish	-9551
plices	-9552
rained	-9553
strate	-9554
ulates	-9555
ummate	-9556
Ḫamban	-9557
▁20'')	-9558
▁30'')	-9559
▁Again	-9560
▁Ahunu	-9561
▁Bring	-9562
▁Brook	-9563
▁Const	-9564
▁Court	-9565
▁Cults	-9566
▁Hiram	-9567
▁Kulum	-9568
▁Makan	-9569
▁Makes	-9570
▁Midas	-9571
▁Papḫu	-9572
▁Sinqi	-9573
▁Taboo	-9574
▁Tarṣî	-9575
▁Ulaya	-9576
▁Under	-9577
▁Zikir	-9578
▁adult	-9579
▁apply	-9580
▁bount	-9581
▁color	-9582
▁cress	-9583
▁decor	-9584
▁defin	-9585
▁dowry	-9586
▁genie	-9587
▁giver	-9588
▁glass	-9589
▁guile	-9590
▁horde	-9591
▁kimru	-9592
▁kneel	-9593
▁labor	-9594
▁lived	-9595
▁lowly	-9596
▁meals	-9597
▁merry	-9598
▁mišhu	-9599
▁plate	-9600
▁plots	-9601
▁press	-9602
▁quota	-9603
▁refer	-9604
▁rocky	-9605
▁separ	-9606
▁ships	-9607
▁sling	-9608
▁smash	-9609
▁spade	-9610
▁story	-9611
▁tenth	-9612
▁touch	-9613
▁urine	-9614
▁valid	-9615
▁wagon	-9616
▁walks	-9617
▁wants	-9618
▁wound	-9619
▁šēdus	-9620
▁Ḫabur	-9621
▁Ḫupap	-9622
Because	-9623
Bunakki	-9624
Dargilâ	-9625
Pileser	-9626
Zualzaš	-9627
divided	-9628
elliger	-9629
endents	-9630
etrated	-9631
ionally	-9632
isterns	-9633
resides	-9634
service	-9635
statues	-9636
therein	-9637
through	-9638
tiliašu	-9639
ubuškia	-9640
ylinder	-9641
zigallu	-9642
▁20,000	-9643
▁Elugal	-9644
▁Indian	-9645
▁Irridu	-9646
▁Izirtu	-9647
▁Kaprid	-9648
▁Kissik	-9649
▁Kunaya	-9650
▁Liphur	-9651
▁Madanu	-9652
▁Qirbit	-9653
▁Tariba	-9654
▁Urzana	-9655
▁agannu	-9656
▁allure	-9657
▁bathed	-9658
▁befell	-9659
▁burial	-9660
▁cables	-9661
▁collar	-9662
▁comply	-9663
▁create	-9664
▁decare	-9665
▁domain	-9666
▁falcon	-9667
▁festiv	-9668
▁grooms	-9669
▁hauled	-9670
▁helped	-9671
▁helper	-9672
▁herons	-9673
▁humili	-9674
▁incite	-9675
▁insign	-9676
▁judges	-9677
▁ladies	-9678
▁parūtu	-9679
▁picked	-9680
▁pieces	-9681
▁prompt	-9682
▁quaked	-9683
▁raises	-9684
▁rescue	-9685
▁scream	-9686
▁sevent	-9687
▁snakes	-9688
▁storms	-9689
▁surely	-9690
▁thrive	-9691
▁timber	-9692
▁uproot	-9693
▁verily	-9694
▁widens	-9695
▁worthy	-9696
▁Šakkan	-9697
Mullissu	-9698
Naḫḫunte	-9699
normally	-9700
▁200,150	-9701
▁Between	-9702
▁Cilicia	-9703
▁Cypress	-9704
▁Dummuqu	-9705
▁Earlier	-9706
▁Ehursag	-9707
▁Haurina	-9708
▁Karibtu	-9709
▁Kidmuru	-9710
▁Ninagal	-9711
▁Remuttu	-9712
▁Samnuḫa	-9713
▁Sibitti	-9714
▁Surappu	-9715
▁Tambaya	-9716
▁Tašrītu	-9717
▁Urkittu	-9718
▁Village	-9719
▁accepts	-9720
▁aggress	-9721
▁amphora	-9722
▁anxious	-9723
▁applied	-9724
▁bellies	-9725
▁burning	-9726
▁chopped	-9727
▁confirm	-9728
▁consign	-9729
▁conspir	-9730
▁copious	-9731
▁daytime	-9732
▁desires	-9733
▁doorway	-9734
▁emblems	-9735
▁engaged	-9736
▁equally	-9737
▁extingu	-9738
▁fingers	-9739
▁fitting	-9740
▁friezes	-9741
▁godhead	-9742
▁honored	-9743
▁ladders	-9744
▁magnify	-9745
▁malaria	-9746
▁meaning	-9747
▁medical	-9748
▁misfort	-9749
▁nindanu	-9750
▁perpetu	-9751
▁pigeons	-9752
▁portico	-9753
▁proverb	-9754
▁quivers	-9755
▁rescued	-9756
▁secrets	-9757
▁slashed	-9758
▁stepped	-9759
▁storage	-9760
▁streams	-9761
▁subdues	-9762
▁tracker	-9763
▁unalter	-9764
▁wronged	-9765
departure	-9766
following	-9767
kuṣuranni	-9768
▁Entrance	-9769
▁Huzirina	-9770
▁Kuštašpi	-9771
▁Monument	-9772
▁Mulliltu	-9773
▁Ninevite	-9774
▁Pabilsag	-9775
▁allotted	-9776
▁apprehen	-9777
▁attained	-9778
▁bathroom	-9779
▁belliger	-9780
▁brightly	-9781
▁capturer	-9782
▁coloured	-9783
▁confront	-9784
▁counsell	-9785
▁covering	-9786
▁deputies	-9787
▁diverted	-9788
▁engraved	-9789
▁families	-9790
▁informer	-9791
▁moderate	-9792
▁outflows	-9793
▁portable	-9794
▁protects	-9795
▁receiver	-9796
▁reciting	-9797
▁resettle	-9798
▁scorpion	-9799
▁striding	-9800
▁textiles	-9801
▁trampler	-9802
▁virility	-9803
▁Ḫamatite	-9804
▁Ḫubuškia	-9805
▁Ḫupapanu	-9806
ifications	-9807
▁According	-9808
▁Enmešarra	-9809
▁Gidgidanu	-9810
▁Patušarri	-9811
▁Tabaleans	-9812
▁blockades	-9813
▁bountiful	-9814
▁breaching	-9815
▁campaigns	-9816
▁canebrake	-9817
▁carpenter	-9818
▁confusion	-9819
▁continued	-9820
▁converted	-9821
▁corridors	-9822
▁direction	-9823
▁dislodged	-9824
▁disturbed	-9825
▁fifteenth	-9826
▁harvested	-9827
▁marvelous	-9828
▁nominated	-9829
▁overnight	-9830
▁permanent	-9831
▁retreated	-9832
▁servitude	-9833
▁supervise	-9834
▁venerable	-9835
inhabitants	-9836
▁Favourable	-9837
▁Gambulians	-9838
▁Kaštiliašu	-9839
▁Kullimmeri	-9840
▁Previously	-9841
▁administer	-9842
▁burzigallu	-9843
▁cavalryman	-9844
▁ceremonial	-9845
▁ceremonies	-9846
▁collecting	-9847
▁commission	-9848
▁completion	-9849
▁consummate	-9850
▁enterprise	-9851
▁exuberance	-9852
▁favourably	-9853
▁incomplete	-9854
▁ordinances	-9855
▁papparmīnu	-9856
▁polyptychs	-9857
▁subdivided	-9858
▁thereafter	-9859
▁unsuitable	-9860
▁Borsippeans	-9861
▁accomplices	-9862
▁apportioned	-9863
▁architraves	-9864
▁chamberlain	-9865
▁disobedient	-9866
▁seventeenth	-9867
▁tempestuous	-9868
▁transferred	-9869
▁unalterable	-9870
▁Kapridargilâ	-9871
▁communicated	-9872
▁discontinued	-9873
▁inauguration	-9874
▁prolongation	-9875
▁transgresses	-9876
▁transporting	-9877
▁exceptionally	-9878
('	-9879
.5	-9880
/6	-9881
07	-9882
2,	-9883
?)	-9884
Ad	-9885
Ag	-9886
GA	-9887
PN	-9888
RA	-9889
Tū	-9890
ef	-9891
qî	-9892
qû	-9893
sa	-9894
sâ	-9895
yp	-9896
šâ	-9897
šā	-9898
šē	-9899
ʾʾ	-9900
ḫī	-9901
’,	-9902
-50	-9903
2).	-9904
▁	-9905
e	-9906
t	-9907
a	-9908
o	-9909
n	-9910
i	-9911
r	-9912
h	-9913
s	-9914
d	-9915
l	-9916
u	-9917
m	-9918
f	-9919
,	-9920
.	-9921
g	-9922
y	-9923
c	-9924
p	-9925
w	-9926
b	-9927
k	-9928
v	-9929
)	-9930
(	-9931
I	-9932
-	-9933
š	-9934
A	-9935
N	-9936
T	-9937
;	-9938
M	-9939
:	-9940
W	-9941
'	-9942
B	-9943
S	-9944
1	-9945
x	-9946
0	-9947
E	-9948
"	-9949
q	-9950
û	-9951
!	-9952
H	-9953
Š	-9954
z	-9955
2	-9956
D	-9957
—	-9958
G	-9959
j	-9960
5	-9961
K	-9962
ī	-9963
L	-9964
ā	-9965
U	-9966
ṣ	-9967
?	-9968
C	-9969
3	-9970
P	-9971
4	-9972
î	-9973
ḫ	-9974
F	-9975
R	-9976
O	-9977
“	-9978
Y	-9979
”	-9980
6	-9981
ē	-9982
Ḫ	-9983
ū	-9984
ṭ	-9985
Z	-9986
V	-9987
7	-9988
8	-9989
â	-9990
ʾ	-9991
/	-9992
’	-9993
9	-9994
Q	-9995
X	-9996
