<unk>	0
<s>	0
</s>	0
▁t	-0
he	-1
▁the	-2
▁o	-3
in	-4
an	-5
▁of	-6
and	-7
er	-8
▁s	-9
▁w	-10
▁m	-11
it	-12
re	-13
▁a	-14
ing	-15
or	-16
▁(	-17
on	-18
▁l	-19
▁h	-20
is	-21
ar	-22
▁c	-23
es	-24
ed	-25
at	-26
▁b	-27
en	-28
ou	-29
▁f	-30
▁and	-31
▁g	-32
▁I	-33
al	-34
▁p	-35
▁to	-36
▁d	-37
▁k	-38
▁king	-39
▁A	-40
il	-41
▁in	-42
..	-43
...	-44
▁my	-45
ur	-46
▁...	-47
ro	-48
ad	-49
ord	-50
ay	-51
▁go	-52
ri	-53
▁T	-54
le	-55
▁wh	-56
as	-57
▁lord	-58
▁he	-59
ab	-60
▁N	-61
ce	-62
am	-63
▁n	-64
el	-65
ver	-66
▁th	-67
▁y	-68
▁his	-69
th	-70
ir	-71
▁M	-72
ess	-73
▁be	-74
ent	-75
om	-76
id	-77
▁re	-78
ve	-79
▁god	-80
ot	-81
im	-82
▁e	-83
▁you	-84
▁W	-85
▁is	-86
▁The	-87
▁it	-88
ill	-89
ith	-90
the	-91
ic	-92
ion	-93
▁on	-94
un	-95
se	-96
▁for	-97
▁who	-98
ss	-99
st	-100
▁land	-101
▁B	-102
ld	-103
▁with	-104
ard	-105
ow	-106
ut	-107
▁S	-108
ul	-109
et	-110
gh	-111
ity	-112
all	-113
▁me	-114
▁1	-115
ac	-116
▁st	-117
rom	-118
ant	-119
▁E	-120
šš	-121
▁an	-122
ness	-123
ak	-124
▁will	-125
ššur	-126
ght	-127
od	-128
▁or	-129
itness	-130
ers	-131
▁sh	-132
▁as	-133
▁Witness	-134
ap	-135
▁that	-136
ple	-137
▁your	-138
oun	-139
▁not	-140
est	-141
▁Aššur	-142
reat	-143
▁al	-144
ct	-145
ru	-146
▁their	-147
▁from	-148
ain	-149
ave	-150
▁com	-151
um	-152
▁city	-153
▁them	-154
▁se	-155
▁,	-156
▁him	-157
abû	-158
up	-159
),	-160
em	-161
ace	-162
▁Ass	-163
▁H	-164
▁day	-165
▁Š	-166
▁gods	-167
▁Nabû	-168
iv	-169
ag	-170
▁they	-171
▁pl	-172
▁had	-173
▁great	-174
▁are	-175
▁con	-176
qu	-177
ig	-178
ore	-179
aš	-180
▁son	-181
yri	-182
▁Assyri	-183
▁—	-184
ich	-185
us	-186
▁have	-187
ep	-188
▁D	-189
uk	-190
ch	-191
ly	-192
▁which	-193
ation	-194
▁r	-195
ther	-196
▁Assyria	-197
to	-198
ear	-199
erv	-200
ip	-201
▁"	-202
▁one	-203
if	-204
▁all	-205
▁serv	-206
▁G	-207
▁its	-208
▁v	-209
res	-210
▁has	-211
▁pe	-212
▁2	-213
one	-214
ter	-215
ive	-216
ate	-217
ount	-218
▁servant	-219
▁de	-220
▁ch	-221
ong	-222
▁at	-223
ine	-224
av	-225
ell	-226
ame	-227
ople	-228
wn	-229
▁K	-230
▁up	-231
ies	-232
▁people	-233
▁U	-234
▁she	-235
▁May	-236
her	-237
ood	-238
ke	-239
our	-240
▁ab	-241
▁If	-242
pp	-243
arduk	-244
▁un	-245
der	-246
▁shall	-247
ub	-248
▁br	-249
rib	-250
▁ex	-251
ge	-252
ors	-253
te	-254
ted	-255
▁L	-256
▁en	-257
▁by	-258
▁do	-259
ould	-260
out	-261
▁He	-262
▁Šam	-263
▁pro	-264
ann	-265
▁C	-266
urn	-267
▁ro	-268
able	-269
ade	-270
ah	-271
ol	-272
ib	-273
▁pr	-274
alace	-275
▁'	-276
▁Marduk	-277
os	-278
▁P	-279
ure	-280
▁sp	-281
▁wor	-282
▁NN	-283
▁this	-284
▁Šamaš	-285
▁was	-286
fore	-287
▁made	-288
▁off	-289
ight	-290
▁dis	-291
end	-292
▁To	-293
▁we	-294
▁over	-295
▁there	-296
dad	-297
ated	-298
▁bl	-299
hed	-300
▁out	-301
ide	-302
ought	-303
▁sil	-304
▁may	-305
).	-306
▁before	-307
▁am	-308
ans	-309
ous	-310
▁In	-311
▁silver	-312
ouse	-313
ie	-314
ound	-315
▁ins	-316
▁comm	-317
▁min	-318
ire	-319
ign	-320
▁bec	-321
▁3	-322
▁ag	-323
▁ar	-324
tar	-325
itto	-326
▁year	-327
ty	-328
aid	-329
▁whe	-330
II	-331
▁so	-332
ment	-333
▁mo	-334
art	-335
su	-336
ere	-337
alth	-338
ake	-339
onth	-340
oin	-341
ari	-342
yl	-343
▁x	-344
reg	-345
for	-346
▁ent	-347
▁health	-348
ered	-349
▁command	-350
ylon	-351
abylon	-352
▁“	-353
ince	-354
sh	-355
▁about	-356
▁Bel	-357
▁qu	-358
▁;	-359
▁An	-360
▁ditto	-361
▁palace	-362
ck	-363
ho	-364
▁Iš	-365
vern	-366
▁say	-367
ast	-368
▁should	-369
rit	-370
▁again	-371
▁F	-372
▁le	-373
▁man	-374
ons	-375
own	-376
▁O	-377
▁sheep	-378
ect	-379
▁R	-380
ities	-381
ike	-382
ance	-383
them	-384
▁app	-385
▁Babylon	-386
▁Ar	-387
of	-388
aw	-389
ps	-390
ull	-391
▁govern	-392
▁per	-393
▁Ištar	-394
▁ad	-395
ok	-396
▁Adad	-397
uṣ	-398
▁house	-399
▁El	-400
▁j	-401
▁let	-402
▁moon	-403
att	-404
▁gr	-405
▁fl	-406
rote	-407
ands	-408
▁wrote	-409
▁brought	-410
▁set	-411
▁5	-412
ning	-413
▁tem	-414
▁pres	-415
uil	-416
ry	-417
yal	-418
▁like	-419
▁against	-420
ice	-421
▁div	-422
▁co	-423
ome	-424
▁ac	-425
▁place	-426
▁lo	-427
▁come	-428
form	-429
ings	-430
▁10	-431
šar	-432
ence	-433
▁tim	-434
tu	-435
▁Good	-436
din	-437
ort	-438
▁well	-439
ud	-440
uṣur	-441
▁cro	-442
▁did	-443
▁whom	-444
▁mount	-445
▁were	-446
pt	-447
▁enem	-448
▁prince	-449
▁into	-450
au	-451
kk	-452
▁cities	-453
eld	-454
▁Y	-455
ra	-456
▁royal	-457
▁ri	-458
orses	-459
ens	-460
▁governor	-461
▁temple	-462
▁cont	-463
▁They	-464
dess	-465
▁gold	-466
▁bless	-467
ress	-468
very	-469
▁wat	-470
gether	-471
▁Ḫ	-472
▁lands	-473
▁fi	-474
ather	-475
▁Es	-476
▁4	-477
ony	-478
▁time	-479
▁world	-480
▁whose	-481
ta	-482
▁goddess	-483
▁good	-484
▁horses	-485
ult	-486
▁name	-487
▁can	-488
šum	-489
▁As	-490
ack	-491
age	-492
▁down	-493
ose	-494
▁tro	-495
▁ne	-496
▁sent	-497
app	-498
ite	-499
▁Ur	-500
▁bro	-501
▁writ	-502
▁upon	-503
cer	-504
ions	-505
pl	-506
▁divin	-507
my	-508
ops	-509
iz	-510
crib	-511
▁plac	-512
▁no	-513
unu	-514
▁what	-515
▁Elam	-516
▁mountain	-517
ish	-518
▁together	-519
red	-520
ban	-521
▁troops	-522
ife	-523
▁str	-524
iver	-525
▁minas	-526
▁see	-527
ious	-528
per	-529
▁tw	-530
regard	-531
bel	-532
▁give	-533
▁pre	-534
▁thr	-535
▁Dis	-536
▁ret	-537
▁bo	-538
veh	-539
▁des	-540
▁Nine	-541
▁Disregard	-542
lit	-543
▁divinity	-544
ial	-545
ariot	-546
ust	-547
▁Nineveh	-548
▁im	-549
▁men	-550
▁any	-551
▁buil	-552
▁chariot	-553
▁kn	-554
ft	-555
gal	-556
lil	-557
▁our	-558
▁ep	-559
▁days	-560
▁Z	-561
uard	-562
ind	-563
man	-564
▁kings	-565
▁own	-566
ath	-567
▁En	-568
▁ext	-569
ates	-570
ase	-571
ist	-572
▁return	-573
▁epony	-574
arri	-575
▁perform	-576
▁fav	-577
arh	-578
ief	-579
urta	-580
▁field	-581
cerning	-582
00	-583
ass	-584
▁sons	-585
add	-586
nu	-587
▁send	-588
▁been	-589
▁Akk	-590
ger	-591
hen	-592
▁work	-593
attle	-594
▁father	-595
▁brother	-596
▁On	-597
▁make	-598
▁cl	-599
▁Now	-600
▁est	-601
▁lit	-602
▁crown	-603
▁fe	-604
suit	-605
▁conqu	-606
▁month	-607
ched	-608
▁sub	-609
▁mess	-610
▁fir	-611
hes	-612
ii	-613
oney	-614
▁dist	-615
▁Month	-616
▁Se	-617
▁her	-618
▁become	-619
▁strong	-620
addon	-621
arhaddon	-622
▁fort	-623
awsuit	-624
ais	-625
▁bre	-626
▁Akkad	-627
mu	-628
▁placed	-629
pa	-630
way	-631
ares	-632
ments	-633
▁Esarhaddon	-634
iš	-635
fter	-636
ail	-637
be	-638
▁comple	-639
pos	-640
▁cap	-641
sel	-642
▁lawsuit	-643
▁mar	-644
▁know	-645
▁said	-646
▁took	-647
▁but	-648
iss	-649
▁cam	-650
osit	-651
▁enemy	-652
ār	-653
iddin	-654
▁town	-655
▁count	-656
5)	-657
▁res	-658
ergal	-659
▁sun	-660
▁favor	-661
▁saying	-662
led	-663
▁Enlil	-664
▁dest	-665
anni	-666
du	-667
▁us	-668
▁bri	-669
ach	-670
▁heav	-671
ki	-672
inurta	-673
itu	-674
▁built	-675
▁ter	-676
az	-677
▁def	-678
▁reg	-679
ely	-680
aya	-681
īt	-682
▁From	-683
ni	-684
."	-685
▁giv	-686
ship	-687
▁chief	-688
unuch	-689
its	-690
▁life	-691
▁eponym	-692
▁dec	-693
▁battle	-694
▁bel	-695
▁eunuch	-696
anu	-697
ssar	-698
▁came	-699
▁-	-700
▁Let	-701
▁ho	-702
▁Nergal	-703
els	-704
▁two	-705
▁6	-706
▁rem	-707
▁col	-708
mer	-709
▁pers	-710
▁wom	-711
')	-712
▁found	-713
thing	-714
▁far	-715
▁heart	-716
lean	-717
ov	-718
ku	-719
▁gave	-720
▁dep	-721
▁long	-722
▁order	-723
▁offer	-724
▁scrib	-725
tal	-726
▁word	-727
ever	-728
ruct	-729
ya	-730
ird	-731
ody	-732
▁spe	-733
ary	-734
▁acc	-735
▁conquered	-736
ten	-737
de	-738
so	-739
▁adj	-740
other	-741
▁wall	-742
▁when	-743
▁messen	-744
▁tr	-745
Aššur	-746
▁left	-747
iddina	-748
0)	-749
▁sup	-750
▁Th	-751
▁now	-752
▁fore	-753
pe	-754
▁Bīt	-755
▁total	-756
oining	-757
▁sw	-758
port	-759
▁money	-760
oke	-761
▁away	-762
annu	-763
▁pur	-764
ished	-765
▁four	-766
▁prov	-767
▁har	-768
As	-769
▁adjoining	-770
▁water	-771
ick	-772
▁might	-773
cl	-774
me	-775
ars	-776
▁Con	-777
ough	-778
▁feet	-779
▁mina	-780
în	-781
ards	-782
urban	-783
ged	-784
The	-785
▁Ab	-786
▁att	-787
ia	-788
aught	-789
▁presence	-790
ipal	-791
ile	-792
▁hect	-793
▁ask	-794
ute	-795
▁tre	-796
urbanipal	-797
ady	-798
šumu	-799
▁appoin	-800
▁foundation	-801
ied	-802
▁sur	-803
▁throne	-804
umb	-805
▁those	-806
▁scribe	-807
▁hands	-808
▁under	-809
▁rest	-810
hal	-811
šarru	-812
▁present	-813
▁Q	-814
▁pri	-815
uš	-816
▁const	-817
wer	-818
self	-819
▁When	-820
▁capt	-821
▁Sîn	-822
urned	-823
lu	-824
▁inside	-825
▁Concerning	-826
this	-827
ened	-828
arr	-829
ful	-830
rac	-831
▁ox	-832
uri	-833
ired	-834
▁You	-835
▁rul	-836
▁happ	-837
roy	-838
▁ru	-839
▁bow	-840
▁At	-841
▁ev	-842
▁very	-843
▁carri	-844
▁sold	-845
▁destroy	-846
▁firm	-847
▁vice	-848
▁Palace	-849
fic	-850
▁su	-851
igation	-852
are	-853
regent	-854
▁unc	-855
▁these	-856
ian	-857
ased	-858
ents	-859
orn	-860
▁gl	-861
▁ear	-862
▁pray	-863
ts	-864
arge	-865
inger	-866
▁7	-867
pic	-868
▁Who	-869
▁pay	-870
▁put	-871
fect	-872
▁ans	-873
▁messenger	-874
▁ob	-875
▁tru	-876
▁mid	-877
▁whether	-878
▁Mount	-879
▁servants	-880
ree	-881
ces	-882
who	-883
▁then	-884
con	-885
▁went	-886
na	-887
een	-888
ahhe	-889
ti	-890
▁guard	-891
ēl	-892
atu	-893
▁does	-894
▁contrac	-895
▁unclean	-896
uture	-897
▁hectares	-898
pper	-899
▁Ah	-900
Adad	-901
▁side	-902
▁kill	-903
▁sett	-904
▁future	-905
▁favorable	-906
▁litigation	-907
well	-908
▁old	-909
▁table	-910
hy	-911
ats	-912
ower	-913
then	-914
▁tal	-915
▁weap	-916
▁defe	-917
▁posit	-918
under	-919
und	-920
▁bring	-921
▁entire	-922
ject	-923
▁written	-924
til	-925
eep	-926
▁cut	-927
▁brick	-928
▁po	-929
enn	-930
row	-931
▁hand	-932
▁other	-933
ribute	-934
▁heaven	-935
ache	-936
acherib	-937
ennacherib	-938
▁answer	-939
outh	-940
ng	-941
▁seen	-942
cri	-943
▁stre	-944
▁hear	-945
▁take	-946
▁right	-947
!"	-948
iq	-949
med	-950
ory	-951
oty	-952
▁rece	-953
▁commander	-954
abl	-955
ise	-956
ron	-957
ayu	-958
▁ram	-959
▁army	-960
▁back	-961
▁given	-962
ani	-963
▁20	-964
▁nor	-965
ispic	-966
li	-967
arru	-968
▁Ninurta	-969
▁booty	-970
▁carried	-971
▁tribute	-972
▁extispic	-973
▁plunder	-974
▁dr	-975
▁extispicy	-976
▁gar	-977
▁Sennacherib	-978
ānu	-979
▁Ash	-980
cript	-981
▁8	-982
▁Sin	-983
▁oil	-984
ks	-985
ceed	-986
ured	-987
▁rev	-988
bela	-989
▁Arbela	-990
ale	-991
▁keep	-992
▁after	-993
▁lords	-994
ll	-995
▁being	-996
▁where	-997
▁Be	-998
alled	-999
rict	-1000
▁heard	-1001
▁Assurbanipal	-1002
ili	-1003
▁every	-1004
▁also	-1005
▁gate	-1006
erc	-1007
▁sm	-1008
▁complet	-1009
bi	-1010
sp	-1011
round	-1012
III	-1013
ived	-1014
▁oxen	-1015
men	-1016
▁fo	-1017
▁inc	-1018
▁30	-1019
?"	-1020
▁shek	-1021
▁Will	-1022
▁inscript	-1023
oy	-1024
▁surround	-1025
▁cour	-1026
ible	-1027
▁estate	-1028
▁Whoever	-1029
▁pass	-1030
Issar	-1031
▁road	-1032
▁seah	-1033
low	-1034
issu	-1035
▁tak	-1036
▁district	-1037
mb	-1038
ives	-1039
quired	-1040
”)	-1041
▁reign	-1042
igh	-1043
▁orac	-1044
▁country	-1045
▁mountains	-1046
ams	-1047
aps	-1048
▁brothers	-1049
▁Ad	-1050
aḫ	-1051
▁inst	-1052
inu	-1053
▁We	-1054
eser	-1055
ular	-1056
ians	-1057
▁ass	-1058
▁hal	-1059
▁without	-1060
▁ten	-1061
▁dwell	-1062
▁owner	-1063
▁resid	-1064
▁copper	-1065
▁person	-1066
▁sl	-1067
omes	-1068
umer	-1069
▁among	-1070
▁daught	-1071
▁univer	-1072
▁weapons	-1073
cc	-1074
eds	-1075
his	-1076
old	-1077
ṣir	-1078
being	-1079
herd	-1080
▁body	-1081
▁seal	-1082
▁mouth	-1083
▁speak	-1084
▁priest	-1085
▁cult	-1086
▁mighty	-1087
▁enemies	-1088
▁completely	-1089
ring	-1090
▁becomes	-1091
▁mag	-1092
▁head	-1093
▁kingship	-1094
▁destroyed	-1095
ause	-1096
▁paid	-1097
▁belong	-1098
▁15	-1099
ront	-1100
▁here	-1101
▁universe	-1102
cted	-1103
▁years	-1104
ew	-1105
ug	-1106
pherd	-1107
▁surrounded	-1108
▁sac	-1109
guard	-1110
▁garments	-1111
ants	-1112
▁through	-1113
):	-1114
▁op	-1115
ches	-1116
▁woman	-1117
▁dispos	-1118
ipp	-1119
▁Seal	-1120
▁Mannu	-1121
▁earth	-1122
▁magn	-1123
▁watch	-1124
▁shepherd	-1125
▁if	-1126
▁received	-1127
▁fa	-1128
▁vis	-1129
▁Mull	-1130
▁gard	-1131
▁wine	-1132
▁front	-1133
▁purch	-1134
cend	-1135
▁dev	-1136
▁establ	-1137
di	-1138
oc	-1139
▁dil	-1140
▁glad	-1141
▁reb	-1142
idated	-1143
ressed	-1144
▁yoke	-1145
apidated	-1146
ix	-1147
ḫu	-1148
wor	-1149
▁rais	-1150
arters	-1151
arg	-1152
▁tow	-1153
▁large	-1154
▁dilapidated	-1155
▁disposal	-1156
▁With	-1157
ner	-1158
▁sc	-1159
posed	-1160
▁vill	-1161
▁Mullissu	-1162
▁evil	-1163
▁river	-1164
▁quarters	-1165
▁design	-1166
▁treat	-1167
▁entered	-1168
▁sing	-1169
▁sacri	-1170
▁stand	-1171
ollow	-1172
▁became	-1173
▁purchased	-1174
▁mak	-1175
▁talents	-1176
▁acquired	-1177
iba	-1178
000	-1179
iii	-1180
otal	-1181
perty	-1182
ery	-1183
ves	-1184
▁opp	-1185
▁inscrib	-1186
▁1,	-1187
▁gif	-1188
Marduk	-1189
▁bought	-1190
▁14	-1191
ven	-1192
▁numb	-1193
▁night	-1194
whe	-1195
▁enter	-1196
▁contracted	-1197
▁Am	-1198
▁marched	-1199
iled	-1200
▁Total	-1201
▁imposed	-1202
▁inscribed	-1203
ally	-1204
▁shekels	-1205
▁)	-1206
ved	-1207
▁beer	-1208
▁conf	-1209
▁Bēl	-1210
▁hom	-1211
▁turned	-1212
▁offerings	-1213
ik	-1214
▁small	-1215
▁follow	-1216
▁bodyguard	-1217
ša	-1218
uring	-1219
ue	-1220
dle	-1221
ites	-1222
▁until	-1223
.'	-1224
ank	-1225
▁write	-1226
▁ple	-1227
▁Na	-1228
▁rec	-1229
▁red	-1230
▁just	-1231
▁captured	-1232
▁Any	-1233
▁bar	-1234
▁fled	-1235
▁sacrific	-1236
▁anc	-1237
▁dri	-1238
▁prev	-1239
▁cross	-1240
als	-1241
ītu	-1242
▁And	-1243
▁Anu	-1244
▁cub	-1245
▁would	-1246
▁visible	-1247
ws	-1248
miss	-1249
with	-1250
allim	-1251
▁seed	-1252
ze	-1253
amm	-1254
▁Eg	-1255
▁River	-1256
ced	-1257
oid	-1258
▁aband	-1259
▁ir	-1260
▁don	-1261
nār	-1262
ārī	-1263
over	-1264
▁eat	-1265
nārārī	-1266
▁stands	-1267
▁For	-1268
▁tou	-1269
antly	-1270
▁best	-1271
▁abandon	-1272
wh	-1273
▁performed	-1274
adi	-1275
▁It	-1276
▁many	-1277
▁number	-1278
ges	-1279
ders	-1280
▁void	-1281
ley	-1282
ones	-1283
▁fear	-1284
amb	-1285
min	-1286
hort	-1287
▁Esag	-1288
▁cohort	-1289
-...	-1290
▁case	-1291
▁happy	-1292
arṭ	-1293
gin	-1294
▁seiz	-1295
▁himself	-1296
▁Is	-1297
ulty	-1298
▁Bit	-1299
▁(...	-1300
▁bread	-1301
īn	-1302
bat	-1303
eru	-1304
ict	-1305
ock	-1306
ction	-1307
▁taken	-1308
▁positive	-1309
▁plundered	-1310
▁Il	-1311
▁query	-1312
iri	-1313
off	-1314
▁sk	-1315
▁add	-1316
ified	-1317
▁chan	-1318
▁mine	-1319
▁Urarṭ	-1320
▁:	-1321
ati	-1322
edar	-1323
ocation	-1324
ana	-1325
key	-1326
▁fire	-1327
▁goes	-1328
▁inter	-1329
▁object	-1330
ark	-1331
ilu	-1332
ition	-1333
▁Gate	-1334
▁Sumer	-1335
ild	-1336
▁Te	-1337
▁ma	-1338
▁Bal	-1339
▁cor	-1340
▁treaty	-1341
▁revocation	-1342
▁cent	-1343
▁middle	-1344
▁property	-1345
uty	-1346
ored	-1347
▁wife	-1348
);	-1349
▁way	-1350
third	-1351
vest	-1352
▁sea	-1353
arp	-1354
bal	-1355
aster	-1356
▁star	-1357
▁terr	-1358
▁driver	-1359
oved	-1360
▁bull	-1361
▁each	-1362
▁village	-1363
▁concerning	-1364
da	-1365
ma	-1366
ater	-1367
▁Mar	-1368
▁poss	-1369
ared	-1370
halman	-1371
▁offic	-1372
ash	-1373
▁Wh	-1374
▁die	-1375
atter	-1376
akk	-1377
▁ren	-1378
▁grands	-1379
▁tablet	-1380
halmaneser	-1381
▁mu	-1382
▁del	-1383
argon	-1384
▁garden	-1385
▁belonging	-1386
▁established	-1387
šu	-1388
clip	-1389
eriba	-1390
▁faulty	-1391
▁homers	-1392
▁lordly	-1393
▁anything	-1394
belu	-1395
head	-1396
iness	-1397
paign	-1398
▁camp	-1399
▁There	-1400
▁knows	-1401
▁cubits	-1402
▁support	-1403
▁campaign	-1404
ff	-1405
▁9	-1406
abu	-1407
▁By	-1408
▁treas	-1409
▁descend	-1410
'-	-1411
sted	-1412
ules	-1413
▁bord	-1414
▁eclip	-1415
▁flood	-1416
▁mother	-1417
▁raised	-1418
▁fortress	-1419
ez	-1420
ier	-1421
les	-1422
ung	-1423
ibni	-1424
land	-1425
▁lady	-1426
ations	-1427
▁appear	-1428
▁barley	-1429
▁offering	-1430
ila	-1431
▁12	-1432
,000	-1433
▁suc	-1434
▁must	-1435
▁part	-1436
▁pleas	-1437
▁Sargon	-1438
▁killed	-1439
▁sending	-1440
▁succeed	-1441
zu	-1442
aves	-1443
▁fri	-1444
▁top	-1445
▁cedar	-1446
▁defeat	-1447
▁saw	-1448
▁look	-1449
▁rain	-1450
▁ancest	-1451
la	-1452
▁Ea	-1453
▁After	-1454
▁appro	-1455
▁mules	-1456
▁queen	-1457
▁ruler	-1458
▁three	-1459
▁women	-1460
▁accord	-1461
fold	-1462
ides	-1463
▁Nis	-1464
▁maj	-1465
▁That	-1466
▁ritu	-1467
▁Dur	-1468
▁Issar	-1469
▁creat	-1470
▁Shalmaneser	-1471
.”	-1472
ina	-1473
ient	-1474
▁bricks	-1475
▁possess	-1476
▁construct	-1477
▁Ub	-1478
haps	-1479
▁persons	-1480
▁lap	-1481
ument	-1482
▁returned	-1483
ech	-1484
▁1/	-1485
eans	-1486
usku	-1487
▁joy	-1488
▁told	-1489
▁anoin	-1490
▁constantly	-1491
Nabû	-1492
▁lead	-1493
▁ordin	-1494
▁oracle	-1495
▁eclipse	-1496
ereš	-1497
▁Tig	-1498
▁ref	-1499
▁contest	-1500
kur	-1501
ove	-1502
▁along	-1503
yy	-1504
ken	-1505
ris	-1506
uru	-1507
wood	-1508
▁Per	-1509
▁cup	-1510
▁equ	-1511
world	-1512
▁high	-1513
finger	-1514
Ninurta	-1515
▁within	-1516
▁nob	-1517
▁list	-1518
▁stay	-1519
▁than	-1520
▁comes	-1521
▁settle	-1522
▁dressed	-1523
▁God	-1524
▁exal	-1525
ašm	-1526
ead	-1527
inc	-1528
alah	-1529
▁another	-1530
▁prefect	-1531
aks	-1532
ped	-1533
ypt	-1534
ṭir	-1535
▁live	-1536
▁words	-1537
▁tenfold	-1538
▁completed	-1539
ages	-1540
pect	-1541
atever	-1542
▁follows	-1543
▁ancestors	-1544
day	-1545
ined	-1546
ukult	-1547
▁ordinary	-1548
ines	-1549
ached	-1550
▁Egypt	-1551
ily	-1552
uth	-1553
▁100	-1554
halde	-1555
▁bear	-1556
▁pure	-1557
▁Chalde	-1558
▁fields	-1559
▁account	-1560
▁All	-1561
▁Nisan	-1562
▁donkey	-1563
▁abandoned	-1564
▁governors	-1565
ific	-1566
▁nam	-1567
▁first	-1568
▁rever	-1569
▁fortified	-1570
ahu	-1571
▁Zab	-1572
illed	-1573
▁bron	-1574
▁prote	-1575
▁exalted	-1576
▁chariots	-1577
▁grandsons	-1578
utu	-1579
cept	-1580
anted	-1581
▁letter	-1582
▁rebell	-1583
▁harvest	-1584
▁magnates	-1585
▁previous	-1586
▁appointed	-1587
▁hold	-1588
▁House	-1589
▁bronze	-1590
▁regular	-1591
ting	-1592
▁Ahu	-1593
▁stri	-1594
▁territ	-1595
▁towards	-1596
ax	-1597
▁env	-1598
▁cons	-1599
▁host	-1600
▁abund	-1601
▁grain	-1602
▁places	-1603
▁soiled	-1604
ink	-1605
▁(1	-1606
▁lim	-1607
ience	-1608
▁fall	-1609
▁Calah	-1610
▁seeks	-1611
▁truth	-1612
▁Esagil	-1613
▁forces	-1614
▁owners	-1615
ool	-1616
▁fam	-1617
▁fin	-1618
ioned	-1619
their	-1620
▁stone	-1621
▁prayers	-1622
ms	-1623
▁V	-1624
alt	-1625
▁goats	-1626
▁peace	-1627
▁attack	-1628
▁report	-1629
▁inscription	-1630
▁š	-1631
ins	-1632
spring	-1633
▁seahs	-1634
▁Šarru	-1635
▁entirety	-1636
ph	-1637
pal	-1638
▁16	-1639
▁orders	-1640
▁payment	-1641
▁territory	-1642
yyar	-1643
▁gift	-1644
▁tell	-1645
▁Iyyar	-1646
▁midst	-1647
▁sword	-1648
▁around	-1649
▁?	-1650
lam	-1651
iqbi	-1652
▁kind	-1653
▁thick	-1654
▁overse	-1655
ets	-1656
lev	-1657
ush	-1658
ided	-1659
ukin	-1660
▁pal	-1661
▁om	-1662
▁fem	-1663
šarra	-1664
▁plan	-1665
▁border	-1666
▁farmer	-1667
▁listen	-1668
▁streng	-1669
▁defeated	-1670
atti	-1671
orse	-1672
▁cav	-1673
▁Bors	-1674
▁halo	-1675
liable	-1676
▁light	-1677
▁young	-1678
tw	-1679
ši	-1680
ils	-1681
ost	-1682
alry	-1683
whel	-1684
▁She	-1685
▁fac	-1686
▁City	-1687
▁ever	-1688
▁oppos	-1689
▁since	-1690
▁offspring	-1691
▁appearance	-1692
▁te	-1693
ters	-1694
▁full	-1695
▁laid	-1696
▁warri	-1697
▁cavalry	-1698
▁changed	-1699
▁Sh	-1700
▁ed	-1701
iers	-1702
▁omens	-1703
▁subst	-1704
▁Tukult	-1705
bu	-1706
▁cit	-1707
▁cri	-1708
▁Mann	-1709
▁march	-1710
▁speech	-1711
aq	-1712
nal	-1713
oss	-1714
▁deputy	-1715
▁female	-1716
▁former	-1717
▁Perhaps	-1718
▁whatever	-1719
alli	-1720
cond	-1721
that	-1722
▁ang	-1723
▁Šum	-1724
itted	-1725
▁burn	-1726
▁Borsip	-1727
▁daughter	-1728
hem	-1729
▁sec	-1730
▁This	-1731
▁bowl	-1732
▁orch	-1733
▁wool	-1734
estone	-1735
▁gates	-1736
oreover	-1737
ulation	-1738
▁disapp	-1739
▁regard	-1740
▁ritual	-1741
▁possessions	-1742
let	-1743
enty	-1744
▁tax	-1745
aries	-1746
▁settled	-1747
▁overseer	-1748
▁overwhel	-1749
ren	-1750
eṭir	-1751
▁base	-1752
▁dais	-1753
▁face	-1754
▁near	-1755
▁news	-1756
▁called	-1757
▁during	-1758
▁limestone	-1759
ruit	-1760
▁mon	-1761
press	-1762
▁iron	-1763
▁much	-1764
▁myself	-1765
▁foundations	-1766
eng	-1767
▁dom	-1768
šallim	-1769
▁deities	-1770
▁reliable	-1771
▁settlements	-1772
▁inscriptions	-1773
owed	-1774
▁Rem	-1775
arran	-1776
▁done	-1777
▁harus	-1778
missive	-1779
▁burned	-1780
▁soldiers	-1781
▁residence	-1782
Why	-1783
▁My	-1784
reed	-1785
aru	-1786
tak	-1787
tee	-1788
urru	-1789
▁hel	-1790
▁foot	-1791
▁Nusku	-1792
▁whole	-1793
▁majest	-1794
▁eponymy	-1795
▁happiness	-1796
pi	-1797
ulu	-1798
āya	-1799
▁prop	-1800
ession	-1801
we	-1802
arc	-1803
▁(6	-1804
uilt	-1805
▁car	-1806
▁val	-1807
▁step	-1808
▁power	-1809
▁donkeys	-1810
▁Moreover	-1811
▁opposite	-1812
▁appointee	-1813
ald	-1814
read	-1815
▁Tab	-1816
▁act	-1817
▁bak	-1818
aving	-1819
▁makes	-1820
▁Tukultī	-1821
▁counted	-1822
▁Borsippa	-1823
ask	-1824
esc	-1825
pri	-1826
▁Do	-1827
▁er	-1828
allu	-1829
sper	-1830
▁eng	-1831
▁ris	-1832
▁spl	-1833
▁wide	-1834
archem	-1835
▁deeds	-1836
▁statu	-1837
▁today	-1838
archemish	-1839
▁daughters	-1840
ha	-1841
ean	-1842
ited	-1843
ivan	-1844
▁how	-1845
▁int	-1846
izier	-1847
ouses	-1848
▁gone	-1849
▁kiss	-1850
▁Sivan	-1851
''	-1852
aba	-1853
abs	-1854
ang	-1855
iter	-1856
side	-1857
▁Ilu	-1858
▁end	-1859
▁leng	-1860
▁stones	-1861
▁Sea	-1862
▁cast	-1863
▁open	-1864
▁horse	-1865
▁coloss	-1866
▁rulers	-1867
▁second	-1868
▁treasur	-1869
▁Carchemish	-1870
by	-1871
ezib	-1872
▁One	-1873
ained	-1874
▁splend	-1875
▁therein	-1876
▁lordship	-1877
▁sacrificial	-1878
ds	-1879
but	-1880
pex	-1881
▁ey	-1882
nail	-1883
ples	-1884
▁bed	-1885
▁imp	-1886
irons	-1887
▁says	-1888
▁incre	-1889
ingernail	-1890
▁environs	-1891
▁haruspex	-1892
af	-1893
ept	-1894
šuma	-1895
▁cra	-1896
▁rel	-1897
▁Šul	-1898
▁West	-1899
▁What	-1900
▁male	-1901
▁some	-1902
upiter	-1903
▁crossed	-1904
▁prosper	-1905
▁z	-1906
uni	-1907
urs	-1908
arpan	-1909
ickly	-1910
▁Inner	-1911
▁added	-1912
▁everything	-1913
ūr	-1914
clud	-1915
mman	-1916
▁Uru	-1917
▁shr	-1918
▁war	-1919
tween	-1920
▁even	-1921
▁alive	-1922
▁fight	-1923
▁spoke	-1924
▁between	-1925
▁installed	-1926
rus	-1927
▁colle	-1928
▁divine	-1929
▁writing	-1930
▁Assyrian	-1931
▁contract	-1932
Bel	-1933
aint	-1934
asir	-1935
path	-1936
▁Tam	-1937
▁det	-1938
▁jud	-1939
stand	-1940
▁Tašm	-1941
▁canal	-1942
▁camels	-1943
▁forever	-1944
▁quickly	-1945
▁monument	-1946
nd	-1947
unn	-1948
urb	-1949
▁aud	-1950
naṣir	-1951
▁half	-1952
▁merc	-1953
▁audience	-1954
▁neck	-1955
▁white	-1956
▁seized	-1957
ne	-1958
▁Dam	-1959
fully	-1960
rates	-1961
tered	-1962
▁Nipp	-1963
▁according	-1964
▁monumental	-1965
now	-1966
duri	-1967
Šarru	-1968
Let	-1969
▁wid	-1970
▁rule	-1971
▁same	-1972
▁Arame	-1973
▁devast	-1974
▁distant	-1975
ert	-1976
ield	-1977
▁1/2	-1978
▁block	-1979
▁because	-1980
▁proceed	-1981
▁substant	-1982
enus	-1983
there	-1984
▁area	-1985
▁pour	-1986
itious	-1987
▁could	-1988
asirpal	-1989
▁Zarpan	-1990
▁perfect	-1991
urnasirpal	-1992
▁propitious	-1993
▁substantial	-1994
fl	-1995
▁Ša	-1996
anct	-1997
▁rep	-1998
ither	-1999
▁beams	-2000
▁honey	-2001
▁sanct	-2002
▁coming	-2003
▁vizier	-2004
▁majesty	-2005
▁Westland	-2006
hu	-2007
him	-2008
▁11	-2009
cour	-2010
hold	-2011
less	-2012
▁pit	-2013
iving	-2014
▁Mars	-2015
▁corn	-2016
▁gall	-2017
▁sign	-2018
▁later	-2019
▁rites	-2020
Babylon	-2021
▁official	-2022
▁Ashurnasirpal	-2023
uz	-2024
mal	-2025
rap	-2026
▁DN	-2027
bear	-2028
▁Lady	-2029
▁rele	-2030
▁vine	-2031
▁citiz	-2032
▁going	-2033
▁Nippur	-2034
▁attent	-2035
▁deliver	-2036
vi	-2037
etu	-2038
rem	-2039
aged	-2040
akin	-2041
anna	-2042
▁saf	-2043
ensive	-2044
▁begin	-2045
▁stood	-2046
▁assign	-2047
▁removed	-2048
▁touches	-2049
▁overwhelmed	-2050
uph	-2051
▁six	-2052
▁Your	-2053
▁disp	-2054
▁eter	-2055
▁Umman	-2056
▁means	-2057
▁trees	-2058
▁accept	-2059
▁charge	-2060
▁filled	-2061
▁disappear	-2062
▁el	-2063
adan	-2064
ures	-2065
vere	-2066
▁Kar	-2067
dered	-2068
irmed	-2069
which	-2070
▁Adar	-2071
▁appe	-2072
▁door	-2073
▁past	-2074
▁vict	-2075
▁compl	-2076
▁doing	-2077
▁doors	-2078
▁lower	-2079
▁breaks	-2080
uphrates	-2081
▁deposit	-2082
ula	-2083
erod	-2084
▁loc	-2085
▁tri	-2086
▁cann	-2087
▁Venus	-2088
▁exerc	-2089
▁gives	-2090
erodach	-2091
▁asking	-2092
▁houses	-2093
▁temples	-2094
▁abundance	-2095
VII	-2096
XII	-2097
āni	-2098
▁too	-2099
▁defic	-2100
▁cannot	-2101
▁subject	-2102
▁40	-2103
▁Ni	-2104
adin	-2105
▁Say	-2106
▁Why	-2107
▁dif	-2108
ishri	-2109
▁plain	-2110
▁renov	-2111
▁Tishri	-2112
▁greatly	-2113
▁service	-2114
ukk	-2115
apla	-2116
▁sit	-2117
inces	-2118
šarri	-2119
▁horn	-2120
▁mist	-2121
▁oath	-2122
▁plot	-2123
▁blood	-2124
▁craft	-2125
▁increase	-2126
▁designate	-2127
▁performance	-2128
aṣ	-2129
▁13	-2130
▁af	-2131
aped	-2132
semb	-2133
▁Med	-2134
▁lam	-2135
▁bank	-2136
▁path	-2137
▁eaten	-2138
▁litres	-2139
▁opened	-2140
▁designs	-2141
▁deposited	-2142
▁bot	-2143
adder	-2144
▁cook	-2145
▁help	-2146
▁kept	-2147
litres	-2148
▁angry	-2149
▁image	-2150
▁steppe	-2151
ubmissive	-2152
▁descendant	-2153
▁constructed	-2154
ara	-2155
iru	-2156
ret	-2157
▁Re	-2158
▁Sam	-2159
ilani	-2160
▁"...	-2161
▁wood	-2162
▁prais	-2163
▁Šulmu	-2164
▁things	-2165
▁colossi	-2166
▁forehead	-2167
▁Euphrates	-2168
uck	-2169
unk	-2170
pted	-2171
▁adv	-2172
▁lod	-2173
▁Urdu	-2174
▁Uruk	-2175
▁fell	-2176
▁nether	-2177
▁Remanni	-2178
▁position	-2179
”),	-2180
▁25	-2181
▁Ez	-2182
ding	-2183
illi	-2184
▁Ari	-2185
▁mer	-2186
orter	-2187
▁gras	-2188
▁prec	-2189
▁thir	-2190
▁domin	-2191
▁Urarṭu	-2192
▁altered	-2193
”:	-2194
▁wa	-2195
▁meat	-2196
▁fright	-2197
standing	-2198
▁restore	-2199
▁oracular	-2200
▁complaint	-2201
ues	-2202
▁Al	-2203
▁clou	-2204
▁more	-2205
▁weak	-2206
▁Ditto	-2207
▁assemb	-2208
▁breast	-2209
▁bright	-2210
▁ground	-2211
▁eunuchs	-2212
▁extensive	-2213
▁netherworld	-2214
,”	-2215
rew	-2216
used	-2217
▁ser	-2218
▁wis	-2219
▁eyes	-2220
▁wild	-2221
▁entru	-2222
▁cattle	-2223
▁lodges	-2224
▁normal	-2225
▁dominion	-2226
▁Su	-2227
most	-2228
▁His	-2229
▁box	-2230
▁Ubru	-2231
▁bask	-2232
▁black	-2233
▁drunk	-2234
offered	-2235
▁decreed	-2236
,"	-2237
ān	-2238
ṭu	-2239
▁!	-2240
šir	-2241
erce	-2242
▁beh	-2243
those	-2244
▁cens	-2245
▁fash	-2246
▁port	-2247
▁Should	-2248
▁cultiv	-2249
▁fierce	-2250
▁mistress	-2251
amu	-2252
bet	-2253
sic	-2254
▁Nan	-2255
▁lib	-2256
▁lie	-2257
▁bird	-2258
▁dire	-2259
▁subm	-2260
ypress	-2261
▁carry	-2262
vereign	-2263
▁favour	-2264
▁living	-2265
▁sanctu	-2266
▁bladder	-2267
▁anointed	-2268
▁sovereign	-2269
gur	-2270
akku	-2271
cher	-2272
plic	-2273
▁Apl	-2274
ority	-2275
▁arri	-2276
▁cover	-2277
▁course	-2278
▁touched	-2279
▁deficient	-2280
abi	-2281
ašu	-2282
ele	-2283
▁lay	-2284
▁phy	-2285
▁auth	-2286
▁mind	-2287
struct	-2288
▁merch	-2289
▁diffic	-2290
▁kissed	-2291
▁station	-2292
▁favorite	-2293
▁beginning	-2294
▁18	-2295
▁iv	-2296
ense	-2297
thus	-2298
▁ere	-2299
▁Kush	-2300
▁vari	-2301
▁bound	-2302
▁decis	-2303
▁fruit	-2304
▁ivory	-2305
▁trans	-2306
▁goddesses	-2307
▁Ashurbanipal	-2308
ems	-2309
▁aid	-2310
▁esc	-2311
▁ill	-2312
hered	-2313
▁towns	-2314
▁making	-2315
▁prayer	-2316
▁orchards	-2317
▁authority	-2318
XI	-2319
ṣu	-2320
act	-2321
any	-2322
ned	-2323
▁50	-2324
atic	-2325
hose	-2326
▁cur	-2327
▁why	-2328
stone	-2329
▁bott	-2330
▁hund	-2331
▁love	-2332
▁boats	-2333
▁manag	-2334
▁Ḫatti	-2335
▁precious	-2336
.:	-2337
ida	-2338
vii	-2339
▁dy	-2340
aled	-2341
from	-2342
▁Dūr	-2343
▁Nab	-2344
▁get	-2345
▁sat	-2346
▁turn	-2347
▁wind	-2348
bearer	-2349
▁Tigris	-2350
▁archer	-2351
▁height	-2352
▁variant	-2353
▁dwelling	-2354
▁entrusted	-2355
!”	-2356
išk	-2357
Ḫum	-2358
▁ut	-2359
bail	-2360
▁cle	-2361
▁last	-2362
▁lung	-2363
▁Arrap	-2364
▁engen	-2365
▁lives	-2366
▁thres	-2367
▁Shebat	-2368
▁length	-2369
▁Chaldea	-2370
▁conquer	-2371
▁hundred	-2372
▁finished	-2373
▁rebellion	-2374
formulation	-2375
▁engendered	-2376
IV	-2377
ob	-2378
dom	-2379
muz	-2380
deed	-2381
aches	-2382
umman	-2383
▁exem	-2384
▁food	-2385
▁radi	-2386
▁Šamš	-2387
▁flour	-2388
▁while	-2389
▁Tammuz	-2390
▁physic	-2391
▁centers	-2392
▁cypress	-2393
▁hostile	-2394
He	-2395
VI	-2396
oub	-2397
uge	-2398
una	-2399
▁anew	-2400
▁west	-2401
ulated	-2402
▁clean	-2403
▁drink	-2404
▁forts	-2405
▁leave	-2406
▁trust	-2407
▁appoint	-2408
▁erected	-2409
▁citizens	-2410
op	-2411
assu	-2412
ream	-2413
ility	-2414
▁above	-2415
▁third	-2416
▁decares	-2417
▁message	-2418
▁strength	-2419
▁presented	-2420
▁22	-2421
▁Ul	-2422
here	-2423
ison	-2424
▁mus	-2425
oured	-2426
▁Elul	-2427
▁site	-2428
▁asked	-2429
▁gifts	-2430
▁loaves	-2431
▁matter	-2432
▁overth	-2433
▁single	-2434
▁statue	-2435
▁bearing	-2436
▁ordered	-2437
▁captives	-2438
▁residing	-2439
ka	-2440
air	-2441
▁Ki	-2442
ised	-2443
šumi	-2444
▁bes	-2445
▁obs	-2446
▁run	-2447
ainer	-2448
▁clay	-2449
▁Those	-2450
▁split	-2451
▁times	-2452
▁Ešarra	-2453
▁bottom	-2454
▁twenty	-2455
▁created	-2456
▁previously	-2457
You	-2458
orc	-2459
▁Ig	-2460
agon	-2461
ital	-2462
lath	-2463
▁Tar	-2464
▁ele	-2465
▁gro	-2466
▁Gamb	-2467
▁find	-2468
▁lion	-2469
ileser	-2470
uranni	-2471
▁super	-2472
▁Inurta	-2473
entation	-2474
▁provides	-2475
▁understanding	-2476
,'	-2477
ond	-2478
umm	-2479
▁Muš	-2480
▁gat	-2481
▁dark	-2482
▁roof	-2483
▁soon	-2484
umbled	-2485
▁walls	-2486
▁inspect	-2487
▁Arameans	-2488
▁gathered	-2489
▁confirmed	-2490
▁proceedings	-2491
▁sovereignty	-2492
bo	-2493
go	-2494
emb	-2495
agan	-2496
hing	-2497
kkal	-2498
▁mor	-2499
▁sin	-2500
tyard	-2501
uniaš	-2502
▁Kard	-2503
▁care	-2504
▁child	-2505
▁corps	-2506
▁grand	-2507
▁names	-2508
▁outer	-2509
▁Šamšī	-2510
abaster	-2511
▁Tiglath	-2512
▁capital	-2513
▁treasurer	-2514
▁sacrifices	-2515
',	-2516
▁Sc	-2517
adow	-2518
alliṭ	-2519
nadin	-2520
wards	-2521
▁east	-2522
▁stars	-2523
▁behind	-2524
▁indeed	-2525
▁beloved	-2526
▁jumbled	-2527
Babylonia	-2528
▁Urarṭian	-2529
gs	-2530
jo	-2531
ls	-2532
val	-2533
▁wr	-2534
gers	-2535
raid	-2536
viii	-2537
▁Abi	-2538
▁bit	-2539
immer	-2540
▁five	-2541
▁hall	-2542
▁holy	-2543
▁Ezida	-2544
▁never	-2545
▁subdu	-2546
▁upper	-2547
▁granted	-2548
▁terrace	-2549
▁foremost	-2550
▁warriors	-2551
▁Karduniaš	-2552
If	-2553
umu	-2554
akīn	-2555
▁arr	-2556
▁inv	-2557
father	-2558
selves	-2559
▁burnt	-2560
▁force	-2561
▁Šumma	-2562
ificent	-2563
▁afraid	-2564
▁stable	-2565
emuranni	-2566
zi	-2567
īl	-2568
ḫa	-2569
'')	-2570
col	-2571
ses	-2572
▁5)	-2573
zeru	-2574
ippar	-2575
unnak	-2576
▁rejo	-2577
▁save	-2578
▁death	-2579
▁spans	-2580
▁Teumman	-2581
▁heavens	-2582
▁restored	-2583
▁fashioned	-2584
▁magnificent	-2585
ns	-2586
rd	-2587
asî	-2588
den	-2589
▁Sil	-2590
▁reach	-2591
▁stret	-2592
▁Nikkal	-2593
▁Sippar	-2594
▁Anunnak	-2595
▁courtyard	-2596
▁insubmissive	-2597
▁Pu	-2598
gged	-2599
mark	-2600
unip	-2601
yrus	-2602
▁age	-2603
iškun	-2604
▁hero	-2605
▁term	-2606
▁Medes	-2607
▁baked	-2608
▁cause	-2609
▁viney	-2610
▁archers	-2611
▁blocked	-2612
▁manager	-2613
▁princes	-2614
▁shrines	-2615
▁mustered	-2616
▁splendid	-2617
▁stationed	-2618
▁Babylonians	-2619
ba	-2620
ea	-2621
iša	-2622
lak	-2623
use	-2624
▁Un	-2625
chie	-2626
ward	-2627
▁occ	-2628
▁sky	-2629
atial	-2630
▁abod	-2631
▁fast	-2632
▁Šarr	-2633
Ḫumban	-2634
▁achie	-2635
▁close	-2636
▁quest	-2637
▁seven	-2638
▁straw	-2639
▁anoint	-2640
▁gladly	-2641
▁having	-2642
▁remain	-2643
ccession	-2644
▁Tašmetu	-2645
▁difficult	-2646
qq	-2647
5')	-2648
gar	-2649
rat	-2650
▁Sū	-2651
ized	-2652
▁Ban	-2653
▁Kis	-2654
▁ori	-2655
▁Ḫar	-2656
house	-2657
▁Nairi	-2658
▁forth	-2659
pileser	-2660
▁family	-2661
▁talent	-2662
▁eternal	-2663
▁protect	-2664
▁palatial	-2665
▁province	-2666
▁overthrow	-2667
▁fortresses	-2668
▁protection	-2669
lo	-2670
artu	-2671
iful	-2672
ival	-2673
vers	-2674
▁(5)	-2675
▁10)	-2676
▁Tīl	-2677
▁bag	-2678
chief	-2679
▁room	-2680
▁true	-2681
▁exorc	-2682
▁heavy	-2683
▁nobody	-2684
▁witness	-2685
▁alabaster	-2686
Ar	-2687
esh	-2688
▁17	-2689
▁Lu	-2690
▁eb	-2691
▁But	-2692
▁fif	-2693
▁neg	-2694
▁obe	-2695
▁Šub	-2696
offer	-2697
orted	-2698
▁shin	-2699
▁Belet	-2700
▁ebony	-2701
▁faces	-2702
▁origin	-2703
▁weapon	-2704
▁boxwood	-2705
▁commanded	-2706
▁cupbearer	-2707
▁submitted	-2708
ama	-2709
hab	-2710
lar	-2711
uli	-2712
▁Ek	-2713
beli	-2714
lier	-2715
reme	-2716
▁Sub	-2717
▁new	-2718
cause	-2719
šezib	-2720
▁Gula	-2721
▁fine	-2722
▁Great	-2723
▁named	-2724
station	-2725
▁rugged	-2726
▁corpses	-2727
▁justice	-2728
▁reaches	-2729
▁rebuilt	-2730
▁devastated	-2731
aut	-2732
irc	-2733
ury	-2734
xed	-2735
▁(2	-2736
▁La	-2737
wise	-2738
▁Mel	-2739
▁yet	-2740
▁dead	-2741
▁mult	-2742
▁wait	-2743
incial	-2744
uniper	-2745
▁below	-2746
▁eleph	-2747
▁judge	-2748
▁recon	-2749
▁master	-2750
▁exorcist	-2751
▁released	-2752
▁frightened	-2753
▁provincial	-2754
bēl	-2755
gan	-2756
mor	-2757
oted	-2758
▁200	-2759
▁fet	-2760
▁pap	-2761
ursag	-2762
Harran	-2763
▁Arabs	-2764
▁Lower	-2765
▁mayor	-2766
cluding	-2767
▁underworld	-2768
qa	-2769
abb	-2770
cep	-2771
hip	-2772
idu	-2773
ases	-2774
▁Ahi	-2775
▁Kal	-2776
▁Nin	-2777
▁xth	-2778
ammar	-2779
▁leag	-2780
▁scep	-2781
icated	-2782
ipment	-2783
▁Tebet	-2784
▁exper	-2785
▁Arrapha	-2786
▁scepter	-2787
▁performs	-2788
▁approached	-2789
ior	-2790
▁Le	-2791
▁PN	-2792
hest	-2793
oves	-2794
utha	-2795
▁Aya	-2796
▁Itu	-2797
▁Sid	-2798
▁bad	-2799
▁fig	-2800
lešir	-2801
▁none	-2802
▁salt	-2803
▁stra	-2804
▁thus	-2805
▁coils	-2806
remanni	-2807
▁Amurru	-2808
▁censer	-2809
▁meadow	-2810
▁passed	-2811
▁victor	-2812
▁Šarrat	-2813
▁morning	-2814
▁papyrus	-2815
▁assigned	-2816
▁Zarpanitu	-2817
▁household	-2818
▁threshing	-2819
▁fingernail	-2820
xes	-2821
akes	-2822
amaš	-2823
bone	-2824
ilit	-2825
ixed	-2826
king	-2827
ways	-2828
▁swe	-2829
▁arom	-2830
▁comp	-2831
▁stor	-2832
▁used	-2833
▁Cutha	-2834
▁colon	-2835
▁encour	-2836
▁herald	-2837
▁inform	-2838
▁rememb	-2839
▁respect	-2840
▁reveres	-2841
▁aromatic	-2842
▁provided	-2843
In	-2844
nā	-2845
aza	-2846
ene	-2847
gil	-2848
urt	-2849
▁2-	-2850
▁Id	-2851
▁Tu	-2852
▁em	-2853
ains	-2854
azed	-2855
inen	-2856
last	-2857
▁Gur	-2858
ement	-2859
litre	-2860
▁Does	-2861
▁fate	-2862
ullanu	-2863
▁Sidon	-2864
▁cloud	-2865
▁equal	-2866
▁Mannea	-2867
▁firmly	-2868
▁friend	-2869
▁continu	-2870
▁straight	-2871
▁subjects	-2872
ots	-2873
▁II	-2874
▁ap	-2875
Then	-2876
iced	-2877
ilki	-2878
oving	-2879
▁Sūḫu	-2880
▁only	-2881
▁Their	-2882
ukkannu	-2883
▁Harran	-2884
▁sealed	-2885
▁evening	-2886
▁gardens	-2887
▁gardener	-2888
▁messengers	-2889
▁musukkannu	-2890
ape	-2891
bil	-2892
ote	-2893
bani	-2894
rows	-2895
▁Der	-2896
▁par	-2897
azuli	-2898
igate	-2899
▁foes	-2900
▁held	-2901
▁pull	-2902
▁surf	-2903
▁bulls	-2904
▁flesh	-2905
▁mercy	-2906
▁numer	-2907
▁Cimmer	-2908
▁planet	-2909
▁grasped	-2910
ification	-2911
▁merchant	-2912
▁numerous	-2913
▁pleasure	-2914
▁radiance	-2915
▁Succession	-2916
ahi	-2917
oor	-2918
appa	-2919
igaš	-2920
▁Kum	-2921
▁New	-2922
▁bal	-2923
▁got	-2924
▁hun	-2925
ative	-2926
vernor	-2927
▁Upper	-2928
▁bowed	-2929
▁lapis	-2930
▁lions	-2931
▁loves	-2932
▁produ	-2933
lasting	-2934
▁ascend	-2935
▁brilli	-2936
▁brings	-2937
▁crimin	-2938
▁praise	-2939
▁pitched	-2940
▁preserv	-2941
▁slaught	-2942
▁surface	-2943
▁warrior	-2944
▁sanctuaries	-2945
ney	-2946
ran	-2947
usu	-2948
▁28	-2949
▁Kār	-2950
▁cho	-2951
icted	-2952
iggur	-2953
while	-2954
▁main	-2955
▁mass	-2956
▁read	-2957
▁stip	-2958
▁rises	-2959
ilitary	-2960
▁Tammar	-2961
▁dispat	-2962
Merodach	-2963
Šarruken	-2964
▁arrived	-2965
▁earlier	-2966
▁regions	-2967
▁commands	-2968
▁equipment	-2969
▁stipulated	-2970
ala	-2971
lip	-2972
yre	-2973
▁26	-2974
ades	-2975
apon	-2976
four	-2977
gate	-2978
seah	-2979
they	-2980
▁Qur	-2981
▁jar	-2982
anner	-2983
▁elev	-2984
▁sets	-2985
▁alone	-2986
▁curse	-2987
▁inhab	-2988
▁linen	-2989
▁seize	-2990
▁sweet	-2991
▁contro	-2992
▁fourth	-2993
▁hearts	-2994
▁including	-2995
▁purification	-2996
og	-2997
qi	-2998
xt	-2999
▁”	-3000
wes	-3001
▁21	-3002
▁Eḫ	-3003
▁ca	-3004
ears	-3005
long	-3006
▁ses	-3007
iqiša	-3008
rance	-3009
▁stru	-3010
▁grant	-3011
baladan	-3012
▁daises	-3013
▁sesame	-3014
▁shekel	-3015
▁construction	-3016
Ba	-3017
asc	-3018
cut	-3019
hat	-3020
▁šē	-3021
ably	-3022
▁exp	-3023
▁hon	-3024
▁lab	-3025
▁lif	-3026
ating	-3027
ister	-3028
Šamaš	-3029
▁Urad	-3030
▁north	-3031
▁stead	-3032
▁Moving	-3033
▁exempt	-3034
governor	-3035
▁refined	-3036
▁singers	-3037
▁trainer	-3038
▁distance	-3039
▁elevated	-3040
gū	-3041
fav	-3042
ibi	-3043
iti	-3044
par	-3045
iant	-3046
rees	-3047
▁Ham	-3048
▁Sag	-3049
▁dem	-3050
▁dim	-3051
▁serve	-3052
▁teams	-3053
▁famine	-3054
▁leagues	-3055
▁libation	-3056
▁original	-3057
▁attentive	-3058
▁delivered	-3059
Am	-3060
ays	-3061
▁23	-3062
taku	-3063
trib	-3064
▁20)	-3065
▁Eri	-3066
▁Kan	-3067
▁gre	-3068
stead	-3069
▁coun	-3070
▁Kiṣir	-3071
▁Tabal	-3072
fection	-3073
▁desert	-3074
▁golden	-3075
▁singer	-3076
▁spring	-3077
▁terror	-3078
▁ziggur	-3079
▁descendants	-3080
get	-3081
ify	-3082
▁Ba	-3083
▁gu	-3084
▁ve	-3085
orpi	-3086
▁Man	-3087
▁hum	-3088
House	-3089
Yakīn	-3090
▁clot	-3091
▁else	-3092
▁infl	-3093
▁lies	-3094
▁seat	-3095
▁wish	-3096
▁Šeru	-3097
orpius	-3098
▁allow	-3099
▁colum	-3100
▁inner	-3101
▁prepa	-3102
▁rival	-3103
▁taxes	-3104
▁caused	-3105
▁nobles	-3106
▁reconc	-3107
▁safely	-3108
▁allowed	-3109
▁courses	-3110
▁Scorpius	-3111
▁elephant	-3112
▁exercise	-3113
▁Fingernail	-3114
▁strengthen	-3115
pu	-3116
rē	-3117
adî	-3118
īgū	-3119
aily	-3120
alla	-3121
aplu	-3122
nuri	-3123
usur	-3124
▁Bab	-3125
▁Kaš	-3126
▁Sat	-3127
▁pun	-3128
▁und	-3129
ccess	-3130
▁circ	-3131
▁duck	-3132
▁sele	-3133
orable	-3134
orated	-3135
▁admin	-3136
▁eight	-3137
▁rains	-3138
▁ruins	-3139
▁shore	-3140
▁swear	-3141
osition	-3142
▁attend	-3143
▁combat	-3144
▁crafts	-3145
▁chariotry	-3146
▁collected	-3147
▁encouraged	-3148
Bal	-3149
May	-3150
ada	-3151
bow	-3152
ips	-3153
nat	-3154
ogn	-3155
set	-3156
▁29	-3157
ephe	-3158
lord	-3159
osen	-3160
work	-3161
▁5')	-3162
▁Bir	-3163
▁ban	-3164
▁Like	-3165
▁able	-3166
▁fish	-3167
▁stat	-3168
rement	-3169
▁Ellip	-3170
▁agree	-3171
▁nephe	-3172
▁reeds	-3173
▁Baltil	-3174
▁arable	-3175
▁looked	-3176
▁Gambulu	-3177
▁columns	-3178
▁tablets	-3179
▁herewith	-3180
En	-3181
ṣi	-3182
fit	-3183
hin	-3184
idm	-3185
▁ša	-3186
VIII	-3187
beer	-3188
body	-3189
heck	-3190
irth	-3191
riba	-3192
▁big	-3193
▁clo	-3194
aging	-3195
built	-3196
▁Urda	-3197
▁disc	-3198
▁flow	-3199
▁rein	-3200
▁ruin	-3201
inanni	-3202
taklak	-3203
▁birth	-3204
▁Damasc	-3205
▁destin	-3206
▁dwells	-3207
▁either	-3208
▁lazuli	-3209
▁remote	-3210
▁Because	-3211
▁terrain	-3212
▁pleasing	-3213
▁remember	-3214
▁wherever	-3215
▁opposition	-3216
▁everlasting	-3217
alu	-3218
eri	-3219
kaš	-3220
lew	-3221
ubu	-3222
▁60	-3223
▁Of	-3224
aved	-3225
taqq	-3226
▁arm	-3227
▁pop	-3228
▁tin	-3229
▁Tyre	-3230
▁acts	-3231
▁prom	-3232
▁resp	-3233
urther	-3234
▁Dagan	-3235
▁Igīgū	-3236
▁abode	-3237
▁daily	-3238
uballiṭ	-3239
▁chosen	-3240
▁region	-3241
▁addition	-3242
▁appropri	-3243
▁powerful	-3244
aṭ	-3245
aff	-3246
iew	-3247
ows	-3248
oken	-3249
rēša	-3250
sued	-3251
tain	-3252
teen	-3253
ubuš	-3254
ukīn	-3255
▁doc	-3256
▁eld	-3257
▁fog	-3258
▁kid	-3259
▁lev	-3260
▁Kakk	-3261
▁coll	-3262
▁ones	-3263
▁twel	-3264
▁build	-3265
▁heads	-3266
▁Before	-3267
▁Urtaku	-3268
▁direct	-3269
▁remove	-3270
▁rising	-3271
▁seated	-3272
▁spoken	-3273
▁reinfor	-3274
▁shining	-3275
▁complete	-3276
▁destruct	-3277
▁fastened	-3278
▁committed	-3279
▁accordance	-3280
▁lamentation	-3281
'.	-3282
.)	-3283
aku	-3284
āti	-3285
▁2,	-3286
When	-3287
aria	-3288
ayed	-3289
muḫu	-3290
▁15)	-3291
▁35)	-3292
▁Han	-3293
▁Sun	-3294
▁deb	-3295
▁spr	-3296
ouble	-3297
urbed	-3298
▁Arik	-3299
▁Merc	-3300
▁arms	-3301
▁Silim	-3302
▁halls	-3303
▁herds	-3304
▁horns	-3305
▁litre	-3306
▁pious	-3307
▁stele	-3308
▁Šerua	-3309
▁basket	-3310
▁circum	-3311
▁desire	-3312
▁fought	-3313
▁passes	-3314
▁regnal	-3315
▁Esaggil	-3316
▁Subartu	-3317
▁scatter	-3318
▁valiant	-3319
▁physical	-3320
▁question	-3321
▁attention	-3322
▁establish	-3323
ʾ,	-3324
dīn	-3325
van	-3326
was	-3327
▁1)	-3328
▁19	-3329
cess	-3330
igal	-3331
▁Its	-3332
anger	-3333
ready	-3334
▁annu	-3335
▁forg	-3336
▁hung	-3337
▁ment	-3338
▁rise	-3339
▁tail	-3340
weapon	-3341
▁Illil	-3342
▁exped	-3343
▁thous	-3344
chesvan	-3345
olished	-3346
▁hunger	-3347
▁keeper	-3348
▁porter	-3349
▁Mercury	-3350
▁covered	-3351
▁provide	-3352
▁section	-3353
▁fighting	-3354
▁following	-3355
▁Marchesvan	-3356
▁acceptable	-3357
▁forefather	-3358
bl	-3359
ria	-3360
āru	-3361
▁(“	-3362
▁24	-3363
▁Aḫ	-3364
back	-3365
▁Ḫam	-3366
▁cell	-3367
▁garr	-3368
▁repa	-3369
people	-3370
▁1,000	-3371
▁These	-3372
▁enlar	-3373
▁widen	-3374
▁Ellipi	-3375
▁Kislev	-3376
▁extent	-3377
▁observ	-3378
▁thirty	-3379
▁wooden	-3380
▁subdued	-3381
▁bringing	-3382
▁decision	-3383
udu	-3384
▁St	-3385
aven	-3386
deem	-3387
when	-3388
▁Raš	-3389
▁hig	-3390
▁Ḫal	-3391
Enlil	-3392
ables	-3393
lamur	-3394
royal	-3395
▁10')	-3396
▁Ning	-3397
▁sake	-3398
▁situ	-3399
▁team	-3400
priest	-3401
▁Eanna	-3402
▁Kanun	-3403
▁insur	-3404
▁kinds	-3405
▁raise	-3406
▁shine	-3407
▁Saturn	-3408
▁broken	-3409
▁preced	-3410
▁redeem	-3411
▁shield	-3412
▁towers	-3413
▁wishes	-3414
▁Elamite	-3415
▁hectare	-3416
▁planted	-3417
▁reached	-3418
▁success	-3419
▁supreme	-3420
▁enlarged	-3421
▁Assyrians	-3422
▁Tammarītu	-3423
▁brilliance	-3424
▁expedition	-3425
▁themselves	-3426
Th	-3427
ex	-3428
0')	-3429
ini	-3430
iši	-3431
kku	-3432
▁Ak	-3433
▁Er	-3434
With	-3435
dari	-3436
even	-3437
ittu	-3438
only	-3439
▁Bar	-3440
▁Dun	-3441
▁Hal	-3442
▁Ple	-3443
▁Raṣ	-3444
▁Zar	-3445
▁ded	-3446
▁dug	-3447
▁vic	-3448
agons	-3449
▁(10)	-3450
▁bags	-3451
▁free	-3452
▁meas	-3453
▁trim	-3454
hinxes	-3455
itants	-3456
▁Ashur	-3457
▁broad	-3458
▁crime	-3459
▁slabs	-3460
thereby	-3461
▁center	-3462
▁danger	-3463
▁enters	-3464
▁interp	-3465
▁recogn	-3466
offering	-3467
together	-3468
▁forward	-3469
▁orchard	-3470
▁sphinxes	-3471
▁vineyard	-3472
IX	-3473
wa	-3474
ēr	-3475
api	-3476
itt	-3477
ize	-3478
omm	-3479
pro	-3480
▁Im	-3481
aces	-3482
rānu	-3483
word	-3484
▁Mad	-3485
▁Que	-3486
▁ran	-3487
banon	-3488
spect	-3489
▁Abdi	-3490
▁Ekur	-3491
▁lamb	-3492
▁poin	-3493
▁priv	-3494
▁wise	-3495
▁“...	-3496
Arbail	-3497
kurkur	-3498
▁Qurdi	-3499
▁razed	-3500
▁Aplaya	-3501
▁extend	-3502
▁flagon	-3503
▁replic	-3504
▁waters	-3505
▁Instead	-3506
▁carries	-3507
▁juniper	-3508
▁offered	-3509
▁administ	-3510
▁ascended	-3511
▁preceded	-3512
▁thousand	-3513
▁population	-3514
50	-3515
’)	-3516
00,	-3517
ads	-3518
ali	-3519
imm	-3520
ētu	-3521
”).	-3522
▁Ir	-3523
ocks	-3524
▁How	-3525
▁aff	-3526
▁cop	-3527
manus	-3528
nādin	-3529
šakin	-3530
▁cuts	-3531
▁guil	-3532
▁show	-3533
ahhešu	-3534
atures	-3535
idmuri	-3536
▁floor	-3537
▁greet	-3538
▁holds	-3539
▁store	-3540
Baladan	-3541
ganized	-3542
▁Amanus	-3543
▁erases	-3544
▁escape	-3545
▁manner	-3546
▁office	-3547
▁punish	-3548
▁twelve	-3549
▁trusted	-3550
▁Anunnakū	-3551
▁features	-3552
▁Zarpanītu	-3553
▁dangerous	-3554
▁lightning	-3555
▁Cimmerians	-3556
)-	-3557
usa	-3558
▁Ch	-3559
▁Tw	-3560
They	-3561
irtu	-3562
oles	-3563
▁Muṣ	-3564
▁Til	-3565
▁dog	-3566
▁squ	-3567
▁tor	-3568
ander	-3569
ently	-3570
quire	-3571
▁call	-3572
▁fill	-3573
▁summ	-3574
iduous	-3575
iously	-3576
▁veget	-3577
rection	-3578
▁Nanaya	-3579
▁giving	-3580
▁struck	-3581
▁Kushite	-3582
▁baskets	-3583
▁nothing	-3584
▁respons	-3585
favorable	-3586
▁Damascus	-3587
▁Merodach	-3588
▁belonged	-3589
▁assiduous	-3590
▁officials	-3591
▁insurrection	-3592
▁strengthened	-3593
We	-3594
adn	-3595
ume	-3596
šši	-3597
apli	-3598
hand	-3599
hood	-3600
▁30)	-3601
▁Par	-3602
▁Zak	-3603
▁low	-3604
iades	-3605
▁Lord	-3606
▁fest	-3607
▁reve	-3608
▁sour	-3609
▁want	-3610
taqqin	-3611
▁cella	-3612
▁major	-3613
▁south	-3614
▁prison	-3615
▁shrine	-3616
▁status	-3617
▁weight	-3618
▁fathers	-3619
▁highest	-3620
▁removes	-3621
▁shoulder	-3622
▁Ummanigaš	-3623
▁favorably	-3624
▁Afterwards	-3625
dî	-3626
ime	-3627
lig	-3628
ssu	-3629
▁25)	-3630
▁45)	-3631
▁Did	-3632
▁Guz	-3633
▁Kud	-3634
▁Sal	-3635
▁use	-3636
arant	-3637
beams	-3638
▁Kull	-3639
▁dele	-3640
▁hill	-3641
▁line	-3642
Nergal	-3643
▁accom	-3644
▁revol	-3645
▁takes	-3646
whether	-3647
▁Balasî	-3648
▁facing	-3649
▁wagons	-3650
structed	-3651
▁Further	-3652
▁Raṣappa	-3653
▁conclud	-3654
▁counsel	-3655
▁greater	-3656
▁nephews	-3657
▁statues	-3658
increment	-3659
▁Kanunayu	-3660
▁Pleiades	-3661
▁rebelled	-3662
▁situated	-3663
▁dedicated	-3664
▁impressed	-3665
It	-3666
br	-3667
iḫ	-3668
si	-3669
uḫ	-3670
šû	-3671
But	-3672
Bēl	-3673
alm	-3674
aḫḫ	-3675
ern	-3676
▁Aš	-3677
▁Ne	-3678
What	-3679
ical	-3680
mith	-3681
ofty	-3682
▁emb	-3683
about	-3684
iring	-3685
onder	-3686
rough	-3687
▁Dann	-3688
▁maid	-3689
▁pick	-3690
▁Ḫind	-3691
▁lofty	-3692
▁marsh	-3693
attened	-3694
▁raging	-3695
▁strive	-3696
▁Tašmētu	-3697
▁builder	-3698
▁mounted	-3699
▁receive	-3700
▁Manneans	-3701
▁Chaldeans	-3702
▁decisions	-3703
▁scattered	-3704
▁commanders	-3705
▁continually	-3706
Ea	-3707
aim	-3708
asu	-3709
iya	-3710
kin	-3711
oot	-3712
riv	-3713
āri	-3714
ēri	-3715
ēšu	-3716
▁(3	-3717
▁ak	-3718
arqa	-3719
isse	-3720
keep	-3721
pped	-3722
ukku	-3723
umen	-3724
▁Abu	-3725
▁Can	-3726
▁erš	-3727
▁imm	-3728
▁lot	-3729
▁Ḫab	-3730
bread	-3731
these	-3732
▁miss	-3733
▁rank	-3734
▁ruled	-3735
cession	-3736
▁others	-3737
▁thirst	-3738
kurkurra	-3739
▁fetters	-3740
▁privile	-3741
▁recruit	-3742
▁children	-3743
▁document	-3744
▁instruct	-3745
▁likewise	-3746
▁assembled	-3747
▁interpret	-3748
uh	-3749
ūa	-3750
ket	-3751
lum	-3752
qar	-3753
tle	-3754
ual	-3755
▁).	-3756
▁27	-3757
This	-3758
arrû	-3759
emor	-3760
fast	-3761
idri	-3762
ling	-3763
mati	-3764
more	-3765
rain	-3766
▁Dil	-3767
▁Hab	-3768
▁Mit	-3769
▁Mut	-3770
▁Pro	-3771
▁art	-3772
▁met	-3773
▁Šar	-3774
imals	-3775
ruits	-3776
▁arre	-3777
▁lips	-3778
▁prog	-3779
▁rams	-3780
▁safe	-3781
stream	-3782
ubuški	-3783
▁Yakin	-3784
▁arrow	-3785
▁staff	-3786
▁proper	-3787
▁secret	-3788
▁source	-3789
▁wisdom	-3790
garments	-3791
▁bitumen	-3792
▁capture	-3793
▁cleared	-3794
▁replica	-3795
▁staying	-3796
▁victory	-3797
▁Ummanald	-3798
▁treasure	-3799
▁treasury	-3800
▁destruction	-3801
Iš	-3802
gi	-3803
uf	-3804
ux	-3805
bit	-3806
int	-3807
joy	-3808
ūru	-3809
▁?"	-3810
Thus	-3811
ault	-3812
clos	-3813
ross	-3814
ying	-3815
šarr	-3816
▁40)	-3817
▁pot	-3818
ising	-3819
where	-3820
▁died	-3821
▁draw	-3822
▁Assur	-3823
▁aside	-3824
▁chant	-3825
▁enjoy	-3826
▁loyal	-3827
▁mound	-3828
▁occur	-3829
▁pours	-3830
▁sends	-3831
▁skill	-3832
colored	-3833
▁Arbail	-3834
▁Zababa	-3835
▁attain	-3836
▁concer	-3837
▁devour	-3838
▁fallen	-3839
▁prayed	-3840
▁sought	-3841
▁summon	-3842
▁Eḫursag	-3843
▁Lebanon	-3844
▁harness	-3845
▁mention	-3846
▁pursued	-3847
▁renovate	-3848
▁villages	-3849
▁craftsmen	-3850
▁decorated	-3851
▁dispatched	-3852
▁reinforced	-3853
▁inhabitants	-3854
▁interpretation	-3855
isu	-3856
met	-3857
rev	-3858
āra	-3859
▁GN	-3860
▁Iz	-3861
▁Sa	-3862
adel	-3863
alks	-3864
rect	-3865
▁300	-3866
▁55)	-3867
▁Nag	-3868
▁Pal	-3869
▁aug	-3870
▁bus	-3871
▁fur	-3872
▁tra	-3873
means	-3874
nikaš	-3875
▁Kass	-3876
▁Kish	-3877
▁Puqu	-3878
▁boat	-3879
▁mood	-3880
▁thro	-3881
ensils	-3882
headed	-3883
▁beaut	-3884
▁birds	-3885
▁emiss	-3886
▁homer	-3887
▁multi	-3888
▁slave	-3889
▁unriv	-3890
▁cooked	-3891
▁device	-3892
▁forgot	-3893
▁guilty	-3894
▁poured	-3895
▁sinned	-3896
▁balance	-3897
▁abundant	-3898
▁assembly	-3899
▁prefects	-3900
▁districts	-3901
▁steadfast	-3902
▁ziggurrat	-3903
▁cultivation	-3904
▁superstruct	-3905
eg	-3906
še	-3907
Who	-3908
fer	-3909
uti	-3910
utî	-3911
zuh	-3912
ccia	-3913
ging	-3914
ices	-3915
irra	-3916
lamû	-3917
umph	-3918
▁Ind	-3919
▁Mug	-3920
▁Tah	-3921
▁Zer	-3922
▁inl	-3923
Ištar	-3924
arted	-3925
ident	-3926
ulayu	-3927
▁Bull	-3928
▁awes	-3929
▁both	-3930
▁corv	-3931
▁once	-3932
▁šēpi	-3933
isance	-3934
▁bowls	-3935
▁conce	-3936
▁dates	-3937
▁threw	-3938
▁twice	-3939
▁wears	-3940
▁width	-3941
▁wrong	-3942
ušallim	-3943
▁labour	-3944
▁plenty	-3945
▁struct	-3946
▁undist	-3947
▁ancient	-3948
▁dispers	-3949
▁escaped	-3950
▁instead	-3951
organized	-3952
▁approach	-3953
▁guardian	-3954
▁splendor	-3955
▁utensils	-3956
▁obeisance	-3957
▁undisturbed	-3958
▁superstructure	-3959
hi	-3960
bes	-3961
god	-3962
ikh	-3963
ilk	-3964
kal	-3965
liš	-3966
tem	-3967
zib	-3968
▁Ru	-3969
▁ce	-3970
▁ol	-3971
cent	-3972
chol	-3973
duru	-3974
ener	-3975
ider	-3976
kiah	-3977
usts	-3978
▁(64	-3979
▁Kil	-3980
▁Lah	-3981
▁cal	-3982
▁dyn	-3983
▁ver	-3984
▁Gods	-3985
▁heir	-3986
▁rear	-3987
▁ture	-3988
endent	-3989
ficial	-3990
morrow	-3991
nerari	-3992
zekiah	-3993
zuhina	-3994
▁Where	-3995
▁adorn	-3996
▁akītu	-3997
▁array	-3998
▁fixed	-3999
▁moved	-4000
▁piled	-4001
▁spent	-4002
▁storm	-4003
emorial	-4004
▁always	-4005
▁neglig	-4006
▁sheikh	-4007
▁Mugallu	-4008
▁advance	-4009
▁breccia	-4010
▁release	-4011
▁rituals	-4012
▁waiting	-4013
▁achieved	-4014
▁destroys	-4015
▁standing	-4016
▁tomorrow	-4017
▁beautiful	-4018
▁immemorial	-4019
▁privileged	-4020
▁procession	-4021
▁recognition	-4022
▁slaughtered	-4023
arm	-4024
▁!"	-4025
▁(7	-4026
▁Da	-4027
▁Em	-4028
buil	-4029
lace	-4030
lict	-4031
otro	-4032
urtu	-4033
yria	-4034
▁60)	-4035
▁Day	-4036
▁Reg	-4037
▁Yas	-4038
▁awe	-4039
▁cow	-4040
▁dro	-4041
▁dry	-4042
▁sou	-4043
ašmaš	-4044
board	-4045
ching	-4046
iless	-4047
omers	-4048
▁Land	-4049
▁bene	-4050
▁drag	-4051
▁irri	-4052
▁moat	-4053
▁reed	-4054
▁sage	-4055
▁tree	-4056
otropa	-4057
▁baker	-4058
▁deems	-4059
▁dimin	-4060
▁known	-4061
ibility	-4062
mission	-4063
▁Cancer	-4064
▁Ningal	-4065
▁amount	-4066
▁centre	-4067
▁decree	-4068
▁guards	-4069
▁handed	-4070
▁wonder	-4071
▁Dannaya	-4072
▁Ululayu	-4073
▁animals	-4074
▁blessed	-4075
▁borders	-4076
▁garment	-4077
▁incense	-4078
▁locusts	-4079
▁secured	-4080
▁triumph	-4081
▁Arbailayu	-4082
▁aromatics	-4083
▁structure	-4084
▁punishment	-4085
▁unrivalled	-4086
▁recruitment	-4087
bb	-4088
fe	-4089
ua	-4090
ye	-4091
ata	-4092
hil	-4093
nam	-4094
▁),	-4095
▁Az	-4096
▁Si	-4097
▁sn	-4098
itti	-4099
reng	-4100
wine	-4101
ḫalt	-4102
▁Gab	-4103
▁bur	-4104
▁vir	-4105
▁Šep	-4106
ablet	-4107
armer	-4108
olent	-4109
▁Hind	-4110
▁ally	-4111
▁anne	-4112
▁bond	-4113
▁braz	-4114
▁clos	-4115
▁omen	-4116
▁quay	-4117
▁suit	-4118
▁tore	-4119
ertain	-4120
▁Rašil	-4121
▁bedro	-4122
▁deter	-4123
▁etern	-4124
▁leads	-4125
▁mobil	-4126
▁rings	-4127
▁signs	-4128
▁think	-4129
▁utter	-4130
▁anyone	-4131
▁elders	-4132
▁expert	-4133
▁mounts	-4134
▁reside	-4135
▁roofed	-4136
lordship	-4137
otropaic	-4138
▁assault	-4139
▁awesome	-4140
▁conting	-4141
▁keeping	-4142
▁outside	-4143
▁appealed	-4144
▁attacked	-4145
▁business	-4146
▁garrison	-4147
▁location	-4148
▁military	-4149
▁priestly	-4150
▁Akkullanu	-4151
▁inflicted	-4152
▁Ummanaldašu	-4153
▁reorganized	-4154
▁overlordship	-4155
)?	-4156
Go	-4157
alû	-4158
bar	-4159
dan	-4160
igi	-4161
ilī	-4162
kel	-4163
mak	-4164
nel	-4165
pty	-4166
amua	-4167
emon	-4168
eroy	-4169
ries	-4170
▁Ḫil	-4171
again	-4172
ively	-4173
kelon	-4174
mixed	-4175
odder	-4176
place	-4177
thood	-4178
▁(15)	-4179
▁Atar	-4180
▁date	-4181
▁heed	-4182
▁jars	-4183
▁judg	-4184
▁most	-4185
▁obey	-4186
▁thri	-4187
homers	-4188
ourney	-4189
overed	-4190
streng	-4191
▁check	-4192
▁dream	-4193
▁plant	-4194
▁schol	-4195
▁sharp	-4196
Kidmuri	-4197
▁Hamath	-4198
▁change	-4199
▁taking	-4200
▁capable	-4201
▁pleases	-4202
▁resides	-4203
▁setting	-4204
▁someone	-4205
▁telling	-4206
▁thereby	-4207
▁viceroy	-4208
▁whoever	-4209
▁Ashkelon	-4210
▁directed	-4211
▁entrance	-4212
▁relative	-4213
▁merciless	-4214
▁witnesses	-4215
▁demolished	-4216
▁possession	-4217
▁preservation	-4218
.).	-4219
des	-4220
dān	-4221
lic	-4222
psû	-4223
reš	-4224
une	-4225
usâ	-4226
ḫul	-4227
asty	-4228
aṣir	-4229
ibtu	-4230
▁Del	-4231
▁Kul	-4232
▁Kur	-4233
▁Two	-4234
▁dam	-4235
▁led	-4236
asing	-4237
itute	-4238
smith	-4239
▁Mari	-4240
▁glor	-4241
▁hole	-4242
▁tall	-4243
farmer	-4244
ritten	-4245
▁goods	-4246
▁keeps	-4247
▁renew	-4248
▁throw	-4249
šarrani	-4250
▁Deluge	-4251
▁Dunānu	-4252
▁Puqudu	-4253
▁across	-4254
▁appeal	-4255
▁assist	-4256
▁caught	-4257
▁fodder	-4258
▁longer	-4259
▁secure	-4260
▁tureen	-4261
▁Kudurru	-4262
▁Through	-4263
▁correct	-4264
▁desired	-4265
▁devoted	-4266
▁officer	-4267
▁passage	-4268
▁conquest	-4269
▁deported	-4270
▁vegetable	-4271
constructed	-4272
▁apotropaic	-4273
▁confection	-4274
sâ	-4275
zû	-4276
aha	-4277
asi	-4278
pur	-4279
rie	-4280
uda	-4281
uly	-4282
▁80	-4283
biṣu	-4284
city	-4285
dden	-4286
redu	-4287
rise	-4288
ēlet	-4289
▁Aša	-4290
▁Laq	-4291
▁Nur	-4292
▁Sar	-4293
▁gir	-4294
apsed	-4295
aying	-4296
balaṭ	-4297
olesc	-4298
ption	-4299
▁Zeru	-4300
▁farm	-4301
▁grew	-4302
▁lear	-4303
▁loot	-4304
▁wage	-4305
atters	-4306
ašared	-4307
▁Kalḫu	-4308
▁fault	-4309
▁level	-4310
▁mixed	-4311
▁pries	-4312
▁thigh	-4313
▁Tablet	-4314
▁annual	-4315
▁beside	-4316
▁clouds	-4317
▁provis	-4318
▁stalks	-4319
iliation	-4320
strength	-4321
▁Aramean	-4322
▁Ašaredu	-4323
▁Mušezib	-4324
▁adolesc	-4325
▁adorned	-4326
▁brazier	-4327
▁certain	-4328
▁clothed	-4329
▁missing	-4330
▁neither	-4331
▁palaces	-4332
▁prolong	-4333
▁supplic	-4334
▁Kassites	-4335
▁confined	-4336
▁delegate	-4337
▁eternity	-4338
▁selected	-4339
▁weakened	-4340
▁favourable	-4341
▁priesthood	-4342
▁q	-4343
Nan	-4344
Pro	-4345
alâ	-4346
cap	-4347
cub	-4348
elf	-4349
▁No	-4350
▁Qu	-4351
▁So	-4352
ague	-4353
ašuh	-4354
cuts	-4355
flow	-4356
half	-4357
irst	-4358
pass	-4359
uḫḫa	-4360
▁Nam	-4361
▁Zaz	-4362
▁due	-4363
▁ful	-4364
▁van	-4365
lemen	-4366
light	-4367
rated	-4368
trees	-4369
tribe	-4370
wered	-4371
▁Sams	-4372
▁clad	-4373
▁loan	-4374
▁logs	-4375
▁usuf	-4376
▁wadi	-4377
▁Milki	-4378
▁bands	-4379
▁irrig	-4380
▁loved	-4381
▁plann	-4382
▁short	-4383
▁tents	-4384
incense	-4385
▁During	-4386
▁Heaven	-4387
▁allies	-4388
▁courti	-4389
▁finish	-4390
▁floods	-4391
▁lifted	-4392
▁months	-4393
▁sister	-4394
▁stored	-4395
official	-4396
▁Muṣaṣir	-4397
▁achieve	-4398
▁annexed	-4399
▁collect	-4400
▁dynasty	-4401
▁leather	-4402
▁prevail	-4403
▁thought	-4404
▁building	-4405
▁chariote	-4406
▁creation	-4407
▁kindness	-4408
▁messages	-4409
▁usufruct	-4410
▁criminals	-4411
▁exercised	-4412
▁sanctuary	-4413
▁submissive	-4414
▁Furthermore	-4415
▁appropriate	-4416
▁unfavorable	-4417
▁responsibility	-4418
do	-4419
sy	-4420
▁ṣ	-4421
Ash	-4422
cal	-4423
dam	-4424
sol	-4425
sts	-4426
thy	-4427
uma	-4428
ēnu	-4429
▁Ap	-4430
▁Li	-4431
▁cr	-4432
Rusâ	-4433
aced	-4434
ange	-4435
arem	-4436
atch	-4437
eous	-4438
innu	-4439
kenu	-4440
peas	-4441
rian	-4442
shes	-4443
text	-4444
upon	-4445
zeri	-4446
šunu	-4447
▁50)	-4448
▁Dan	-4449
▁Kub	-4450
▁sal	-4451
▁uns	-4452
Syria	-4453
agger	-4454
pread	-4455
unaya	-4456
uspic	-4457
▁(5')	-4458
▁15')	-4459
▁20')	-4460
▁Hitt	-4461
▁Uraš	-4462
▁band	-4463
▁bath	-4464
▁mule	-4465
▁pity	-4466
▁turt	-4467
šumāti	-4468
ḫaltaš	-4469
▁Chief	-4470
▁Ekron	-4471
▁Iddin	-4472
▁Palil	-4473
▁burns	-4474
▁chick	-4475
▁cubit	-4476
▁older	-4477
▁still	-4478
▁thing	-4479
▁tower	-4480
attukku	-4481
▁canals	-4482
▁intent	-4483
▁invest	-4484
▁strike	-4485
▁Taharqa	-4486
▁destiny	-4487
▁incited	-4488
▁shorter	-4489
ellations	-4490
uspicious	-4491
▁Anunnaki	-4492
▁Chaldean	-4493
▁Mušallim	-4494
▁arrested	-4495
▁personal	-4496
▁prepared	-4497
▁suitable	-4498
▁conqueror	-4499
▁regularly	-4500
▁shepherding	-4501
▁expeditionary	-4502
▁reconciliation	-4503
gu	-4504
)."	-4505
alk	-4506
wad	-4507
zar	-4508
ūti	-4509
▁Mu	-4510
▁av	-4511
Amuk	-4512
abši	-4513
airs	-4514
amur	-4515
hect	-4516
idus	-4517
ieft	-4518
imme	-4519
ists	-4520
kill	-4521
omin	-4522
outs	-4523
said	-4524
udah	-4525
umin	-4526
āssu	-4527
▁Gil	-4528
▁Kiš	-4529
▁Lab	-4530
▁Pan	-4531
▁Ull	-4532
▁Zik	-4533
▁mur	-4534
▁Šab	-4535
abibi	-4536
ament	-4537
arsip	-4538
duced	-4539
eared	-4540
igned	-4541
ilāni	-4542
iting	-4543
quest	-4544
▁Barh	-4545
▁Nabu	-4546
▁anni	-4547
▁duty	-4548
▁meal	-4549
▁repe	-4550
▁sick	-4551
▁tram	-4552
▁vess	-4553
levant	-4554
onidus	-4555
▁Arwad	-4556
▁Belat	-4557
▁Bēlet	-4558
▁While	-4559
▁anger	-4560
▁befit	-4561
▁deser	-4562
▁peaks	-4563
▁wides	-4564
ubuškia	-4565
▁august	-4566
▁chieft	-4567
▁nights	-4568
▁progen	-4569
hectares	-4570
▁Meluḫḫa	-4571
▁Samaria	-4572
▁Sealand	-4573
▁pointed	-4574
▁priests	-4575
▁springs	-4576
▁answered	-4577
▁criminal	-4578
▁revealed	-4579
▁sattukku	-4580
▁brickwork	-4581
▁inspected	-4582
▁instigate	-4583
▁Kakkullanu	-4584
▁attendants	-4585
▁widespread	-4586
▁disappeared	-4587
Is	-4588
lī	-4589
aki	-4590
ašš	-4591
gas	-4592
hau	-4593
ics	-4594
jug	-4595
▁Me	-4596
conf	-4597
inth	-4598
lets	-4599
reṣu	-4600
rily	-4601
year	-4602
▁Bur	-4603
▁Kat	-4604
▁kne	-4605
▁wea	-4606
acher	-4607
akkil	-4608
elebr	-4609
ellig	-4610
ented	-4611
ishes	-4612
ously	-4613
▁Also	-4614
▁Sasî	-4615
▁Town	-4616
▁Ursâ	-4617
▁buck	-4618
▁form	-4619
▁seas	-4620
▁supp	-4621
▁Šala	-4622
purple	-4623
unders	-4624
▁Akitu	-4625
▁Mukin	-4626
▁parts	-4627
▁rebel	-4628
▁torch	-4629
▁trade	-4630
▁10,000	-4631
▁celebr	-4632
▁double	-4633
▁massac	-4634
▁repair	-4635
▁subjug	-4636
▁toward	-4637
▁Mannean	-4638
▁Tarbiṣu	-4639
▁Without	-4640
▁control	-4641
▁express	-4642
▁illness	-4643
▁journey	-4644
▁lamassu	-4645
▁Elamites	-4646
▁chanters	-4647
▁daylight	-4648
▁festival	-4649
▁grandson	-4650
▁joyfully	-4651
▁relevant	-4652
▁treacher	-4653
▁befitting	-4654
▁devastate	-4655
▁negligent	-4656
▁physician	-4657
▁renovated	-4658
▁shepherds	-4659
▁adolescent	-4660
▁cavalrymen	-4661
▁meadowland	-4662
▁performing	-4663
▁victorious	-4664
▁instructions	-4665
20	-4666
oo	-4667
Now	-4668
mon	-4669
oom	-4670
she	-4671
uba	-4672
▁33	-4673
▁Mo	-4674
▁Nē	-4675
▁Up	-4676
▁Uš	-4677
▁bu	-4678
akki	-4679
anda	-4680
anki	-4681
cell	-4682
five	-4683
iara	-4684
rent	-4685
uted	-4686
▁70)	-4687
▁Lar	-4688
▁Nip	-4689
▁pen	-4690
ening	-4691
flour	-4692
ilayu	-4693
items	-4694
loose	-4695
mukin	-4696
▁cren	-4697
▁exam	-4698
▁home	-4699
▁humb	-4700
▁need	-4701
▁onto	-4702
▁poor	-4703
▁scar	-4704
▁sell	-4705
▁soil	-4706
▁walk	-4707
Nanaya	-4708
formed	-4709
ourage	-4710
urbail	-4711
▁advan	-4712
▁clear	-4713
▁fifty	-4714
▁liver	-4715
▁necks	-4716
▁saved	-4717
▁waste	-4718
balassu	-4719
portant	-4720
▁Barhal	-4721
▁common	-4722
▁gather	-4723
▁olives	-4724
▁rivers	-4725
▁spiced	-4726
▁spread	-4727
▁Katmuḫu	-4728
▁farmers	-4729
▁interru	-4730
▁outflow	-4731
▁plotted	-4732
▁rejoice	-4733
▁Mutakkil	-4734
▁exempted	-4735
▁peaceful	-4736
▁Nabonidus	-4737
▁concluded	-4738
▁countless	-4739
▁entourage	-4740
▁forgotten	-4741
▁vineyards	-4742
▁Babylonian	-4743
▁auspicious	-4744
▁circumspect	-4745
▁crenellations	-4746
60	-4747
iṣ	-4748
qâ	-4749
sl	-4750
yu	-4751
āṭ	-4752
cam	-4753
eed	-4754
fts	-4755
ift	-4756
nip	-4757
orm	-4758
rag	-4759
rif	-4760
urr	-4761
īša	-4762
ūnu	-4763
ūri	-4764
▁Šu	-4765
aded	-4766
auta	-4767
domo	-4768
eder	-4769
rick	-4770
tled	-4771
unks	-4772
▁1/3	-4773
▁Sir	-4774
▁bru	-4775
▁eag	-4776
▁leg	-4777
▁pie	-4778
▁urn	-4779
▁vig	-4780
after	-4781
arrow	-4782
ashed	-4783
aḫalû	-4784
obody	-4785
▁Adda	-4786
▁Kipp	-4787
▁arch	-4788
▁bese	-4789
▁ears	-4790
▁gent	-4791
▁inex	-4792
▁puts	-4793
▁valu	-4794
imirra	-4795
ounded	-4796
reṣuwa	-4797
▁Until	-4798
▁ahead	-4799
▁claim	-4800
▁faith	-4801
▁goose	-4802
▁grasp	-4803
▁grown	-4804
▁paths	-4805
▁Erišum	-4806
▁consid	-4807
▁felled	-4808
▁leader	-4809
▁relied	-4810
▁street	-4811
▁tailor	-4812
▁terrif	-4813
military	-4814
▁angrily	-4815
▁decrees	-4816
▁objects	-4817
▁planned	-4818
▁produce	-4819
▁progeny	-4820
▁skilled	-4821
▁controls	-4822
▁interest	-4823
▁necklace	-4824
▁officers	-4825
▁pleasant	-4826
▁thunders	-4827
▁yourself	-4828
▁inspector	-4829
▁transport	-4830
▁victories	-4831
Sh	-4832
bâ	-4833
ek	-4834
fif	-4835
idi	-4836
ral	-4837
ušu	-4838
ūtu	-4839
▁Ag	-4840
Come	-4841
ails	-4842
aktu	-4843
alim	-4844
almu	-4845
asti	-4846
atnu	-4847
erve	-4848
held	-4849
ouch	-4850
post	-4851
time	-4852
whom	-4853
▁75)	-4854
▁Kip	-4855
▁Tak	-4856
▁obl	-4857
▁pig	-4858
There	-4859
Where	-4860
amanu	-4861
arded	-4862
imate	-4863
inter	-4864
lišir	-4865
▁King	-4866
▁Susa	-4867
▁Then	-4868
▁agre	-4869
▁cold	-4870
▁crus	-4871
▁deep	-4872
▁hamm	-4873
▁lieu	-4874
▁memb	-4875
▁roll	-4876
▁spir	-4877
▁stew	-4878
▁swam	-4879
▁tear	-4880
▁Ḫiri	-4881
Ešarra	-4882
horses	-4883
remely	-4884
saying	-4885
▁(10')	-4886
▁Regul	-4887
▁agate	-4888
▁break	-4889
▁forty	-4890
▁loose	-4891
▁negle	-4892
▁spare	-4893
contain	-4894
spiring	-4895
▁Ahlamû	-4896
▁Guzana	-4897
▁choice	-4898
▁eating	-4899
▁excell	-4900
▁images	-4901
▁itself	-4902
▁kidney	-4903
▁mouths	-4904
▁plants	-4905
▁revere	-4906
▁review	-4907
▁ruined	-4908
▁superv	-4909
▁supply	-4910
▁tables	-4911
▁theirs	-4912
▁trampl	-4913
▁urnutu	-4914
Property	-4915
▁censers	-4916
▁marshes	-4917
▁scribes	-4918
▁Egyptian	-4919
▁Hezekiah	-4920
▁advanced	-4921
▁crossing	-4922
▁fattened	-4923
▁hostages	-4924
▁occurred	-4925
containers	-4926
▁commandant	-4927
▁contingent	-4928
▁charioteers	-4929
▁confectioner	-4930
-(	-4931
?”	-4932
co	-4933
za	-4934
▁ḫ	-4935
Aya	-4936
How	-4937
dod	-4938
izi	-4939
kab	-4940
▁Iq	-4941
▁Or	-4942
Dakk	-4943
akka	-4944
both	-4945
dalâ	-4946
immu	-4947
kina	-4948
yond	-4949
▁(65	-4950
▁65)	-4951
▁Arz	-4952
▁Dēr	-4953
▁Has	-4954
▁Her	-4955
▁Nad	-4956
▁Naṣ	-4957
▁Sim	-4958
▁bol	-4959
▁eff	-4960
▁ens	-4961
▁pet	-4962
▁tie	-4963
▁tun	-4964
andab	-4965
enter	-4966
iding	-4967
ighth	-4968
lands	-4969
oment	-4970
▁Aqar	-4971
▁Gaza	-4972
▁Ukku	-4973
▁post	-4974
▁prel	-4975
▁prot	-4976
▁sown	-4977
▁thor	-4978
▁upro	-4979
utians	-4980
▁2,000	-4981
▁Gabbu	-4982
▁Yasub	-4983
▁early	-4984
▁fates	-4985
▁freed	-4986
▁marri	-4987
▁rooms	-4988
▁seals	-4989
▁sides	-4990
▁Ashdod	-4991
▁Kippat	-4992
▁Zarutî	-4993
▁bestow	-4994
▁bridle	-4995
▁heaped	-4996
▁narrow	-4997
▁virile	-4998
▁wealth	-4999
▁Šubaru	-5000
▁šandab	-5001
▁Madaktu	-5002
▁citadel	-5003
▁creator	-5004
▁divided	-5005
▁letters	-5006
▁located	-5007
▁massive	-5008
▁matters	-5009
▁product	-5010
▁rations	-5011
▁steward	-5012
▁streets	-5013
▁Ḫindānu	-5014
confirmed	-5015
▁diminish	-5016
▁entering	-5017
▁thorough	-5018
▁upstream	-5019
▁valuable	-5020
▁withheld	-5021
▁countries	-5022
▁extremely	-5023
▁goldsmith	-5024
▁preserved	-5025
▁righteous	-5026
▁stretches	-5027
▁assignment	-5028
▁considered	-5029
▁emissaries	-5030
▁skillfully	-5031
▁grandfather	-5032
Il	-5033
bs	-5034
tr	-5035
▁i	-5036
aḫi	-5037
dur	-5038
elt	-5039
emp	-5040
ira	-5041
law	-5042
mes	-5043
niš	-5044
pad	-5045
ump	-5046
āte	-5047
īya	-5048
ūma	-5049
▁70	-5050
▁Uq	-5051
▁ur	-5052
Give	-5053
Mull	-5054
Send	-5055
alem	-5056
band	-5057
erus	-5058
issi	-5059
line	-5060
mina	-5061
pani	-5062
rite	-5063
ugit	-5064
ummu	-5065
ving	-5066
▁Abī	-5067
▁ayu	-5068
▁cer	-5069
▁fer	-5070
Ashur	-5071
ailed	-5072
ances	-5073
ashes	-5074
ately	-5075
icing	-5076
iqīša	-5077
ledge	-5078
nipha	-5079
omach	-5080
paths	-5081
▁Bahi	-5082
▁Laqû	-5083
▁Padî	-5084
▁Sang	-5085
▁Sham	-5086
▁Step	-5087
▁blue	-5088
▁brib	-5089
▁carp	-5090
▁cone	-5091
▁dues	-5092
▁lore	-5093
▁palm	-5094
▁pron	-5095
▁snow	-5096
▁weep	-5097
balliṭ	-5098
cubits	-5099
emphis	-5100
iliary	-5101
ration	-5102
shaped	-5103
should	-5104
stones	-5105
ušabši	-5106
▁Našuh	-5107
▁Remut	-5108
▁Sagab	-5109
▁Zakir	-5110
▁avail	-5111
▁brace	-5112
▁broke	-5113
▁fugit	-5114
▁honor	-5115
▁opens	-5116
▁ready	-5117
▁Ḫabḫu	-5118
already	-5119
▁Having	-5120
▁advers	-5121
▁alters	-5122
▁archit	-5123
▁formed	-5124
▁moment	-5125
▁revolt	-5126
▁strife	-5127
▁throws	-5128
▁trunks	-5129
▁yearly	-5130
erusalem	-5131
killanni	-5132
ommander	-5133
▁Bahianu	-5134
▁Emašmaš	-5135
▁Regulus	-5136
▁citizen	-5137
▁fifteen	-5138
▁foreign	-5139
▁inquire	-5140
▁started	-5141
▁stomach	-5142
▁turtled	-5143
inspiring	-5144
offerings	-5145
▁Arzuhina	-5146
▁Indabibi	-5147
▁clothing	-5148
▁detained	-5149
▁hammurtu	-5150
▁reported	-5151
▁speaking	-5152
▁gentlemen	-5153
▁libations	-5154
▁massacred	-5155
▁merchants	-5156
▁rejoicing	-5157
▁remainder	-5158
▁slaughter	-5159
▁cultivated	-5160
▁storehouse	-5161
▁substitute	-5162
▁šandabakku	-5163
▁accordingly	-5164
▁unsubmissive	-5165
Be	-5166
nî	-5167
pâ	-5168
ṭi	-5169
ahh	-5170
aqq	-5171
aze	-5172
bro	-5173
mar	-5174
ram	-5175
rum	-5176
sil	-5177
uṭu	-5178
yan	-5179
▁ha	-5180
aned	-5181
buch	-5182
edge	-5183
leep	-5184
made	-5185
olds	-5186
ried	-5187
tees	-5188
uruš	-5189
view	-5190
your	-5191
šaya	-5192
▁120	-5193
▁500	-5194
▁Laṣ	-5195
▁Maz	-5196
▁aux	-5197
▁boy	-5198
▁cre	-5199
▁eye	-5200
▁fat	-5201
▁fle	-5202
▁fro	-5203
▁ste	-5204
▁sto	-5205
adnez	-5206
bilti	-5207
ences	-5208
eness	-5209
inent	-5210
ution	-5211
▁Have	-5212
▁Haza	-5213
▁News	-5214
▁Ninu	-5215
▁Qutu	-5216
▁belt	-5217
▁corp	-5218
▁dyed	-5219
▁flew	-5220
▁meet	-5221
▁sust	-5222
▁trav	-5223
▁Ḫarḫ	-5224
aining	-5225
cepted	-5226
lation	-5227
tribes	-5228
▁Arpad	-5229
▁Later	-5230
▁Melid	-5231
▁Nipur	-5232
▁banqu	-5233
▁court	-5234
▁debts	-5235
▁hills	-5236
▁lambs	-5237
▁noble	-5238
▁rides	-5239
▁togas	-5240
▁yours	-5241
verness	-5242
▁Kaštar	-5243
▁arrang	-5244
▁beyond	-5245
▁brewer	-5246
▁cultic	-5247
▁murder	-5248
▁refuge	-5249
▁Bulluṭu	-5250
▁Tebilti	-5251
▁appears	-5252
▁perhaps	-5253
▁pronoun	-5254
▁trodden	-5255
▁wording	-5256
buchadnez	-5257
▁Whatever	-5258
▁departed	-5259
▁determin	-5260
▁interior	-5261
▁repeated	-5262
▁Babylonia	-5263
▁auxiliary	-5264
▁cultivate	-5265
▁regarding	-5266
▁prosperity	-5267
Te	-5268
ūn	-5269
azu	-5270
dge	-5271
isf	-5272
kka	-5273
oth	-5274
six	-5275
son	-5276
usi	-5277
▁(4	-5278
▁ty	-5279
agal	-5280
alik	-5281
away	-5282
bowl	-5283
dini	-5284
duty	-5285
ends	-5286
foot	-5287
itud	-5288
oked	-5289
wall	-5290
ṣill	-5291
▁Ber	-5292
▁Had	-5293
▁Ina	-5294
▁Maš	-5295
▁Met	-5296
▁Sur	-5297
▁ant	-5298
▁hin	-5299
▁lar	-5300
▁mal	-5301
▁ped	-5302
▁rab	-5303
▁sho	-5304
amber	-5305
ammiq	-5306
brick	-5307
igall	-5308
ighty	-5309
isted	-5310
metal	-5311
▁Dadî	-5312
▁Ever	-5313
▁Fear	-5314
▁Išme	-5315
▁Mati	-5316
▁Rapi	-5317
▁apsû	-5318
▁dust	-5319
▁harm	-5320
▁nind	-5321
▁shut	-5322
▁suff	-5323
▁tomb	-5324
ateans	-5325
oubled	-5326
turned	-5327
▁Eridu	-5328
▁Media	-5329
▁Seven	-5330
▁areas	-5331
▁depor	-5332
▁displ	-5333
▁emble	-5334
▁grass	-5335
▁human	-5336
▁meets	-5337
▁occup	-5338
▁share	-5339
▁sleep	-5340
▁wells	-5341
▁wheat	-5342
balāssu	-5343
juniper	-5344
▁Lahiru	-5345
▁Nagītu	-5346
▁Nanāya	-5347
▁Thebes	-5348
▁arrows	-5349
▁behalf	-5350
▁dagger	-5351
▁endure	-5352
▁joyful	-5353
▁larger	-5354
▁pledge	-5355
▁really	-5356
▁satisf	-5357
▁swamps	-5358
▁walled	-5359
▁zaḫalû	-5360
▁Ḫarḫar	-5361
portions	-5362
▁Hittite	-5363
▁Memphis	-5364
▁Written	-5365
▁Zikirtu	-5366
▁already	-5367
▁anybody	-5368
▁bearers	-5369
▁chamber	-5370
▁dragged	-5371
▁guarant	-5372
▁prepare	-5373
▁prevent	-5374
▁renders	-5375
▁trained	-5376
igallians	-5377
▁Babilayu	-5378
▁accepted	-5379
▁intellig	-5380
▁judgment	-5381
▁measured	-5382
▁scholars	-5383
▁Kaštaritu	-5384
▁alongside	-5385
▁governess	-5386
▁something	-5387
▁afterwards	-5388
▁boundaries	-5389
▁provisions	-5390
▁questioned	-5391
buchadnezzar	-5392
▁arrangement	-5393
▁translation	-5394
▁turtledoves	-5395
▁Yasubigallians	-5396
)!	-5397
lū	-5398
mi	-5399
Dak	-5400
Sîn	-5401
ety	-5402
ham	-5403
imb	-5404
kes	-5405
tro	-5406
īru	-5407
ššu	-5408
ṣur	-5409
▁34	-5410
▁Pa	-5411
▁ef	-5412
agar	-5413
also	-5414
ašme	-5415
emma	-5416
fice	-5417
hinu	-5418
ibly	-5419
igin	-5420
ilic	-5421
inua	-5422
opol	-5423
raud	-5424
rawn	-5425
reak	-5426
unga	-5427
uzur	-5428
▁Gir	-5429
▁Kap	-5430
▁Lib	-5431
▁Set	-5432
▁Sum	-5433
▁alm	-5434
▁fit	-5435
▁ind	-5436
▁sol	-5437
▁vac	-5438
amban	-5439
arrān	-5440
asted	-5441
field	-5442
frain	-5443
lumur	-5444
līšir	-5445
otted	-5446
quake	-5447
rible	-5448
rison	-5449
usunu	-5450
āṭāya	-5451
▁(20)	-5452
▁Babu	-5453
▁Banî	-5454
▁aslu	-5455
▁aven	-5456
▁grow	-5457
▁hard	-5458
▁move	-5459
▁sees	-5460
▁skin	-5461
▁soup	-5462
▁talk	-5463
Barsip	-5464
Should	-5465
arruqu	-5466
ritual	-5467
silver	-5468
ušezib	-5469
▁Parsu	-5470
▁armed	-5471
▁bones	-5472
▁fraud	-5473
▁harem	-5474
▁imple	-5475
▁picks	-5476
▁strew	-5477
foreign	-5478
thening	-5479
▁Kilizi	-5480
▁Rapiqu	-5481
▁abodes	-5482
▁decide	-5483
▁eighth	-5484
▁enclos	-5485
▁heroic	-5486
▁repres	-5487
▁ruling	-5488
▁submit	-5489
▁swings	-5490
▁vacant	-5491
▁weaned	-5492
antation	-5493
▁Barruqu	-5494
▁Kummuḫu	-5495
▁accompl	-5496
▁annihil	-5497
▁apprent	-5498
▁bearded	-5499
▁captive	-5500
▁changes	-5501
▁endowed	-5502
▁eršemma	-5503
▁extreme	-5504
▁fighter	-5505
▁freedom	-5506
▁hinhinu	-5507
▁leaders	-5508
▁outpost	-5509
▁quinces	-5510
▁request	-5511
▁revered	-5512
▁sunrise	-5513
▁Balāṭāya	-5514
▁attached	-5515
▁collated	-5516
▁entirely	-5517
▁agreement	-5518
▁available	-5519
▁correctly	-5520
▁courtiers	-5521
▁deportees	-5522
▁destinies	-5523
▁excellent	-5524
▁important	-5525
▁sacrifice	-5526
▁stretched	-5527
galkurkurra	-5528
lamentation	-5529
▁assistance	-5530
▁experience	-5531
▁permission	-5532
▁rebellious	-5533
▁forefathers	-5534
▁information	-5535
▁Nebuchadnezzar	-5536
(-	-5537
Ur	-5538
sw	-5539
For	-5540
adu	-5541
aḫu	-5542
ipâ	-5543
irm	-5544
kir	-5545
oud	-5546
pes	-5547
rim	-5548
str	-5549
sue	-5550
two	-5551
yes	-5552
ība	-5553
▁32	-5554
▁Eb	-5555
amma	-5556
ania	-5557
blos	-5558
bred	-5559
dāri	-5560
gold	-5561
gran	-5562
icol	-5563
ighb	-5564
ilku	-5565
keys	-5566
kind	-5567
mans	-5568
metu	-5569
muše	-5570
rabi	-5571
ulum	-5572
vess	-5573
yada	-5574
zana	-5575
▁Hat	-5576
▁III	-5577
▁Kab	-5578
▁Leo	-5579
▁Son	-5580
▁bod	-5581
▁bud	-5582
▁gho	-5583
▁hit	-5584
▁hot	-5585
▁jew	-5586
▁ket	-5587
▁mis	-5588
▁sis	-5589
▁vat	-5590
▁wed	-5591
Ninua	-5592
Nusku	-5593
azing	-5594
deeds	-5595
erday	-5596
lašme	-5597
orrow	-5598
thern	-5599
▁Mard	-5600
▁Moab	-5601
▁Nanî	-5602
▁Sard	-5603
▁fact	-5604
▁pack	-5605
▁pome	-5606
▁rage	-5607
▁ring	-5608
▁seek	-5609
▁suck	-5610
▁wing	-5611
reated	-5612
urušpâ	-5613
▁Ašipâ	-5614
▁Erība	-5615
▁Every	-5616
▁Igigi	-5617
▁Naṣib	-5618
▁Since	-5619
▁Yakīn	-5620
▁banks	-5621
▁beast	-5622
▁chest	-5623
▁deity	-5624
▁dying	-5625
▁envoy	-5626
▁nomin	-5627
▁ornam	-5628
▁parap	-5629
▁stock	-5630
▁tremb	-5631
manship	-5632
▁Byblos	-5633
▁Dilbat	-5634
▁batter	-5635
▁bodies	-5636
▁corpse	-5637
▁domest	-5638
▁fallow	-5639
▁flayed	-5640
▁mounds	-5641
▁neighb	-5642
▁onions	-5643
▁pedest	-5644
▁plough	-5645
▁showed	-5646
▁speaks	-5647
▁writes	-5648
aranteed	-5649
esterday	-5650
▁Karalla	-5651
▁Kurbail	-5652
▁Refrain	-5653
▁furious	-5654
▁learned	-5655
▁numbers	-5656
▁prelate	-5657
▁radiant	-5658
▁sheikhs	-5659
▁wedding	-5660
▁Ḫilakku	-5661
intendent	-5662
šezibanni	-5663
▁colossus	-5664
▁darkness	-5665
▁detached	-5666
▁imprison	-5667
▁lengthen	-5668
▁multicol	-5669
▁petition	-5670
▁repaired	-5671
▁required	-5672
▁superior	-5673
▁terrible	-5674
confection	-5675
▁agreeable	-5676
▁battering	-5677
▁childhood	-5678
▁collapsed	-5679
▁harnessed	-5680
▁knowledge	-5681
▁shoulders	-5682
▁altogether	-5683
▁discovered	-5684
▁earthquake	-5685
▁personally	-5686
▁reconciled	-5687
▁stretching	-5688
On	-5689
ih	-5690
.'"	-5691
Kub	-5692
Pal	-5693
aur	-5694
irr	-5695
rid	-5696
sam	-5697
sed	-5698
udû	-5699
▁Du	-5700
▁Go	-5701
)...	-5702
alhu	-5703
altâ	-5704
deal	-5705
epsy	-5706
epuš	-5707
inti	-5708
medi	-5709
rand	-5710
ubaš	-5711
urna	-5712
ṣiru	-5713
▁150	-5714
▁400	-5715
▁Arb	-5716
▁Ayy	-5717
▁Bet	-5718
▁Ken	-5719
▁Mal	-5720
▁Sap	-5721
▁Upp	-5722
▁dap	-5723
▁ing	-5724
▁sap	-5725
▁Ḫan	-5726
Yakin	-5727
eroom	-5728
estin	-5729
icked	-5730
idian	-5731
ilaya	-5732
leads	-5733
milki	-5734
parna	-5735
seeds	-5736
▁Alzu	-5737
▁Anzû	-5738
▁Gilz	-5739
▁eans	-5740
▁epil	-5741
▁fame	-5742
▁gown	-5743
▁kern	-5744
▁lays	-5745
▁lock	-5746
▁loss	-5747
▁next	-5748
▁plat	-5749
▁pots	-5750
▁robb	-5751
▁rode	-5752
▁scor	-5753
▁slew	-5754
▁wear	-5755
Inurta	-5756
Tukult	-5757
astern	-5758
bunaya	-5759
edient	-5760
estine	-5761
mušeṣi	-5762
nelian	-5763
▁First	-5764
▁Puzur	-5765
▁Samsi	-5766
▁Ubulu	-5767
▁besie	-5768
▁chair	-5769
▁depri	-5770
▁empty	-5771
▁fifth	-5772
▁grove	-5773
▁mares	-5774
▁oppon	-5775
▁shiny	-5776
▁sixth	-5777
▁sixty	-5778
▁valor	-5779
▁wives	-5780
▁Asallu	-5781
▁Ayyāru	-5782
▁Nobody	-5783
▁Rising	-5784
▁Rivers	-5785
▁eighty	-5786
▁expand	-5787
▁pulled	-5788
▁rebuil	-5789
▁scared	-5790
▁scouts	-5791
▁slaves	-5792
▁thrown	-5793
▁transg	-5794
▁useful	-5795
▁Šubria	-5796
▁Damkina	-5797
▁Mazamua	-5798
▁ceasing	-5799
▁closely	-5800
▁daprānu	-5801
▁effaced	-5802
▁fortune	-5803
▁intones	-5804
▁kernels	-5805
▁mankind	-5806
▁members	-5807
▁sisalhu	-5808
▁smaller	-5809
▁strives	-5810
▁working	-5811
▁intercal	-5812
▁pomegran	-5813
▁properly	-5814
▁troubled	-5815
▁dwellings	-5816
▁remaining	-5817
▁threshold	-5818
▁overturned	-5819
▁positioned	-5820
▁terrifying	-5821
";	-5822
';	-5823
.,	-5824
Ab	-5825
Gu	-5826
ga	-5827
Sin	-5828
amz	-5829
auš	-5830
bur	-5831
fto	-5832
keh	-5833
mat	-5834
mun	-5835
ulî	-5836
īti	-5837
▁Eš	-5838
atua	-5839
aḫḫē	-5840
base	-5841
cont	-5842
dish	-5843
ipes	-5844
isor	-5845
išnu	-5846
rant	-5847
spab	-5848
weet	-5849
ēzib	-5850
šūma	-5851
▁(67	-5852
▁1/4	-5853
▁600	-5854
▁80)	-5855
▁85)	-5856
▁Bub	-5857
▁Tem	-5858
▁bas	-5859
▁bou	-5860
▁cru	-5861
▁ord	-5862
▁rib	-5863
Adini	-5864
Bring	-5865
abbar	-5866
idden	-5867
illon	-5868
ingly	-5869
itude	-5870
lings	-5871
plant	-5872
sworn	-5873
tekeh	-5874
uball	-5875
udges	-5876
▁25')	-5877
▁Ahhe	-5878
▁Antu	-5879
▁Enem	-5880
▁Etem	-5881
▁Gabb	-5882
▁Lull	-5883
▁Mand	-5884
▁Tamn	-5885
▁bind	-5886
▁curs	-5887
▁grie	-5888
▁pred	-5889
▁such	-5890
ahunga	-5891
enance	-5892
idence	-5893
igalzu	-5894
illaya	-5895
keeper	-5896
proper	-5897
urable	-5898
▁3,000	-5899
▁Check	-5900
▁Imgur	-5901
▁Larak	-5902
▁Three	-5903
▁exist	-5904
▁impro	-5905
▁quant	-5906
▁roads	-5907
▁roast	-5908
▁rumor	-5909
▁scept	-5910
▁snake	-5911
▁vines	-5912
▁Ḫusur	-5913
Amukani	-5914
ensions	-5915
ftovers	-5916
keepers	-5917
spabāra	-5918
▁Damunu	-5919
▁Hazael	-5920
▁Inside	-5921
▁Nadinu	-5922
▁Naṣiru	-5923
▁Zabinu	-5924
▁bearer	-5925
▁cloudy	-5926
▁curled	-5927
▁except	-5928
▁gained	-5929
▁humble	-5930
▁layers	-5931
▁market	-5932
▁sacred	-5933
▁stayed	-5934
▁thrice	-5935
▁weaver	-5936
▁winter	-5937
▁Šuanna	-5938
Šarrukin	-5939
Šarrukku	-5940
▁Eltekeh	-5941
▁afflict	-5942
▁clothes	-5943
▁decided	-5944
▁helpers	-5945
▁invited	-5946
▁pasture	-5947
▁reduced	-5948
▁refused	-5949
▁strikes	-5950
▁surpass	-5951
▁thereon	-5952
▁treated	-5953
Palestine	-5954
commander	-5955
mediately	-5956
▁bouillon	-5957
▁boundary	-5958
▁dispatch	-5959
▁drinking	-5960
▁epilepsy	-5961
▁interced	-5962
▁obsidian	-5963
▁outposts	-5964
▁reverent	-5965
▁trampled	-5966
Guaranteed	-5967
▁bracelets	-5968
▁confident	-5969
▁dispersed	-5970
▁eršahunga	-5971
▁determined	-5972
▁dimensions	-5973
▁implements	-5974
▁obligation	-5975
▁repeatedly	-5976
▁subjugated	-5977
▁appropriated	-5978
▁successfully	-5979
▁thoroughbred	-5980
▁supplications	-5981
,2	-5982
30	-5983
Do	-5984
Es	-5985
Lû	-5986
cu	-5987
gg	-5988
ny	-5989
ūz	-5990
500	-5991
Bīt	-5992
Imb	-5993
Kil	-5994
asa	-5995
ded	-5996
fty	-5997
ien	-5998
ilâ	-5999
inn	-6000
iod	-6001
lib	-6002
oms	-6003
rul	-6004
uku	-6005
yth	-6006
ātu	-6007
▁"(	-6008
▁Bā	-6009
▁Ex	-6010
▁Pe	-6011
▁aš	-6012
aked	-6013
arsa	-6014
ereb	-6015
fall	-6016
iber	-6017
irsu	-6018
nant	-6019
ours	-6020
prov	-6021
umma	-6022
unar	-6023
uses	-6024
▁Nir	-6025
▁Pur	-6026
▁Ram	-6027
▁Yad	-6028
▁Ziz	-6029
▁buy	-6030
▁exc	-6031
▁inf	-6032
▁sev	-6033
Dagan	-6034
Illil	-6035
adanu	-6036
amzaḫ	-6037
assar	-6038
ature	-6039
inate	-6040
inner	-6041
ipped	-6042
rehen	-6043
ually	-6044
ūzubu	-6045
▁Dadi	-6046
▁Erra	-6047
▁Eṭir	-6048
▁Give	-6049
▁born	-6050
▁cass	-6051
▁cler	-6052
▁disk	-6053
▁dogs	-6054
▁expl	-6055
▁feed	-6056
▁flee	-6057
▁legs	-6058
▁less	-6059
▁lift	-6060
▁peak	-6061
▁roam	-6062
▁test	-6063
▁till	-6064
▁vast	-6065
▁wail	-6066
ainers	-6067
atives	-6068
kalama	-6069
making	-6070
menanu	-6071
orship	-6072
šumati	-6073
▁Daltâ	-6074
▁Musku	-6075
▁Scyth	-6076
▁apart	-6077
▁belie	-6078
▁blows	-6079
▁exhau	-6080
▁frost	-6081
▁fully	-6082
▁gowns	-6083
▁state	-6084
▁sworn	-6085
▁tereb	-6086
▁vanqu	-6087
▁wrath	-6088
▁Ḫaldi	-6089
bearers	-6090
itimate	-6091
▁Destin	-6092
▁Review	-6093
▁bakers	-6094
▁beasts	-6095
▁consum	-6096
▁depart	-6097
▁kindly	-6098
▁needed	-6099
▁ordeal	-6100
▁plague	-6101
▁quakes	-6102
▁series	-6103
▁silent	-6104
▁tunics	-6105
▁Šumaya	-6106
Kilamzaḫ	-6107
tersweet	-6108
▁Mitinti	-6109
▁Ninuayu	-6110
▁Shamash	-6111
▁banquet	-6112
▁bedrock	-6113
▁bruised	-6114
▁buckled	-6115
▁checked	-6116
▁crushed	-6117
▁deliber	-6118
▁distrib	-6119
▁reddish	-6120
▁roasted	-6121
▁sanctum	-6122
▁worried	-6123
opolassar	-6124
▁Hubuškia	-6125
▁annually	-6126
▁informed	-6127
▁inquired	-6128
▁insolent	-6129
▁merciful	-6130
▁observed	-6131
▁seizures	-6132
▁Destinies	-6133
▁carnelian	-6134
▁concerned	-6135
▁exorcists	-6136
▁firmament	-6137
▁terebinth	-6138
▁treachery	-6139
▁chieftains	-6140
▁difficulty	-6141
▁irrigation	-6142
▁quantities	-6143
▁bittersweet	-6144
▁immediately	-6145
▁incantation	-6146
▁investigate	-6147
▁lengthening	-6148
▁observation	-6149
▁processional	-6150
▁disappearance	-6151
,1	-6152
80	-6153
Se	-6154
rā	-6155
▁ē	-6156
Bun	-6157
Per	-6158
apa	-6159
azi	-6160
dec	-6161
div	-6162
iln	-6163
nir	-6164
zaš	-6165
ṣab	-6166
▁Op	-6167
Imbî	-6168
ammu	-6169
angu	-6170
atar	-6171
bird	-6172
born	-6173
etel	-6174
inni	-6175
laid	-6176
like	-6177
lled	-6178
manu	-6179
meas	-6180
mine	-6181
oute	-6182
pert	-6183
ukki	-6184
unna	-6185
urtî	-6186
urzu	-6187
▁(69	-6188
▁Har	-6189
▁Kam	-6190
▁Nar	-6191
▁Nuh	-6192
▁Pis	-6193
▁amb	-6194
▁dir	-6195
▁dit	-6196
▁fly	-6197
▁fre	-6198
▁hoe	-6199
▁kur	-6200
▁Ḫum	-6201
Write	-6202
bowls	-6203
build	-6204
cibly	-6205
demon	-6206
fifty	-6207
horse	-6208
psalm	-6209
ropri	-6210
usion	-6211
water	-6212
whose	-6213
▁30')	-6214
▁Addî	-6215
▁Dari	-6216
▁Ereš	-6217
▁Kark	-6218
▁clam	-6219
▁deer	-6220
▁dren	-6221
▁gran	-6222
▁harb	-6223
▁ilku	-6224
▁kiln	-6225
▁pest	-6226
▁sits	-6227
▁sure	-6228
▁torn	-6229
▁Šuma	-6230
Dakuri	-6231
origin	-6232
temple	-6233
thirds	-6234
▁Kakka	-6235
▁Kumme	-6236
▁Marad	-6237
▁Nēmed	-6238
▁Parrû	-6239
▁Queen	-6240
▁altar	-6241
▁consp	-6242
▁drawn	-6243
▁drove	-6244
▁feroc	-6245
▁gener	-6246
▁griev	-6247
▁harsh	-6248
▁langu	-6249
▁poles	-6250
▁rolls	-6251
▁route	-6252
▁shown	-6253
▁skins	-6254
▁track	-6255
lawsuit	-6256
▁Etemen	-6257
▁Taklak	-6258
▁bridge	-6259
▁crafty	-6260
▁debris	-6261
▁eldest	-6262
▁inlaid	-6263
▁please	-6264
▁record	-6265
▁refuse	-6266
▁select	-6267
▁spouse	-6268
▁wicked	-6269
▁Ḫarrān	-6270
Mullissi	-6271
▁Balassu	-6272
▁Habasti	-6273
▁blesses	-6274
▁cutting	-6275
▁delayed	-6276
▁diviner	-6277
▁flashes	-6278
▁gateway	-6279
▁nindanu	-6280
▁praying	-6281
▁Ḫamrānu	-6282
▁Tabalayu	-6283
▁almighty	-6284
▁appoints	-6285
▁builders	-6286
▁conflict	-6287
▁forcibly	-6288
▁friendly	-6289
▁fullness	-6290
▁opponent	-6291
▁pastures	-6292
▁platform	-6293
▁rejoiced	-6294
▁reporter	-6295
▁revolted	-6296
▁somebody	-6297
▁Cimmerian	-6298
▁certainly	-6299
▁completes	-6300
▁intercede	-6301
Sennacherib	-6302
▁legitimate	-6303
▁intelligence	-6304
▁administration	-6305
To	-6306
dâ	-6307
no	-6308
oe	-6309
1).	-6310
5).	-6311
Con	-6312
Zab	-6313
aga	-6314
aši	-6315
aṭu	-6316
epu	-6317
gum	-6318
ism	-6319
kud	-6320
lif	-6321
mmu	-6322
mud	-6323
nap	-6324
nor	-6325
sal	-6326
udi	-6327
šim	-6328
▁3,	-6329
▁BC	-6330
▁Bū	-6331
▁Ma	-6332
▁Ya	-6333
Gula	-6334
aisi	-6335
amar	-6336
apel	-6337
appu	-6338
apsi	-6339
ason	-6340
bank	-6341
dict	-6342
elry	-6343
eter	-6344
idqâ	-6345
ingu	-6346
ises	-6347
ištu	-6348
oriz	-6349
pers	-6350
sing	-6351
urer	-6352
urri	-6353
▁Acc	-6354
▁Ana	-6355
▁Azi	-6356
▁Kut	-6357
▁Lub	-6358
▁Not	-6359
▁Pap	-6360
▁Tom	-6361
▁fal	-6362
▁lad	-6363
▁lik	-6364
▁lux	-6365
▁non	-6366
▁peo	-6367
▁sie	-6368
▁tub	-6369
▁Šer	-6370
abria	-6371
betti	-6372
elted	-6373
emony	-6374
irina	-6375
manni	-6376
▁(25)	-6377
▁(30)	-6378
▁Anun	-6379
▁Egal	-6380
▁Last	-6381
▁Marq	-6382
▁Part	-6383
▁Pill	-6384
▁Sarr	-6385
▁amid	-6386
▁cart	-6387
▁dece	-6388
▁didn	-6389
▁ewes	-6390
▁fold	-6391
▁frag	-6392
▁mour	-6393
▁pays	-6394
▁plus	-6395
▁rich	-6396
▁rock	-6397
▁rout	-6398
▁sand	-6399
▁shak	-6400
▁tent	-6401
▁type	-6402
▁ways	-6403
ekalli	-6404
eroles	-6405
former	-6406
igants	-6407
▁Ahabû	-6408
▁Amman	-6409
▁Eriba	-6410
▁Iauta	-6411
▁Isana	-6412
▁Larsa	-6413
▁Natnu	-6414
▁Rival	-6415
▁Waisi	-6416
▁disob	-6417
▁entry	-6418
▁ident	-6419
▁piece	-6420
▁prays	-6421
▁pride	-6422
▁sever	-6423
▁swift	-6424
▁truly	-6425
▁value	-6426
▁vener	-6427
▁worry	-6428
▁Šamši	-6429
continu	-6430
garment	-6431
ourable	-6432
▁Gurumu	-6433
▁Urzana	-6434
▁banded	-6435
▁bitter	-6436
▁deaths	-6437
▁dissol	-6438
▁ensure	-6439
▁extrac	-6440
▁flowed	-6441
▁inlays	-6442
▁loaded	-6443
▁quiver	-6444
▁steady	-6445
▁swords	-6446
▁travel	-6447
ellation	-6448
original	-6449
▁Arrapḫa	-6450
▁Gilzānu	-6451
▁However	-6452
▁bedroom	-6453
▁founded	-6454
▁holding	-6455
▁however	-6456
▁leading	-6457
▁looking	-6458
▁marshal	-6459
▁measure	-6460
▁peoples	-6461
▁renewed	-6462
▁scribal	-6463
▁squares	-6464
▁Šubrian	-6465
placement	-6466
▁Asalluhi	-6467
▁Tomorrow	-6468
▁accounts	-6469
▁besieged	-6470
▁blessing	-6471
▁carrying	-6472
▁confeder	-6473
▁detailed	-6474
▁extended	-6475
▁grievous	-6476
▁inexpert	-6477
▁marching	-6478
▁plotting	-6479
▁securing	-6480
▁totality	-6481
▁Urarṭians	-6482
▁adversary	-6483
▁enclosure	-6484
▁flattened	-6485
▁inhabited	-6486
▁mountings	-6487
▁positions	-6488
▁relatives	-6489
▁utterance	-6490
▁Etemenanki	-6491
▁casseroles	-6492
▁divination	-6493
▁exercising	-6494
▁yourselves	-6495
▁administrat	-6496
▁Nabopolassar	-6497
▁interruption	-6498
▁superintendent	-6499
,)	-6500
.’	-6501
gy	-6502
ḫi	-6503
Kur	-6504
Zam	-6505
aly	-6506
can	-6507
cst	-6508
dub	-6509
gim	-6510
htu	-6511
maš	-6512
oci	-6513
paš	-6514
ths	-6515
zan	-6516
zer	-6517
▁90	-6518
▁Ep	-6519
▁Ra	-6520
▁je	-6521
▁ra	-6522
Dadi	-6523
From	-6524
Milk	-6525
acle	-6526
arms	-6527
ator	-6528
aššî	-6529
cast	-6530
duce	-6531
echo	-6532
ffic	-6533
ginu	-6534
ikni	-6535
illu	-6536
ires	-6537
just	-6538
ongh	-6539
qepu	-6540
room	-6541
ēreš	-6542
▁800	-6543
▁Are	-6544
▁Dim	-6545
▁Old	-6546
▁abs	-6547
▁ago	-6548
▁cry	-6549
▁dig	-6550
▁fun	-6551
▁rav	-6552
ankal	-6553
elled	-6554
ibūti	-6555
image	-6556
isons	-6557
ittar	-6558
kitti	-6559
mount	-6560
nāṣir	-6561
ongue	-6562
orges	-6563
river	-6564
umptu	-6565
ṣirtu	-6566
▁Bari	-6567
▁Egaš	-6568
▁Kiss	-6569
▁Kumm	-6570
▁Make	-6571
▁Mali	-6572
▁Till	-6573
▁Zizî	-6574
▁afar	-6575
▁bows	-6576
▁crop	-6577
▁cust	-6578
▁ecst	-6579
▁exch	-6580
▁girl	-6581
▁hair	-6582
▁hide	-6583
▁lack	-6584
▁milk	-6585
▁nest	-6586
▁pile	-6587
▁quar	-6588
▁slay	-6589
▁spec	-6590
▁unre	-6591
▁wash	-6592
▁Ḫard	-6593
Palace	-6594
action	-6595
assion	-6596
aḫḫēšu	-6597
fruits	-6598
houses	-6599
ilicia	-6600
ission	-6601
ranean	-6602
volent	-6603
worthy	-6604
▁Andia	-6605
▁Bikni	-6606
▁Enuma	-6607
▁Lands	-6608
▁acted	-6609
▁bales	-6610
▁besee	-6611
▁camel	-6612
▁catch	-6613
▁exact	-6614
▁lived	-6615
▁lunar	-6616
▁lying	-6617
▁music	-6618
▁pulls	-6619
▁ramps	-6620
▁respl	-6621
▁reven	-6622
▁scorp	-6623
▁spate	-6624
▁spear	-6625
▁trays	-6626
▁turns	-6627
▁works	-6628
▁yield	-6629
▁Šalim	-6630
Kubatti	-6631
cripted	-6632
estival	-6633
išnugal	-6634
regnant	-6635
▁Dayyan	-6636
▁Gurgum	-6637
▁Sirāra	-6638
▁Vizier	-6639
▁advice	-6640
▁arrive	-6641
▁commun	-6642
▁crimes	-6643
▁envoys	-6644
▁flocks	-6645
▁fruits	-6646
▁period	-6647
▁perish	-6648
▁pestil	-6649
▁reject	-6650
▁scarce	-6651
▁spirit	-6652
▁strews	-6653
▁strugg	-6654
▁vessel	-6655
▁waited	-6656
▁wanted	-6657
▁Šūzubu	-6658
▁Ḫursag	-6659
appropri	-6660
coloured	-6661
▁Ebabbar	-6662
▁Sutians	-6663
▁central	-6664
▁consume	-6665
▁drawing	-6666
▁install	-6667
▁jewelry	-6668
▁kidneys	-6669
▁leaving	-6670
▁praised	-6671
▁praises	-6672
▁recover	-6673
▁sceptre	-6674
▁serving	-6675
▁smashed	-6676
▁stopped	-6677
▁strongh	-6678
▁wherein	-6679
▁worship	-6680
▁Ḫirimmu	-6681
priestess	-6682
uballissu	-6683
▁Karkaššî	-6684
▁Naṣibina	-6685
▁Ullusunu	-6686
▁conclude	-6687
▁depicted	-6688
▁ecstatic	-6689
▁formerly	-6690
▁litigate	-6691
▁marriage	-6692
▁provider	-6693
▁summoned	-6694
▁Egašankal	-6695
▁container	-6696
▁fragrance	-6697
▁fugitives	-6698
▁guarantor	-6699
▁leftovers	-6700
▁mobilized	-6701
▁represent	-6702
▁sharpened	-6703
▁treasures	-6704
▁yesterday	-6705
▁compassion	-6706
▁distressed	-6707
▁manageress	-6708
▁renovation	-6709
▁supervisor	-6710
▁annihilated	-6711
▁conscripted	-6712
▁intercalary	-6713
▁obligations	-6714
▁resplendent	-6715
▁shepherdship	-6716
-)	-6717
dī	-6718
All	-6719
Lag	-6720
aka	-6721
ber	-6722
bis	-6723
gam	-6724
hee	-6725
ibr	-6726
iḫu	-6727
opy	-6728
rog	-6729
sec	-6730
uts	-6731
vel	-6732
zag	-6733
īnu	-6734
ḫru	-6735
▁,”	-6736
▁35	-6737
▁Bi	-6738
▁Ti	-6739
▁Uk	-6740
▁di	-6741
▁tu	-6742
Sang	-6743
aste	-6744
cons	-6745
endû	-6746
fort	-6747
itor	-6748
išpu	-6749
namm	-6750
rown	-6751
stay	-6752
uber	-6753
wers	-6754
will	-6755
šiku	-6756
▁1,2	-6757
▁700	-6758
▁Don	-6759
▁Edu	-6760
▁Fav	-6761
▁Haš	-6762
▁Kib	-6763
▁Laḫ	-6764
▁Nuš	-6765
▁Qir	-6766
▁Tuq	-6767
▁ate	-6768
▁few	-6769
▁fum	-6770
▁hus	-6771
▁inn	-6772
▁jug	-6773
▁pub	-6774
▁Šad	-6775
▁Šid	-6776
Ammon	-6777
ading	-6778
along	-6779
dubbu	-6780
ecess	-6781
eenth	-6782
floor	-6783
great	-6784
idalu	-6785
iwork	-6786
kabti	-6787
lypty	-6788
reans	-6789
still	-6790
urten	-6791
▁(35)	-6792
▁Araḫ	-6793
▁Atta	-6794
▁Bact	-6795
▁Even	-6796
▁Kenî	-6797
▁Minu	-6798
▁Nash	-6799
▁Sakk	-6800
▁Siri	-6801
▁Thus	-6802
▁blow	-6803
▁calf	-6804
▁cane	-6805
▁deed	-6806
▁emer	-6807
▁fors	-6808
▁heap	-6809
▁nine	-6810
▁onsl	-6811
▁perp	-6812
▁shed	-6813
▁sins	-6814
▁womb	-6815
akannu	-6816
blocks	-6817
enters	-6818
nammir	-6819
ording	-6820
spread	-6821
ušēzib	-6822
▁Image	-6823
▁Kulla	-6824
▁Namri	-6825
▁Qedar	-6826
▁Sukki	-6827
▁Tabnî	-6828
▁alter	-6829
▁ashes	-6830
▁flask	-6831
▁guide	-6832
▁irons	-6833
▁nails	-6834
▁pendû	-6835
▁plans	-6836
▁scent	-6837
▁seats	-6838
▁shoot	-6839
▁siege	-6840
▁sings	-6841
▁start	-6842
▁using	-6843
▁wings	-6844
Milkūti	-6845
courses	-6846
eminent	-6847
hamatua	-6848
lyptych	-6849
▁(645).	-6850
▁Gambul	-6851
▁Tabale	-6852
▁associ	-6853
▁blocks	-6854
▁clergy	-6855
▁deluge	-6856
▁dragon	-6857
▁figure	-6858
▁finest	-6859
▁gorges	-6860
▁happen	-6861
▁irginu	-6862
▁jewell	-6863
▁kisses	-6864
▁ordain	-6865
▁plains	-6866
▁public	-6867
▁rained	-6868
▁refurb	-6869
▁riding	-6870
▁shaken	-6871
ritually	-6872
ubašanni	-6873
▁Anunitu	-6874
▁Belšunu	-6875
▁Enemies	-6876
▁Ninšiku	-6877
▁Nuhšaya	-6878
▁Sarduri	-6879
▁Sebetti	-6880
▁Setting	-6881
▁ceremon	-6882
▁copings	-6883
▁cornice	-6884
▁fashion	-6885
▁inflict	-6886
▁killing	-6887
▁knotted	-6888
▁pleased	-6889
▁rainbow	-6890
▁vessels	-6891
terranean	-6892
▁Bactrian	-6893
▁appeared	-6894
▁appurten	-6895
▁examined	-6896
▁glorious	-6897
▁herdsman	-6898
▁language	-6899
▁managers	-6900
▁parapets	-6901
▁pregnant	-6902
▁suckling	-6903
▁uprooted	-6904
▁Ḫardišpu	-6905
▁Performed	-6906
▁architect	-6907
▁exhausted	-6908
▁ferocious	-6909
▁foreigner	-6910
▁fumigants	-6911
▁garrisons	-6912
▁handiwork	-6913
▁hostility	-6914
▁onslaught	-6915
▁ornaments	-6916
▁perfected	-6917
▁predecess	-6918
▁prisoners	-6919
▁pronounce	-6920
▁benevolent	-6921
▁directions	-6922
▁harbakannu	-6923
▁pestilence	-6924
▁countryside	-6925
▁steadfastly	-6926
▁trustworthy	-6927
▁accomplished	-6928
▁confederation	-6929
▁constellation	-6930
▁multicoloured	-6931
!'	-6932
!’	-6933
Im	-6934
So	-6935
nû	-6936
pī	-6937
tî	-6938
ām	-6939
)?"	-6940
300	-6941
adâ	-6942
dag	-6943
dem	-6944
dep	-6945
how	-6946
ius	-6947
pie	-6948
tel	-6949
umn	-6950
ālu	-6951
āna	-6952
āṭu	-6953
šub	-6954
▁(5	-6955
▁,"	-6956
▁1-	-6957
▁52	-6958
▁Ib	-6959
▁Ph	-6960
▁dw	-6961
▁ni	-6962
▁pi	-6963
aite	-6964
apes	-6965
attu	-6966
avil	-6967
circ	-6968
cles	-6969
esim	-6970
full	-6971
iram	-6972
part	-6973
rion	-6974
tīya	-6975
upat	-6976
writ	-6977
ēriš	-6978
šaru	-6979
▁Ahû	-6980
▁Cit	-6981
▁Dag	-6982
▁Dai	-6983
▁Ear	-6984
▁Huz	-6985
▁Kin	-6986
▁Lip	-6987
▁Mak	-6988
▁Men	-6989
▁Muq	-6990
▁Paš	-6991
▁Qar	-6992
▁Tan	-6993
▁Too	-6994
▁Uri	-6995
▁aya	-6996
▁dow	-6997
▁gaz	-6998
▁lac	-6999
▁pil	-7000
▁sen	-7001
▁tab	-7002
▁vot	-7003
▁wol	-7004
Barrû	-7005
Milki	-7006
Mount	-7007
ality	-7008
aniye	-7009
asons	-7010
claim	-7011
damiq	-7012
etent	-7013
ifest	-7014
ighed	-7015
larim	-7016
rehtu	-7017
sheep	-7018
▁Care	-7019
▁Dais	-7020
▁Gibr	-7021
▁Humb	-7022
▁Riba	-7023
▁Star	-7024
▁Ukke	-7025
▁Year	-7026
▁bolt	-7027
▁bund	-7028
▁fulf	-7029
▁ghee	-7030
▁haul	-7031
▁hewn	-7032
▁huge	-7033
▁impl	-7034
▁loin	-7035
▁mold	-7036
▁pert	-7037
▁rose	-7038
▁slip	-7039
▁stud	-7040
▁šēdu	-7041
Laguda	-7042
aching	-7043
closed	-7044
establ	-7045
icious	-7046
ighing	-7047
ingers	-7048
teenth	-7049
šumate	-7050
▁10'')	-7051
▁4,000	-7052
▁6,000	-7053
▁Ariye	-7054
▁Break	-7055
▁Ekall	-7056
▁Epony	-7057
▁Haldi	-7058
▁Kittu	-7059
▁Nanna	-7060
▁Orion	-7061
▁Ulāya	-7062
▁Zamua	-7063
▁absol	-7064
▁accum	-7065
▁alert	-7066
▁carav	-7067
▁climb	-7068
▁couch	-7069
▁ducks	-7070
▁encam	-7071
▁extra	-7072
▁finds	-7073
▁funer	-7074
▁knees	-7075
▁lumin	-7076
▁organ	-7077
▁outri	-7078
▁pavil	-7079
▁pierc	-7080
▁point	-7081
▁reply	-7082
▁shape	-7083
▁sound	-7084
▁tiara	-7085
▁worth	-7086
Dakkūri	-7087
artinnu	-7088
brother	-7089
ference	-7090
igalbat	-7091
outside	-7092
quently	-7093
vessels	-7094
▁(651).	-7095
▁Kisiru	-7096
▁Kissik	-7097
▁Nabatu	-7098
▁Parsua	-7099
▁Qirbit	-7100
▁Ulluba	-7101
▁accomp	-7102
▁amidst	-7103
▁bribes	-7104
▁chapel	-7105
▁cloaks	-7106
▁divide	-7107
▁feared	-7108
▁felted	-7109
▁garlic	-7110
▁hidden	-7111
▁invoke	-7112
▁leaves	-7113
▁poorly	-7114
▁senior	-7115
▁served	-7116
▁severe	-7117
▁spared	-7118
▁sprink	-7119
▁sumptu	-7120
▁sunset	-7121
▁tanner	-7122
▁Šabire	-7123
ittarius	-7124
natively	-7125
▁Bēltīya	-7126
▁Citadel	-7127
▁Pillatu	-7128
▁believe	-7129
▁breasts	-7130
▁conceal	-7131
▁crowned	-7132
▁disturb	-7133
▁forests	-7134
▁forsake	-7135
▁heroism	-7136
▁neglect	-7137
▁plaster	-7138
▁revived	-7139
▁seventh	-7140
▁thunder	-7141
▁travers	-7142
▁trouble	-7143
▁weighed	-7144
▁Ḫindaru	-7145
▁Barhalzi	-7146
▁Property	-7147
▁assemble	-7148
▁creature	-7149
▁drenched	-7150
▁emissary	-7151
▁enduring	-7152
▁fearless	-7153
▁mainstay	-7154
▁manifest	-7155
▁overlaid	-7156
▁prisoner	-7157
▁regarded	-7158
▁stomachs	-7159
▁suffered	-7160
Esarhaddon	-7161
muballissu	-7162
šallimanni	-7163
▁beseeched	-7164
▁brilliant	-7165
▁deserters	-7166
▁disclosed	-7167
▁elephants	-7168
▁highlands	-7169
▁horseback	-7170
▁irrigated	-7171
▁jewellery	-7172
▁proceeded	-7173
▁storeroom	-7174
appropriate	-7175
established	-7176
▁carpenters	-7177
▁overwhelms	-7178
▁perfection	-7179
▁Sagittarius	-7180
▁Unfavorable	-7181
▁accumulated	-7182
▁administers	-7183
▁distributed	-7184
▁outstanding	-7185
▁responsible	-7186
▁imprisonment	-7187
▁satisfaction	-7188
▁subterranean	-7189
",	-7190
10	-7191
kn	-7192
uc	-7193
yp	-7194
āt	-7195
acy	-7196
bed	-7197
bra	-7198
com	-7199
don	-7200
hur	-7201
may	-7202
pak	-7203
ryg	-7204
tab	-7205
upp	-7206
yss	-7207
ūlu	-7208
ūzu	-7209
▁44	-7210
▁47	-7211
▁95	-7212
▁Bu	-7213
▁Fl	-7214
▁Hu	-7215
▁Tr	-7216
aqqu	-7217
arra	-7218
bari	-7219
bāni	-7220
egis	-7221
fare	-7222
gods	-7223
kins	-7224
some	-7225
ults	-7226
ween	-7227
yges	-7228
šēri	-7229
▁180	-7230
▁360	-7231
▁90)	-7232
▁Bas	-7233
▁Ent	-7234
▁Ila	-7235
▁Kid	-7236
▁Ner	-7237
▁Riḫ	-7238
▁Tur	-7239
▁Umb	-7240
▁Und	-7241
▁amu	-7242
▁ann	-7243
▁bīt	-7244
▁ean	-7245
▁enl	-7246
▁išk	-7247
▁job	-7248
▁pac	-7249
▁paš	-7250
▁pus	-7251
▁rod	-7252
▁Šib	-7253
▁Šur	-7254
▁Ḫat	-7255
aeans	-7256
amnir	-7257
aning	-7258
aratu	-7259
eries	-7260
essed	-7261
ifies	-7262
imony	-7263
lamši	-7264
leans	-7265
osion	-7266
pašir	-7267
raved	-7268
right	-7269
sting	-7270
tebra	-7271
udimm	-7272
ulḫul	-7273
yprus	-7274
▁Aplu	-7275
▁Come	-7276
▁Comm	-7277
▁Edom	-7278
▁Fire	-7279
▁Iqbi	-7280
▁Kusu	-7281
▁Once	-7282
▁Opis	-7283
▁Puṭu	-7284
▁Raḫi	-7285
▁Send	-7286
▁Tarḫ	-7287
▁Uṣur	-7288
▁beat	-7289
▁beds	-7290
▁dise	-7291
▁drew	-7292
▁forb	-7293
▁game	-7294
▁gems	-7295
▁inac	-7296
▁inqu	-7297
▁join	-7298
▁lost	-7299
▁nose	-7300
▁outs	-7301
▁papp	-7302
▁rely	-7303
▁rods	-7304
▁sear	-7305
▁ship	-7306
▁thie	-7307
▁vass	-7308
Hamban	-7309
anical	-7310
argilâ	-7311
ending	-7312
immeri	-7313
isting	-7314
itated	-7315
loaves	-7316
nišēšu	-7317
rising	-7318
uriant	-7319
vation	-7320
▁5,000	-7321
▁Abyss	-7322
▁Akkud	-7323
▁Alter	-7324
▁Aramu	-7325
▁Banbâ	-7326
▁Eṭiru	-7327
▁Kašii	-7328
▁Meḫru	-7329
▁Nabay	-7330
▁Nadin	-7331
▁Necho	-7332
▁Nirbu	-7333
▁Nušku	-7334
▁Phryg	-7335
▁aegis	-7336
▁armch	-7337
▁desol	-7338
▁eagle	-7339
▁fetch	-7340
▁forms	-7341
▁girls	-7342
▁heaps	-7343
▁intro	-7344
▁issue	-7345
▁maker	-7346
▁risen	-7347
▁scion	-7348
▁smith	-7349
▁steps	-7350
▁swept	-7351
▁Ḫamat	-7352
andered	-7353
cements	-7354
edience	-7355
everthe	-7356
hearted	-7357
priests	-7358
settled	-7359
▁Arbayu	-7360
▁Herald	-7361
▁Izalla	-7362
▁Kipani	-7363
▁Kubabu	-7364
▁Mounts	-7365
▁People	-7366
▁Riḫiḫu	-7367
▁Simānu	-7368
▁Undasu	-7369
▁ambush	-7370
▁deceit	-7371
▁deport	-7372
▁eagles	-7373
▁emblem	-7374
▁glance	-7375
▁heeded	-7376
▁helped	-7377
▁impost	-7378
▁instit	-7379
▁issued	-7380
▁livers	-7381
▁mortar	-7382
▁offers	-7383
▁perman	-7384
▁profit	-7385
▁reason	-7386
▁routes	-7387
▁safety	-7388
▁shadow	-7389
▁thighs	-7390
▁though	-7391
▁washed	-7392
▁winged	-7393
▁worked	-7394
▁wrists	-7395
anything	-7396
assigned	-7397
cessible	-7398
▁Tukulti	-7399
▁belongs	-7400
▁boatmen	-7401
▁bondage	-7402
▁entreat	-7403
▁erosion	-7404
▁figures	-7405
▁illumin	-7406
▁kettled	-7407
▁leveled	-7408
▁monthly	-7409
▁offices	-7410
▁opening	-7411
▁returns	-7412
▁running	-7413
▁silence	-7414
▁subduer	-7415
▁warfare	-7416
Kurigalzu	-7417
tubašanni	-7418
▁Barhalza	-7419
▁Gurreans	-7420
▁Urzuhina	-7421
▁appeased	-7422
▁deprived	-7423
▁deserted	-7424
▁diviners	-7425
▁exchange	-7426
▁expertly	-7427
▁goodness	-7428
▁listened	-7429
▁outflows	-7430
▁polished	-7431
▁prompted	-7432
▁purchase	-7433
▁receives	-7434
▁saplings	-7435
▁vanguard	-7436
▁vertebra	-7437
▁ziggurat	-7438
▁Šabirešu	-7439
▁Scythians	-7440
▁Tammaritu	-7441
▁botanical	-7442
▁dispersal	-7443
▁dissolved	-7444
▁disturbed	-7445
▁exemption	-7446
▁luxuriant	-7447
▁neglected	-7448
▁recovered	-7449
▁renovates	-7450
▁requested	-7451
evertheless	-7452
▁apprentice	-7453
▁discontinu	-7454
▁downstream	-7455
▁everywhere	-7456
▁plundering	-7457
▁remembered	-7458
▁stronghold	-7459
▁submission	-7460
▁Ḫanigalbat	-7461
▁fingernails	-7462
▁storehouses	-7463
▁inaccessible	-7464
▁supplication	-7465
▁triumphantly	-7466
▁Alternatively	-7467
▁thoroughbreds	-7468
▁reinforcements	-7469
▁Eḫursagkurkurra	-7470
':	-7471
.5	-7472
;)	-7473
ec	-7474
zā	-7475
šî	-7476
ṣh	-7477
600	-7478
Rez	-7479
alc	-7480
arâ	-7481
cle	-7482
ees	-7483
gid	-7484
gir	-7485
iet	-7486
inû	-7487
kīn	-7488
ogh	-7489
rah	-7490
rec	-7491
tow	-7492
usî	-7493
▁38	-7494
▁75	-7495
▁Br	-7496
▁Di	-7497
▁Ro	-7498
▁Ta	-7499
▁Us	-7500
▁Uz	-7501
▁vi	-7502
▁—,	-7503
Your	-7504
Zual	-7505
ales	-7506
anks	-7507
apil	-7508
bīti	-7509
deni	-7510
emed	-7511
mess	-7512
opes	-7513
peak	-7514
rank	-7515
ranu	-7516
reši	-7517
rook	-7518
suri	-7519
ubil	-7520
ulli	-7521
utam	-7522
yoke	-7523
▁208	-7524
▁Add	-7525
▁Bun	-7526
▁Din	-7527
▁Ish	-7528
▁Iss	-7529
▁Kun	-7530
▁Niq	-7531
▁Rib	-7532
▁Sik	-7533
▁Sul	-7534
▁bef	-7535
▁beg	-7536
▁che	-7537
▁gen	-7538
▁med	-7539
▁mud	-7540
▁net	-7541
▁roe	-7542
▁spo	-7543
▁try	-7544
Kapsi	-7545
Rezin	-7546
Tešub	-7547
ababa	-7548
abānu	-7549
acing	-7550
acles	-7551
aggil	-7552
ahhir	-7553
bound	-7554
cribe	-7555
first	-7556
gamil	-7557
inded	-7558
kibtu	-7559
oking	-7560
otion	-7561
paled	-7562
resid	-7563
rites	-7564
ruler	-7565
ṣhatu	-7566
▁Arzâ	-7567
▁Cour	-7568
▁Five	-7569
▁Gold	-7570
▁Isse	-7571
▁Išum	-7572
▁Narg	-7573
▁Nunn	-7574
▁Saba	-7575
▁anom	-7576
▁appl	-7577
▁exac	-7578
▁goat	-7579
▁late	-7580
▁levy	-7581
▁mare	-7582
▁mutu	-7583
▁palû	-7584
▁scul	-7585
Cyprus	-7586
ammaku	-7587
arding	-7588
arikka	-7589
camels	-7590
copper	-7591
images	-7592
oghurt	-7593
onging	-7594
settle	-7595
▁1,500	-7596
▁15'')	-7597
▁Grand	-7598
▁Right	-7599
▁Tiara	-7600
▁Ubudu	-7601
▁Zaban	-7602
▁board	-7603
▁boars	-7604
▁bolts	-7605
▁crops	-7606
▁crush	-7607
▁demon	-7608
▁ditch	-7609
▁drive	-7610
▁falls	-7611
▁ghost	-7612
▁glare	-7613
▁glaze	-7614
▁hides	-7615
▁jubil	-7616
▁labor	-7617
▁plent	-7618
▁price	-7619
▁prost	-7620
▁proud	-7621
▁quiet	-7622
▁rules	-7623
▁separ	-7624
▁sided	-7625
▁skull	-7626
▁stage	-7627
▁suppl	-7628
▁swing	-7629
▁taboo	-7630
▁train	-7631
Dakkuri	-7632
Tukulti	-7633
appings	-7634
because	-7635
donkeys	-7636
respect	-7637
spector	-7638
udimmud	-7639
writing	-7640
▁Commag	-7641
▁Daiēnu	-7642
▁Dananu	-7643
▁Laḫīru	-7644
▁Narudi	-7645
▁Subnat	-7646
▁Tuqunu	-7647
▁Ukkean	-7648
▁begins	-7649
▁canebr	-7650
▁claims	-7651
▁covers	-7652
▁effect	-7653
▁enough	-7654
▁exceed	-7655
▁grapes	-7656
▁iškāru	-7657
▁joyous	-7658
▁kamanu	-7659
▁lights	-7660
▁moving	-7661
▁nephew	-7662
▁nought	-7663
▁occupy	-7664
▁prophe	-7665
▁purple	-7666
▁roamed	-7667
▁season	-7668
▁treads	-7669
▁walked	-7670
▁wastel	-7671
▁Ḫumban	-7672
building	-7673
festival	-7674
ordinate	-7675
therwise	-7676
Šarrukīn	-7677
▁Akkuddu	-7678
▁Eḫulḫul	-7679
▁Gabbaru	-7680
▁Hindanu	-7681
▁Kidmuri	-7682
▁Kišesim	-7683
▁Mandanu	-7684
▁Meturna	-7685
▁Raḫiānu	-7686
▁Yadaqqu	-7687
▁beneath	-7688
▁beseech	-7689
▁damaged	-7690
▁disease	-7691
▁durable	-7692
▁getting	-7693
▁guarded	-7694
▁husband	-7695
▁impaled	-7696
▁marches	-7697
▁maṣhatu	-7698
▁observe	-7699
▁rebuild	-7700
▁refuses	-7701
▁regards	-7702
▁scholar	-7703
▁selling	-7704
▁sheaves	-7705
▁slander	-7706
▁strange	-7707
▁uttered	-7708
▁utterly	-7709
decorated	-7710
▁Nudimmud	-7711
▁Sakkannu	-7712
▁discards	-7713
▁distress	-7714
▁engraved	-7715
▁faithful	-7716
▁funerary	-7717
▁hardship	-7718
▁humility	-7719
▁majestic	-7720
▁mourning	-7721
▁portends	-7722
▁recessed	-7723
▁recorded	-7724
▁relented	-7725
▁sartinnu	-7726
▁standard	-7727
▁thinking	-7728
▁uprising	-7729
▁Ḫararatu	-7730
▁Ḫubuškia	-7731
residences	-7732
▁Nunnamnir	-7733
▁attendant	-7734
▁buildings	-7735
▁chieftain	-7736
▁competent	-7737
▁conquests	-7738
▁conscript	-7739
▁disregard	-7740
▁granaries	-7741
▁greatness	-7742
▁pedestals	-7743
▁splendour	-7744
▁traversed	-7745
▁battleline	-7746
▁confidence	-7747
▁protective	-7748
▁Nabayateans	-7749
▁refurbished	-7750
▁celebrations	-7751
▁discontinued	-7752
▁pomegranates	-7753
▁victoriously	-7754
▁Ḫursagkalama	-7755
▁administrator	-7756
▁craftsmanship	-7757
/3	-7758
15	-7759
Le	-7760
My	-7761
lâ	-7762
)!"	-7763
400	-7764
Did	-7765
Naḫ	-7766
adī	-7767
asp	-7768
beh	-7769
dūr	-7770
eze	-7771
fig	-7772
iga	-7773
imu	-7774
isa	-7775
isk	-7776
ler	-7777
ntu	-7778
sag	-7779
sak	-7780
taš	-7781
ton	-7782
uss	-7783
utû	-7784
you	-7785
ūgi	-7786
ūna	-7787
ṣar	-7788
▁31	-7789
▁55	-7790
▁6,	-7791
▁Ia	-7792
▁Ik	-7793
▁Pr	-7794
▁Rā	-7795
▁Rū	-7796
▁da	-7797
▁li	-7798
▁mē	-7799
''')	-7800
Lady	-7801
Yate	-7802
angs	-7803
arda	-7804
asta	-7805
auld	-7806
aḫum	-7807
biya	-7808
buru	-7809
immi	-7810
išši	-7811
liaš	-7812
madi	-7813
nger	-7814
oast	-7815
pada	-7816
pale	-7817
qaya	-7818
quer	-7819
rate	-7820
ruth	-7821
sons	-7822
take	-7823
tter	-7824
urra	-7825
utes	-7826
▁2/3	-7827
▁DNN	-7828
▁Eru	-7829
▁Hur	-7830
▁Kir	-7831
▁Mes	-7832
▁Nah	-7833
▁Niḫ	-7834
▁Pat	-7835
▁Qab	-7836
▁Urk	-7837
▁Whe	-7838
▁anx	-7839
▁cul	-7840
▁fow	-7841
▁hab	-7842
▁ign	-7843
▁mod	-7844
▁nap	-7845
▁neš	-7846
▁pan	-7847
▁tur	-7848
▁unf	-7849
▁ven	-7850
▁Šap	-7851
Ditto	-7852
Umman	-7853
acked	-7854
alcit	-7855
anged	-7856
aninu	-7857
aqqin	-7858
aring	-7859
asper	-7860
assus	-7861
aḫlum	-7862
birds	-7863
cloth	-7864
court	-7865
damqu	-7866
every	-7867
haust	-7868
idean	-7869
ilies	-7870
inder	-7871
iture	-7872
ketti	-7873
kirts	-7874
kuṣur	-7875
oring	-7876
power	-7877
reath	-7878
statu	-7879
stood	-7880
umuna	-7881
ṣabat	-7882
▁(40)	-7883
▁100)	-7884
▁5'')	-7885
▁800,	-7886
▁Apsû	-7887
▁Balṭ	-7888
▁Duri	-7889
▁Firm	-7890
▁Four	-7891
▁Hall	-7892
▁Hand	-7893
▁Issi	-7894
▁Itti	-7895
▁Izbu	-7896
▁Phil	-7897
▁Pisī	-7898
▁Raši	-7899
▁Tard	-7900
▁bury	-7901
▁cond	-7902
▁dirt	-7903
▁exit	-7904
▁furn	-7905
▁gush	-7906
▁lest	-7907
▁mast	-7908
▁song	-7909
▁sort	-7910
▁ēntu	-7911
adnana	-7912
amašši	-7913
column	-7914
course	-7915
essunu	-7916
facing	-7917
issiya	-7918
orizon	-7919
ricted	-7920
single	-7921
ubištu	-7922
ulumzu	-7923
uments	-7924
utamon	-7925
▁Above	-7926
▁Adian	-7927
▁Brook	-7928
▁Dimtu	-7929
▁Hadad	-7930
▁Halah	-7931
▁Lugal	-7932
▁Nargî	-7933
▁Nemed	-7934
▁Salam	-7935
▁Third	-7936
▁Uaite	-7937
▁Ulūlu	-7938
▁apple	-7939
▁artis	-7940
▁cakes	-7941
▁cauld	-7942
▁charm	-7943
▁cones	-7944
▁dowry	-7945
▁drops	-7946
▁dwelt	-7947
▁elite	-7948
▁gallû	-7949
▁hears	-7950
▁incom	-7951
▁ingen	-7952
▁initi	-7953
▁learn	-7954
▁looks	-7955
▁lover	-7956
▁midru	-7957
▁pater	-7958
▁pluck	-7959
▁princ	-7960
▁range	-7961
▁sated	-7962
▁sense	-7963
▁stays	-7964
▁sting	-7965
▁tells	-7966
▁tried	-7967
▁Šarur	-7968
▁Ḫagar	-7969
▁Ḫilmu	-7970
against	-7971
cedures	-7972
gimilli	-7973
however	-7974
ilities	-7975
ranking	-7976
upahhir	-7977
written	-7978
šimanni	-7979
▁Aḫlamû	-7980
▁Dilmun	-7981
▁Ilumma	-7982
▁Inurtî	-7983
▁Issete	-7984
▁Maniye	-7985
▁Mašmaš	-7986
▁Scribe	-7987
▁Sirius	-7988
▁Within	-7989
▁agreed	-7990
▁basalt	-7991
▁behold	-7992
▁bigger	-7993
▁bonded	-7994
▁conver	-7995
▁damage	-7996
▁differ	-7997
▁groats	-7998
▁income	-7999
▁intact	-8000
▁locked	-8001
▁obtain	-8002
▁prepar	-8003
▁relief	-8004
▁shoots	-8005
▁slopes	-8006
▁square	-8007
▁string	-8008
▁suffic	-8009
▁upward	-8010
▁Ḫidalu	-8011
Hezekiah	-8012
Ispabāra	-8013
eṭiranni	-8014
mudammiq	-8015
▁Hindana	-8016
▁Hubuški	-8017
▁Issaran	-8018
▁Marqasa	-8019
▁Ninagal	-8020
▁Philist	-8021
▁Rūkibtu	-8022
▁Whether	-8023
▁arrival	-8024
▁brewers	-8025
▁chanter	-8026
▁concern	-8027
▁copious	-8028
▁deficit	-8029
▁eastern	-8030
▁estates	-8031
▁exempts	-8032
▁favours	-8033
▁friends	-8034
▁happens	-8035
▁hitched	-8036
▁honored	-8037
▁horizon	-8038
▁invoked	-8039
▁masters	-8040
▁meadows	-8041
▁nešakku	-8042
▁parched	-8043
▁pierced	-8044
▁portent	-8045
▁pursuit	-8046
▁retreat	-8047
▁seventy	-8048
▁singing	-8049
▁spirits	-8050
▁tremble	-8051
▁watched	-8052
▁watered	-8053
▁weeping	-8054
▁younger	-8055
Sangibūti	-8056
alcitrant	-8057
haustible	-8058
heartedly	-8059
inspector	-8060
▁Ammanāna	-8061
▁Kašiiari	-8062
▁Melidean	-8063
▁Salamanu	-8064
▁ancestor	-8065
▁concerns	-8066
▁confused	-8067
▁eclipsed	-8068
▁families	-8069
▁flourish	-8070
▁guarding	-8071
▁implored	-8072
▁obedient	-8073
▁openings	-8074
▁opposing	-8075
▁overcast	-8076
▁paternal	-8077
▁possible	-8078
▁promoted	-8079
▁protects	-8080
▁restores	-8081
▁struggle	-8082
▁transfer	-8083
▁Ḫagarānu	-8084
▁Belonging	-8085
▁Ekišnugal	-8086
▁Kummaḫlum	-8087
▁Otherwise	-8088
▁Purulumzu	-8089
▁Tanutamon	-8090
▁accession	-8091
▁blessings	-8092
▁circumamb	-8093
▁colleague	-8094
▁condition	-8095
▁determine	-8096
▁documents	-8097
▁extracted	-8098
▁increased	-8099
▁outskirts	-8100
▁reporters	-8101
▁sumptuous	-8102
▁thickness	-8103
Shalmaneser	-8104
▁Thereafter	-8105
▁approaches	-8106
▁inexpertly	-8107
▁kettledrum	-8108
▁leadership	-8109
▁procedures	-8110
▁respectful	-8111
▁successful	-8112
▁sufficient	-8113
▁Ḫumbanigaš	-8114
▁battlements	-8115
▁constricted	-8116
▁consumption	-8117
▁countenance	-8118
▁establishes	-8119
▁recalcitrant	-8120
▁inappropriate	-8121
▁inexhaustible	-8122
▁righteousness	-8123
,’	-8124
/4	-8125
0,	-8126
An	-8127
Aš	-8128
Aḫ	-8129
NN	-8130
Re	-8131
Wh	-8132
eb	-8133
gl	-8134
po	-8135
rī	-8136
sa	-8137
ēḫ	-8138
100	-8139
Anu	-8140
Dag	-8141
adû	-8142
anâ	-8143
apt	-8144
apu	-8145
apî	-8146
aše	-8147
ešu	-8148
ffs	-8149
iff	-8150
igl	-8151
igs	-8152
ipl	-8153
isc	-8154
kun	-8155
nad	-8156
not	-8157
opp	-8158
ric	-8159
tes	-8160
ugu	-8161
uṣu	-8162
vil	-8163
yet	-8164
ʾ),	-8165
Ḫal	-8166
▁41	-8167
▁45	-8168
▁59	-8169
▁64	-8170
▁Ay	-8171
▁Bo	-8172
▁Eh	-8173
▁Ha	-8174
▁Pl	-8175
▁sy	-8176
That	-8177
adad	-8178
addî	-8179
alam	-8180
allî	-8181
anim	-8182
bina	-8183
cake	-8184
ctor	-8185
dūrī	-8186
empt	-8187
ezes	-8188
gunu	-8189
iana	-8190
ibur	-8191
idas	-8192
išti	-8193
jamb	-8194
marû	-8195
oned	-8196
race	-8197
roph	-8198
ruru	-8199
serv	-8200
tles	-8201
ukua	-8202
ulmu	-8203
urrī	-8204
ūnum	-8205
▁10,	-8206
▁130	-8207
▁190	-8208
▁3/4	-8209
▁Ala	-8210
▁App	-8211
▁Bag	-8212
▁Gem	-8213
▁Gub	-8214
▁Hum	-8215
▁Iba	-8216
▁Kas	-8217
▁Mah	-8218
▁Mus	-8219
▁Rap	-8220
▁Sup	-8221
▁Ter	-8222
▁Tuš	-8223
▁bat	-8224
▁huh	-8225
▁kin	-8226
▁veh	-8227
▁Ḫay	-8228
abitu	-8229
abiya	-8230
adarâ	-8231
akkan	-8232
aling	-8233
allak	-8234
amaya	-8235
aming	-8236
atati	-8237
aways	-8238
cuffs	-8239
doing	-8240
erved	-8241
ested	-8242
icest	-8243
issar	-8244
nadbi	-8245
nyard	-8246
obbed	-8247
osing	-8248
pices	-8249
urrum	-8250
usāte	-8251
utely	-8252
šmarû	-8253
▁35')	-8254
▁40')	-8255
▁700,	-8256
▁Ammi	-8257
▁Anat	-8258
▁Anti	-8259
▁Bird	-8260
▁Būdi	-8261
▁Down	-8262
▁Erua	-8263
▁Gall	-8264
▁Haya	-8265
▁Mitâ	-8266
▁Pars	-8267
▁Pulu	-8268
▁Puṭi	-8269
▁Sukk	-8270
▁Zerî	-8271
▁batt	-8272
▁cans	-8273
▁copy	-8274
▁cous	-8275
▁cres	-8276
▁debt	-8277
▁disl	-8278
▁ease	-8279
▁edge	-8280
▁exto	-8281
▁hate	-8282
▁kids	-8283
▁mēzu	-8284
▁oust	-8285
▁quot	-8286
▁seac	-8287
▁stel	-8288
▁twin	-8289
▁viol	-8290
▁ward	-8291
aneans	-8292
arried	-8293
before	-8294
driver	-8295
glazed	-8296
ienced	-8297
lazuli	-8298
orhood	-8299
shwood	-8300
utukua	-8301
ēḫasta	-8302
▁(15')	-8303
▁Aries	-8304
▁Dummu	-8305
▁Field	-8306
▁Grain	-8307
▁Maybe	-8308
▁Muṣri	-8309
▁Samnu	-8310
▁Whose	-8311
▁Zazaz	-8312
▁alley	-8313
▁bribe	-8314
▁carts	-8315
▁dance	-8316
▁decap	-8317
▁decre	-8318
▁doves	-8319
▁drank	-8320
▁dread	-8321
▁faint	-8322
▁figur	-8323
▁fills	-8324
▁glory	-8325
▁green	-8326
▁invol	-8327
▁limbs	-8328
▁loins	-8329
▁maids	-8330
▁ninth	-8331
▁pipes	-8332
▁pitch	-8333
▁qirsu	-8334
▁rafts	-8335
▁raged	-8336
▁seeds	-8337
▁shame	-8338
▁solid	-8339
▁suits	-8340
▁sweep	-8341
▁tears	-8342
▁tombs	-8343
▁tubes	-8344
▁urudû	-8345
▁vehic	-8346
▁vigil	-8347
▁visit	-8348
▁wants	-8349
▁wield	-8350
▁Šadik	-8351
▁Ḫubuš	-8352
ability	-8353
bessunu	-8354
created	-8355
endents	-8356
estines	-8357
ineated	-8358
ivalent	-8359
kudurrī	-8360
mešarra	-8361
ormally	-8362
ression	-8363
rophied	-8364
▁Araḫtu	-8365
▁Aḫšēri	-8366
▁Balaṭu	-8367
▁Banitu	-8368
▁Eponym	-8369
▁Gemini	-8370
▁Ibašši	-8371
▁Ikūnum	-8372
▁Izirtu	-8373
▁Nerigl	-8374
▁Ninlil	-8375
▁Second	-8376
▁absent	-8377
▁bowmen	-8378
▁burden	-8379
▁closed	-8380
▁consec	-8381
▁edging	-8382
▁eleven	-8383
▁embank	-8384
▁engine	-8385
▁expend	-8386
▁exuber	-8387
▁grains	-8388
▁honest	-8389
▁jasper	-8390
▁lackey	-8391
▁league	-8392
▁legate	-8393
▁little	-8394
▁masons	-8395
▁nature	-8396
▁pieces	-8397
▁shaved	-8398
▁shines	-8399
▁straps	-8400
▁united	-8401
▁vigour	-8402
cription	-8403
libation	-8404
lyptychs	-8405
▁208,000	-8406
▁Egalzag	-8407
▁Gutians	-8408
▁Halahhu	-8409
▁Lullumu	-8410
▁appease	-8411
▁architr	-8412
▁chopped	-8413
▁consent	-8414
▁custody	-8415
▁emblems	-8416
▁enlarge	-8417
▁fetched	-8418
▁gaining	-8419
▁glorify	-8420
▁heights	-8421
▁insides	-8422
▁knobbed	-8423
▁lasting	-8424
▁married	-8425
▁pašallu	-8426
▁pounded	-8427
▁prophet	-8428
▁putting	-8429
▁quality	-8430
▁quarter	-8431
▁raining	-8432
▁ravaged	-8433
▁reports	-8434
▁streams	-8435
▁thieves	-8436
▁verdict	-8437
▁wailing	-8438
▁washing	-8439
▁weavers	-8440
sequently	-8441
▁Kutatati	-8442
▁Phrygian	-8443
▁Together	-8444
▁Umbadarâ	-8445
▁antimony	-8446
▁arranged	-8447
▁barnyard	-8448
▁ceremony	-8449
▁constant	-8450
▁courtier	-8451
▁domestic	-8452
▁finishes	-8453
▁firewood	-8454
▁goodwill	-8455
▁likeness	-8456
▁presents	-8457
▁princely	-8458
▁princess	-8459
▁progress	-8460
▁recruits	-8461
▁remained	-8462
▁runaways	-8463
▁scorpion	-8464
▁seacoast	-8465
▁shallots	-8466
favourable	-8467
▁Commagene	-8468
▁Egyptians	-8469
▁atrophied	-8470
▁broadened	-8471
▁comprehen	-8472
▁concealed	-8473
▁creatures	-8474
▁different	-8475
▁ecstatics	-8476
▁gardeners	-8477
▁mentioned	-8478
▁neighbour	-8479
▁overthrew	-8480
▁overwhelm	-8481
▁respected	-8482
▁therefore	-8483
▁vertebrae	-8484
▁absolutely	-8485
▁bodyguards	-8486
▁disappears	-8487
▁embankment	-8488
▁friendship	-8489
▁haruspices	-8490
▁intestines	-8491
▁protectors	-8492
▁shepherded	-8493
▁surpassing	-8494
▁thresholds	-8495
▁Neriglissar	-8496
▁approaching	-8497
▁decapitated	-8498
▁experienced	-8499
▁hostilities	-8500
▁treacherous	-8501
▁appurtenance	-8502
▁housekeepers	-8503
▁neighborhood	-8504
▁predecessors	-8505
▁transgressed	-8506
▁circumference	-8507
▁representative	-8508
▁wholeheartedly	-8509
'"	-8510
(!	-8511
14	-8512
Sa	-8513
dr	-8514
zē	-8515
ḫī	-8516
Ilu	-8517
Mal	-8518
Reg	-8519
agi	-8520
amp	-8521
amû	-8522
anš	-8523
atî	-8524
cav	-8525
dug	-8526
eks	-8527
isi	-8528
išt	-8529
kar	-8530
kil	-8531
loc	-8532
mic	-8533
new	-8534
ste	-8535
teg	-8536
unz	-8537
zēr	-8538
āsi	-8539
šap	-8540
ūnī	-8541
▁37	-8542
▁4,	-8543
▁5,	-8544
▁53	-8545
▁69	-8546
▁Gi	-8547
▁Ku	-8548
▁Mi	-8549
▁Za	-8550
▁aw	-8551
▁nu	-8552
▁Ši	-8553
,150	-8554
Isra	-8555
Take	-8556
addi	-8557
aith	-8558
alty	-8559
ammû	-8560
atur	-8561
come	-8562
dina	-8563
dinu	-8564
ecut	-8565
elle	-8566
ells	-8567
ench	-8568
gium	-8569
hari	-8570
ieth	-8571
ipar	-8572
kumu	-8573
lain	-8574
lime	-8575
matu	-8576
napš	-8577
oded	-8578
olen	-8579
oses	-8580
pair	-8581
pest	-8582
phor	-8583
qamu	-8584
quis	-8585
ramu	-8586
reas	-8587
resp	-8588
sell	-8589
suḫī	-8590
ugal	-8591
unch	-8592
urse	-8593
ušpa	-8594
zanu	-8595
zera	-8596
zēri	-8597
ēṭir	-8598
▁160	-8599
▁20,	-8600
▁95)	-8601
▁Amb	-8602
▁Arg	-8603
▁Dar	-8604
▁Hub	-8605
▁Kad	-8606
▁Kaḫ	-8607
▁Kit	-8608
▁Kuš	-8609
▁Lam	-8610
▁Mam	-8611
▁Mil	-8612
▁Nat	-8613
▁Off	-8614
▁Pit	-8615
▁Qat	-8616
▁Qib	-8617
▁Sad	-8618
▁Sah	-8619
▁San	-8620
▁Tep	-8621
▁Tum	-8622
▁Tup	-8623
▁Uar	-8624
▁Upa	-8625
▁Yab	-8626
▁fed	-8627
▁fil	-8628
▁kor	-8629
▁lep	-8630
▁lip	-8631
▁mut	-8632
▁nin	-8633
▁sum	-8634
▁tex	-8635
▁tot	-8636
▁Ḫaz	-8637
These	-8638
abbed	-8639
adānu	-8640
agues	-8641
antry	-8642
apiku	-8643
arged	-8644
asion	-8645
bitqi	-8646
blank	-8647
cakes	-8648
ender	-8649
fifth	-8650
gates	-8651
gines	-8652
kigal	-8653
osmic	-8654
phist	-8655
prise	-8656
raise	-8657
secut	-8658
stret	-8659
suing	-8660
zākir	-8661
▁Adia	-8662
▁Ammu	-8663
▁Amul	-8664
▁Apla	-8665
▁Badn	-8666
▁Bāzu	-8667
▁Ebeh	-8668
▁Elen	-8669
▁Eris	-8670
▁Hear	-8671
▁Labd	-8672
▁Lanš	-8673
▁Lulî	-8674
▁Munn	-8675
▁Some	-8676
▁Talm	-8677
▁Tarh	-8678
▁blew	-8679
▁cage	-8680
▁conv	-8681
▁cows	-8682
▁cups	-8683
▁ginû	-8684
▁gore	-8685
▁heat	-8686
▁hunt	-8687
▁juni	-8688
▁kall	-8689
▁lone	-8690
▁nice	-8691
▁sail	-8692
▁serp	-8693
▁soot	-8694
▁styl	-8695
▁thin	-8696
▁trap	-8697
▁undo	-8698
▁unit	-8699
▁vats	-8700
▁Šumâ	-8701
Israel	-8702
Zarpan	-8703
ainous	-8704
apping	-8705
cavity	-8706
ctions	-8707
demons	-8708
elling	-8709
ential	-8710
igated	-8711
ighted	-8712
minent	-8713
natkil	-8714
object	-8715
ourish	-8716
paleya	-8717
pleted	-8718
suḫīli	-8719
though	-8720
ummānu	-8721
uṣalla	-8722
Ḫamban	-8723
Ḫumria	-8724
▁1,200	-8725
▁Adapa	-8726
▁Adūnī	-8727
▁Bēlat	-8728
▁Gambu	-8729
▁Irḫul	-8730
▁Kummu	-8731
▁Makes	-8732
▁Papḫu	-8733
▁Qatnu	-8734
▁Sanda	-8735
▁Sulum	-8736
▁Tamnâ	-8737
▁Would	-8738
▁allot	-8739
▁arbit	-8740
▁chann	-8741
▁chose	-8742
▁condu	-8743
▁contr	-8744
▁crack	-8745
▁drain	-8746
▁emmer	-8747
▁flame	-8748
▁grave	-8749
▁haršu	-8750
▁kneel	-8751
▁leeks	-8752
▁legal	-8753
▁lines	-8754
▁local	-8755
▁maint	-8756
▁meals	-8757
▁naked	-8758
▁oaths	-8759
▁olive	-8760
▁plots	-8761
▁reput	-8762
▁resin	-8763
▁ropes	-8764
▁ships	-8765
▁spect	-8766
▁story	-8767
▁tenth	-8768
▁twent	-8769
▁wines	-8770
Cilicia	-8771
Perhaps	-8772
Pileser	-8773
Zualzaš	-8774
aithful	-8775
aughter	-8776
icating	-8777
lifting	-8778
located	-8779
statues	-8780
through	-8781
trodden	-8782
▁Anyone	-8783
▁Aplāya	-8784
▁Bitter	-8785
▁Egipar	-8786
▁Kalkal	-8787
▁Madanu	-8788
▁Nashir	-8789
▁Ninkur	-8790
▁Niḫanu	-8791
▁Samsim	-8792
▁Silver	-8793
▁Teušpa	-8794
▁Zabban	-8795
▁access	-8796
▁affect	-8797
▁amphor	-8798
▁armory	-8799
▁better	-8800
▁bucket	-8801
▁chains	-8802
▁chased	-8803
▁choose	-8804
▁coated	-8805
▁commit	-8806
▁corrid	-8807
▁culmin	-8808
▁curses	-8809
▁deadly	-8810
▁defect	-8811
▁eroded	-8812
▁execut	-8813
▁ešmarû	-8814
▁feeder	-8815
▁festiv	-8816
▁ghosts	-8817
▁groves	-8818
▁guided	-8819
▁impose	-8820
▁ladies	-8821
▁render	-8822
▁result	-8823
▁shouts	-8824
▁stolen	-8825
▁taught	-8826
▁unable	-8827
▁worthy	-8828
▁Ḫamānu	-8829
ightning	-8830
▁Asuḫīli	-8831
▁Chariot	-8832
▁Nisannu	-8833
▁Sukkaya	-8834
▁Surappu	-8835
▁Tepurzu	-8836
▁Urkittu	-8837
▁affairs	-8838
▁anomaly	-8839
▁applied	-8840
▁battles	-8841
▁bundles	-8842
▁daytime	-8843
▁disband	-8844
▁discuss	-8845
▁donated	-8846
▁engines	-8847
▁exacted	-8848
▁exactly	-8849
▁exposed	-8850
▁filling	-8851
▁fleeing	-8852
▁grazing	-8853
▁happily	-8854
▁insight	-8855
▁loyalty	-8856
▁penalty	-8857
▁quivers	-8858
▁runaway	-8859
▁sandals	-8860
▁serious	-8861
▁sophist	-8862
▁stretch	-8863
▁sublime	-8864
▁traitor	-8865
▁vehicle	-8866
▁wounded	-8867
▁Ḫubušna	-8868
Zarpanītu	-8869
dinutukua	-8870
officials	-8871
therefore	-8872
▁Ahhešaya	-8873
▁Borsippe	-8874
▁Kummeans	-8875
▁Mountain	-8876
▁Tumurrum	-8877
▁artisans	-8878
▁bestowed	-8879
▁carriage	-8880
▁choosing	-8881
▁covering	-8882
▁crescent	-8883
▁cresting	-8884
▁designed	-8885
▁elammaku	-8886
▁encamped	-8887
▁fugitive	-8888
▁harvests	-8889
▁luminary	-8890
▁manacles	-8891
▁nominate	-8892
▁organize	-8893
▁pedestal	-8894
▁portable	-8895
▁punished	-8896
▁rendered	-8897
▁supplies	-8898
▁treaties	-8899
▁trusting	-8900
▁watering	-8901
▁whenever	-8902
▁Ḫamatite	-8903
consisting	-8904
everything	-8905
taqqinanni	-8906
▁Damascene	-8907
▁Ereškigal	-8908
▁Gambulian	-8909
▁Guzummānu	-8910
▁Hubuškian	-8911
▁brushwood	-8912
▁carpenter	-8913
▁collegium	-8914
▁conceived	-8915
▁confusion	-8916
▁consigned	-8917
▁displayed	-8918
▁domestics	-8919
▁engineers	-8920
▁exception	-8921
▁handcuffs	-8922
▁ingenious	-8923
▁judgement	-8924
▁objective	-8925
▁outriders	-8926
▁plentiful	-8927
▁protected	-8928
▁providing	-8929
▁remission	-8930
▁returning	-8931
▁reverence	-8932
▁spectacle	-8933
▁twentieth	-8934
▁undertake	-8935
▁venerable	-8936
▁Ḫarēḫasta	-8937
▁Everything	-8938
▁Throughout	-8939
▁additional	-8940
▁completion	-8941
▁containers	-8942
▁counselors	-8943
▁delineated	-8944
▁designated	-8945
▁faithfully	-8946
▁flourished	-8947
▁reputation	-8948
▁transgress	-8949
▁understand	-8950
▁unreliable	-8951
▁villainous	-8952
▁celebration	-8953
▁chamberlain	-8954
▁consecrated	-8955
▁contingents	-8956
▁housekeeper	-8957
▁interrupted	-8958
▁sufficiently	-8959
▁pronouncement	-8960
▁reconstructed	-8961
▁sophisticated	-8962
At	-8963
Uk	-8964
cy	-8965
lē	-8966
nī	-8967
oi	-8968
ox	-8969
pr	-8970
rî	-8971
xe	-8972
zâ	-8973
Ša	-8974
ṣî	-8975
’-	-8976
!,”	-8977
She	-8978
Und	-8979
abî	-8980
bir	-8981
cts	-8982
cue	-8983
dim	-8984
dun	-8985
elo	-8986
equ	-8987
eti	-8988
fam	-8989
gue	-8990
ibu	-8991
ibî	-8992
ico	-8993
ilî	-8994
ilû	-8995
išu	-8996
mir	-8997
mus	-8998
oll	-8999
oti	-9000
qia	-9001
qus	-9002
riš	-9003
rug	-9004
shi	-9005
uha	-9006
ura	-9007
urc	-9008
urg	-9009
yed	-9010
zaq	-9011
īpu	-9012
īsu	-9013
šam	-9014
ḫil	-9015
▁'"	-9016
▁1.	-9017
▁2:	-9018
▁39	-9019
▁3:	-9020
▁5;	-9021
▁7,	-9022
▁Ka	-9023
▁Ut	-9024
▁ps	-9025
▁ti	-9026
▁Še	-9027
,200	-9028
Bāri	-9029
Make	-9030
Zabd	-9031
abor	-9032
aean	-9033
appi	-9034
arna	-9035
arry	-9036
ayab	-9037
baši	-9038
bbed	-9039
cked	-9040
ezer	-9041
gabb	-9042
hara	-9043
have	-9044
ibar	-9045
išhu	-9046
mule	-9047
oppa	-9048
rone	-9049
rope	-9050
rāmu	-9051
shaw	-9052
tešî	-9053
ugul	-9054
ullu	-9055
ultu	-9056
umbi	-9057
umps	-9058
unda	-9059
undu	-9060
upap	-9061
utur	-9062
verb	-9063
were	-9064
šadû	-9065
▁1/6	-9066
▁11,	-9067
▁Baq	-9068
▁Gag	-9069
▁Gid	-9070
▁Ian	-9071
▁Ikk	-9072
▁Ili	-9073
▁Ion	-9074
▁Kuz	-9075
▁Mud	-9076
▁Out	-9077
▁Paq	-9078
▁Rah	-9079
▁Sas	-9080
▁Taš	-9081
▁Yam	-9082
▁Yet	-9083
▁Zan	-9084
▁abl	-9085
▁bif	-9086
▁cou	-9087
▁den	-9088
▁flo	-9089
▁hem	-9090
▁mix	-9091
▁pat	-9092
▁pon	-9093
▁riv	-9094
▁wax	-9095
Arame	-9096
Iauta	-9097
Lower	-9098
While	-9099
ahuṭu	-9100
allal	-9101
ammes	-9102
angor	-9103
child	-9104
colle	-9105
dwell	-9106
ended	-9107
erily	-9108
harem	-9109
icate	-9110
ilanu	-9111
inhab	-9112
irred	-9113
isher	-9114
išpak	-9115
kettu	-9116
known	-9117
mouth	-9118
odged	-9119
order	-9120
piece	-9121
plete	-9122
salim	-9123
tabni	-9124
tiles	-9125
ukkal	-9126
ulara	-9127
ulliṭ	-9128
ultiv	-9129
umanu	-9130
uties	-9131
▁(45)	-9132
▁(648	-9133
▁Amat	-9134
▁Dakk	-9135
▁Giri	-9136
▁Happ	-9137
▁Harm	-9138
▁Haur	-9139
▁Hinn	-9140
▁Luqu	-9141
▁Nann	-9142
▁Near	-9143
▁Over	-9144
▁Padd	-9145
▁Tand	-9146
▁Ukka	-9147
▁Unqi	-9148
▁Yoke	-9149
▁affl	-9150
▁axes	-9151
▁bell	-9152
▁bend	-9153
▁bone	-9154
▁boys	-9155
▁cure	-9156
▁dawn	-9157
▁decl	-9158
▁dism	-9159
▁drug	-9160
▁fail	-9161
▁fiss	-9162
▁gets	-9163
▁gird	-9164
▁grou	-9165
▁jugs	-9166
▁knew	-9167
▁lush	-9168
▁malt	-9169
▁mete	-9170
▁mušš	-9171
▁oven	-9172
▁pard	-9173
▁pith	-9174
▁repl	-9175
▁shel	-9176
▁size	-9177
▁stop	-9178
▁surv	-9179
▁tuft	-9180
▁wrap	-9181
▁Šumu	-9182
Malaḫu	-9183
Zamani	-9184
allaya	-9185
ankind	-9186
arrows	-9187
balaṭi	-9188
barley	-9189
broken	-9190
circle	-9191
cluded	-9192
cosmic	-9193
dagger	-9194
dammiq	-9195
divine	-9196
double	-9197
entine	-9198
ervent	-9199
family	-9200
follow	-9201
handed	-9202
hiding	-9203
idmuru	-9204
itions	-9205
labria	-9206
leaves	-9207
onight	-9208
person	-9209
plices	-9210
ported	-9211
repair	-9212
steeds	-9213
ursion	-9214
uṣalli	-9215
▁30'')	-9216
▁Abund	-9217
▁Adasi	-9218
▁Asari	-9219
▁Azuru	-9220
▁Birat	-9221
▁Birtu	-9222
▁Bless	-9223
▁Cults	-9224
▁Dayan	-9225
▁Egall	-9226
▁Guard	-9227
▁Makan	-9228
▁Manṣu	-9229
▁Mardî	-9230
▁Nēmet	-9231
▁Sirqu	-9232
▁Treas	-9233
▁Tummu	-9234
▁Ubaru	-9235
▁Under	-9236
▁armor	-9237
▁bears	-9238
▁behav	-9239
▁boxes	-9240
▁cease	-9241
▁cloak	-9242
▁cooks	-9243
▁crews	-9244
▁cried	-9245
▁diver	-9246
▁dress	-9247
▁exalt	-9248
▁genie	-9249
▁habit	-9250
▁hangs	-9251
▁monst	-9252
▁newly	-9253
▁penet	-9254
▁psalm	-9255
▁quite	-9256
▁refer	-9257
▁robes	-9258
▁rough	-9259
▁shoes	-9260
▁smoke	-9261
▁socle	-9262
▁spend	-9263
▁stole	-9264
▁stool	-9265
▁tired	-9266
▁valid	-9267
▁youth	-9268
▁Šidir	-9269
▁Šurda	-9270
▁Ḫabur	-9271
Amukāni	-9272
Daganna	-9273
Mušēzib	-9274
Tukultī	-9275
Zabdāni	-9276
attered	-9277
daggers	-9278
divided	-9279
figures	-9280
himself	-9281
itution	-9282
mušezib	-9283
napšati	-9284
objects	-9285
rogated	-9286
▁20,000	-9287
▁Asakku	-9288
▁Banaya	-9289
▁Barsip	-9290
▁Bubilu	-9291
▁Eunuch	-9292
▁Hašanu	-9293
▁Maliḫu	-9294
▁Mišaru	-9295
▁Sharru	-9296
▁Temple	-9297
▁Uarbis	-9298
▁Yahuṭu	-9299
▁arrest	-9300
▁avenge	-9301
▁bathed	-9302
▁bifurc	-9303
▁breath	-9304
▁cister	-9305
▁domain	-9306
▁fellow	-9307
▁finger	-9308
▁flying	-9309
▁freely	-9310
▁helper	-9311
▁hither	-9312
▁incess	-9313
▁junior	-9314
▁ledges	-9315
▁looted	-9316
▁motion	-9317
▁muster	-9318
▁necess	-9319
▁negoti	-9320
▁occurs	-9321
▁plates	-9322
▁prompt	-9323
▁pushed	-9324
▁ration	-9325
▁recite	-9326
▁rescue	-9327
▁retrie	-9328
▁storms	-9329
▁subdue	-9330
▁suffer	-9331
▁suited	-9332
▁surely	-9333
▁thrive	-9334
▁throat	-9335
▁tongue	-9336
▁uncles	-9337
▁verily	-9338
▁votive	-9339
▁waging	-9340
▁warden	-9341
▁wolves	-9342
▁Ḫarutu	-9343
▁Ḫirimu	-9344
Arameans	-9345
apsukkal	-9346
ayabarqa	-9347
children	-9348
issioned	-9349
mušallim	-9350
normally	-9351
province	-9352
suitable	-9353
umerable	-9354
▁200,150	-9355
▁Andaria	-9356
▁Apladad	-9357
▁Dummuqu	-9358
▁Earlier	-9359
▁Eastern	-9360
▁Ehursag	-9361
▁Elenzaš	-9362
▁Goddess	-9363
▁Haurina	-9364
▁Hinnumu	-9365
▁Išmanni	-9366
▁Mitatti	-9367
▁Neither	-9368
▁Parsuaš	-9369
▁Sulumal	-9370
▁Sumurzu	-9371
▁Tandāya	-9372
▁Tarditu	-9373
▁Tupliaš	-9374
▁amongst	-9375
▁anxious	-9376
▁ascends	-9377
▁barbari	-9378
▁bellies	-9379
▁burning	-9380
▁clangor	-9381
▁climbed	-9382
▁consult	-9383
▁content	-9384
▁cooking	-9385
▁desires	-9386
▁drivers	-9387
▁eminent	-9388
▁enquire	-9389
▁entrust	-9390
▁fissure	-9391
▁friezes	-9392
▁fulfill	-9393
▁gazelle	-9394
▁keepers	-9395
▁magnify	-9396
▁malaria	-9397
▁passing	-9398
▁portico	-9399
▁promise	-9400
▁proverb	-9401
▁recited	-9402
▁revenge	-9403
▁robbers	-9404
▁sapping	-9405
▁sitting	-9406
▁stepped	-9407
▁tempest	-9408
▁torches	-9409
▁totally	-9410
▁uplands	-9411
▁visited	-9412
▁weighty	-9413
▁workmen	-9414
Ummanigaš	-9415
alabaster	-9416
following	-9417
▁Allabria	-9418
▁Entrance	-9419
▁Hittites	-9420
▁Ispabāra	-9421
▁Ningirsu	-9422
▁Wherever	-9423
▁apprehen	-9424
▁attained	-9425
▁bathroom	-9426
▁capturer	-9427
▁counsell	-9428
▁decrease	-9429
▁depleted	-9430
▁doorways	-9431
▁downfall	-9432
▁equipped	-9433
▁figurine	-9434
▁inciting	-9435
▁lamassus	-9436
▁mobilize	-9437
▁pondered	-9438
▁portents	-9439
▁preserve	-9440
▁proclaim	-9441
▁rejoices	-9442
▁retiring	-9443
▁secretly	-9444
▁sustains	-9445
▁vanquish	-9446
▁weighing	-9447
Concerning	-9448
▁Abundance	-9449
▁Munnabitu	-9450
▁Tabaleans	-9451
▁Tarḫulara	-9452
▁afflicted	-9453
▁answering	-9454
▁blockades	-9455
▁breaching	-9456
▁campaigns	-9457
▁community	-9458
▁conspired	-9459
▁cornfield	-9460
▁corridors	-9461
▁delegates	-9462
▁dislodged	-9463
▁disrepair	-9464
▁encourage	-9465
▁excrement	-9466
▁expensive	-9467
▁forecourt	-9468
▁incursion	-9469
▁majesties	-9470
▁organized	-9471
▁overpower	-9472
▁pavilions	-9473
▁personnel	-9474
▁pertinent	-9475
▁relations	-9476
inhabitants	-9477
▁Egallammes	-9478
▁Kullimmeri	-9479
▁abundantly	-9480
▁administer	-9481
▁beseeching	-9482
▁cavalryman	-9483
▁colleagues	-9484
▁disbanding	-9485
▁entreaties	-9486
▁instituted	-9487
▁ordinances	-9488
▁petitioned	-9489
▁pronounced	-9490
▁renovating	-9491
▁sacrificed	-9492
▁serpentine	-9493
▁subdivided	-9494
▁sustenance	-9495
▁throughout	-9496
▁unfaithful	-9497
▁vanquished	-9498
▁wrongdoing	-9499
▁Banayabarqa	-9500
▁Borsippeans	-9501
▁abandonment	-9502
▁accomplices	-9503
▁apprentices	-9504
▁architraves	-9505
▁battlefield	-9506
▁bifurcation	-9507
▁culmination	-9508
▁cultivating	-9509
▁devastation	-9510
▁disobedient	-9511
▁emplacement	-9512
▁exceedingly	-9513
▁expenditure	-9514
▁innumerable	-9515
▁pomegranate	-9516
▁replacement	-9517
▁transferred	-9518
▁workmanship	-9519
▁Nevertheless	-9520
▁commissioned	-9521
▁disobedience	-9522
▁interrogated	-9523
▁investigated	-9524
▁prolongation	-9525
▁surroundings	-9526
▁transporting	-9527
▁Egašankalamma	-9528
▁compassionate	-9529
▁exceptionally	-9530
▁grandchildren	-9531
/2	-9532
/6	-9533
13	-9534
?)	-9535
AR	-9536
Ad	-9537
BI	-9538
By	-9539
Ig	-9540
eš	-9541
iu	-9542
rû	-9543
sg	-9544
wr	-9545
ēt	-9546
šâ	-9547
(!)	-9548
).”	-9549
Can	-9550
Kud	-9551
Lib	-9552
Rem	-9553
Sul	-9554
Tig	-9555
anz	-9556
atâ	-9557
aue	-9558
cru	-9559
dus	-9560
eqi	-9561
gab	-9562
han	-9563
icy	-9564
iia	-9565
ipe	-9566
ipu	-9567
irâ	-9568
iše	-9569
kki	-9570
leg	-9571
qqi	-9572
que	-9573
quo	-9574
uls	-9575
uqu	-9576
yps	-9577
zig	-9578
ēpu	-9579
ēši	-9580
īdu	-9581
ūmu	-9582
ūsu	-9583
ḫat	-9584
ṭab	-9585
▁3-	-9586
▁49	-9587
▁57	-9588
▁8,	-9589
▁Hi	-9590
▁Ri	-9591
▁Um	-9592
▁gi	-9593
▁la	-9594
▁lā	-9595
▁ta	-9596
▁šu	-9597
Barr	-9598
Fear	-9599
Kari	-9600
Lord	-9601
Star	-9602
abia	-9603
abua	-9604
akil	-9605
amme	-9606
ball	-9607
cing	-9608
cruc	-9609
cued	-9610
erbo	-9611
iašu	-9612
iltu	-9613
imru	-9614
lâma	-9615
mena	-9616
naki	-9617
olub	-9618
omen	-9619
orer	-9620
ploy	-9621
rane	-9622
ridu	-9623
ruti	-9624
size	-9625
stri	-9626
tier	-9627
ukka	-9628
ukur	-9629
umaš	-9630
undi	-9631
unnu	-9632
uous	-9633
uris	-9634
what	-9635
ṣabi	-9636
▁140	-9637
▁250	-9638
▁5/6	-9639
▁Adâ	-9640
▁Arm	-9641
▁Bow	-9642
▁Div	-9643
▁Gim	-9644
▁Ill	-9645
▁Kiq	-9646
▁Kus	-9647
▁Nap	-9648
▁Neš	-9649
▁Pab	-9650
▁Taq	-9651
▁Tuḫ	-9652
▁Ušû	-9653
▁Yah	-9654
▁ast	-9655
▁cat	-9656
▁cuc	-9657
▁cun	-9658
▁enc	-9659
▁ešš	-9660
▁fox	-9661
▁hol	-9662
▁lal	-9663
▁mat	-9664
▁ore	-9665
▁sed	-9666
▁sim	-9667
▁wit	-9668
▁Šuz	-9669
Gyges	-9670
Ladin	-9671
Matti	-9672
Speak	-9673
abled	-9674
aller	-9675
alter	-9676
anate	-9677
anayu	-9678
aniba	-9679
anied	-9680
anūnu	-9681
argaz	-9682
assed	-9683
augur	-9684
ayabi	-9685
ašmar	-9686
aṣbat	-9687
bartu	-9688
heart	-9689
ibles	-9690
ients	-9691
iling	-9692
ilsag	-9693
indle	-9694
kians	-9695
limmu	-9696
lišhu	-9697
mannu	-9698
natan	-9699
quent	-9700
rafts	-9701
samme	-9702
seven	-9703
stabl	-9704
tment	-9705
ufact	-9706
unītu	-9707
uriaš	-9708
zaqip	-9709
šumki	-9710
ṣarbi	-9711
▁(70)	-9712
▁45')	-9713
▁Bani	-9714
▁Didî	-9715
▁Door	-9716
▁Dūru	-9717
▁Harg	-9718
▁Idri	-9719
▁Kamm	-9720
▁Kašp	-9721
▁Kašš	-9722
▁Lall	-9723
▁Misu	-9724
▁Moon	-9725
▁Path	-9726
▁Patu	-9727
▁Prov	-9728
▁Qiti	-9729
▁Rear	-9730
▁Rāši	-9731
▁Ubur	-9732
▁Upon	-9733
▁Uqnû	-9734
▁Yadi	-9735
▁Zazî	-9736
▁argu	-9737
▁bent	-9738
▁comb	-9739
▁craw	-9740
▁deaf	-9741
▁dign	-9742
▁figs	-9743
▁flat	-9744
▁fron	-9745
▁glow	-9746
▁grac	-9747
▁hord	-9748
▁impa	-9749
▁latt	-9750
▁lyre	-9751
▁mark	-9752
▁mart	-9753
▁ours	-9754
▁pain	-9755
▁pige	-9756
▁plen	-9757
▁pole	-9758
▁popl	-9759
▁preb	-9760
▁pānu	-9761
▁reck	-9762
▁sack	-9763
▁sank	-9764
▁sate	-9765
▁span	-9766
▁stro	-9767
▁trib	-9768
▁unto	-9769
Barrūa	-9770
Bunaki	-9771
Nobody	-9772
Sulāya	-9773
Undāsi	-9774
Zamāni	-9775
anyone	-9776
appoin	-9777
ardilû	-9778
arture	-9779
bulliṭ	-9780
estial	-9781
getter	-9782
gidanu	-9783
inally	-9784
irrutu	-9785
lifted	-9786
liness	-9787
nišešu	-9788
nother	-9789
oluble	-9790
onding	-9791
ounced	-9792
ounder	-9793
passed	-9794
queror	-9795
quoise	-9796
rather	-9797
strate	-9798
ulates	-9799
utions	-9800
velous	-9801
vessel	-9802
ḫilāni	-9803
▁Agade	-9804
▁Ahunu	-9805
▁Alaia	-9806
▁Arama	-9807
▁Attar	-9808
▁Aḫunu	-9809
▁Booty	-9810
▁Bring	-9811
▁Const	-9812
▁Court	-9813
▁Dilil	-9814
▁Hiram	-9815
▁Ianzû	-9816
▁Kapar	-9817
▁Kudur	-9818
▁Kulum	-9819
▁Mouth	-9820
▁Niqqu	-9821
▁Qingu	-9822
▁Sangû	-9823
▁Taboo	-9824
▁Ulaya	-9825
▁Which	-9826
▁Zabdî	-9827
▁Zikir	-9828
▁adult	-9829
▁advis	-9830
▁amūmu	-9831
▁blank	-9832
▁blasp	-9833
▁bount	-9834
▁braid	-9835
▁defin	-9836
▁fears	-9837
▁guest	-9838
▁guile	-9839
▁holes	-9840
▁jerbo	-9841
▁kimru	-9842
▁lifts	-9843
▁mišhu	-9844
▁moves	-9845
▁paste	-9846
▁piles	-9847
▁prime	-9848
▁quota	-9849
▁round	-9850
▁secre	-9851
▁shone	-9852
▁solar	-9853
▁urine	-9854
▁victu	-9855
▁vigor	-9856
▁wagon	-9857
▁waist	-9858
▁winds	-9859
▁šēdus	-9860
▁Ḫimme	-9861
▁Ḫupap	-9862
However	-9863
Kurbail	-9864
Lebanon	-9865
Naḫundu	-9866
Teumman	-9867
Whoever	-9868
clusion	-9869
joining	-9870
lâmašši	-9871
request	-9872
service	-9873
tiliašu	-9874
zigallu	-9875
▁Addaru	-9876
▁Bamaya	-9877
▁Battle	-9878
▁Birati	-9879
▁Dinitu	-9880
▁Elugal	-9881
▁Ikkaru	-9882
▁Indeed	-9883
▁Indian	-9884
▁Kubaba	-9885
▁Liphur	-9886
▁Mesean	-9887
▁Nisaba	-9888
▁Series	-9889
▁Tariba	-9890
▁Weapon	-9891
▁Zazaya	-9892
▁allure	-9893
▁apport	-9894
▁assume	-9895
▁befell	-9896
▁canopy	-9897
▁chests	-9898
▁compan	-9899
▁comply	-9900
▁consol	-9901
▁cucumb	-9902
▁cursed	-9903
▁depths	-9904
▁	-9905
e	-9906
t	-9907
a	-9908
o	-9909
n	-9910
i	-9911
r	-9912
h	-9913
s	-9914
d	-9915
l	-9916
u	-9917
m	-9918
f	-9919
,	-9920
.	-9921
g	-9922
y	-9923
c	-9924
p	-9925
w	-9926
b	-9927
k	-9928
)	-9929
(	-9930
v	-9931
I	-9932
-	-9933
š	-9934
A	-9935
T	-9936
N	-9937
;	-9938
M	-9939
:	-9940
W	-9941
'	-9942
B	-9943
S	-9944
1	-9945
0	-9946
x	-9947
E	-9948
q	-9949
"	-9950
û	-9951
!	-9952
H	-9953
z	-9954
Š	-9955
2	-9956
D	-9957
—	-9958
G	-9959
5	-9960
j	-9961
K	-9962
ī	-9963
U	-9964
ā	-9965
L	-9966
ṣ	-9967
?	-9968
C	-9969
3	-9970
P	-9971
4	-9972
ḫ	-9973
î	-9974
“	-9975
R	-9976
”	-9977
F	-9978
O	-9979
Y	-9980
6	-9981
ē	-9982
Ḫ	-9983
ṭ	-9984
ū	-9985
Z	-9986
â	-9987
V	-9988
7	-9989
8	-9990
ʾ	-9991
’	-9992
/	-9993
9	-9994
Q	-9995
X	-9996
