<unk>	0
<s>	0
</s>	0
▁t	-0
he	-1
▁the	-2
▁o	-3
in	-4
an	-5
33	-6
▁'	-7
',	-8
']	-9
['	-10
▁['	-11
▁of	-12
]:	-13
'][	-14
'][1	-15
'][1]:	-16
er	-17
and	-18
▁s	-19
▁w	-20
▁m	-21
.1	-22
it	-23
re	-24
▁a	-25
ing	-26
or	-27
▁(	-28
on	-29
ar	-30
▁l	-31
▁h	-32
is	-33
es	-34
335	-35
▁c	-36
ed	-37
at	-38
▁b	-39
.2	-40
ou	-41
en	-42
▁f	-43
▁and	-44
▁g	-45
al	-46
▁I	-47
▁p	-48
▁to	-49
▁d	-50
▁k	-51
23	-52
00	-53
▁king	-54
▁A	-55
il	-56
..	-57
...	-58
31	-59
▁in	-60
▁my	-61
ur	-62
336	-63
▁...	-64
ro	-65
334	-66
ay	-67
ord	-68
ad	-69
.3	-70
▁T	-71
▁go	-72
ri	-73
le	-74
▁lord	-75
▁wh	-76
as	-77
.4	-78
▁N	-79
▁he	-80
ab	-81
']:	-82
ce	-83
am	-84
▁n	-85
el	-86
▁y	-87
▁th	-88
313	-89
ver	-90
th	-91
ess	-92
▁be	-93
▁his	-94
▁M	-95
om	-96
.5	-97
ir	-98
ve	-99
237	-100
id	-101
24	-102
ent	-103
003	-104
▁re	-105
238	-106
ot	-107
▁god	-108
▁you	-109
▁W	-110
im	-111
▁is	-112
▁e	-113
▁The	-114
▁it	-115
ill	-116
.6	-117
ith	-118
ic	-119
un	-120
▁on	-121
et	-122
ion	-123
se	-124
▁for	-125
ss	-126
st	-127
▁who	-128
▁B	-129
.7	-130
39	-131
ard	-132
ld	-133
▁with	-134
▁1	-135
ow	-136
ut	-137
▁land	-138
▁S	-139
.8	-140
ul	-141
the	-142
gh	-143
all	-144
▁me	-145
ity	-146
ac	-147
.9	-148
ness	-149
▁st	-150
▁an	-151
▁will	-152
▁E	-153
rom	-154
šš	-155
ant	-156
ak	-157
ššur	-158
0',	-159
itness	-160
▁or	-161
▁Witness	-162
71	-163
▁sh	-164
od	-165
ght	-166
▁your	-167
ers	-168
.11	-169
36	-170
ap	-171
▁as	-172
2',	-173
314	-174
▁not	-175
2]:	-176
'][2]:	-177
est	-178
▁that	-179
▁Aššur	-180
ave	-181
ple	-182
▁com	-183
reat	-184
▁al	-185
ru	-186
oun	-187
ct	-188
.2',	-189
45	-190
▁from	-191
ain	-192
4',	-193
▁se	-194
.13	-195
um	-196
▁,	-197
abû	-198
▁their	-199
70	-200
▁him	-201
▁them	-202
ace	-203
3356	-204
▁day	-205
0'][1]:	-206
em	-207
6',	-208
5',	-209
3358	-210
▁city	-211
up	-212
▁Š	-213
▁Ass	-214
▁Nabû	-215
▁H	-216
▁pl	-217
),	-218
224	-219
iv	-220
▁they	-221
28	-222
ag	-223
▁are	-224
2'][1]:	-225
49	-226
3357	-227
▁gods	-228
7',	-229
▁great	-230
▁son	-231
qu	-232
▁con	-233
her	-234
ore	-235
ig	-236
aš	-237
▁2	-238
▁have	-239
40	-240
005	-241
2.1	-242
yri	-243
▁had	-244
ich	-245
51	-246
art	-247
▁—	-248
▁Assyri	-249
8',	-250
▁D	-251
4'][1]:	-252
ep	-253
us	-254
uk	-255
▁which	-256
ch	-257
ly	-258
ear	-259
5'][1]:	-260
erv	-261
9',	-262
to	-263
3349	-264
▁r	-265
7.1	-266
8.1	-267
ation	-268
▁Assyria	-269
ip	-270
01	-271
▁"	-272
26	-273
46	-274
.5',	-275
3359	-276
▁serv	-277
6'][1]:	-278
▁has	-279
3351	-280
▁one	-281
▁v	-282
res	-283
▁G	-284
one	-285
▁its	-286
if	-287
7'][1]:	-288
▁all	-289
5.1	-290
ter	-291
21	-292
47	-293
41	-294
▁servant	-295
ate	-296
4.1	-297
ive	-298
▁pe	-299
.6',	-300
▁de	-301
.21	-302
69	-303
▁ch	-304
30	-305
.7',	-306
8'][1]:	-307
▁at	-308
3361	-309
wn	-310
ame	-311
ong	-312
ine	-313
29	-314
20	-315
ount	-316
av	-317
ell	-318
▁May	-319
9'][1]:	-320
▁K	-321
.4',	-322
50	-323
3.1	-324
ople	-325
▁she	-326
38	-327
ies	-328
▁up	-329
▁If	-330
006	-331
.8',	-332
our	-333
27	-334
ood	-335
▁ab	-336
6.1	-337
▁people	-338
▁un	-339
▁shall	-340
▁U	-341
arduk	-342
.23	-343
ke	-344
.4'][1]:	-345
pp	-346
.3',	-347
ub	-348
der	-349
.9',	-350
rib	-351
te	-352
▁ex	-353
ould	-354
▁L	-355
9.1	-356
77	-357
▁br	-358
ors	-359
▁do	-360
out	-361
25	-362
48	-363
▁by	-364
▁Šam	-365
able	-366
ib	-367
urn	-368
▁C	-369
ah	-370
▁He	-371
ted	-372
.5'][1]:	-373
▁en	-374
ther	-375
▁pro	-376
▁pr	-377
ol	-378
35	-379
ann	-380
▁ro	-381
.6'][1]:	-382
▁NN	-383
▁P	-384
alace	-385
▁this	-386
▁Marduk	-387
os	-388
ade	-389
3355	-390
▁Šamaš	-391
ure	-392
fore	-393
.11',	-394
3348	-395
▁sp	-396
▁was	-397
.7'][1]:	-398
end	-399
239	-400
▁there	-401
▁off	-402
ight	-403
3360	-404
▁wor	-405
dad	-406
.8'][1]:	-407
▁To	-408
▁made	-409
▁we	-410
▁out	-411
60	-412
▁bl	-413
▁may	-414
▁dis	-415
3936	-416
ated	-417
.13',	-418
▁before	-419
▁am	-420
.9'][1]:	-421
hed	-422
▁over	-423
ouse	-424
2.2	-425
part	-426
.3'][1]:	-427
ie	-428
▁ag	-429
▁sil	-430
ide	-431
3138	-432
ought	-433
▁comm	-434
▁min	-435
▁In	-436
▁bec	-437
ound	-438
ans	-439
37	-440
ous	-441
).	-442
▁silver	-443
55	-444
3350	-445
▁whe	-446
tar	-447
▁ar	-448
▁ins	-449
ire	-450
itto	-451
aid	-452
▁year	-453
▁so	-454
su	-455
ty	-456
ign	-457
▁mo	-458
onth	-459
▁x	-460
alth	-461
4.2	-462
oin	-463
98	-464
II	-465
reg	-466
68	-467
ake	-468
.11'][1]:	-469
ari	-470
1.1	-471
for	-472
▁command	-473
3.2	-474
▁health	-475
▁ent	-476
ment	-477
▁;	-478
6.2	-479
ince	-480
▁Bel	-481
▁about	-482
yl	-483
▁As	-484
00370	-485
▁should	-486
.13'][1]:	-487
ere	-488
ylon	-489
▁ditto	-490
abylon	-491
▁An	-492
▁qu	-493
▁Iš	-494
▁say	-495
75	-496
ho	-497
ered	-498
ast	-499
rit	-500
3365	-501
▁palace	-502
▁F	-503
ck	-504
▁again	-505
.31	-506
▁“	-507
▁man	-508
vern	-509
▁O	-510
▁le	-511
▁Ištar	-512
▁sheep	-513
65	-514
aw	-515
▁app	-516
▁moon	-517
own	-518
▁Ar	-519
rote	-520
▁R	-521
▁house	-522
240	-523
ons	-524
▁wrote	-525
▁Babylon	-526
ance	-527
▁per	-528
ect	-529
▁let	-530
ok	-531
ull	-532
▁ad	-533
▁Adad	-534
of	-535
them	-536
ities	-537
▁El	-538
ike	-539
▁fl	-540
ning	-541
uṣ	-542
004	-543
.33	-544
2378	-545
▁place	-546
▁govern	-547
▁tem	-548
ands	-549
▁j	-550
ps	-551
▁come	-552
3]:	-553
▁div	-554
'][3]:	-555
ice	-556
ome	-557
▁kings	-558
uil	-559
▁gr	-560
2369	-561
3341	-562
▁against	-563
▁pres	-564
ry	-565
▁ac	-566
0.1	-567
95	-568
3366	-569
form	-570
att	-571
.21',	-572
2380	-573
yal	-574
šar	-575
▁Good	-576
▁tim	-577
▁lo	-578
ort	-579
▁brought	-580
▁co	-581
▁well	-582
din	-583
ence	-584
▁like	-585
ings	-586
78	-587
tu	-588
ud	-589
uṣur	-590
3135	-591
34	-592
99	-593
▁set	-594
▁did	-595
▁prince	-596
▁cro	-597
▁whom	-598
22	-599
▁Y	-600
ether	-601
pt	-602
ens	-603
ra	-604
▁enem	-605
.23',	-606
▁temple	-607
3371	-608
au	-609
eld	-610
▁into	-611
▁bless	-612
▁Es	-613
▁They	-614
▁wat	-615
orses	-616
▁writ	-617
▁ri	-618
dess	-619
00349	-620
kk	-621
ather	-622
▁cont	-623
▁fi	-624
ta	-625
3340	-626
šum	-627
▁time	-628
▁mount	-629
91	-630
7.2	-631
very	-632
▁royal	-633
▁cities	-634
ress	-635
▁were	-636
▁governor	-637
338	-638
▁can	-639
ony	-640
▁goddess	-641
▁divin	-642
0']:	-643
▁name	-644
▁sent	-645
▁gold	-646
▁good	-647
▁what	-648
▁horses	-649
3339	-650
8.2	-651
cer	-652
76	-653
ack	-654
age	-655
pl	-656
ite	-657
ge	-658
crib	-659
▁plac	-660
▁Elam	-661
▁lands	-662
app	-663
▁bro	-664
96	-665
ult	-666
▁down	-667
ose	-668
▁give	-669
regard	-670
iz	-671
ions	-672
▁see	-673
bel	-674
red	-675
▁Dis	-676
per	-677
gether	-678
3345	-679
▁ret	-680
▁5	-681
ife	-682
▁no	-683
▁minas	-684
▁world	-685
my	-686
▁Disregard	-687
▁upon	-688
▁divinity	-689
ban	-690
▁3	-691
▁tw	-692
▁whose	-693
iver	-694
▁tro	-695
9.2	-696
▁Ḫ	-697
▁pre	-698
▁1)	-699
ish	-700
ious	-701
▁str	-702
▁Nine	-703
3',	-704
▁thr	-705
veh	-706
unu	-707
▁men	-708
3136	-709
.21'][1]:	-710
ops	-711
▁any	-712
▁ep	-713
▁kn	-714
▁our	-715
▁mountain	-716
▁Nineveh	-717
2']:	-718
ief	-719
▁10	-720
▁Ur	-721
▁troops	-722
▁days	-723
gal	-724
▁together	-725
▁des	-726
ust	-727
ariot	-728
ates	-729
man	-730
lil	-731
▁buil	-732
▁ext	-733
▁return	-734
▁epony	-735
▁En	-736
▁chariot	-737
90	-738
ist	-739
uard	-740
cerning	-741
▁Z	-742
▁perform	-743
44	-744
ial	-745
▁im	-746
▁ne	-747
▁own	-748
ase	-749
ind	-750
arh	-751
▁field	-752
ath	-753
▁sons	-754
urta	-755
1',	-756
▁fav	-757
▁send	-758
add	-759
ft	-760
4']:	-761
hen	-762
▁2)	-763
1.2	-764
ger	-765
3346	-766
▁2)',	-767
ass	-768
▁On	-769
▁Now	-770
2.3	-771
3140	-772
▁bo	-773
lit	-774
▁brother	-775
5.2	-776
▁father	-777
3347	-778
.23'][1]:	-779
10	-780
nu	-781
ares	-782
▁make	-783
▁crown	-784
6.3	-785
▁lit	-786
suit	-787
▁mess	-788
arri	-789
▁Akk	-790
▁est	-791
▁work	-792
▁month	-793
▁bre	-794
▁been	-795
▁Month	-796
▁become	-797
attle	-798
▁cl	-799
▁her	-800
▁fe	-801
oney	-802
ched	-803
addon	-804
arhaddon	-805
awsuit	-806
hip	-807
▁fir	-808
18	-809
▁placed	-810
mu	-811
▁Se	-812
hes	-813
▁conqu	-814
▁town	-815
ail	-816
▁but	-817
▁said	-818
▁Esarhaddon	-819
ii	-820
3367	-821
ais	-822
fter	-823
5']:	-824
▁comple	-825
▁lawsuit	-826
osit	-827
▁sub	-828
▁know	-829
▁mar	-830
97	-831
▁chief	-832
3'][1]:	-833
pa	-834
▁saying	-835
▁sun	-836
iš	-837
ār	-838
▁cap	-839
ergal	-840
be	-841
aya	-842
▁fort	-843
▁strong	-844
sel	-845
▁From	-846
▁took	-847
▁Akkad	-848
way	-849
iddin	-850
▁res	-851
6']:	-852
80	-853
anni	-854
43	-855
▁favor	-856
▁enemy	-857
inurta	-858
▁dest	-859
▁us	-860
iss	-861
pos	-862
ki	-863
▁bri	-864
▁cam	-865
ments	-866
▁Enlil	-867
▁count	-868
ach	-869
."	-870
ni	-871
du	-872
itu	-873
7']:	-874
▁dist	-875
▁-	-876
▁eponym	-877
4.3	-878
▁dec	-879
▁def	-880
42	-881
mer	-882
▁built	-883
▁ter	-884
▁giv	-885
▁Let	-886
▁4	-887
▁heav	-888
▁life	-889
ssar	-890
▁col	-891
▁Nergal	-892
3353	-893
1'][1]:	-894
az	-895
▁bel	-896
3.3	-897
lean	-898
▁wom	-899
2375	-900
0033	-901
▁far	-902
led	-903
ely	-904
8']:	-905
▁two	-906
3137	-907
▁rem	-908
00424	-909
▁adj	-910
its	-911
▁came	-912
tal	-913
īt	-914
anu	-915
thing	-916
▁gave	-917
els	-918
▁pers	-919
▁word	-920
As	-921
▁found	-922
▁scrib	-923
▁now	-924
▁when	-925
oining	-926
▁acc	-927
Aššur	-928
▁battle	-929
ov	-930
▁dep	-931
ten	-932
3141	-933
unuch	-934
▁total	-935
▁messen	-936
0058	-937
6.4	-938
old	-939
ever	-940
▁adjoining	-941
▁offer	-942
ars	-943
ody	-944
9']:	-945
▁long	-946
ya	-947
▁Th	-948
.31',	-949
other	-950
ards	-951
7.3	-952
2244	-953
2383	-954
▁eunuch	-955
▁spe	-956
iddina	-957
▁heart	-958
▁1)'][1]:	-959
.33',	-960
▁hect	-961
▁lords	-962
▁sw	-963
▁fore	-964
▁left	-965
▁presence	-966
▁reg	-967
so	-968
ird	-969
▁Con	-970
▁mina	-971
annu	-972
▁money	-973
ick	-974
de	-975
port	-976
pe	-977
▁pur	-978
33624	-979
▁sup	-980
ruct	-981
▁ask	-982
urban	-983
în	-984
▁conquered	-985
')	-986
cl	-987
ku	-988
ipal	-989
▁When	-990
uš	-991
▁Ab	-992
▁att	-993
▁order	-994
The	-995
hal	-996
me	-997
urbanipal	-998
▁Bīt	-999
▁away	-1000
▁water	-1001
▁might	-1002
2.4	-1003
šumu	-1004
▁har	-1005
▁sur	-1006
▁feet	-1007
▁scribe	-1008
umb	-1009
ough	-1010
rac	-1011
▁You	-1012
ary	-1013
▁Concerning	-1014
▁under	-1015
aught	-1016
33560	-1017
▁throne	-1018
ree	-1019
▁wall	-1020
uri	-1021
▁Q	-1022
ged	-1023
oke	-1024
▁appoin	-1025
ady	-1026
▁pri	-1027
▁Sîn	-1028
ished	-1029
šarru	-1030
▁four	-1031
lu	-1032
wer	-1033
▁ru	-1034
3134	-1035
▁foundation	-1036
900	-1037
▁very	-1038
pic	-1039
inger	-1040
▁capt	-1041
▁prov	-1042
▁tr	-1043
▁bow	-1044
▁ear	-1045
▁vice	-1046
71.1	-1047
ened	-1048
▁those	-1049
64	-1050
self	-1051
urned	-1052
▁hands	-1053
0046	-1054
▁unc	-1055
▁happ	-1056
▁20	-1057
0040	-1058
regent	-1059
▁these	-1060
▁ox	-1061
▁Palace	-1062
roy	-1063
▁present	-1064
▁whether	-1065
▁hectares	-1066
ased	-1067
▁At	-1068
ired	-1069
▁destroy	-1070
▁messenger	-1071
ute	-1072
▁rest	-1073
▁const	-1074
▁litig	-1075
arr	-1076
ian	-1077
ied	-1078
ile	-1079
▁ev	-1080
0039	-1081
are	-1082
▁su	-1083
67	-1084
▁sold	-1085
▁servants	-1086
this	-1087
▁pray	-1088
▁contrac	-1089
ia	-1090
▁firm	-1091
▁unclean	-1092
ful	-1093
fect	-1094
▁ans	-1095
▁gl	-1096
▁Who	-1097
▁Ah	-1098
▁pay	-1099
uture	-1100
0.2	-1101
Adad	-1102
atu	-1103
33631	-1104
▁written	-1105
.31'][1]:	-1106
orn	-1107
▁put	-1108
▁future	-1109
ahhe	-1110
▁mid	-1111
ti	-1112
▁does	-1113
▁favorable	-1114
ces	-1115
▁tre	-1116
▁tru	-1117
▁kill	-1118
arge	-1119
00371	-1120
ēl	-1121
▁then	-1122
hy	-1123
▁litigation	-1124
8.3	-1125
con	-1126
fic	-1127
who	-1128
▁carri	-1129
▁went	-1130
na	-1131
ts	-1132
3354	-1133
▁guard	-1134
▁table	-1135
15	-1136
▁side	-1137
▁inside	-1138
iq	-1139
9.3	-1140
▁hear	-1141
een	-1142
.8']:	-1143
under	-1144
▁seen	-1145
▁posit	-1146
▁bring	-1147
▁rul	-1148
2381	-1149
▁old	-1150
ats	-1151
outh	-1152
33538	-1153
▁hand	-1154
eep	-1155
ents	-1156
4]:	-1157
enn	-1158
▁ob	-1159
2401	-1160
'][4]:	-1161
▁commander	-1162
ani	-1163
til	-1164
▁30	-1165
ache	-1166
ispic	-1167
acherib	-1168
▁answer	-1169
ennacherib	-1170
.20',	-1171
33569	-1172
2379	-1173
▁entire	-1174
▁extispic	-1175
▁other	-1176
!"	-1177
oss	-1178
▁defe	-1179
▁brick	-1180
▁right	-1181
ayu	-1182
2386	-1183
ower	-1184
then	-1185
▁extispicy	-1186
cri	-1187
▁take	-1188
▁cut	-1189
2389	-1190
85	-1191
li	-1192
▁ram	-1193
32	-1194
bela	-1195
▁nor	-1196
▁Arbela	-1197
▁6	-1198
ron	-1199
▁oil	-1200
.10',	-1201
▁weap	-1202
▁tal	-1203
▁plunder	-1204
ws	-1205
7.4	-1206
cript	-1207
▁heaven	-1208
▁stre	-1209
▁given	-1210
0059	-1211
ceed	-1212
▁Sin	-1213
0077	-1214
▁Ninurta	-1215
ject	-1216
pper	-1217
▁Sennacherib	-1218
79	-1219
ost	-1220
▁Ash	-1221
33578	-1222
3362	-1223
arru	-1224
▁gar	-1225
▁Mount	-1226
ili	-1227
well	-1228
ale	-1229
med	-1230
▁army	-1231
▁back	-1232
ks	-1233
ise	-1234
▁keep	-1235
▁dr	-1236
▁Will	-1237
.7']:	-1238
▁also	-1239
▁rece	-1240
ribute	-1241
ng	-1242
ānu	-1243
▁sm	-1244
▁after	-1245
▁Assurbanipal	-1246
ured	-1247
▁rev	-1248
.22',	-1249
▁being	-1250
▁where	-1251
52	-1252
?"	-1253
III	-1254
3363	-1255
▁estate	-1256
erc	-1257
00624	-1258
3.4	-1259
.6']:	-1260
alled	-1261
8.4	-1262
und	-1263
90001	-1264
.33'][1]:	-1265
▁sett	-1266
33623	-1267
round	-1268
▁Be	-1269
▁seah	-1270
▁inscript	-1271
▁inc	-1272
abl	-1273
0035	-1274
▁tribute	-1275
issu	-1276
ll	-1277
285	-1278
▁gate	-1279
ible	-1280
00351	-1281
▁heard	-1282
▁Whoever	-1283
3352	-1284
72	-1285
bi	-1286
sp	-1287
000	-1288
4.4	-1289
.9']:	-1290
Issar	-1291
▁surround	-1292
▁carried	-1293
▁15	-1294
▁orac	-1295
.5']:	-1296
00347	-1297
▁complet	-1298
▁Ad	-1299
▁shek	-1300
.11']:	-1301
oy	-1302
ory	-1303
▁brothers	-1304
1.3	-1305
oty	-1306
3139	-1307
omes	-1308
▁country	-1309
.14',	-1310
▁oxen	-1311
▁seal	-1312
3143	-1313
▁tak	-1314
33636	-1315
▁every	-1316
▁cour	-1317
quired	-1318
▁mouth	-1319
▁priest	-1320
men	-1321
.13']:	-1322
▁becomes	-1323
low	-1324
eser	-1325
rict	-1326
▁daught	-1327
aps	-1328
▁We	-1329
3344	-1330
▁pass	-1331
▁univer	-1332
aḫ	-1333
2370	-1334
▁road	-1335
ular	-1336
▁mag	-1337
33540	-1338
▁inst	-1339
▁booty	-1340
2373	-1341
ives	-1342
▁hal	-1343
▁ten	-1344
▁mighty	-1345
▁years	-1346
▁without	-1347
ams	-1348
igh	-1349
ived	-1350
33570	-1351
▁here	-1352
▁resid	-1353
inu	-1354
▁owner	-1355
cc	-1356
.12',	-1357
31351	-1358
▁kingship	-1359
▁universe	-1360
▁among	-1361
▁woman	-1362
▁surrounded	-1363
being	-1364
▁magn	-1365
33536	-1366
▁gard	-1367
▁speak	-1368
▁mountains	-1369
eds	-1370
▁fo	-1371
▁enemies	-1372
mb	-1373
ause	-1374
▁paid	-1375
▁watch	-1376
▁ass	-1377
▁dev	-1378
▁vis	-1379
▁earth	-1380
▁body	-1381
▁Mannu	-1382
▁person	-1383
62	-1384
herd	-1385
▁district	-1386
61	-1387
63	-1388
▁Mull	-1389
▁Seal	-1390
0'][2]:	-1391
▁completely	-1392
ṣir	-1393
▁sl	-1394
ians	-1395
▁dil	-1396
▁vill	-1397
his	-1398
2391	-1399
▁head	-1400
▁wine	-1401
▁belong	-1402
ner	-1403
ront	-1404
▁sac	-1405
idated	-1406
2'][2]:	-1407
▁garments	-1408
89	-1409
ring	-1410
.12'][1]:	-1411
▁destroyed	-1412
.1',	-1413
3343	-1414
▁reb	-1415
▁dilap	-1416
▁dilapidated	-1417
▁cult	-1418
▁purch	-1419
▁dispos	-1420
pherd	-1421
▁glad	-1422
▁7	-1423
▁if	-1424
▁op	-1425
ches	-1426
ressed	-1427
row	-1428
▁fa	-1429
guard	-1430
.10'][1]:	-1431
cted	-1432
▁reign	-1433
▁became	-1434
▁Mullissu	-1435
▁weapons	-1436
▁shepherd	-1437
iba	-1438
▁opp	-1439
▁treat	-1440
▁through	-1441
.20'][1]:	-1442
ix	-1443
ipp	-1444
33580	-1445
▁tow	-1446
336598	-1447
▁front	-1448
.22'][1]:	-1449
▁disposal	-1450
0047	-1451
33535	-1452
▁bought	-1453
31381	-1454
▁rais	-1455
▁entered	-1456
▁design	-1457
):	-1458
0038	-1459
ollow	-1460
▁contracted	-1461
ša	-1462
ery	-1463
otal	-1464
00630	-1465
33541	-1466
74	-1467
oc	-1468
ants	-1469
cend	-1470
.15',	-1471
33518	-1472
▁purchased	-1473
ug	-1474
.24',	-1475
.25',	-1476
wor	-1477
33527	-1478
▁With	-1479
▁numb	-1480
▁night	-1481
▁14	-1482
▁dwell	-1483
▁proper	-1484
▁acquired	-1485
iii	-1486
.26',	-1487
22445	-1488
▁evil	-1489
▁sing	-1490
336140	-1491
▁sacri	-1492
▁small	-1493
▁establ	-1494
▁beer	-1495
▁quart	-1496
5'][2]:	-1497
ves	-1498
Marduk	-1499
▁write	-1500
▁received	-1501
,000	-1502
.30',	-1503
▁Total	-1504
9.4	-1505
▁copper	-1506
▁inscrib	-1507
▁marched	-1508
ew	-1509
ḫu	-1510
▁Bēl	-1511
▁conf	-1512
iled	-1513
00346	-1514
▁enter	-1515
▁sc	-1516
2249	-1517
.'	-1518
▁river	-1519
▁stand	-1520
▁until	-1521
▁follow	-1522
0054	-1523
28551	-1524
33571	-1525
▁large	-1526
92	-1527
▁8	-1528
▁bar	-1529
di	-1530
3364	-1531
▁dri	-1532
33660	-1533
allim	-1534
▁inscribed	-1535
56	-1536
▁quarters	-1537
▁offerings	-1538
ved	-1539
whe	-1540
▁hom	-1541
33568	-1542
posed	-1543
▁turned	-1544
”)	-1545
▁would	-1546
ank	-1547
0034	-1548
▁yoke	-1549
▁visible	-1550
0.3	-1551
amm	-1552
▁Am	-1553
33621	-1554
73	-1555
▁Anu	-1556
▁seed	-1557
4'][2]:	-1558
▁stands	-1559
▁bodyguard	-1560
0.4	-1561
▁eat	-1562
▁mak	-1563
31345	-1564
33529	-1565
ites	-1566
umer	-1567
▁Any	-1568
▁number	-1569
▁shekels	-1570
▁captured	-1571
▁sacrific	-1572
nār	-1573
ārī	-1574
▁gif	-1575
▁ple	-1576
nārārī	-1577
ez	-1578
dle	-1579
2384	-1580
00323	-1581
▁fled	-1582
▁seiz	-1583
eru	-1584
ven	-1585
.27',	-1586
▁red	-1587
.17',	-1588
▁best	-1589
.14'][1]:	-1590
▁Na	-1591
31349	-1592
▁bread	-1593
393	-1594
-...	-1595
ītu	-1596
▁Eg	-1597
ally	-1598
miss	-1599
▁Bit	-1600
▁tou	-1601
33525	-1602
oid	-1603
▁It	-1604
▁rec	-1605
▁Esag	-1606
▁talents	-1607
6.5	-1608
adi	-1609
0037	-1610
0045	-1611
hort	-1612
▁cub	-1613
.16',	-1614
33501	-1615
▁case	-1616
▁just	-1617
6'][2]:	-1618
▁cohort	-1619
ley	-1620
▁performed	-1621
ders	-1622
oved	-1623
▁Dur	-1624
▁imposed	-1625
ue	-1626
wh	-1627
off	-1628
ulty	-1629
33561	-1630
▁:	-1631
amb	-1632
2371	-1633
▁don	-1634
.28',	-1635
ction	-1636
▁prev	-1637
▁query	-1638
2372	-1639
ones	-1640
▁And	-1641
▁anc	-1642
▁Gate	-1643
▁happy	-1644
ges	-1645
ilu	-1646
23898	-1647
▁void	-1648
66	-1649
als	-1650
▁Il	-1651
antly	-1652
▁positive	-1653
ina	-1654
with	-1655
ark	-1656
ati	-1657
bal	-1658
▁Is	-1659
ared	-1660
▁many	-1661
00348	-1662
▁plundered	-1663
bat	-1664
▁ma	-1665
over	-1666
▁For	-1667
▁goes	-1668
▁inter	-1669
▁treaty	-1670
▁village	-1671
▁ir	-1672
▁Bal	-1673
▁himself	-1674
.24'][1]:	-1675
gin	-1676
7'][2]:	-1677
ced	-1678
ater	-1679
▁bull	-1680
▁fear	-1681
▁chan	-1682
ocation	-1683
.19',	-1684
▁driver	-1685
▁property	-1686
1.4	-1687
ock	-1688
ibni	-1689
▁del	-1690
33521	-1691
▁fire	-1692
▁aband	-1693
▁taken	-1694
▁garden	-1695
.2'][1]:	-1696
59	-1697
▁die	-1698
▁revocation	-1699
ma	-1700
5.3	-1701
▁add	-1702
▁cross	-1703
▁mother	-1704
arp	-1705
▁Te	-1706
▁terr	-1707
▁River	-1708
▁faulty	-1709
▁lordly	-1710
▁abandon	-1711
akk	-1712
ict	-1713
key	-1714
uty	-1715
clip	-1716
33591	-1717
third	-1718
▁part	-1719
▁wife	-1720
halman	-1721
▁tablet	-1722
▁concerning	-1723
'-	-1724
vest	-1725
▁way	-1726
33511	-1727
iri	-1728
▁Wh	-1729
31428	-1730
eriba	-1731
ified	-1732
335699	-1733
▁offic	-1734
▁middle	-1735
.25'][1]:	-1736
halmaneser	-1737
šu	-1738
34.1	-1739
head	-1740
sted	-1741
aster	-1742
ations	-1743
▁eclip	-1744
abu	-1745
ild	-1746
8'][2]:	-1747
▁object	-1748
398	-1749
ila	-1750
ined	-1751
▁appear	-1752
ze	-1753
ash	-1754
3938	-1755
33608	-1756
paign	-1757
▁knows	-1758
▁accord	-1759
cceed	-1760
▁grands	-1761
▁campaign	-1762
5.4	-1763
ung	-1764
2855	-1765
▁cor	-1766
.18',	-1767
22447	-1768
23745	-1769
33628	-1770
▁poss	-1771
▁anything	-1772
▁)	-1773
ana	-1774
▁By	-1775
▁sk	-1776
2377	-1777
belu	-1778
edar	-1779
▁Mar	-1780
▁each	-1781
▁There	-1782
▁barley	-1783
▁sending	-1784
▁succeed	-1785
.15'][1]:	-1786
.16'][1]:	-1787
da	-1788
fold	-1789
22495	-1790
▁told	-1791
▁killed	-1792
▁belonging	-1793
ik	-1794
zu	-1795
▁ren	-1796
▁top	-1797
3.2',	-1798
▁offering	-1799
▁maj	-1800
00345	-1801
iness	-1802
▁treas	-1803
▁homers	-1804
.26'][1]:	-1805
▁sea	-1806
33537	-1807
▁After	-1808
▁mu	-1809
2385	-1810
22446	-1811
31355	-1812
33626	-1813
▁look	-1814
▁queen	-1815
▁Shalmaneser	-1816
.”	-1817
54	-1818
▁Ub	-1819
▁lady	-1820
▁rain	-1821
haps	-1822
▁Nis	-1823
.32',	-1824
31370	-1825
ition	-1826
ument	-1827
▁flood	-1828
▁three	-1829
▁women	-1830
▁cubits	-1831
ier	-1832
ules	-1833
▁ref	-1834
▁pleas	-1835
9'][2]:	-1836
▁persons	-1837
▁established	-1838
Nabû	-1839
eans	-1840
▁lap	-1841
22449	-1842
▁cent	-1843
007771	-1844
▁descend	-1845
▁eclipse	-1846
▁support	-1847
);	-1848
aves	-1849
▁cup	-1850
▁fri	-1851
▁Issar	-1852
▁ordin	-1853
Ninurta	-1854
▁oracle	-1855
▁raised	-1856
▁returned	-1857
27.1	-1858
▁saw	-1859
00377	-1860
31347	-1861
33526	-1862
▁mine	-1863
finger	-1864
▁mules	-1865
▁contest	-1866
day	-1867
ides	-1868
33715	-1869
atter	-1870
uring	-1871
▁That	-1872
▁completed	-1873
0.5	-1874
▁100	-1875
▁Per	-1876
33520	-1877
▁ritu	-1878
▁along	-1879
ereš	-1880
▁list	-1881
▁creat	-1882
▁within	-1883
▁dressed	-1884
94	-1885
yy	-1886
īn	-1887
ech	-1888
les	-1889
38.1	-1890
▁anoin	-1891
▁comes	-1892
▁ancest	-1893
▁another	-1894
▁follows	-1895
ken	-1896
▁1/	-1897
▁Ea	-1898
▁must	-1899
▁stay	-1900
.21']:	-1901
ession	-1902
▁bricks	-1903
▁1,	-1904
.29',	-1905
ukult	-1906
▁constantly	-1907
ff	-1908
ages	-1909
▁account	-1910
▁magnates	-1911
ored	-1912
▁live	-1913
▁tenfold	-1914
.30'][1]:	-1915
uru	-1916
ient	-1917
land	-1918
▁star	-1919
▁words	-1920
▁prefect	-1921
▁ordinary	-1922
33581	-1923
▁than	-1924
atever	-1925
.27'][1]:	-1926
ead	-1927
alah	-1928
usku	-1929
▁Ahu	-1930
▁Tig	-1931
la	-1932
ṭir	-1933
0057	-1934
▁joy	-1935
▁(...	-1936
▁camp	-1937
▁exal	-1938
▁defeat	-1939
ṭu	-1940
arg	-1941
▁God	-1942
▁nob	-1943
▁high	-1944
▁lead	-1945
▁Sumer	-1946
▁first	-1947
▁farmer	-1948
ašm	-1949
2368	-1950
ines	-1951
▁cedar	-1952
▁ruler	-1953
▁fields	-1954
aks	-1955
▁House	-1956
▁Nisan	-1957
ahu	-1958
ink	-1959
33840	-1960
9.2',	-1961
335770	-1962
58	-1963
▁All	-1964
▁Zab	-1965
23897	-1966
.17'][1]:	-1967
57	-1968
2388	-1969
31346	-1970
33546	-1971
33630	-1972
▁appro	-1973
▁letter	-1974
▁rebell	-1975
.19'][1]:	-1976
ax	-1977
ypt	-1978
23896	-1979
▁stone	-1980
▁ancestors	-1981
▁inscription	-1982
cept	-1983
▁bear	-1984
▁bord	-1985
004243	-1986
▁owners	-1987
▁appointed	-1988
▁grandsons	-1989
utu	-1990
ting	-1991
▁Esagil	-1992
▁donkey	-1993
▁soiled	-1994
▁exalted	-1995
▁harvest	-1996
▁?	-1997
2376	-1998
ific	-1999
▁lim	-2000
00326	-2001
23736	-2002
ached	-2003
world	-2004
▁Egypt	-2005
004243.1	-2006
▁prayers	-2007
▁towards	-2008
▁fortress	-2009
ove	-2010
ris	-2011
2387	-2012
31365	-2013
halde	-2014
▁Urar	-2015
▁seeks	-2016
▁Chalde	-2017
▁V	-2018
pal	-2019
37.1	-2020
33539	-2021
▁fall	-2022
▁report	-2023
5]:	-2024
uth	-2025
iqbi	-2026
▁fin	-2027
4.2',	-2028
▁Calah	-2029
▁rever	-2030
▁seahs	-2031
▁orders	-2032
▁places	-2033
.28'][1]:	-2034
▁construct	-2035
▁Sh	-2036
▁om	-2037
2.2',	-2038
23845	-2039
33551	-2040
33590	-2041
ioned	-2042
▁bron	-2043
'][5]:	-2044
▁grain	-2045
▁truth	-2046
▁Šarru	-2047
▁attack	-2048
▁40	-2049
yyar	-2050
31375	-2051
6.2',	-2052
▁Iyyar	-2053
▁peace	-2054
53	-2055
bu	-2056
ins	-2057
0060	-2058
▁nam	-2059
.35',	-2060
33530	-2061
šarra	-2062
▁bronze	-2063
▁forces	-2064
▁regular	-2065
▁chariots	-2066
▁previous	-2067
▁fortified	-2068
ukin	-2069
▁halo	-2070
▁oppos	-2071
▁thick	-2072
.18'][1]:	-2073
2.5	-2074
inc	-2075
ped	-2076
rim	-2077
pect	-2078
▁She	-2079
.4']:	-2080
31377	-2081
▁ever	-2082
▁plan	-2083
.23']:	-2084
▁listen	-2085
▁š	-2086
35.1	-2087
68.1	-2088
alli	-2089
▁pure	-2090
liable	-2091
▁midst	-2092
▁daughter	-2093
▁governors	-2094
▁appearance	-2095
ils	-2096
ool	-2097
ush	-2098
22441	-2099
33471	-2100
.32'][1]:	-2101
ily	-2102
lev	-2103
▁ed	-2104
77.1	-2105
▁City	-2106
▁This	-2107
▁host	-2108
▁tell	-2109
▁prote	-2110
▁Tukult	-2111
▁entirety	-2112
87	-2113
42.1	-2114
▁equ	-2115
▁fem	-2116
.34',	-2117
33533	-2118
▁bowl	-2119
▁stri	-2120
▁omens	-2121
▁defeated	-2122
kur	-2123
64.1	-2124
▁fam	-2125
illed	-2126
▁near	-2127
▁news	-2128
▁Perhaps	-2129
▁payment	-2130
lam	-2131
▁around	-2132
▁former	-2133
93	-2134
orse	-2135
▁hold	-2136
▁kind	-2137
estone	-2138
spring	-2139
▁march	-2140
▁sword	-2141
▁deputy	-2142
.34'][1]:	-2143
▁abandoned	-2144
ši	-2145
8.5	-2146
ets	-2147
22448	-2148
33528	-2149
33629	-2150
▁since	-2151
▁overse	-2152
▁settle	-2153
ms	-2154
.36',	-2155
ience	-2156
▁Nusku	-2157
▁disapp	-2158
▁whatever	-2159
▁limestone	-2160
56.1	-2161
ruit	-2162
▁env	-2163
▁tax	-2164
33531	-2165
33545	-2166
33836	-2167
▁gift	-2168
▁orch	-2169
▁harus	-2170
ulation	-2171
▁female	-2172
▁speech	-2173
▁changed	-2174
alt	-2175
ters	-2176
▁pal	-2177
sh	-2178
▁ho	-2179
75.1	-2180
▁Bors	-2181
▁burn	-2182
▁goats	-2183
▁today	-2184
▁offspring	-2185
aq	-2186
let	-2187
eṭir	-2188
▁dom	-2189
▁mon	-2190
anted	-2191
▁much	-2192
▁abund	-2193
▁opposite	-2194
▁reliable	-2195
ivan	-2196
▁Šum	-2197
itted	-2198
šallim	-2199
▁Sivan	-2200
▁statu	-2201
ald	-2202
▁te	-2203
enty	-2204
ided	-2205
▁ang	-2206
▁cit	-2207
▁sec	-2208
arran	-2209
▁base	-2210
▁gone	-2211
ritory	-2212
▁gates	-2213
426	-2214
32.1	-2215
47.1	-2216
▁fac	-2217
00598	-2218
23851	-2219
31429	-2220
33477	-2221
33549	-2222
8.2',	-2223
▁cons	-2224
essions	-2225
▁ritual	-2226
007771.1	-2227
▁Do	-2228
cond	-2229
▁Rem	-2230
▁burned	-2231
▁called	-2232
▁majest	-2233
.8'][2]:	-2234
▁Tukultī	-2235
▁eponymy	-2236
▁overseer	-2237
▁inscriptions	-2238
tw	-2239
Why	-2240
▁12	-2241
78.1	-2242
tain	-2243
tern	-2244
23835	-2245
39370	-2246
▁full	-2247
▁subst	-2248
▁streng	-2249
▁treasur	-2250
▁territory	-2251
3342	-2252
ezib	-2253
.37',	-2254
00328	-2255
aries	-2256
▁laid	-2257
003706	-2258
▁Borsip	-2259
pi	-2260
5.5	-2261
ean	-2262
sper	-2263
whel	-2264
▁Ilu	-2265
23799	-2266
▁done	-2267
333950	-2268
▁young	-2269
oreover	-2270
▁deities	-2271
▁therein	-2272
44.1	-2273
▁whole	-2274
tak	-2275
▁25	-2276
00620	-2277
23849	-2278
aving	-2279
▁prop	-2280
238321	-2281
.29'][1]:	-2282
we	-2283
▁z	-2284
but	-2285
▁My	-2286
48.1	-2287
iers	-2288
that	-2289
wood	-2290
▁wool	-2291
▁decre	-2292
▁light	-2293
▁possessions	-2294
eng	-2295
nail	-2296
owed	-2297
uilt	-2298
▁act	-2299
▁car	-2300
7.2',	-2301
their	-2302
▁dais	-2303
▁coloss	-2304
▁myself	-2305
ingernail	-2306
pex	-2307
ulu	-2308
▁16	-2309
92.1	-2310
mman	-2311
▁ris	-2312
arpan	-2313
▁says	-2314
▁warri	-2315
▁haruspex	-2316
83	-2317
ha	-2318
aru	-2319
ask	-2320
iter	-2321
urru	-2322
▁bed	-2323
▁Šul	-2324
33460	-2325
33469	-2326
33515	-2327
33671	-2328
▁some	-2329
missive	-2330
▁stones	-2331
▁prosper	-2332
▁writing	-2333
gen	-2334
ren	-2335
tee	-2336
ples	-2337
▁spl	-2338
ickly	-2339
▁Inner	-2340
.6'][2]:	-2341
▁overwhel	-2342
▁happiness	-2343
hem	-2344
43.1	-2345
76.1	-2346
asir	-2347
00350	-2348
31391	-2349
33478	-2350
33627	-2351
▁during	-2352
▁sacrificial	-2353
op	-2354
aba	-2355
esc	-2356
▁er	-2357
74.1	-2358
side	-2359
šuma	-2360
▁cav	-2361
33611	-2362
▁What	-2363
▁colle	-2364
▁horse	-2365
▁devast	-2366
▁according	-2367
▁appointee	-2368
▁daughters	-2369
ph	-2370
abs	-2371
0056	-2372
allu	-2373
alry	-2374
31350	-2375
izier	-2376
▁cast	-2377
▁iron	-2378
▁leng	-2379
▁pour	-2380
335739	-2381
upiter	-2382
▁spoke	-2383
umental	-2384
▁border	-2385
▁splend	-2386
▁Moreover	-2387
by	-2388
unn	-2389
atti	-2390
▁male	-2391
▁alive	-2392
▁white	-2393
▁cavalry	-2394
▁donkeys	-2395
▁forever	-2396
▁quickly	-2397
.35'][1]:	-2398
▁Borsippa	-2399
▁soldiers	-2400
66.1	-2401
.38',	-2402
33491	-2403
33641	-2404
press	-2405
tered	-2406
▁kiss	-2407
▁second	-2408
▁residence	-2409
nd	-2410
ept	-2411
uni	-2412
āya	-2413
▁One	-2414
▁Tam	-2415
▁bak	-2416
▁int	-2417
▁val	-2418
▁foot	-2419
▁deeds	-2420
.7'][2]:	-2421
▁counted	-2422
▁Assyrian	-2423
▁contract	-2424
▁monumental	-2425
▁foundations	-2426
ds	-2427
2390	-2428
clud	-2429
path	-2430
▁Tab	-2431
23868	-2432
42636	-2433
▁Tašm	-2434
▁open	-2435
▁step	-2436
003520	-2437
▁incre	-2438
▁makes	-2439
.9'][2]:	-2440
▁removed	-2441
▁50	-2442
61.1	-2443
▁cra	-2444
▁shr	-2445
▁West	-2446
▁going	-2447
asirpal	-2448
urnasirpal	-2449
▁DN	-2450
31430	-2451
▁face	-2452
▁later	-2453
''	-2454
Let	-2455
▁ey	-2456
39.1	-2457
62.1	-2458
▁Sea	-2459
ained	-2460
▁neck	-2461
▁seized	-2462
▁majesty	-2463
af	-2464
9.5	-2465
Bel	-2466
▁Ša	-2467
enus	-2468
hold	-2469
▁how	-2470
22438	-2471
▁even	-2472
▁added	-2473
▁honey	-2474
▁lordship	-2475
▁Ashurnasirpal	-2476
▁Uru	-2477
▁hel	-2478
1.2',	-2479
naṣir	-2480
▁area	-2481
▁merc	-2482
▁Zarpan	-2483
▁deliver	-2484
.36'][1]:	-2485
etu	-2486
3']:	-2487
duri	-2488
read	-2489
▁jud	-2490
▁war	-2491
31424	-2492
fully	-2493
▁wide	-2494
▁power	-2495
▁camels	-2496
▁installed	-2497
ang	-2498
arc	-2499
90.1	-2500
▁imp	-2501
39361	-2502
5.12',	-2503
▁fight	-2504
▁regard	-2505
▁proceed	-2506
▁everything	-2507
228	-2508
rus	-2509
72.1	-2510
akin	-2511
▁1/2	-2512
▁det	-2513
▁san	-2514
00327	-2515
33547	-2516
5.2',	-2517
argon	-2518
ither	-2519
ouses	-2520
▁rele	-2521
▁sign	-2522
▁settled	-2523
▁Westland	-2524
mal	-2525
52.1	-2526
▁end	-2527
▁wid	-2528
33500	-2529
tween	-2530
▁Mars	-2531
5.10',	-2532
archem	-2533
▁Arame	-2534
▁Umman	-2535
▁beams	-2536
▁sanct	-2537
▁coming	-2538
▁between	-2539
archemish	-2540
▁settlements	-2541
now	-2542
urs	-2543
bail	-2544
33481	-2545
33635	-2546
33651	-2547
▁gall	-2548
▁half	-2549
▁plot	-2550
▁rule	-2551
▁vine	-2552
333951	-2553
336313	-2554
itious	-2555
▁doors	-2556
▁means	-2557
▁Sargon	-2558
▁breaks	-2559
▁because	-2560
▁Carchemish	-2561
▁propitious	-2562
▁Why	-2563
2.5',	-2564
rates	-2565
▁charge	-2566
▁deposit	-2567
4521	-2568
aint	-2569
▁Dam	-2570
▁rel	-2571
31378	-2572
33510	-2573
33601	-2574
33610	-2575
6.5',	-2576
iving	-2577
▁Nipp	-2578
▁corn	-2579
▁mist	-2580
▁same	-2581
litres	-2582
▁Venus	-2583
▁canal	-2584
▁official	-2585
hu	-2586
4.5	-2587
VII	-2588
XII	-2589
bed	-2590
rem	-2591
aged	-2592
ited	-2593
irons	-2594
▁Adar	-2595
▁Lady	-2596
▁Your	-2597
▁lower	-2598
▁trees	-2599
Babylon	-2600
▁accept	-2601
▁temples	-2602
▁environs	-2603
▁disappear	-2604
fl	-2605
uz	-2606
anna	-2607
33550	-2608
33588	-2609
stand	-2610
which	-2611
▁appe	-2612
ensive	-2613
▁block	-2614
▁defic	-2615
▁litres	-2616
▁vizier	-2617
▁touches	-2618
.11'][2]:	-2619
0.6	-2620
cour	-2621
vere	-2622
▁pit	-2623
.39',	-2624
ishri	-2625
334938	-2626
▁exerc	-2627
▁Tishri	-2628
▁asking	-2629
▁attent	-2630
▁divine	-2631
▁crossed	-2632
▁performance	-2633
ne	-2634
adan	-2635
adin	-2636
00601	-2637
23810	-2638
33439	-2639
33625	-2640
4.5',	-2641
Šarru	-2642
šarri	-2643
▁door	-2644
7.14',	-2645
▁begin	-2646
▁compl	-2647
2.6	-2648
him	-2649
ula	-2650
22.1	-2651
ures	-2652
▁Say	-2653
▁aud	-2654
▁too	-2655
33555	-2656
dered	-2657
irmed	-2658
▁disp	-2659
▁citiz	-2660
▁rites	-2661
▁stood	-2662
▁rulers	-2663
▁audience	-2664
▁substant	-2665
▁9	-2666
▁Ni	-2667
▁af	-2668
bear	-2669
erod	-2670
▁Apl	-2671
23710	-2672
33424	-2673
33438	-2674
33620	-2675
33638	-2676
▁"...	-2677
▁oath	-2678
▁doing	-2679
▁gives	-2680
erodach	-2681
▁greatly	-2682
▁perfect	-2683
▁deposited	-2684
▁substantial	-2685
pri	-2686
ret	-2687
▁bot	-2688
23795	-2689
23899	-2690
ilani	-2691
▁etern	-2692
▁plain	-2693
▁Nippur	-2694
004243.2	-2695
▁designs	-2696
▁distant	-2697
▁service	-2698
aṣ	-2699
235	-2700
3.5	-2701
iru	-2702
▁el	-2703
00448	-2704
23691	-2705
23871	-2706
33524	-2707
8.5',	-2708
▁cook	-2709
▁domin	-2710
▁image	-2711
▁designate	-2712
”:	-2713
rap	-2714
.41',	-2715
33576	-2716
there	-2717
▁could	-2718
▁Šulmu	-2719
▁Should	-2720
▁colossi	-2721
▁increase	-2722
▁!	-2723
260	-2724
uck	-2725
uph	-2726
āni	-2727
▁Ez	-2728
▁Sam	-2729
▁lay	-2730
▁lib	-2731
▁rep	-2732
▁six	-2733
2.7',	-2734
33448	-2735
▁prec	-2736
3.10',	-2737
▁craft	-2738
▁renov	-2739
285518.1	-2740
▁forehead	-2741
ense	-2742
▁lod	-2743
▁bank	-2744
335701	-2745
▁eaten	-2746
uphrates	-2747
▁restore	-2748
▁dominion	-2749
▁mistress	-2750
1']:	-2751
▁lam	-2752
23865	-2753
31380	-2754
31433	-2755
33470	-2756
33595	-2757
39368	-2758
adder	-2759
▁Ubru	-2760
▁arri	-2761
▁cann	-2762
▁horn	-2763
▁more	-2764
7.10',	-2765
▁bright	-2766
▁houses	-2767
▁normal	-2768
▁subject	-2769
▁overwhelmed	-2770
5(	-2771
▁Su	-2772
▁Ari	-2773
▁mer	-2774
▁saf	-2775
33634	-2776
9.5',	-2777
▁Mann	-2778
▁meat	-2779
▁wood	-2780
337164	-2781
▁prais	-2782
▁breast	-2783
▁cannot	-2784
▁filled	-2785
▁Remanni	-2786
▁altered	-2787
▁oracular	-2788
▁complaint	-2789
ūr	-2790
unk	-2791
▁Al	-2792
▁wa	-2793
98.1	-2794
aped	-2795
▁sit	-2796
00629	-2797
2.6',	-2798
▁Urdu	-2799
▁cens	-2800
▁past	-2801
003705	-2802
▁angry	-2803
offered	-2804
▁cultiv	-2805
▁opened	-2806
.38'][1]:	-2807
vi	-2808
ding	-2809
semb	-2810
▁ser	-2811
6.6',	-2812
inces	-2813
orter	-2814
▁vict	-2815
▁black	-2816
▁blood	-2817
▁entru	-2818
▁assign	-2819
▁lodges	-2820
ubmissive	-2821
▁position	-2822
▁abundance	-2823
▁11	-2824
▁Re	-2825
2374	-2826
apla	-2827
ield	-2828
illi	-2829
2.8',	-2830
31436	-2831
▁bask	-2832
▁kept	-2833
237220	-2834
238100	-2835
335895	-2836
452137	-2837
335699.1	-2838
▁descendant	-2839
2(	-2840
ara	-2841
ukk	-2842
šir	-2843
99.1	-2844
22496	-2845
▁Uruk	-2846
▁port	-2847
▁things	-2848
▁decreed	-2849
▁deficient	-2850
▁extensive	-2851
,”	-2852
gur	-2853
25.1	-2854
95.1	-2855
00625	-2856
23769	-2857
23780	-2858
31437	-2859
33431	-2860
33435	-2861
33480	-2862
33498	-2863
7.5',	-2864
▁gras	-2865
.31']:	-2866
▁cattle	-2867
▁sanctu	-2868
▁Euphrates	-2869
,"	-2870
ašu	-2871
ues	-2872
▁(5	-2873
less	-2874
▁lie	-2875
.40',	-2876
▁Kush	-2877
▁fash	-2878
▁help	-2879
▁mind	-2880
▁weak	-2881
335815	-2882
▁Ditto	-2883
▁drunk	-2884
▁towns	-2885
vereign	-2886
▁favour	-2887
▁fright	-2888
▁bladder	-2889
.37'][1]:	-2890
▁sovereign	-2891
3971	-2892
42.2	-2893
▁loc	-2894
▁wis	-2895
22440	-2896
23725	-2897
33680	-2898
▁path	-2899
▁fruit	-2900
amu	-2901
assu	-2902
▁beh	-2903
▁get	-2904
▁dire	-2905
▁thir	-2906
▁living	-2907
▁touched	-2908
▁anointed	-2909
▁orchards	-2910
XI	-2911
abi	-2912
ida	-2913
muz	-2914
cher	-2915
ical	-2916
23748	-2917
stone	-2918
▁bott	-2919
▁eyes	-2920
▁fell	-2921
005926	-2922
▁carry	-2923
▁manag	-2924
▁merch	-2925
▁Tammuz	-2926
▁steppe	-2927
standing	-2928
73.1	-2929
plic	-2930
pted	-2931
▁Teb	-2932
33426	-2933
4.6',	-2934
6.7',	-2935
▁clou	-2936
7.12',	-2937
▁flour	-2938
▁Shebat	-2939
▁assemb	-2940
▁conquer	-2941
▁decares	-2942
▁beginning	-2943
formulation	-2944
▁Ashurbanipal	-2945
ned	-2946
3387	-2947
▁Med	-2948
▁Nab	-2949
▁Nan	-2950
2.4',	-2951
22439	-2952
3.5',	-2953
31343	-2954
31348	-2955
33449	-2956
33649	-2957
▁love	-2958
▁turn	-2959
▁wild	-2960
334929	-2961
struct	-2962
▁residing	-2963
▁entrusted	-2964
!”	-2965
IV	-2966
hys	-2967
rew	-2968
most	-2969
▁dif	-2970
▁why	-2971
▁vari	-2972
ulated	-2973
▁boats	-2974
▁clean	-2975
▁thres	-2976
▁statue	-2977
6.4'][1]:	-2978
▁precious	-2979
4527	-2980
59.1	-2981
▁cle	-2982
▁cur	-2983
2.9',	-2984
23768	-2985
23850	-2986
3.8',	-2987
31431	-2988
33450	-2989
4.8',	-2990
oured	-2991
▁phys	-2992
▁subm	-2993
335660	-2994
▁bound	-2995
▁forts	-2996
▁course	-2997
.40'][1]:	-2998
.41'][1]:	-2999
VI	-3000
go	-3001
ān	-3002
act	-3003
used	-3004
alliṭ	-3005
those	-3006
▁bird	-3007
▁lung	-3008
2.20',	-3009
335775	-3010
bearer	-3011
▁Urarṭ	-3012
▁archer	-3013
▁prayer	-3014
▁bearing	-3015
▁rebellion	-3016
ṣu	-3017
dom	-3018
▁ut	-3019
63.1	-3020
91.1	-3021
94.1	-3022
aled	-3023
vers	-3024
▁Kar	-3025
▁adv	-3026
.46',	-3027
3.7',	-3028
33468	-3029
33646	-3030
6.4',	-3031
aches	-3032
335790	-3033
338720	-3034
▁decis	-3035
▁upper	-3036
▁nether	-3037
.13'][2]:	-3038
0(	-3039
išk	-3040
orc	-3041
deed	-3042
erce	-3043
hose	-3044
šumi	-3045
▁esc	-3046
▁sat	-3047
4.4',	-3048
umman	-3049
▁soon	-3050
▁Šamš	-3051
▁engen	-3052
▁bottom	-3053
▁fierce	-3054
▁ground	-3055
▁length	-3056
▁loaves	-3057
▁eunuchs	-3058
▁variant	-3059
▁finished	-3060
7.10'][1]:	-3061
▁engendered	-3062
1.6	-3063
ised	-3064
▁His	-3065
▁Muš	-3066
▁ill	-3067
23765	-3068
31401	-3069
33400	-3070
8.9',	-3071
ility	-3072
▁anew	-3073
▁dark	-3074
▁last	-3075
005400	-3076
4.20',	-3077
8.12',	-3078
umbled	-3079
▁split	-3080
▁times	-3081
▁appoint	-3082
▁beloved	-3083
.39'][1]:	-3084
▁dwelling	-3085
▁netherworld	-3086
”),	-3087
▁13	-3088
▁60	-3089
body	-3090
hing	-3091
▁aid	-3092
3.6',	-3093
4.7',	-3094
4.9',	-3095
6.8',	-3096
nadin	-3097
▁Elul	-3098
▁wind	-3099
7.15',	-3100
8.14',	-3101
▁drink	-3102
▁goddesses	-3103
▁Ig	-3104
▁Ki	-3105
▁dy	-3106
agon	-3107
thus	-3108
.42',	-3109
2.3',	-3110
23791	-3111
23801	-3112
23848	-3113
33427	-3114
33458	-3115
7.6',	-3116
hered	-3117
▁exem	-3118
▁site	-3119
334940	-3120
▁Tigris	-3121
▁matter	-3122
▁jumbled	-3123
▁message	-3124
▁constructed	-3125
6.6	-3126
6]:	-3127
atic	-3128
here	-3129
zeru	-3130
▁gro	-3131
24028	-3132
33565	-3133
▁clay	-3134
7.16',	-3135
7.17',	-3136
▁asked	-3137
▁Ešarra	-3138
▁kissed	-3139
▁twenty	-3140
▁station	-3141
▁captives	-3142
▁strength	-3143
,'	-3144
You	-3145
any	-3146
emb	-3147
ream	-3148
▁obs	-3149
▁run	-3150
▁sin	-3151
00536	-3152
00621	-3153
23524	-3154
23730	-3155
23811	-3156
33421	-3157
wards	-3158
▁care	-3159
▁find	-3160
▁term	-3161
'][6]:	-3162
father	-3163
ypress	-3164
▁stars	-3165
▁while	-3166
abaster	-3167
▁Inurta	-3168
▁Chaldea	-3169
▁treasurer	-3170
▁devastated	-3171
▁proceedings	-3172
ka	-3173
kkal	-3174
lath	-3175
raid	-3176
▁arr	-3177
▁bes	-3178
▁ere	-3179
▁mor	-3180
3.3',	-3181
33618	-3182
6.3',	-3183
8.4',	-3184
9.4',	-3185
immer	-3186
ority	-3187
▁auth	-3188
▁west	-3189
ileser	-3190
uranni	-3191
▁Arrap	-3192
▁subdu	-3193
entation	-3194
6.5'][1]:	-3195
▁citizens	-3196
▁provides	-3197
▁confirmed	-3198
▁previously	-3199
▁sovereignty	-3200
If	-3201
rd	-3202
2.7	-3203
iša	-3204
umm	-3205
umu	-3206
una	-3207
0062	-3208
gers	-3209
ital	-3210
.3']:	-3211
.43',	-3212
23790	-3213
24029	-3214
28260	-3215
3.4',	-3216
33411	-3217
33645	-3218
▁food	-3219
335801	-3220
398228	-3221
▁Ezida	-3222
▁Those	-3223
▁above	-3224
▁death	-3225
▁deser	-3226
▁leave	-3227
▁lives	-3228
▁outer	-3229
▁Šamšī	-3230
▁afraid	-3231
▁created	-3232
▁ordered	-3233
2.4'][1]:	-3234
3.4'][1]:	-3235
6(	-3236
9(	-3237
7.5	-3238
8.6	-3239
▁Ul	-3240
3142	-3241
79.1	-3242
agan	-3243
ison	-3244
00396	-3245
33534	-3246
ainer	-3247
uniaš	-3248
▁Kard	-3249
003710	-3250
4.10',	-3251
5.14',	-3252
6.10',	-3253
7.18',	-3254
▁indeed	-3255
▁making	-3256
006302.1	-3257
▁Tiglath	-3258
▁manager	-3259
▁Arameans	-3260
ele	-3261
uge	-3262
vii	-3263
1849	-3264
▁Abi	-3265
00541	-3266
31360	-3267
31390	-3268
33648	-3269
33675	-3270
7.7',	-3271
8.6',	-3272
8.8',	-3273
▁Gamb	-3274
▁five	-3275
4.14',	-3276
451849	-3277
selves	-3278
▁cause	-3279
▁child	-3280
▁names	-3281
▁third	-3282
▁viney	-3283
▁behind	-3284
▁height	-3285
▁capital	-3286
2.6'][1]:	-3287
8.4'][1]:	-3288
9.4'][1]:	-3289
▁authority	-3290
▁sacrifices	-3291
asî	-3292
oub	-3293
yrus	-3294
31361	-3295
▁crim	-3296
004622	-3297
2.10',	-3298
6.20',	-3299
▁burnt	-3300
▁reach	-3301
▁super	-3302
▁Šumma	-3303
▁diffic	-3304
▁gladly	-3305
▁single	-3306
▁inspect	-3307
▁terrace	-3308
Babylonia	-3309
▁favorite	-3310
8.10'][1]:	-3311
▁Karduniaš	-3312
▁fashioned	-3313
ba	-3314
395	-3315
oor	-3316
ses	-3317
▁(6	-3318
akku	-3319
▁bit	-3320
00447	-3321
23718	-3322
23741	-3323
33436	-3324
33575	-3325
9.8',	-3326
offer	-3327
▁radi	-3328
.33']:	-3329
334936	-3330
336233	-3331
▁exorc	-3332
▁grand	-3333
ccession	-3334
▁erected	-3335
bo	-3336
zi	-3337
3.6	-3338
ama	-3339
esh	-3340
Ḫum	-3341
▁Sc	-3342
from	-3343
▁But	-3344
7.4',	-3345
8.3',	-3346
397118	-3347
6.14',	-3348
▁recon	-3349
▁Nikkal	-3350
▁talent	-3351
emuranni	-3352
▁Tašmetu	-3353
▁hostile	-3354
2.5'][1]:	-3355
2.7'][1]:	-3356
4.4'][1]:	-3357
▁foremost	-3358
7.14'][1]:	-3359
He	-3360
qq	-3361
1.5	-3362
air	-3363
ond	-3364
▁Sū	-3365
2233	-3366
mark	-3367
▁Sil	-3368
▁age	-3369
▁neg	-3370
23798	-3371
31398	-3372
33401	-3373
33430	-3374
33523	-3375
33676	-3376
8.7',	-3377
9.7',	-3378
▁lion	-3379
▁roof	-3380
2.18',	-3381
▁Belet	-3382
ificent	-3383
lo	-3384
īl	-3385
lar	-3386
rat	-3387
▁Pu	-3388
▁wr	-3389
▁Ban	-3390
▁mus	-3391
▁xth	-3392
23779	-3393
23875	-3394
9.6',	-3395
chief	-3396
tyard	-3397
unnak	-3398
▁east	-3399
▁Šarr	-3400
2.12',	-3401
335915	-3402
4.11',	-3403
6.11',	-3404
▁corps	-3405
▁stret	-3406
▁Ḫatti	-3407
▁having	-3408
▁overth	-3409
▁Teumman	-3410
▁archers	-3411
▁cypress	-3412
▁heavens	-3413
▁exorcist	-3414
▁household	-3415
▁Babylonians	-3416
▁magnificent	-3417
▁understanding	-3418
.10	-3419
col	-3420
irc	-3421
min	-3422
▁18	-3423
viii	-3424
▁gat	-3425
▁pap	-3426
00338	-3427
23838	-3428
▁fast	-3429
▁holy	-3430
▁save	-3431
3.12',	-3432
335924	-3433
337149	-3434
8.10',	-3435
▁gifts	-3436
▁spans	-3437
▁straw	-3438
▁anoint	-3439
▁stable	-3440
▁Anunnak	-3441
2.3'][1]:	-3442
▁gathered	-3443
▁released	-3444
7.12'][1]:	-3445
'')	-3446
▁35	-3447
▁Sub	-3448
▁fig	-3449
1.5',	-3450
23800	-3451
7.9',	-3452
iškun	-3453
▁hund	-3454
▁wait	-3455
8.17',	-3456
▁quest	-3457
pileser	-3458
station	-3459
▁censer	-3460
▁centers	-3461
▁witness	-3462
6.7'][1]:	-3463
7.4'][1]:	-3464
▁splendid	-3465
▁commanded	-3466
gs	-3467
jo	-3468
val	-3469
▁22	-3470
▁Ek	-3471
▁La	-3472
▁Lu	-3473
ward	-3474
▁Dūr	-3475
▁bad	-3476
▁ori	-3477
.44',	-3478
00461	-3479
22338	-3480
23731	-3481
24025	-3482
33445	-3483
33609	-3484
4.3',	-3485
▁hall	-3486
236923	-3487
7.11',	-3488
8.15',	-3489
▁Nairi	-3490
▁nobody	-3491
▁reaches	-3492
6.6'][1]:	-3493
▁province	-3494
7.16'][1]:	-3495
▁fingernail	-3496
▁frightened	-3497
5.6	-3498
lak	-3499
ury	-3500
ival	-3501
▁(10	-3502
▁Tar	-3503
▁new	-3504
▁Šub	-3505
1.8',	-3506
5.7',	-3507
šezib	-3508
▁Gula	-3509
▁room	-3510
8.11',	-3511
8.16',	-3512
8.18',	-3513
vernor	-3514
▁1)']:	-3515
▁Medes	-3516
▁close	-3517
▁coils	-3518
▁cover	-3519
▁hundred	-3520
▁shrines	-3521
2.9'][1]:	-3522
4.7'][1]:	-3523
▁alabaster	-3524
▁cupbearer	-3525
▁protection	-3526
8(	-3527
▁Ne	-3528
▁PN	-3529
▁Un	-3530
▁iv	-3531
bone	-3532
last	-3533
wise	-3534
▁Kis	-3535
▁Tīl	-3536
▁bag	-3537
▁fet	-3538
▁inv	-3539
.50',	-3540
1.7',	-3541
33678	-3542
39571	-3543
7.8',	-3544
9.3',	-3545
▁Does	-3546
▁fine	-3547
▁hero	-3548
▁rejo	-3549
▁true	-3550
2.16',	-3551
237351	-3552
335921	-3553
9.10',	-3554
▁baked	-3555
▁colon	-3556
▁ivory	-3557
▁trust	-3558
2'][3]:	-3559
▁origin	-3560
▁weapon	-3561
▁blocked	-3562
▁papyrus	-3563
▁princes	-3564
4.5'][1]:	-3565
7.17'][1]:	-3566
▁courtyard	-3567
7(	-3568
Ar	-3569
In	-3570
qa	-3571
ḫa	-3572
bēl	-3573
den	-3574
beli	-3575
gged	-3576
ixed	-3577
lier	-3578
utha	-3579
▁Ahi	-3580
▁Der	-3581
▁Sid	-3582
▁obe	-3583
▁occ	-3584
3.9',	-3585
7.3',	-3586
▁stra	-3587
2.22',	-3588
▁forth	-3589
▁herald	-3590
▁rebuilt	-3591
.21'][2]:	-3592
3.5'][1]:	-3593
5.12'][1]:	-3594
▁threshing	-3595
▁insubmissive	-3596
mor	-3597
▁2-	-3598
64.2	-3599
akes	-3600
chie	-3601
▁200	-3602
▁fif	-3603
▁yet	-3604
.54',	-3605
23738	-3606
31371	-3607
31427	-3608
33441	-3609
5.5',	-3610
ammar	-3611
house	-3612
litre	-3613
roper	-3614
▁Sūḫu	-3615
223391	-3616
334934	-3617
336139	-3618
4.12',	-3619
4.16',	-3620
5.15',	-3621
5.16',	-3622
Harran	-3623
▁Cutha	-3624
▁achie	-3625
▁flesh	-3626
▁mayor	-3627
▁never	-3628
cluding	-3629
remanni	-3630
▁master	-3631
▁remain	-3632
3.6'][1]:	-3633
▁gardener	-3634
5.10'][1]:	-3635
▁Zarpanitu	-3636
▁underworld	-3637
gar	-3638
xed	-3639
44.2	-3640
hest	-3641
oted	-3642
▁box	-3643
▁par	-3644
23776	-3645
5.1',	-3646
ippar	-3647
.20']:	-3648
9.15',	-3649
▁Sidon	-3650
▁faces	-3651
▁seize	-3652
lasting	-3653
▁rememb	-3654
▁Šarrat	-3655
▁arrived	-3656
▁justice	-3657
▁morning	-3658
▁mustered	-3659
▁straight	-3660
5.14'][1]:	-3661
ls	-3662
xt	-3663
gil	-3664
use	-3665
amaš	-3666
ases	-3667
iful	-3668
0.2',	-3669
00395	-3670
23746	-3671
33410	-3672
33425	-3673
33429	-3674
33451	-3675
33655	-3676
33661	-3677
33665	-3678
atial	-3679
lešir	-3680
▁stip	-3681
▁surf	-3682
2.17',	-3683
▁Tebet	-3684
▁force	-3685
▁Sippar	-3686
▁passed	-3687
▁sealed	-3688
.5'][2]:	-3689
governor	-3690
▁eternal	-3691
▁gardens	-3692
8.6'][1]:	-3693
8.8'][1]:	-3694
▁warriors	-3695
▁stationed	-3696
▁stipulated	-3697
nā	-3698
uli	-3699
▁5)	-3700
▁Tu	-3701
Then	-3702
▁Itu	-3703
▁jar	-3704
▁sky	-3705
23737	-3706
33418	-3707
9.9',	-3708
cause	-3709
▁comp	-3710
▁salt	-3711
▁shin	-3712
334935	-3713
334942	-3714
6.12',	-3715
Ḫumban	-3716
▁Arabs	-3717
▁Lower	-3718
▁below	-3719
▁bulls	-3720
▁seven	-3721
5'][3]:	-3722
▁Harran	-3723
▁family	-3724
▁planet	-3725
▁praise	-3726
▁surface	-3727
2.8'][1]:	-3728
4.8'][1]:	-3729
▁commands	-3730
▁palatial	-3731
▁performs	-3732
3.10'][1]:	-3733
▁submitted	-3734
▁approached	-3735
umn	-3736
▁II	-3737
▁Le	-3738
▁em	-3739
34.2	-3740
3570	-3741
4526	-3742
artu	-3743
iced	-3744
reme	-3745
seah	-3746
▁Kal	-3747
▁swe	-3748
00330	-3749
23724	-3750
23771	-3751
31376	-3752
31399	-3753
31423	-3754
iqiša	-3755
▁dead	-3756
▁read	-3757
238445	-3758
336126	-3759
337152	-3760
5.18',	-3761
9.14',	-3762
ullanu	-3763
▁bowed	-3764
▁exper	-3765
▁mercy	-3766
▁named	-3767
▁ruins	-3768
▁trans	-3769
▁Cimmer	-3770
▁Urarṭu	-3771
▁inform	-3772
▁shekel	-3773
▁granted	-3774
▁Urarṭian	-3775
▁overthrow	-3776
▁presented	-3777
▁Succession	-3778
▁messengers	-3779
▁sanctuaries	-3780
abb	-3781
ahi	-3782
aut	-3783
iti	-3784
ows	-3785
▁28	-3786
▁45	-3787
2393	-3788
ilki	-3789
oves	-3790
▁(5)	-3791
▁Aya	-3792
▁ele	-3793
▁got	-3794
5.4',	-3795
6.9',	-3796
▁stor	-3797
2.11',	-3798
3.14',	-3799
5.17',	-3800
6.22',	-3801
9.16',	-3802
icated	-3803
ipment	-3804
▁alone	-3805
▁heavy	-3806
▁judge	-3807
▁friend	-3808
Šarruken	-3809
▁Arrapha	-3810
▁corpses	-3811
4.9'][1]:	-3812
▁”	-3813
ems	-3814
3939	-3815
▁Gur	-3816
00445	-3817
23729	-3818
31368	-3819
31435	-3820
31438	-3821
▁abod	-3822
▁mult	-3823
▁thus	-3824
6.15',	-3825
▁loves	-3826
▁rises	-3827
▁swear	-3828
▁walls	-3829
▁firmly	-3830
▁rugged	-3831
▁refined	-3832
3.9'][1]:	-3833
▁pleasure	-3834
8.14'][1]:	-3835
qi	-3836
aza	-3837
ene	-3838
ett	-3839
idu	-3840
urt	-3841
usu	-3842
62.2	-3843
azed	-3844
gate	-3845
▁Qur	-3846
▁cri	-3847
.45',	-3848
1.6',	-3849
23808	-3850
33428	-3851
5.6',	-3852
iggur	-3853
▁foes	-3854
▁sets	-3855
3.20',	-3856
▁Great	-3857
▁Upper	-3858
▁lions	-3859
▁Tammar	-3860
▁encour	-3861
▁protect	-3862
▁reveres	-3863
4.6'][1]:	-3864
▁libation	-3865
▁merchant	-3866
▁difficult	-3867
ala	-3868
cep	-3869
ior	-3870
▁Id	-3871
king	-3872
ways	-3873
▁Mel	-3874
▁hun	-3875
00540	-3876
1.4',	-3877
23946	-3878
24021	-3879
31369	-3880
33455	-3881
7.1',	-3882
8.1',	-3883
arted	-3884
▁elev	-3885
▁fate	-3886
▁scep	-3887
▁thro	-3888
.22']:	-3889
2.14',	-3890
3.11',	-3891
334931	-3892
4.13',	-3893
▁Kiṣir	-3894
▁taxes	-3895
8'][3]:	-3896
baladan	-3897
osition	-3898
▁scepter	-3899
3.7'][1]:	-3900
ification	-3901
▁radiance	-3902
6.10'][1]:	-3903
▁delivered	-3904
Am	-3905
ades	-3906
bani	-3907
ship	-3908
unip	-3909
▁dim	-3910
2.1',	-3911
23728	-3912
33585	-3913
5.3',	-3914
ement	-3915
▁none	-3916
2.13',	-3917
2.15',	-3918
8.13',	-3919
▁grant	-3920
▁brilli	-3921
▁singers	-3922
.42'][1]:	-3923
7.5'][1]:	-3924
7.6'][1]:	-3925
9.6'][1]:	-3926
8.15'][1]:	-3927
▁including	-3928
og	-3929
ada	-3930
42.3	-3931
four	-3932
.48',	-3933
23918	-3934
33544	-3935
33548	-3936
33640	-3937
agues	-3938
Šamaš	-3939
▁mass	-3940
▁used	-3941
334930	-3942
335810	-3943
336226	-3944
7.13',	-3945
9.17',	-3946
▁sweet	-3947
0'][3]:	-3948
▁Amurru	-3949
▁victor	-3950
5.4'][1]:	-3951
7.8'][1]:	-3952
8.5'][1]:	-3953
9.9'][1]:	-3954
▁elevated	-3955
▁provided	-3956
▁subjects	-3957
2.20'][1]:	-3958
4.12'][1]:	-3959
6.15'][1]:	-3960
9.10'][1]:	-3961
Ba	-3962
adî	-3963
cut	-3964
ibi	-3965
ots	-3966
xes	-3967
yre	-3968
▁17	-3969
ably	-3970
appa	-3971
taku	-3972
▁10)	-3973
▁Kur	-3974
▁cho	-3975
33465	-3976
4.1',	-3977
5.8',	-3978
rance	-3979
▁Urad	-3980
▁arom	-3981
▁only	-3982
3.15',	-3983
334847	-3984
▁cloud	-3985
▁curse	-3986
▁brings	-3987
▁crimin	-3988
▁fourth	-3989
▁singer	-3990
▁evening	-3991
▁aromatic	-3992
4.10'][1]:	-3993
7.15'][1]:	-3994
8.12'][1]:	-3995
▁fortresses	-3996
8.7	-3997
2825	-3998
67.2	-3999
76.2	-4000
akīn	-4001
aplu	-4002
beer	-4003
ears	-4004
inen	-4005
▁Kum	-4006
▁Sag	-4007
▁ses	-4008
▁Ḫar	-4009
00538	-4010
23928	-4011
33420	-4012
33650	-4013
ursag	-4014
▁main	-4015
3.13',	-4016
3.17',	-4017
336601	-4018
▁serve	-4019
▁stead	-4020
▁sesame	-4021
▁ziggur	-4022
▁earlier	-4023
▁warrior	-4024
.45'][1]:	-4025
7.7'][1]:	-4026
9.3'][1]:	-4027
9.5'][1]:	-4028
9.8'][1]:	-4029
▁restored	-4030
4.15'][1]:	-4031
▁equipment	-4032
▁purification	-4033
aṭ	-4034
rē	-4035
fav	-4036
hat	-4037
lig	-4038
wes	-4039
▁21	-4040
▁šē	-4041
43.2	-4042
apon	-4043
▁bal	-4044
3.1',	-4045
31388	-4046
anner	-4047
azuli	-4048
orted	-4049
while	-4050
▁circ	-4051
334927	-4052
6.13',	-4053
▁agree	-4054
▁north	-4055
▁ascend	-4056
▁contro	-4057
▁reconc	-4058
▁grasped	-4059
1.4'][1]:	-4060
6.9'][1]:	-4061
8.3'][1]:	-4062
8.7'][1]:	-4063
▁original	-4064
▁construction	-4065
hab	-4066
lew	-4067
irth	-4068
▁Kār	-4069
.47',	-4070
23788	-4071
23941	-4072
33440	-4073
33447	-4074
33677	-4075
ative	-4076
▁clot	-4077
▁seat	-4078
.10']:	-4079
2.21',	-4080
2.25',	-4081
335831	-4082
336149	-4083
4.15',	-4084
5.19',	-4085
6.16',	-4086
7.19',	-4087
▁birth	-4088
▁lapis	-4089
ukkannu	-4090
▁attend	-4091
▁crafts	-4092
▁dispat	-4093
▁famine	-4094
▁terror	-4095
Merodach	-4096
▁continu	-4097
▁respect	-4098
▁trainer	-4099
4.3'][1]:	-4100
9.7'][1]:	-4101
▁assigned	-4102
5.16'][1]:	-4103
6.12'][1]:	-4104
▁musukkannu	-4105
nal	-4106
ran	-4107
▁2,	-4108
▁23	-4109
aily	-4110
anun	-4111
nuri	-4112
usur	-4113
▁Sun	-4114
▁lif	-4115
.49',	-4116
.56',	-4117
33519	-4118
33558	-4119
33598	-4120
▁ruin	-4121
▁sele	-4122
3.16',	-4123
8.19',	-4124
8.20',	-4125
fection	-4126
uballiṭ	-4127
▁arable	-4128
▁either	-4129
900016.4	-4130
▁slaught	-4131
1.7'][1]:	-4132
▁exercise	-4133
▁herewith	-4134
2.17'][1]:	-4135
2.22'][1]:	-4136
3.12'][1]:	-4137
5.15'][1]:	-4138
8.17'][1]:	-4139
▁attentive	-4140
4(	-4141
010	-4142
alu	-4143
eri	-4144
gan	-4145
ogn	-4146
ote	-4147
▁Ba	-4148
▁20)	-4149
▁Kaš	-4150
▁und	-4151
.51',	-4152
00631	-4153
1.3',	-4154
21010	-4155
33395	-4156
33600	-4157
ating	-4158
icted	-4159
▁Urda	-4160
▁else	-4161
▁stru	-4162
.12']:	-4163
2.26',	-4164
6.18',	-4165
9.11',	-4166
9.12',	-4167
9.18',	-4168
orable	-4169
orated	-4170
uniper	-4171
▁Their	-4172
▁inner	-4173
▁daises	-4174
▁hearts	-4175
▁looked	-4176
▁courses	-4177
.23'][2]:	-4178
3.8'][1]:	-4179
5.6'][1]:	-4180
4.11'][1]:	-4181
▁collected	-4182
▁committed	-4183
▁Fingernail	-4184
▁everlasting	-4185
gū	-4186
ṣi	-4187
201	-4188
asc	-4189
ubu	-4190
▁29	-4191
ized	-4192
orpi	-4193
qqin	-4194
▁arm	-4195
▁big	-4196
▁lab	-4197
33398	-4198
6.1',	-4199
stead	-4200
▁able	-4201
▁acts	-4202
▁infl	-4203
▁lies	-4204
▁Šeru	-4205
6.17',	-4206
orpius	-4207
taqqin	-4208
▁linen	-4209
▁rival	-4210
1'][2]:	-4211
▁Urtaku	-4212
▁exempt	-4213
▁pitched	-4214
▁tablets	-4215
7.3'][1]:	-4216
▁Scorpius	-4217
▁remember	-4218
2.10'][1]:	-4219
2.12'][1]:	-4220
4.17'][1]:	-4221
▁opposition	-4222
▁lamentation	-4223
8.8	-4224
hin	-4225
ify	-4226
▁70	-4227
▁80	-4228
▁No	-4229
3951	-4230
ephe	-4231
lord	-4232
riba	-4233
rēša	-4234
▁Bab	-4235
▁Man	-4236
▁clo	-4237
▁pun	-4238
.52',	-4239
▁hung	-4240
238201	-4241
238351	-4242
3.22',	-4243
335839	-4244
336229	-4245
395150	-4246
rement	-4247
▁Dagan	-4248
▁nephe	-4249
▁rains	-4250
▁reeds	-4251
▁destin	-4252
▁lazuli	-4253
▁allowed	-4254
▁section	-4255
▁terrain	-4256
.43'][1]:	-4257
.46'][1]:	-4258
▁fastened	-4259
▁pleasing	-4260
2.15'][1]:	-4261
5.17'][1]:	-4262
6.14'][1]:	-4263
8.11'][1]:	-4264
idm	-4265
īgū	-4266
▁ša	-4267
VIII	-4268
long	-4269
▁Nin	-4270
built	-4271
ccess	-4272
▁duck	-4273
▁ones	-4274
▁pull	-4275
▁wish	-4276
1.12',	-4277
2.19',	-4278
4.17',	-4279
▁daily	-4280
▁eleph	-4281
▁teams	-4282
▁basket	-4283
▁circum	-4284
▁golden	-4285
▁passes	-4286
▁spring	-4287
▁trusted	-4288
▁complete	-4289
7.11'][1]:	-4290
7.18'][1]:	-4291
▁encouraged	-4292
▁descendants	-4293
.)	-4294
pu	-4295
Bal	-4296
ney	-4297
▁Eḫ	-4298
▁gu	-4299
▁ve	-4300
74.2	-4301
igaš	-4302
oken	-4303
osen	-4304
work	-4305
▁Bir	-4306
▁Dun	-4307
▁cer	-4308
▁deb	-4309
▁exp	-4310
23726	-4311
24026	-4312
31421	-4313
33639	-4314
39360	-4315
▁Tyre	-4316
▁coun	-4317
▁resp	-4318
285569	-4319
313533	-4320
334829	-4321
334937	-4322
335950	-4323
393660	-4324
taklak	-4325
▁build	-4326
▁produ	-4327
▁Aplaya	-4328
▁desert	-4329
▁spoken	-4330
.4'][2]:	-4331
334934.1	-4332
▁Esaggil	-4333
▁destruct	-4334
▁wherever	-4335
6.11'][1]:	-4336
6.13'][1]:	-4337
▁chariotry	-4338
▁accordance	-4339
'.	-4340
May	-4341
ape	-4342
ays	-4343
▁Ak	-4344
aria	-4345
▁15)	-4346
▁Eri	-4347
▁Han	-4348
▁Sat	-4349
▁ban	-4350
▁hon	-4351
31434	-4352
House	-4353
aging	-4354
4.18',	-4355
4.19',	-4356
6.19',	-4357
ercury	-4358
urther	-4359
▁column	-4360
▁nobles	-4361
▁seated	-4362
335915.1	-4363
336039.1	-4364
ervation	-4365
▁Subartu	-4366
.44'][1]:	-4367
3.3'][1]:	-4368
8.16'][1]:	-4369
▁acceptable	-4370
6.7	-4371
675	-4372
get	-4373
ips	-4374
▁Of	-4375
iant	-4376
ukīn	-4377
▁dem	-4378
▁fog	-4379
▁gre	-4380
▁hig	-4381
▁hum	-4382
▁pop	-4383
▁vic	-4384
.55',	-4385
23778	-4386
31341	-4387
33490	-4388
33647	-4389
33658	-4390
33668	-4391
9.1',	-4392
▁Arik	-4393
▁Kakk	-4394
▁cuts	-4395
▁disc	-4396
▁prom	-4397
1.13',	-4398
3.18',	-4399
3.19',	-4400
335769	-4401
335922	-4402
336290	-4403
336320	-4404
338675	-4405
▁1,000	-4406
▁Igīgū	-4407
▁enlar	-4408
▁widen	-4409
9'][3]:	-4410
▁Before	-4411
▁Damasc	-4412
▁combat	-4413
▁direct	-4414
▁hunger	-4415
▁interp	-4416
▁keeper	-4417
▁leagues	-4418
▁regions	-4419
▁subdued	-4420
2.18'][1]:	-4421
3.14'][1]:	-4422
3.15'][1]:	-4423
7.13'][1]:	-4424
▁forefather	-4425
dīn	-4426
hur	-4427
iew	-4428
par	-4429
van	-4430
▁Er	-4431
00',	-4432
aven	-4433
heck	-4434
sued	-4435
▁doc	-4436
▁mil	-4437
.57',	-4438
23723	-4439
anger	-4440
igate	-4441
lamur	-4442
oving	-4443
ready	-4444
▁coll	-4445
▁rein	-4446
▁tail	-4447
.17']:	-4448
3.27',	-4449
▁Illil	-4450
▁numer	-4451
▁raise	-4452
▁Šerua	-4453
4'][3]:	-4454
chesvan	-4455
▁chosen	-4456
▁enters	-4457
▁rising	-4458
offering	-4459
▁Mercury	-4460
▁columns	-4461
5.3'][1]:	-4462
▁addition	-4463
▁numerous	-4464
▁question	-4465
▁vineyard	-4466
2.16'][1]:	-4467
8.18'][1]:	-4468
▁attention	-4469
▁Marchesvan	-4470
3.9	-4471
was	-4472
▁55	-4473
▁eb	-4474
When	-4475
ayed	-4476
igal	-4477
▁Ple	-4478
▁Raš	-4479
▁ded	-4480
▁eld	-4481
▁kid	-4482
▁sis	-4483
▁spr	-4484
▁tin	-4485
▁tri	-4486
▁Ḫam	-4487
23727	-4488
23747	-4489
23805	-4490
23877	-4491
33446	-4492
33488	-4493
ouble	-4494
▁Abdi	-4495
▁Ning	-4496
▁held	-4497
▁repa	-4498
▁team	-4499
335760	-4500
335763	-4501
▁Kanun	-4502
▁Silim	-4503
▁takes	-4504
whether	-4505
▁Saturn	-4506
▁flagon	-4507
▁waters	-4508
▁wishes	-4509
.47'][1]:	-4510
8.9'][1]:	-4511
▁1)'][2]:	-4512
3.16'][1]:	-4513
5.19'][1]:	-4514
9.14'][1]:	-4515
En	-4516
ex	-4517
imm	-4518
udu	-4519
▁St	-4520
61.2	-4521
ubuš	-4522
▁dug	-4523
.53',	-4524
.58',	-4525
39385	-4526
▁Like	-4527
▁bags	-4528
.25']:	-4529
1.11',	-4530
2.27',	-4531
335976	-4532
9.13',	-4533
9.19',	-4534
weapon	-4535
▁Qurdi	-4536
▁These	-4537
▁ebony	-4538
▁eight	-4539
▁heads	-4540
▁insur	-4541
▁kinds	-4542
▁litre	-4543
▁pious	-4544
▁prepa	-4545
▁Kislev	-4546
▁remove	-4547
▁Gambulu	-4548
▁hectare	-4549
▁reinfor	-4550
.49'][1]:	-4551
7.9'][1]:	-4552
▁decision	-4553
▁physical	-4554
2.11'][1]:	-4555
2.19'][1]:	-4556
3.11'][1]:	-4557
4.20'][1]:	-4558
6.20'][1]:	-4559
7.19'][1]:	-4560
8.13'][1]:	-4561
8.19'][1]:	-4562
9.16'][1]:	-4563
▁Tammarītu	-4564
▁brilliance	-4565
▁themselves	-4566
4.7	-4567
fit	-4568
iši	-4569
omm	-4570
usa	-4571
šši	-4572
▁26	-4573
They	-4574
aved	-4575
▁Hal	-4576
▁Til	-4577
.62',	-4578
00626	-4579
1.9',	-4580
23846	-4581
23935	-4582
33423	-4583
33437	-4584
33508	-4585
33577	-4586
33613	-4587
▁arms	-4588
▁fish	-4589
▁guil	-4590
▁“...	-4591
2.24',	-4592
335845	-4593
336144	-4594
7.20',	-4595
incial	-4596
▁Tabal	-4597
▁crime	-4598
▁horns	-4599
▁inhab	-4600
▁Baltil	-4601
▁dwells	-4602
▁erases	-4603
▁porter	-4604
▁remote	-4605
▁towers	-4606
▁wooden	-4607
▁Because	-4608
▁Instead	-4609
▁forward	-4610
▁success	-4611
▁valiant	-4612
1.6'][1]:	-4613
5.5'][1]:	-4614
5.9'][1]:	-4615
6.8'][1]:	-4616
▁Merodach	-4617
2.14'][1]:	-4618
▁Cimmerians	-4619
▁provincial	-4620
Th	-4621
ēr	-4622
ʾ,	-4623
iya	-4624
adow	-4625
deem	-4626
teen	-4627
▁35)	-4628
▁Mad	-4629
▁Raṣ	-4630
▁squ	-4631
0.5',	-4632
33461	-4633
90000	-4634
ables	-4635
royal	-4636
urbed	-4637
▁hill	-4638
▁ment	-4639
▁rise	-4640
3.25',	-4641
3.26',	-4642
335856	-4643
337155	-4644
4.25',	-4645
6.24',	-4646
hinxes	-4647
people	-4648
▁slabs	-4649
▁danger	-4650
▁recogn	-4651
▁redeem	-4652
▁shrine	-4653
336140.1	-4654
▁highest	-4655
▁orchard	-4656
.48'][1]:	-4657
5.7'][1]:	-4658
▁enlarged	-4659
▁shoulder	-4660
▁sphinxes	-4661
2.26'][1]:	-4662
4.14'][1]:	-4663
4.19'][1]:	-4664
6.16'][1]:	-4665
9.17'][1]:	-4666
▁Zarpanītu	-4667
▁strengthen	-4668
bl	-4669
iḫ	-4670
wa	-4671
2.8	-4672
aff	-4673
aku	-4674
lip	-4675
ssu	-4676
āti	-4677
▁Im	-4678
2403	-4679
back	-4680
dari	-4681
they	-4682
trib	-4683
word	-4684
▁5')	-4685
▁Kud	-4686
▁cop	-4687
▁dog	-4688
▁low	-4689
0.6',	-4690
00340	-4691
23836	-4692
23885	-4693
31395	-4694
33619	-4695
banon	-4696
iades	-4697
iring	-4698
nādin	-4699
spect	-4700
▁dele	-4701
▁free	-4702
.14']:	-4703
.15']:	-4704
.24']:	-4705
004035	-4706
006021	-4707
238646	-4708
314377	-4709
335335	-4710
4.23',	-4711
Arbail	-4712
▁Ashur	-4713
▁halls	-4714
▁Balasî	-4715
▁broken	-4716
▁thirty	-4717
003708.4	-4718
336598.6	-4719
337152.1	-4720
▁Kushite	-4721
▁boxwood	-4722
▁nothing	-4723
▁planted	-4724
▁shining	-4725
▁statues	-4726
favorable	-4727
▁bringing	-4728
9.12'][1]:	-4729
▁favorably	-4730
▁Afterwards	-4731
IX	-4732
dî	-4733
ads	-4734
api	-4735
kku	-4736
āru	-4737
▁ca	-4738
2.11	-4739
▁How	-4740
▁aff	-4741
▁lev	-4742
.60',	-4743
33408	-4744
33637	-4745
agons	-4746
šakin	-4747
▁10')	-4748
▁Ekur	-4749
▁forg	-4750
▁lamb	-4751
▁line	-4752
▁twel	-4753
▁wise	-4754
.26']:	-4755
2.29',	-4756
3.21',	-4757
334798	-4758
9.22',	-4759
idmuri	-4760
iously	-4761
▁Yakin	-4762
▁floor	-4763
▁herds	-4764
▁holds	-4765
▁major	-4766
▁shine	-4767
▁shore	-4768
▁store	-4769
6'][3]:	-4770
rection	-4771
▁Moving	-4772
▁giving	-4773
▁office	-4774
▁prison	-4775
▁weight	-4776
.3'][2]:	-4777
003520.1	-4778
together	-4779
▁carries	-4780
▁reached	-4781
1.3'][1]:	-4782
1.5'][1]:	-4783
2.2'][1]:	-4784
▁Pleiades	-4785
▁appropri	-4786
▁powerful	-4787
4.13'][1]:	-4788
4.16'][1]:	-4789
5.11'][1]:	-4790
5.18'][1]:	-4791
9.15'][1]:	-4792
▁dangerous	-4793
▁following	-4794
▁interpret	-4795
▁insurrection	-4796
šû	-4797
196	-4798
7]:	-4799
ini	-4800
ize	-4801
ētu	-4802
▁24	-4803
▁Ch	-4804
▁Tw	-4805
0044	-4806
arqa	-4807
hood	-4808
ittu	-4809
muḫu	-4810
only	-4811
▁300	-4812
▁Que	-4813
▁Zak	-4814
▁ran	-4815
00324	-4816
00579	-4817
23698	-4818
23755	-4819
31356	-4820
31425	-4821
33485	-4822
45196	-4823
Enlil	-4824
▁Lord	-4825
▁annu	-4826
▁cell	-4827
▁flow	-4828
▁mars	-4829
▁meas	-4830
▁poin	-4831
▁show	-4832
▁stat	-4833
.27']:	-4834
1.16',	-4835
2.30',	-4836
334926	-4837
335678	-4838
335828	-4839
336314	-4840
4.22',	-4841
426369	-4842
6.21',	-4843
9.20',	-4844
inanni	-4845
▁Eanna	-4846
▁equal	-4847
▁razed	-4848
▁thous	-4849
▁desire	-4850
▁preced	-4851
▁replic	-4852
▁safely	-4853
▁strive	-4854
▁cleared	-4855
▁fathers	-4856
▁provide	-4857
▁supreme	-4858
.50'][1]:	-4859
▁treasury	-4860
2.25'][1]:	-4861
3.26'][1]:	-4862
4.18'][1]:	-4863
6.18'][1]:	-4864
▁Ummanigaš	-4865
▁impressed	-4866
▁lightning	-4867
▁officials	-4868
▁population	-4869
We	-4870
ea	-4871
But	-4872
aim	-4873
kal	-4874
▁ap	-4875
itti	-4876
when	-4877
▁Sal	-4878
5.9',	-4879
arant	-4880
ently	-4881
means	-4882
quire	-4883
▁fill	-4884
▁rank	-4885
▁reve	-4886
▁sour	-4887
'][7]:	-4888
.30']:	-4889
0.14',	-4890
0.16',	-4891
003460	-4892
238327	-4893
4.21',	-4894
4.24',	-4895
5.11',	-4896
6.26',	-4897
ahhešu	-4898
atures	-4899
▁aside	-4900
▁greet	-4901
▁occur	-4902
7'][3]:	-4903
estival	-4904
▁caused	-4905
▁extend	-4906
▁fought	-4907
▁others	-4908
▁punish	-4909
▁Elamite	-4910
▁baskets	-4911
▁covered	-4912
▁nephews	-4913
▁scatter	-4914
increment	-4915
▁Anunnakū	-4916
▁Kanunayu	-4917
▁ascended	-4918
▁features	-4919
1.11'][1]:	-4920
2.28'][1]:	-4921
▁establish	-4922
br	-4923
hi	-4924
ime	-4925
kaš	-4926
kin	-4927
rev	-4928
▁Aḫ	-4929
ests	-4930
even	-4931
ocks	-4932
oles	-4933
▁Can	-4934
▁Its	-4935
▁Zar	-4936
.66',	-4937
00575	-4938
22497	-4939
23720	-4940
23927	-4941
33476	-4942
▁(10)	-4943
▁call	-4944
▁garr	-4945
▁maid	-4946
.29']:	-4947
1.10',	-4948
224436	-4949
236871	-4950
335671	-4951
335721	-4952
335771	-4953
335826	-4954
335840	-4955
335855	-4956
336733	-4957
337170	-4958
6.27',	-4959
6.30',	-4960
▁abode	-4961
▁admin	-4962
▁twice	-4963
3'][2]:	-4964
Baladan	-4965
olished	-4966
▁Nanaya	-4967
336140.3	-4968
336598.5	-4969
▁Raṣappa	-4970
▁capture	-4971
▁removes	-4972
▁respons	-4973
.53'][1]:	-4974
1.9'][1]:	-4975
▁Damascus	-4976
▁preceded	-4977
▁rebelled	-4978
2.13'][1]:	-4979
3.19'][1]:	-4980
▁Assyrians	-4981
3.7	-4982
aḫḫ	-4983
oot	-4984
riv	-4985
āri	-4986
▁(“	-4987
What	-4988
apli	-4989
keep	-4990
ofty	-4991
umen	-4992
▁25)	-4993
▁40)	-4994
▁45)	-4995
▁Bar	-4996
▁Guz	-4997
▁Mut	-4998
▁tor	-4999
▁Šar	-5000
00539	-5001
24018	-5002
33499	-5003
bread	-5004
ising	-5005
rough	-5006
▁Dann	-5007
▁Mari	-5008
▁pick	-5009
▁safe	-5010
2.28',	-5011
3.24',	-5012
3.28',	-5013
5.13',	-5014
6.25',	-5015
6.29',	-5016
8.23',	-5017
Nergal	-5018
headed	-5019
itants	-5020
▁exped	-5021
▁pours	-5022
▁center	-5023
▁manner	-5024
▁poured	-5025
▁region	-5026
003492.3	-5027
336140.2	-5028
structed	-5029
▁conclud	-5030
▁mounted	-5031
▁receive	-5032
5.8'][1]:	-5033
▁Ummanald	-5034
▁assembly	-5035
▁likewise	-5036
1.12'][1]:	-5037
2.21'][1]:	-5038
4.22'][1]:	-5039
9.13'][1]:	-5040
▁craftsmen	-5041
▁dedicated	-5042
It	-5043
gi	-5044
ūa	-5045
asu	-5046
bar	-5047
bow	-5048
itt	-5049
joy	-5050
ria	-5051
ume	-5052
ēri	-5053
▁27	-5054
▁?"	-5055
▁Ir	-5056
3368	-5057
buil	-5058
idri	-5059
rānu	-5060
▁Did	-5061
▁New	-5062
▁Pal	-5063
▁Par	-5064
▁lot	-5065
▁use	-5066
.59',	-5067
00578	-5068
33505	-5069
33633	-5070
about	-5071
ander	-5072
▁proc	-5073
▁summ	-5074
▁want	-5075
0.10',	-5076
003448	-5077
003722	-5078
004018	-5079
005425	-5080
1.19',	-5081
238051	-5082
238349	-5083
335536	-5084
335545	-5085
336321	-5086
iduous	-5087
▁accom	-5088
▁array	-5089
▁emiss	-5090
▁enjoy	-5091
▁lofty	-5092
▁revol	-5093
▁veget	-5094
attened	-5095
thereby	-5096
▁Zababa	-5097
▁anyone	-5098
▁guilty	-5099
▁raging	-5100
▁secret	-5101
▁Tašmētu	-5102
▁fetters	-5103
▁incense	-5104
▁recruit	-5105
▁staying	-5106
.51'][1]:	-5107
.55'][1]:	-5108
3.2'][1]:	-5109
▁belonged	-5110
▁children	-5111
▁distance	-5112
▁document	-5113
▁elephant	-5114
▁thousand	-5115
3.13'][1]:	-5116
▁assiduous	-5117
▁cultivation	-5118
▁interpretation	-5119
uf	-5120
1.7	-5121
6.8	-5122
alm	-5123
ual	-5124
zib	-5125
zuh	-5126
aces	-5127
ault	-5128
hand	-5129
pped	-5130
▁30)	-5131
▁Ham	-5132
▁bus	-5133
▁emb	-5134
33716	-5135
39366	-5136
manus	-5137
▁arre	-5138
▁draw	-5139
▁rams	-5140
▁trim	-5141
▁Ḫind	-5142
336039	-5143
336734	-5144
4.26',	-5145
6.23',	-5146
6.28',	-5147
7.22',	-5148
▁bowls	-5149
▁broad	-5150
▁loyal	-5151
▁sends	-5152
▁skill	-5153
▁south	-5154
▁wears	-5155
▁Amanus	-5156
▁escape	-5157
▁regnal	-5158
▁source	-5159
▁struck	-5160
▁wagons	-5161
335856.1	-5162
336598.7	-5163
▁Further	-5164
▁bitumen	-5165
▁builder	-5166
▁offered	-5167
6.3'][1]:	-5168
▁Manneans	-5169
▁villages	-5170
6.19'][1]:	-5171
8.20'][1]:	-5172
9.22'][1]:	-5173
▁districts	-5174
▁ziggurrat	-5175
▁expedition	-5176
▁destruction	-5177
ux	-5178
uḫ	-5179
2.9	-5180
Who	-5181
bes	-5182
int	-5183
qar	-5184
ēšu	-5185
▁Aš	-5186
Thus	-5187
cess	-5188
fast	-5189
mati	-5190
mith	-5191
šarr	-5192
▁Hab	-5193
▁Tah	-5194
▁sou	-5195
.64',	-5196
00341	-5197
00580	-5198
23831	-5199
23844	-5200
23930	-5201
31396	-5202
33433	-5203
33838	-5204
onder	-5205
▁miss	-5206
.18']:	-5207
0.19',	-5208
003426	-5209
003523	-5210
224449	-5211
238083	-5212
238347	-5213
238501	-5214
3.29',	-5215
334641	-5216
335191	-5217
335539	-5218
335747	-5219
335791	-5220
335825	-5221
336649	-5222
8.22',	-5223
kurkur	-5224
nerari	-5225
zuhina	-5226
▁Assur	-5227
▁Ellip	-5228
▁cella	-5229
▁deems	-5230
▁homer	-5231
▁slave	-5232
▁unriv	-5233
ušallim	-5234
▁cooked	-5235
▁device	-5236
▁neglig	-5237
▁twelve	-5238
336139.1	-5239
▁garment	-5240
▁waiting	-5241
.62'][1]:	-5242
1.8'][1]:	-5243
▁instruct	-5244
9.18'][1]:	-5245
▁Chaldeans	-5246
▁decorated	-5247
▁commanders	-5248
Iš	-5249
adn	-5250
isu	-5251
liš	-5252
▁Qu	-5253
▁Sa	-5254
▁sn	-5255
This	-5256
adel	-5257
ccia	-5258
ices	-5259
isse	-5260
ling	-5261
ukku	-5262
▁(15	-5263
▁Abu	-5264
▁erš	-5265
▁Ḫab	-5266
.61',	-5267
.69',	-5268
balaṭ	-5269
▁Kish	-5270
▁died	-5271
▁mood	-5272
▁situ	-5273
▁suit	-5274
.28']:	-5275
1.14',	-5276
1.18',	-5277
3.23',	-5278
335664	-5279
5.22',	-5280
stream	-5281
▁arrow	-5282
▁chant	-5283
▁conce	-5284
▁staff	-5285
▁attain	-5286
▁devour	-5287
▁extent	-5288
▁facing	-5289
▁handed	-5290
▁sinned	-5291
▁struct	-5292
▁undist	-5293
285518.2	-5294
333952.1	-5295
334938.1	-5296
900016.3	-5297
▁Lebanon	-5298
▁counsel	-5299
▁greater	-5300
▁instead	-5301
▁thereby	-5302
.11'][3]:	-5303
.56'][1]:	-5304
3.27'][1]:	-5305
5.13'][1]:	-5306
6.22'][1]:	-5307
9.20'][1]:	-5308
▁decisions	-5309
▁steadfast	-5310
▁superstruct	-5311
▁undisturbed	-5312
eg	-5313
00,	-5314
5.7	-5315
asi	-5316
erm	-5317
lum	-5318
met	-5319
▁75	-5320
▁GN	-5321
▁ol	-5322
01',	-5323
24',	-5324
26',	-5325
3937	-5326
alks	-5327
▁Kil	-5328
▁Lah	-5329
▁Nag	-5330
▁art	-5331
▁awe	-5332
▁fre	-5333
▁imm	-5334
▁Šep	-5335
0.8',	-5336
22437	-5337
23833	-5338
31408	-5339
33495	-5340
33566	-5341
Ištar	-5342
Yakīn	-5343
ablet	-5344
board	-5345
imals	-5346
mixed	-5347
▁Bull	-5348
▁Zeru	-5349
▁boat	-5350
▁lips	-5351
▁priv	-5352
0.12',	-5353
1.20',	-5354
237177	-5355
237224	-5356
313641	-5357
334845	-5358
335328	-5359
335341	-5360
335751	-5361
335798	-5362
335869	-5363
335949	-5364
336005	-5365
393645	-5366
roperty	-5367
▁Arbail	-5368
▁amount	-5369
▁concer	-5370
▁labour	-5371
▁prayed	-5372
▁thirst	-5373
▁wisdom	-5374
▁breccia	-5375
▁escaped	-5376
▁juniper	-5377
▁mention	-5378
▁pursued	-5379
.31'][2]:	-5380
▁destroys	-5381
▁fighting	-5382
▁renovate	-5383
▁splendor	-5384
1.10'][1]:	-5385
3.24'][1]:	-5386
6.21'][1]:	-5387
▁dispatched	-5388
▁superstructure	-5389
)-	-5390
še	-5391
arm	-5392
utî	-5393
āra	-5394
▁!"	-5395
28',	-5396
ague	-5397
ains	-5398
chol	-5399
ener	-5400
kiah	-5401
rain	-5402
rect	-5403
text	-5404
▁dro	-5405
▁pot	-5406
▁ver	-5407
.63',	-5408
0.3',	-5409
1.1',	-5410
31344	-5411
33475	-5412
ruits	-5413
where	-5414
▁Gods	-5415
▁Kass	-5416
▁Puqu	-5417
▁awes	-5418
▁once	-5419
▁quay	-5420
▁reed	-5421
▁tree	-5422
▁ture	-5423
▁šēpi	-5424
.16']:	-5425
.32']:	-5426
1.15',	-5427
1.24',	-5428
335625	-5429
335764	-5430
4.27',	-5431
4.29',	-5432
5.25',	-5433
7.27',	-5434
8.24',	-5435
endent	-5436
ubuški	-5437
▁Rašil	-5438
▁dates	-5439
▁mound	-5440
▁stele	-5441
▁threw	-5442
▁plenty	-5443
▁shield	-5444
▁sought	-5445
▁summon	-5446
▁outside	-5447
▁replica	-5448
▁victory	-5449
.54'][1]:	-5450
▁guardian	-5451
0.10'][1]:	-5452
2.24'][1]:	-5453
3.17'][1]:	-5454
3.25'][1]:	-5455
4.29'][1]:	-5456
9.11'][1]:	-5457
▁structure	-5458
▁reinforced	-5459
▁unrivalled	-5460
3(	-5461
Ea	-5462
Go	-5463
ob	-5464
ye	-5465
415	-5466
ali	-5467
cub	-5468
god	-5469
igi	-5470
reš	-5471
tem	-5472
▁Da	-5473
▁Em	-5474
▁ak	-5475
more	-5476
redu	-5477
▁Aša	-5478
▁Ind	-5479
▁Nur	-5480
▁Reg	-5481
▁dyn	-5482
▁fur	-5483
▁tra	-5484
00401	-5485
00449	-5486
00590	-5487
22450	-5488
31420	-5489
33434	-5490
33589	-5491
41576	-5492
again	-5493
beams	-5494
ulayu	-5495
▁omen	-5496
▁sage	-5497
003721	-5498
004028	-5499
004471	-5500
237526	-5501
238052	-5502
238341	-5503
282529	-5504
334801	-5505
335155	-5506
335229	-5507
335270	-5508
335438	-5509
335541	-5510
335836	-5511
335951	-5512
336570	-5513
336801	-5514
5.20',	-5515
8.21',	-5516
8.26',	-5517
ensils	-5518
morrow	-5519
▁Where	-5520
▁dimin	-5521
▁known	-5522
▁storm	-5523
▁think	-5524
▁throw	-5525
▁width	-5526
colored	-5527
mission	-5528
▁Cancer	-5529
▁centre	-5530
▁expert	-5531
▁reside	-5532
.9'][3]:	-5533
01'][1]:	-5534
▁Ašaredu	-5535
▁Kudurru	-5536
▁balance	-5537
▁harness	-5538
▁keeping	-5539
▁resides	-5540
6.2'][1]:	-5541
▁priestly	-5542
▁standing	-5543
▁tomorrow	-5544
6.17'][1]:	-5545
6.28'][1]:	-5546
▁aromatics	-5547
▁Ummanaldašu	-5548
)?	-5549
1(	-5550
alû	-5551
bit	-5552
des	-5553
dān	-5554
fer	-5555
hil	-5556
lic	-5557
nel	-5558
▁Ru	-5559
▁Si	-5560
▁ce	-5561
abbu	-5562
duru	-5563
emor	-5564
lace	-5565
lict	-5566
reng	-5567
wine	-5568
ḫalt	-5569
▁55)	-5570
▁Mug	-5571
.68',	-5572
.70',	-5573
0.7',	-5574
ident	-5575
▁Land	-5576
▁ally	-5577
▁heed	-5578
▁judg	-5579
▁lear	-5580
▁thri	-5581
3.30',	-5582
30.2',	-5583
7.23',	-5584
8.25',	-5585
ficial	-5586
isance	-5587
▁beaut	-5588
▁fixed	-5589
▁Mannea	-5590
▁Ningal	-5591
▁always	-5592
▁guards	-5593
▁mounts	-5594
▁provis	-5595
003706.9	-5596
003710.1	-5597
▁assault	-5598
▁capable	-5599
▁dispers	-5600
▁release	-5601
▁rituals	-5602
.57'][1]:	-5603
.65'][1]:	-5604
▁appealed	-5605
▁attacked	-5606
▁business	-5607
▁entrance	-5608
▁prefects	-5609
▁utensils	-5610
3.20'][1]:	-5611
4.24'][1]:	-5612
4.27'][1]:	-5613
6.25'][1]:	-5614
6.29'][1]:	-5615
▁obeisance	-5616
▁scattered	-5617
▁witnesses	-5618
▁possession	-5619
▁procession	-5620
▁recognition	-5621
▁recruitment	-5622
▁strengthened	-5623
uh	-5624
Nan	-5625
ern	-5626
ikh	-5627
ilī	-5628
nat	-5629
pty	-5630
▁).	-5631
▁Iz	-5632
▁So	-5633
Amuk	-5634
alla	-5635
arrû	-5636
eroy	-5637
ider	-5638
irra	-5639
laid	-5640
ross	-5641
said	-5642
ying	-5643
▁aug	-5644
▁cal	-5645
▁eng	-5646
.76',	-5647
00546	-5648
00627	-5649
23690	-5650
23733	-5651
23781	-5652
23828	-5653
31358	-5654
31426	-5655
33409	-5656
33415	-5657
33605	-5658
ching	-5659
thood	-5660
▁Atar	-5661
▁agre	-5662
▁anne	-5663
▁bene	-5664
▁date	-5665
▁heir	-5666
▁hole	-5667
▁obey	-5668
▁tall	-5669
▁tore	-5670
003333	-5671
003945	-5672
006227	-5673
238329	-5674
238969	-5675
238978	-5676
285555	-5677
313449	-5678
333952	-5679
334833	-5680
335233	-5681
335334	-5682
335540	-5683
336238	-5684
9.26',	-5685
streng	-5686
▁adorn	-5687
▁birds	-5688
▁plant	-5689
▁rings	-5690
▁schol	-5691
▁signs	-5692
▁spent	-5693
▁Dunānu	-5694
▁Tablet	-5695
▁locust	-5696
▁meadow	-5697
▁physic	-5698
▁roofed	-5699
▁sheikh	-5700
kurkurra	-5701
▁Mugallu	-5702
▁Mušezib	-5703
▁Through	-5704
▁Ululayu	-5705
▁animals	-5706
▁collect	-5707
▁pleases	-5708
▁secured	-5709
▁someone	-5710
▁viceroy	-5711
9.2'][1]:	-5712
▁administ	-5713
▁approach	-5714
▁eternity	-5715
3.18'][1]:	-5716
3.22'][1]:	-5717
9.19'][1]:	-5718
▁Akkullanu	-5719
▁Arbailayu	-5720
▁continually	-5721
▁inhabitants	-5722
Bēl	-5723
alâ	-5724
ata	-5725
bil	-5726
ket	-5727
rie	-5728
rig	-5729
ūru	-5730
▁19	-5731
▁Az	-5732
04',	-5733
ging	-5734
half	-5735
otro	-5736
rise	-5737
▁Day	-5738
▁Zer	-5739
▁cow	-5740
.80',	-5741
00397	-5742
23796	-5743
asing	-5744
ašmaš	-5745
omers	-5746
place	-5747
▁Hind	-5748
▁Kull	-5749
▁clos	-5750
▁drag	-5751
▁farm	-5752
2.23',	-5753
237225	-5754
282609	-5755
4.28',	-5756
9.27',	-5757
otropa	-5758
▁Ekron	-5759
▁baker	-5760
▁bands	-5761
▁moved	-5762
▁multi	-5763
▁tents	-5764
▁utter	-5765
Kidmuri	-5766
emorial	-5767
ibility	-5768
incense	-5769
▁elders	-5770
▁status	-5771
▁tureen	-5772
▁wonder	-5773
garments	-5774
lordship	-5775
▁Dannaya	-5776
▁ancient	-5777
▁awesome	-5778
▁privile	-5779
▁telling	-5780
.52'][1]:	-5781
.60'][1]:	-5782
0.4'][1]:	-5783
▁abundant	-5784
▁achieved	-5785
▁creation	-5786
▁delegate	-5787
▁messages	-5788
▁relative	-5789
▁situated	-5790
▁suitable	-5791
▁weakened	-5792
2.27'][1]:	-5793
4.25'][1]:	-5794
6.23'][1]:	-5795
7.20'][1]:	-5796
▁assembled	-5797
▁beautiful	-5798
▁immemorial	-5799
▁punishment	-5800
▁overlordship	-5801
sy	-5802
397	-5803
cap	-5804
dan	-5805
kel	-5806
▁65	-5807
0063	-5808
03',	-5809
22',	-5810
2404	-5811
4528	-5812
biṣu	-5813
clos	-5814
room	-5815
āssu	-5816
▁60)	-5817
▁Dil	-5818
▁Lab	-5819
▁Nam	-5820
▁Two	-5821
▁Yas	-5822
▁bur	-5823
▁uns	-5824
▁vir	-5825
.73',	-5826
00571	-5827
23775	-5828
23929	-5829
24037	-5830
33432	-5831
39760	-5832
armer	-5833
aying	-5834
iless	-5835
kelon	-5836
olent	-5837
olesc	-5838
uspic	-5839
▁jars	-5840
▁rear	-5841
▁wadi	-5842
.19']:	-5843
0.17',	-5844
004033	-5845
224470	-5846
224946	-5847
236933	-5848
236960	-5849
313620	-5850
314323	-5851
335131	-5852
335696	-5853
335728	-5854
335735	-5855
335841	-5856
335850	-5857
335935	-5858
336341	-5859
357085	-5860
393823	-5861
4.32',	-5862
7.25',	-5863
ašared	-5864
▁Milki	-5865
▁keeps	-5866
▁leads	-5867
▁older	-5868
▁piled	-5869
▁pries	-5870
▁sharp	-5871
▁short	-5872
ganized	-5873
▁Heaven	-5874
▁appeal	-5875
▁assist	-5876
▁decree	-5877
▁finish	-5878
▁months	-5879
003262.1	-5880
003492.4	-5881
25'][1]:	-5882
336290.1	-5883
otropaic	-5884
strength	-5885
▁adolesc	-5886
▁borders	-5887
▁devoted	-5888
4.2'][1]:	-5889
uspicious	-5890
▁Ashkelon	-5891
▁directed	-5892
▁selected	-5893
1.14'][1]:	-5894
3.28'][1]:	-5895
6.24'][1]:	-5896
8.22'][1]:	-5897
▁priesthood	-5898
si	-5899
)."	-5900
psû	-5901
une	-5902
uti	-5903
ḫul	-5904
▁Me	-5905
▁av	-5906
amua	-5907
asty	-5908
ašuh	-5909
emon	-5910
ibtu	-5911
lamû	-5912
zeri	-5913
.67',	-5914
.72',	-5915
23722	-5916
lemen	-5917
odder	-5918
ption	-5919
▁Uraš	-5920
▁bath	-5921
▁both	-5922
▁buck	-5923
▁corv	-5924
▁loot	-5925
▁usuf	-5926
0.11',	-5927
2.32',	-5928
4.30',	-5929
40.2',	-5930
5.23',	-5931
5.24',	-5932
9.21',	-5933
homers	-5934
▁dream	-5935
▁goods	-5936
▁mixed	-5937
attukku	-5938
šarrani	-5939
▁Ellipi	-5940
▁courti	-5941
▁fallen	-5942
▁forgot	-5943
▁secure	-5944
▁taking	-5945
334927.1	-5946
900016.2	-5947
▁Aramean	-5948
▁Eḫursag	-5949
▁Sealand	-5950
▁Taharqa	-5951
▁blessed	-5952
▁correct	-5953
▁destiny	-5954
▁locusts	-5955
▁officer	-5956
▁shorter	-5957
▁whoever	-5958
.33'][2]:	-5959
.61'][1]:	-5960
7.2'][1]:	-5961
▁Chaldean	-5962
▁Mušallim	-5963
▁confined	-5964
▁kindness	-5965
▁usufruct	-5966
1.13'][1]:	-5967
1.15'][1]:	-5968
2.29'][1]:	-5969
6.27'][1]:	-5970
7.26'][1]:	-5971
▁chieftain	-5972
▁conqueror	-5973
▁exercised	-5974
▁inflicted	-5975
▁vegetable	-5976
▁confection	-5977
▁favourable	-5978
▁performing	-5979
▁appropriate	-5980
▁unfavorable	-5981
▁preservation	-5982
fe	-5983
gu	-5984
.).	-5985
233	-5986
eed	-5987
she	-5988
uly	-5989
īša	-5990
ūti	-5991
”).	-5992
▁Li	-5993
20',	-5994
3950	-5995
4251	-5996
51',	-5997
aced	-5998
atch	-5999
cent	-6000
cuts	-6001
kenu	-6002
outs	-6003
pass	-6004
ries	-6005
rows	-6006
▁Kul	-6007
▁Laq	-6008
▁dry	-6009
▁gir	-6010
.65',	-6011
00336	-6012
00450	-6013
23695	-6014
23701	-6015
23740	-6016
23834	-6017
23900	-6018
24024	-6019
24036	-6020
24044	-6021
31418	-6022
akkil	-6023
ament	-6024
arsip	-6025
eared	-6026
inate	-6027
itary	-6028
ively	-6029
smith	-6030
these	-6031
▁braz	-6032
▁loan	-6033
▁most	-6034
▁wage	-6035
003720	-6036
005929	-6037
1.17',	-6038
237051	-6039
237325	-6040
238075	-6041
240228	-6042
3.32',	-6043
313646	-6044
334941	-6045
335185	-6046
335338	-6047
335723	-6048
335772	-6049
335969	-6050
7.29',	-6051
9.25',	-6052
atters	-6053
ritten	-6054
ḫaltaš	-6055
▁Chief	-6056
▁allow	-6057
▁burns	-6058
▁check	-6059
▁renew	-6060
▁ruled	-6061
▁still	-6062
▁thigh	-6063
2'][4]:	-6064
▁clouds	-6065
▁fodder	-6066
▁intent	-6067
▁longer	-6068
▁nights	-6069
▁progen	-6070
iliation	-6071
▁adorned	-6072
▁advance	-6073
▁annexed	-6074
▁clothed	-6075
▁setting	-6076
▁supplic	-6077
▁thought	-6078
8.2'][1]:	-6079
▁joyfully	-6080
▁military	-6081
▁revealed	-6082
▁sattukku	-6083
4.26'][1]:	-6084
4.28'][1]:	-6085
6.26'][1]:	-6086
9.21'][1]:	-6087
▁merciless	-6088
▁negligent	-6089
▁regularly	-6090
▁apotropaic	-6091
▁disappeared	-6092
▁slaughtered	-6093
do	-6094
ua	-6095
aha	-6096
aki	-6097
dam	-6098
mon	-6099
tre	-6100
uma	-6101
urb	-6102
zar	-6103
▁),	-6104
▁90	-6105
▁Ti	-6106
2245	-6107
2394	-6108
45',	-6109
abši	-6110
ason	-6111
domo	-6112
idus	-6113
kill	-6114
peas	-6115
rian	-6116
year	-6117
šunu	-6118
▁Dan	-6119
▁Kat	-6120
▁Zaz	-6121
▁led	-6122
▁met	-6123
▁Ḫal	-6124
.74',	-6125
.84',	-6126
.88',	-6127
0.4',	-6128
00381	-6129
ashed	-6130
erved	-6131
iding	-6132
itute	-6133
▁Barh	-6134
▁glor	-6135
▁soil	-6136
▁vess	-6137
238440	-6138
238665	-6139
334790	-6140
334925	-6141
335040	-6142
335325	-6143
335667	-6144
335695	-6145
335697	-6146
335837	-6147
335965	-6148
393639	-6149
8.27',	-6150
farmer	-6151
onidus	-6152
ourage	-6153
overed	-6154
šumāti	-6155
▁akītu	-6156
▁chick	-6157
▁cubit	-6158
▁irrig	-6159
▁wrong	-6160
spiring	-6161
▁Puqudu	-6162
▁change	-6163
▁determ	-6164
▁floods	-6165
▁invest	-6166
▁lifted	-6167
▁repair	-6168
▁stalks	-6169
▁stored	-6170
003497.4	-6171
official	-6172
▁certain	-6173
▁dynasty	-6174
▁missing	-6175
▁neither	-6176
.59'][1]:	-6177
.63'][1]:	-6178
▁Anunnaki	-6179
▁Kassites	-6180
▁Mutakkil	-6181
▁arrested	-6182
▁treasure	-6183
0.12'][1]:	-6184
1.19'][1]:	-6185
6.31'][1]:	-6186
7.21'][1]:	-6187
7.22'][1]:	-6188
▁criminals	-6189
▁entourage	-6190
▁instigate	-6191
constructed	-6192
▁Kakkullanu	-6193
▁attendants	-6194
▁auspicious	-6195
▁demolished	-6196
▁shepherding	-6197
ṭi	-6198
.8(	-6199
elf	-6200
mak	-6201
nip	-6202
rov	-6203
sol	-6204
uba	-6205
ēnu	-6206
ūtu	-6207
▁Ap	-6208
.11(	-6209
02',	-6210
25',	-6211
3954	-6212
ails	-6213
ange	-6214
arem	-6215
eous	-6216
hect	-6217
innu	-6218
ists	-6219
rick	-6220
udah	-6221
ēlet	-6222
▁50)	-6223
▁Fir	-6224
▁Pan	-6225
▁Sar	-6226
▁due	-6227
▁vig	-6228
▁wal	-6229
0.9',	-6230
00334	-6231
00391	-6232
00460	-6233
00568	-6234
00569	-6235
23839	-6236
23940	-6237
31400	-6238
31410	-6239
33606	-6240
33615	-6241
39390	-6242
aḫalû	-6243
quest	-6244
trees	-6245
unaya	-6246
wered	-6247
▁Sams	-6248
▁anni	-6249
▁exam	-6250
▁humb	-6251
▁logs	-6252
▁prel	-6253
▁sake	-6254
▁šand	-6255
003970	-6256
005420	-6257
006250	-6258
2.34',	-6259
237020	-6260
238334	-6261
238726	-6262
238824	-6263
334077	-6264
335200	-6265
335224	-6266
335555	-6267
335659	-6268
335833	-6269
335860	-6270
335891	-6271
336329	-6272
336599	-6273
336799	-6274
7.24',	-6275
7.28',	-6276
70.2',	-6277
9.23',	-6278
9.24',	-6279
formed	-6280
▁Akitu	-6281
▁Belat	-6282
▁Iddin	-6283
▁Mukin	-6284
▁Palil	-6285
▁While	-6286
▁clear	-6287
▁fifty	-6288
▁loved	-6289
▁necks	-6290
▁beside	-6291
▁choice	-6292
▁gather	-6293
▁sister	-6294
.1'][1]:	-6295
.8'][3]:	-6296
00'][1]:	-6297
003489.4	-6298
003491.6	-6299
003773.1	-6300
24'][1]:	-6301
336598.4	-6302
hectares	-6303
▁Katmuḫu	-6304
▁Samaria	-6305
▁achieve	-6306
▁desired	-6307
▁incited	-6308
▁leather	-6309
▁pointed	-6310
▁festival	-6311
▁garrison	-6312
3.30'][1]:	-6313
5.24'][1]:	-6314
8.25'][1]:	-6315
▁inspected	-6316
▁sanctuary	-6317
▁adolescent	-6318
▁privileged	-6319
▁reconciliation	-6320
▁responsibility	-6321
Is	-6322
lī	-6323
qâ	-6324
▁ṣ	-6325
cal	-6326
ics	-6327
wad	-6328
▁Ag	-6329
▁Mu	-6330
▁po	-6331
09',	-6332
39',	-6333
aktu	-6334
alim	-6335
amur	-6336
anda	-6337
cell	-6338
reṣu	-6339
▁Del	-6340
▁Gil	-6341
▁Kub	-6342
▁Nip	-6343
▁kne	-6344
▁sal	-6345
.77',	-6346
.82',	-6347
33516	-6348
33522	-6349
abibi	-6350
after	-6351
ailed	-6352
apsed	-6353
duced	-6354
elebr	-6355
pread	-6356
▁(15)	-6357
▁Also	-6358
▁Nabu	-6359
▁tram	-6360
▁turt	-6361
003345	-6362
1.26',	-6363
1.27',	-6364
313430	-6365
334675	-6366
334771	-6367
335177	-6368
335535	-6369
335742	-6370
335838	-6371
4.39',	-6372
49.2',	-6373
6.32',	-6374
6.36',	-6375
7.21',	-6376
7.30',	-6377
8.29',	-6378
Nanaya	-6379
balliṭ	-6380
levant	-6381
priest	-6382
▁Arwad	-6383
▁claim	-6384
▁liver	-6385
▁thing	-6386
▁tower	-6387
▁Barhal	-6388
▁Deluge	-6389
▁During	-6390
▁caught	-6391
▁celebr	-6392
▁spiced	-6393
▁tailor	-6394
003496.4	-6395
003708.5	-6396
338406.2	-6397
▁Hubuški	-6398
▁Tarbiṣu	-6399
▁brazier	-6400
▁illness	-6401
▁marshes	-6402
▁palaces	-6403
▁priests	-6404
▁progeny	-6405
.58'][1]:	-6406
0.5'][1]:	-6407
inspiring	-6408
▁Elamites	-6409
▁building	-6410
▁chanters	-6411
▁exempted	-6412
▁peaceful	-6413
▁yourself	-6414
0.19'][1]:	-6415
1.17'][1]:	-6416
4.21'][1]:	-6417
4.23'][1]:	-6418
4.34'][1]:	-6419
8.23'][1]:	-6420
8.24'][1]:	-6421
9.24'][1]:	-6422
▁Nabonidus	-6423
▁renovated	-6424
▁vineyards	-6425
▁commandant	-6426
▁submissive	-6427
▁Furthermore	-6428
zû	-6429
Now	-6430
ašš	-6431
gas	-6432
rag	-6433
thy	-6434
īya	-6435
06',	-6436
2.13	-6437
23',	-6438
27',	-6439
36',	-6440
52',	-6441
57',	-6442
anki	-6443
imme	-6444
lets	-6445
rily	-6446
urtu	-6447
uted	-6448
uḫḫa	-6449
▁Bur	-6450
▁dam	-6451
▁ful	-6452
▁mur	-6453
▁wea	-6454
▁Ḫil	-6455
.83',	-6456
00570	-6457
23719	-6458
23735	-6459
23939	-6460
24027	-6461
24030	-6462
33868	-6463
39377	-6464
agger	-6465
ilayu	-6466
iting	-6467
loose	-6468
nikaš	-6469
rated	-6470
▁Adda	-6471
▁Sasî	-6472
▁Town	-6473
▁bond	-6474
▁gent	-6475
▁home	-6476
▁meal	-6477
▁mule	-6478
▁need	-6479
▁puts	-6480
▁repe	-6481
▁supp	-6482
▁trod	-6483
▁Šala	-6484
0.18',	-6485
003356	-6486
236951	-6487
237950	-6488
238131	-6489
239348	-6490
27.2',	-6491
285518	-6492
334898	-6493
335126	-6494
335133	-6495
335329	-6496
335420	-6497
335560	-6498
335780	-6499
336078	-6500
336220	-6501
336569	-6502
336671	-6503
34.2',	-6504
393670	-6505
395027	-6506
4.35',	-6507
75.2',	-6508
cubits	-6509
saying	-6510
unders	-6511
▁Kalḫu	-6512
▁grasp	-6513
▁plann	-6514
▁saved	-6515
▁torch	-6516
▁trium	-6517
▁wides	-6518
8'][4]:	-6519
portant	-6520
▁across	-6521
▁canals	-6522
▁double	-6523
▁eating	-6524
▁massac	-6525
▁olives	-6526
003706.7	-6527
21'][1]:	-6528
335701.1	-6529
44'][1]:	-6530
▁angrily	-6531
▁passage	-6532
▁springs	-6533
.67'][1]:	-6534
▁answered	-6535
▁criminal	-6536
▁relevant	-6537
0.15'][1]:	-6538
0.17'][1]:	-6539
2.30'][1]:	-6540
3.29'][1]:	-6541
4.30'][1]:	-6542
5.20'][1]:	-6543
6.30'][1]:	-6544
8.21'][1]:	-6545
▁physician	-6546
▁Babylonian	-6547
▁widespread	-6548
▁circumspect	-6549
▁instructions	-6550
-(	-6551
Sh	-6552
iṣ	-6553
oo	-6554
yu	-6555
▁q	-6556
.9(	-6557
cam	-6558
oom	-6559
▁Mo	-6560
▁bu	-6561
▁cr	-6562
42',	-6563
airs	-6564
asti	-6565
conf	-6566
eder	-6567
erve	-6568
ouch	-6569
▁65)	-6570
▁Lar	-6571
▁Nad	-6572
▁Nat	-6573
▁van	-6574
.85',	-6575
23797	-6576
33679	-6577
39365	-6578
ilāni	-6579
iqīša	-6580
light	-6581
lišir	-6582
mukin	-6583
nipha	-6584
▁(5')	-6585
▁15')	-6586
▁20')	-6587
▁Heze	-6588
▁Hitt	-6589
▁Kipp	-6590
▁News	-6591
▁Susa	-6592
▁clad	-6593
▁grew	-6594
▁sell	-6595
▁sick	-6596
.34']:	-6597
0.24',	-6598
003341	-6599
2.4']:	-6600
2.40',	-6601
238647	-6602
240177	-6603
313470	-6604
335147	-6605
335271	-6606
335639	-6607
335927	-6608
46.2',	-6609
7.32',	-6610
8.28',	-6611
9.28',	-6612
Ešarra	-6613
reṣuwa	-6614
▁Bēlet	-6615
▁mobil	-6616
▁rebel	-6617
▁trade	-6618
5'][4]:	-6619
balassu	-6620
▁10,000	-6621
▁Erišum	-6622
▁annual	-6623
▁street	-6624
▁superv	-6625
▁toward	-6626
▁šandab	-6627
.7'][3]:	-6628
003492.2	-6629
003702.7	-6630
003706.1	-6631
003706.8	-6632
▁Madaktu	-6633
▁Without	-6634
▁control	-6635
▁farmers	-6636
▁lamassu	-6637
▁letters	-6638
▁prolong	-6639
▁triumph	-6640
.64'][1]:	-6641
.66'][1]:	-6642
▁Hezekiah	-6643
▁chariote	-6644
▁entering	-6645
▁grandson	-6646
▁hostages	-6647
▁officers	-6648
0.13'][1]:	-6649
1.18'][1]:	-6650
8.26'][1]:	-6651
8.28'][1]:	-6652
▁concluded	-6653
▁shepherds	-6654
▁emissaries	-6655
▁grandfather	-6656
?”	-6657
ek	-6658
Aya	-6659
How	-6660
fif	-6661
fts	-6662
hau	-6663
idi	-6664
izi	-6665
niš	-6666
orm	-6667
uda	-6668
▁85	-6669
▁Or	-6670
33',	-6671
58',	-6672
aded	-6673
akki	-6674
dalâ	-6675
five	-6676
▁120	-6677
▁75)	-6678
▁Naṣ	-6679
▁Sir	-6680
▁leg	-6681
▁pen	-6682
▁pet	-6683
.71',	-6684
.79',	-6685
00376	-6686
23758	-6687
31411	-6688
33579	-6689
33622	-6690
There	-6691
Where	-6692
amanu	-6693
ammiq	-6694
arded	-6695
ences	-6696
ented	-6697
ettle	-6698
gress	-6699
inter	-6700
ously	-6701
▁Aqar	-6702
▁Padî	-6703
▁brib	-6704
▁cone	-6705
▁ears	-6706
▁form	-6707
▁hamm	-6708
▁inex	-6709
▁lieu	-6710
▁moat	-6711
▁pity	-6712
▁stew	-6713
▁tear	-6714
▁walk	-6715
.39']:	-6716
0.13',	-6717
004027	-6718
21.2',	-6719
237949	-6720
28.2',	-6721
3.35',	-6722
3.36',	-6723
313539	-6724
314251	-6725
334850	-6726
334869	-6727
335123	-6728
335677	-6729
336050	-6730
336150	-6731
36.2',	-6732
393620	-6733
395471	-6734
4.36',	-6735
7.26',	-6736
71.2',	-6737
▁Gabbu	-6738
▁Regul	-6739
▁ahead	-6740
▁avail	-6741
▁break	-6742
▁early	-6743
▁fault	-6744
▁negle	-6745
▁opens	-6746
0'][4]:	-6747
7.10']:	-6748
7.12']:	-6749
fitting	-6750
▁Guzana	-6751
▁advers	-6752
▁august	-6753
▁excell	-6754
▁revere	-6755
▁ruined	-6756
▁throws	-6757
003772.1	-6758
07'][1]:	-6759
09'][1]:	-6760
20'][1]:	-6761
336233.1	-6762
▁Meluḫḫa	-6763
▁express	-6764
▁interru	-6765
▁plotted	-6766
▁rations	-6767
▁streets	-6768
.69'][1]:	-6769
.77'][1]:	-6770
0.9'][1]:	-6771
offerings	-6772
organized	-6773
▁location	-6774
▁occurred	-6775
▁prepared	-6776
▁thunders	-6777
2.23'][1]:	-6778
2.32'][1]:	-6779
6.32'][1]:	-6780
7.28'][1]:	-6781
9.26'][1]:	-6782
▁Babylonia	-6783
▁devastate	-6784
▁victories	-6785
▁cultivated	-6786
▁prosperity	-6787
▁skillfully	-6788
▁šandabakku	-6789
▁unsubmissive	-6790
Te	-6791
co	-6792
ift	-6793
kab	-6794
law	-6795
pur	-6796
ušu	-6797
▁Šu	-6798
05',	-6799
07',	-6800
2398	-6801
53',	-6802
59',	-6803
Send	-6804
With	-6805
auta	-6806
host	-6807
rite	-6808
umin	-6809
unks	-6810
upon	-6811
whom	-6812
▁1/3	-6813
▁70)	-6814
▁Her	-6815
▁Kip	-6816
▁Sap	-6817
▁Sim	-6818
▁Tak	-6819
▁pig	-6820
00385	-6821
00399	-6822
00665	-6823
33597	-6824
39391	-6825
Ashur	-6826
ately	-6827
brick	-6828
flour	-6829
igned	-6830
ishes	-6831
omach	-6832
▁Ninu	-6833
▁arch	-6834
▁bese	-6835
▁corp	-6836
▁dues	-6837
▁flew	-6838
▁lore	-6839
▁palm	-6840
▁post	-6841
▁scar	-6842
003517	-6843
005927	-6844
1.21',	-6845
1.22',	-6846
237270	-6847
237540	-6848
238677	-6849
313547	-6850
335125	-6851
335127	-6852
335139	-6853
335370	-6854
335537	-6855
335655	-6856
335767	-6857
336130	-6858
393622	-6859
393690	-6860
4.33',	-6861
4.38',	-6862
6.33',	-6863
ourney	-6864
remely	-6865
▁Remut	-6866
▁anger	-6867
▁forty	-6868
▁goose	-6869
▁level	-6870
▁rides	-6871
▁spare	-6872
contain	-6873
▁Kippat	-6874
▁behalf	-6875
▁common	-6876
▁formed	-6877
▁itself	-6878
▁kidney	-6879
▁strike	-6880
▁supply	-6881
▁tables	-6882
003707.4	-6883
50'][1]:	-6884
killanni	-6885
▁scribes	-6886
▁started	-6887
▁stomach	-6888
.68'][1]:	-6889
.90'][1]:	-6890
ellations	-6891
▁daylight	-6892
▁departed	-6893
▁diminish	-6894
▁necklace	-6895
0.18'][1]:	-6896
5.21'][1]:	-6897
7.24'][1]:	-6898
8.29'][1]:	-6899
▁brickwork	-6900
▁gentlemen	-6901
▁something	-6902
▁transport	-6903
▁cavalrymen	-6904
▁accordingly	-6905
▁confectioner	-6906
bb	-6907
bâ	-6908
pâ	-6909
tr	-6910
ūn	-6911
emp	-6912
inn	-6913
ira	-6914
ūma	-6915
2118	-6916
2901	-6917
56',	-6918
Come	-6919
Dakk	-6920
almu	-6921
buch	-6922
flow	-6923
pani	-6924
post	-6925
rent	-6926
ummu	-6927
uruš	-6928
yada	-6929
yond	-6930
yria	-6931
šaya	-6932
▁500	-6933
▁Abī	-6934
▁Arz	-6935
▁ayu	-6936
▁pie	-6937
▁rab	-6938
▁tie	-6939
▁tun	-6940
▁urn	-6941
▁Šab	-6942
.81',	-6943
23734	-6944
23901	-6945
33670	-6946
adnez	-6947
eness	-6948
imate	-6949
rible	-6950
▁Dadî	-6951
▁Ever	-6952
▁Qutu	-6953
▁Step	-6954
▁aslu	-6955
▁memb	-6956
▁prot	-6957
▁swam	-6958
▁upro	-6959
▁valu	-6960
▁weep	-6961
▁Ḫiri	-6962
.35']:	-6963
.43']:	-6964
0.15',	-6965
00.2',	-6966
01.2',	-6967
236955	-6968
237755	-6969
26.2',	-6970
313420	-6971
313445	-6972
313531	-6973
313869	-6974
313880	-6975
314038	-6976
335029	-6977
335046	-6978
335124	-6979
335145	-6980
335190	-6981
335220	-6982
335351	-6983
335529	-6984
335940	-6985
336225	-6986
336639	-6987
37.2',	-6988
4.34',	-6989
452901	-6990
5.27',	-6991
5.28',	-6992
6.31',	-6993
6.37',	-6994
74.2',	-6995
8.35',	-6996
emphis	-6997
horses	-6998
stones	-6999
ušabši	-7000
ušezib	-7001
▁2,000	-7002
▁Našuh	-7003
▁Nipur	-7004
▁Until	-7005
▁brace	-7006
▁faith	-7007
▁grown	-7008
▁hills	-7009
▁loose	-7010
▁peaks	-7011
▁rooms	-7012
▁Ahlamû	-7013
▁Having	-7014
▁Thebes	-7015
▁allies	-7016
▁decide	-7017
▁leader	-7018
▁mouths	-7019
▁review	-7020
▁theirs	-7021
▁trampl	-7022
▁yearly	-7023
▁Šubaru	-7024
003705.7	-7025
06'][1]:	-7026
26'][1]:	-7027
336232.1	-7028
338406.1	-7029
338406.3	-7030
Property	-7031
▁appears	-7032
▁citadel	-7033
▁citizen	-7034
▁matters	-7035
▁objects	-7036
▁planned	-7037
▁prelate	-7038
▁steward	-7039
▁wording	-7040
▁Ḫindānu	-7041
.82'][1]:	-7042
.84'][1]:	-7043
.86'][1]:	-7044
buchadnez	-7045
▁Arzuhina	-7046
▁Egyptian	-7047
▁interest	-7048
▁personal	-7049
▁scholars	-7050
0.11'][1]:	-7051
1.16'][1]:	-7052
1.22'][1]:	-7053
2.34'][1]:	-7054
3.23'][1]:	-7055
▁befitting	-7056
▁extremely	-7057
▁inspector	-7058
▁libations	-7059
▁stretches	-7060
▁assignment	-7061
▁storehouse	-7062
▁reorganized	-7063
Il	-7064
mi	-7065
za	-7066
āṭ	-7067
aze	-7068
aḫi	-7069
dur	-7070
ert	-7071
mat	-7072
nam	-7073
pad	-7074
set	-7075
usi	-7076
ūri	-7077
▁Iq	-7078
▁Up	-7079
▁ty	-7080
66',	-7081
91',	-7082
Mull	-7083
adad	-7084
akka	-7085
ends	-7086
foot	-7087
gran	-7088
leep	-7089
metu	-7090
raud	-7091
ried	-7092
tees	-7093
time	-7094
ṣill	-7095
▁Ber	-7096
▁Bet	-7097
▁Gir	-7098
▁Has	-7099
▁Laṣ	-7100
▁Muṣ	-7101
▁nom	-7102
.75',	-7103
.87',	-7104
.90',	-7105
.91',	-7106
22443	-7107
23866	-7108
33543	-7109
ening	-7110
enter	-7111
isted	-7112
oment	-7113
quake	-7114
tribe	-7115
▁Gaza	-7116
▁King	-7117
▁Mati	-7118
▁Ukku	-7119
▁cold	-7120
▁crus	-7121
▁onto	-7122
▁roll	-7123
▁soup	-7124
▁sown	-7125
▁sust	-7126
.37']:	-7127
003334	-7128
003376	-7129
2.35',	-7130
2.8']:	-7131
224589	-7132
237800	-7133
237839	-7134
238077	-7135
238110	-7136
334068	-7137
334428	-7138
335136	-7139
335326	-7140
335557	-7141
335834	-7142
336300	-7143
336739	-7144
336796	-7145
47.2',	-7146
5.26',	-7147
6.4']:	-7148
7.33',	-7149
7.36',	-7150
Barsip	-7151
cepted	-7152
iliary	-7153
should	-7154
▁(10')	-7155
▁Tebil	-7156
▁Zakir	-7157
▁court	-7158
▁displ	-7159
▁fates	-7160
▁fraud	-7161
▁marri	-7162
▁marsh	-7163
▁noble	-7164
▁paths	-7165
▁sides	-7166
already	-7167
balāssu	-7168
omegran	-7169
▁Zarutî	-7170
▁bestow	-7171
▁onions	-7172
▁urnutu	-7173
▁wealth	-7174
▁zaḫalû	-7175
003490.5	-7176
003491.3	-7177
23'][1]:	-7178
27'][1]:	-7179
29'][1]:	-7180
64'][1]:	-7181
75'][1]:	-7182
aranteed	-7183
ommander	-7184
portions	-7185
▁Regulus	-7186
▁anybody	-7187
▁censers	-7188
▁decrees	-7189
▁inquire	-7190
▁journey	-7191
▁located	-7192
▁produce	-7193
.70'][1]:	-7194
.74'][1]:	-7195
0.8'][1]:	-7196
confirmed	-7197
▁controls	-7198
▁fattened	-7199
▁hammurtu	-7200
▁reported	-7201
3.34'][1]:	-7202
9.25'][1]:	-7203
containers	-7204
▁available	-7205
▁goldsmith	-7206
▁massacred	-7207
▁merchants	-7208
▁regarding	-7209
▁righteous	-7210
▁slaughter	-7211
▁rebellious	-7212
▁reconciled	-7213
▁substitute	-7214
buchadnezzar	-7215
▁charioteers	-7216
On	-7217
bs	-7218
lū	-7219
425	-7220
8]:	-7221
aqq	-7222
ral	-7223
ram	-7224
ump	-7225
urr	-7226
uṭu	-7227
āte	-7228
▁Uq	-7229
▁ef	-7230
.13(	-7231
21',	-7232
3636	-7233
63',	-7234
64',	-7235
Give	-7236
alem	-7237
alik	-7238
amma	-7239
aned	-7240
duty	-7241
erus	-7242
ibly	-7243
immu	-7244
kina	-7245
line	-7246
oked	-7247
rawn	-7248
reak	-7249
uzur	-7250
▁Hat	-7251
▁Maz	-7252
▁aux	-7253
▁bol	-7254
▁eff	-7255
▁lar	-7256
▁sto	-7257
▁wed	-7258
.89',	-7259
.94',	-7260
0.1',	-7261
00325	-7262
00361	-7263
00668	-7264
23826	-7265
23867	-7266
24035	-7267
ances	-7268
ashes	-7269
icing	-7270
ighty	-7271
ledge	-7272
līšir	-7273
metal	-7274
onoun	-7275
paths	-7276
▁Bahi	-7277
▁Haza	-7278
▁Laqû	-7279
▁band	-7280
▁belt	-7281
▁carp	-7282
▁cren	-7283
▁duty	-7284
▁meet	-7285
▁move	-7286
▁spir	-7287
▁talk	-7288
.38']:	-7289
0.20',	-7290
003336	-7291
003880	-7292
005860	-7293
006238	-7294
1.23',	-7295
1.25',	-7296
2.33',	-7297
21.5',	-7298
224951	-7299
237829	-7300
238350	-7301
238724	-7302
239050	-7303
282526	-7304
313651	-7305
313723	-7306
313923	-7307
334551	-7308
335024	-7309
335321	-7310
335336	-7311
335357	-7312
335423	-7313
335849	-7314
335929	-7315
335936	-7316
335975	-7317
336031	-7318
336045	-7319
336132	-7320
336175	-7321
336668	-7322
336678	-7323
363670	-7324
41.2',	-7325
5.21',	-7326
6.34',	-7327
ateans	-7328
ounded	-7329
▁Sagab	-7330
▁Seven	-7331
▁Yasub	-7332
▁depor	-7333
▁ghost	-7334
▁gover	-7335
▁grass	-7336
▁lambs	-7337
▁seals	-7338
▁sleep	-7339
▁togas	-7340
▁yours	-7341
▁Kaštar	-7342
▁Kilizi	-7343
▁Lahiru	-7344
▁archit	-7345
▁beyond	-7346
▁bridle	-7347
▁corpse	-7348
▁felled	-7349
▁images	-7350
▁larger	-7351
▁revolt	-7352
▁ruling	-7353
▁scared	-7354
▁virile	-7355
.6'][3]:	-7356
003496.2	-7357
003497.1	-7358
003705.5	-7359
04'][1]:	-7360
337164.1	-7361
58'][1]:	-7362
erusalem	-7363
▁Bahianu	-7364
▁Bulluṭu	-7365
▁Memphis	-7366
▁Tebilti	-7367
▁changes	-7368
▁outflow	-7369
▁pronoun	-7370
▁sunrise	-7371
▁turtled	-7372
.12'][2]:	-7373
.72'][1]:	-7374
0.3'][1]:	-7375
▁Babilayu	-7376
▁Indabibi	-7377
▁Whatever	-7378
▁accepted	-7379
▁clothing	-7380
▁detained	-7381
0.14'][1]:	-7382
1.26'][1]:	-7383
3.21'][1]:	-7384
8.27'][1]:	-7385
▁agreeable	-7386
▁auxiliary	-7387
▁governess	-7388
▁rejoicing	-7389
▁earthquake	-7390
▁crenellations	-7391
Be	-7392
sl	-7393
▁i	-7394
▁ḫ	-7395
Bun	-7396
Dak	-7397
dge	-7398
rif	-7399
rum	-7400
sed	-7401
sil	-7402
son	-7403
yes	-7404
ṣur	-7405
▁95	-7406
▁Pa	-7407
▁ur	-7408
08',	-7409
31',	-7410
49',	-7411
69',	-7412
79',	-7413
dini	-7414
epsy	-7415
hinu	-7416
ilku	-7417
inua	-7418
itud	-7419
kind	-7420
ēzib	-7421
ṣiru	-7422
▁(20	-7423
▁Har	-7424
▁III	-7425
▁Son	-7426
▁alm	-7427
▁boy	-7428
▁bru	-7429
▁cre	-7430
▁eye	-7431
▁fat	-7432
▁hin	-7433
▁hit	-7434
▁ind	-7435
▁ped	-7436
▁ste	-7437
▁vac	-7438
.92',	-7439
00585	-7440
33517	-7441
33643	-7442
33644	-7443
45278	-7444
acher	-7445
amban	-7446
amber	-7447
ellig	-7448
erday	-7449
estin	-7450
ighth	-7451
inent	-7452
lands	-7453
otted	-7454
thern	-7455
uball	-7456
▁Fear	-7457
▁Gabb	-7458
▁Išme	-7459
▁Sard	-7460
▁apsû	-7461
▁epil	-7462
▁pack	-7463
▁shut	-7464
▁snow	-7465
▁thor	-7466
▁tomb	-7467
▁trav	-7468
'][8]:	-7469
003497	-7470
2.36',	-7471
238755	-7472
3.34',	-7473
334871	-7474
334939	-7475
335027	-7476
335128	-7477
335340	-7478
335630	-7479
335710	-7480
398398	-7481
6.40',	-7482
62.2',	-7483
73.2',	-7484
Should	-7485
ettled	-7486
imirra	-7487
reated	-7488
ritual	-7489
shaped	-7490
urušpâ	-7491
▁Arpad	-7492
▁Igigi	-7493
▁Later	-7494
▁armed	-7495
▁besie	-7496
▁debts	-7497
▁envoy	-7498
▁mares	-7499
▁parts	-7500
▁roast	-7501
▁strew	-7502
▁Ḫabḫu	-7503
8.10']:	-7504
Amukani	-7505
▁Rising	-7506
▁endure	-7507
▁fallow	-7508
▁moment	-7509
▁refuge	-7510
▁relied	-7511
▁swamps	-7512
▁terrif	-7513
▁trunks	-7514
▁vacant	-7515
003702.5	-7516
335783.1	-7517
336132.4	-7518
336260.5	-7519
56'][1]:	-7520
esterday	-7521
▁Emašmaš	-7522
▁Mannean	-7523
▁already	-7524
▁annihil	-7525
▁ceasing	-7526
▁chamber	-7527
▁fighter	-7528
▁foreign	-7529
▁learned	-7530
▁prepare	-7531
▁prevail	-7532
▁rejoice	-7533
▁skilled	-7534
▁trodden	-7535
▁wedding	-7536
.13'][3]:	-7537
.20'][2]:	-7538
.22'][2]:	-7539
.24'][2]:	-7540
▁attached	-7541
▁colossus	-7542
▁darkness	-7543
▁petition	-7544
▁pomegran	-7545
▁speaking	-7546
▁thorough	-7547
▁treacher	-7548
▁upstream	-7549
▁valuable	-7550
0.16'][1]:	-7551
1.25'][1]:	-7552
3.35'][1]:	-7553
4.32'][1]:	-7554
6.36'][1]:	-7555
7.23'][1]:	-7556
▁Kaštaritu	-7557
▁countries	-7558
▁cultivate	-7559
▁deportees	-7560
▁important	-7561
▁remainder	-7562
▁shoulders	-7563
▁afterwards	-7564
▁experience	-7565
▁questioned	-7566
▁victorious	-7567
▁expeditionary	-7568
▁Nebuchadnezzar	-7569
)!	-7570
Gu	-7571
gg	-7572
ih	-7573
.'"	-7574
.4(	-7575
Kub	-7576
Pal	-7577
bet	-7578
elt	-7579
ety	-7580
ham	-7581
ilk	-7582
isf	-7583
kes	-7584
mar	-7585
oth	-7586
six	-7587
yan	-7588
ība	-7589
ūnu	-7590
▁33	-7591
▁Ph	-7592
▁Uš	-7593
▁ha	-7594
3947	-7595
44',	-7596
60',	-7597
65',	-7598
93',	-7599
band	-7600
deal	-7601
dāri	-7602
epuš	-7603
held	-7604
issi	-7605
mina	-7606
olds	-7607
opol	-7608
view	-7609
wall	-7610
your	-7611
▁Dēr	-7612
▁Ina	-7613
▁Iss	-7614
▁Kap	-7615
▁Set	-7616
▁Sum	-7617
▁bud	-7618
▁sol	-7619
.93',	-7620
00344	-7621
00372	-7622
00600	-7623
23751	-7624
23921	-7625
23924	-7626
23945	-7627
33669	-7628
Ninua	-7629
Nusku	-7630
frain	-7631
idian	-7632
āṭāya	-7633
▁Babu	-7634
▁Mard	-7635
▁Rapi	-7636
▁Then	-7637
▁sits	-7638
▁such	-7639
.40']:	-7640
.42']:	-7641
003489	-7642
003700	-7643
003941	-7644
005935	-7645
1.30',	-7646
20.2',	-7647
23.2',	-7648
237528	-7649
238000	-7650
238526	-7651
238660	-7652
238945	-7653
238976	-7654
239045	-7655
3.38',	-7656
313721	-7657
313830	-7658
33.2',	-7659
334626	-7660
335122	-7661
335129	-7662
335301	-7663
335327	-7664
335749	-7665
335750	-7666
335799	-7667
335851	-7668
335931	-7669
335945	-7670
336051	-7671
336195	-7672
336237	-7673
4.37',	-7674
452730	-7675
47.6',	-7676
6.38',	-7677
63.2',	-7678
71.5',	-7679
78.2',	-7680
8.31',	-7681
9.29',	-7682
9.30',	-7683
aining	-7684
arruqu	-7685
illaya	-7686
purple	-7687
šumati	-7688
▁Erība	-7689
▁Puzur	-7690
▁advan	-7691
▁areas	-7692
▁banqu	-7693
▁bones	-7694
▁depri	-7695
▁grove	-7696
▁harem	-7697
▁honor	-7698
▁oppon	-7699
▁parap	-7700
▁wheat	-7701
2.10']:	-7702
4'][4]:	-7703
8.12']:	-7704
ensions	-7705
▁Nagītu	-7706
▁Nanāya	-7707
▁abodes	-7708
▁brewer	-7709
▁plants	-7710
▁really	-7711
▁rebuil	-7712
▁satisf	-7713
▁spread	-7714
▁stayed	-7715
▁strife	-7716
▁submit	-7717
▁swings	-7718
▁weaned	-7719
003497.2	-7720
02'][1]:	-7721
03'][1]:	-7722
22'][1]:	-7723
31'][1]:	-7724
42'][1]:	-7725
55'][1]:	-7726
83'][1]:	-7727
900016.5	-7728
antation	-7729
▁Barruqu	-7730
▁accompl	-7731
▁bearded	-7732
▁creator	-7733
▁effaced	-7734
▁hinhinu	-7735
▁perhaps	-7736
▁refused	-7737
▁request	-7738
▁revered	-7739
▁trained	-7740
0.7'][1]:	-7741
5.2'][1]:	-7742
intendent	-7743
▁Balāṭāya	-7744
▁crossing	-7745
▁deported	-7746
▁entirely	-7747
▁epilepsy	-7748
▁intercal	-7749
▁interior	-7750
▁measured	-7751
▁pleasant	-7752
▁terrible	-7753
1.20'][1]:	-7754
1.21'][1]:	-7755
9.30'][1]:	-7756
Guaranteed	-7757
confection	-7758
▁alongside	-7759
▁collapsed	-7760
▁courtiers	-7761
▁destinies	-7762
▁excellent	-7763
▁assistance	-7764
▁dimensions	-7765
▁permission	-7766
▁provisions	-7767
▁turtledoves	-7768
';	-7769
(-	-7770
ūz	-7771
For	-7772
Kil	-7773
Kur	-7774
ahh	-7775
bro	-7776
dod	-7777
irr	-7778
oud	-7779
ulî	-7780
▁Eb	-7781
41',	-7782
agal	-7783
agar	-7784
away	-7785
ašme	-7786
bowl	-7787
edge	-7788
emma	-7789
iber	-7790
ighb	-7791
igin	-7792
inth	-7793
medi	-7794
muše	-7795
rabi	-7796
rand	-7797
ugit	-7798
ulum	-7799
unga	-7800
urer	-7801
▁Bub	-7802
▁Kab	-7803
▁Leo	-7804
▁Lib	-7805
▁Mal	-7806
▁Met	-7807
▁Mit	-7808
▁Qat	-7809
▁eag	-7810
▁fer	-7811
▁jew	-7812
▁mal	-7813
▁sho	-7814
▁vat	-7815
.2']:	-7816
31422	-7817
33489	-7818
Syria	-7819
amash	-7820
igall	-7821
ilaya	-7822
inner	-7823
lumur	-7824
orrow	-7825
resid	-7826
ūzubu	-7827
▁Banî	-7828
▁Have	-7829
▁Moab	-7830
▁Nanî	-7831
▁Sang	-7832
▁dyed	-7833
▁fact	-7834
▁grie	-7835
▁kern	-7836
▁lays	-7837
▁loss	-7838
▁rage	-7839
▁ring	-7840
▁sure	-7841
1.32',	-7842
211891	-7843
224440	-7844
238446	-7845
238936	-7846
240441	-7847
27.4',	-7848
3.31',	-7849
3.4']:	-7850
314326	-7851
334671	-7852
335021	-7853
335141	-7854
335149	-7855
335223	-7856
335437	-7857
335527	-7858
335877	-7859
335928	-7860
335946	-7861
336128	-7862
336141	-7863
336170	-7864
393630	-7865
4.31',	-7866
4.40',	-7867
48.7',	-7868
5.29',	-7869
67.2',	-7870
70.6',	-7871
Tukult	-7872
menanu	-7873
nelian	-7874
silver	-7875
teenth	-7876
▁Every	-7877
▁Naṣib	-7878
▁Since	-7879
▁Yakīn	-7880
▁beast	-7881
▁broke	-7882
▁emble	-7883
▁empty	-7884
▁fugit	-7885
▁human	-7886
▁imple	-7887
▁meets	-7888
▁picks	-7889
▁scept	-7890
▁shiny	-7891
▁stock	-7892
▁vines	-7893
6.10']:	-7894
foreign	-7895
thening	-7896
▁Ashdod	-7897
▁Destin	-7898
▁Rapiqu	-7899
▁arrang	-7900
▁arrows	-7901
▁cultic	-7902
▁flayed	-7903
▁gained	-7904
▁heaped	-7905
▁humble	-7906
▁layers	-7907
▁murder	-7908
▁neighb	-7909
▁pedest	-7910
▁pledge	-7911
▁quakes	-7912
▁rivers	-7913
▁thrice	-7914
▁walled	-7915
▁Šubria	-7916
003492.1	-7917
003703.6	-7918
003707.2	-7919
238321.1	-7920
337164.2	-7921
40'][1]:	-7922
52'][1]:	-7923
60'][1]:	-7924
▁Balassu	-7925
▁Refrain	-7926
▁Written	-7927
▁concern	-7928
▁deliber	-7929
▁divided	-7930
▁dragged	-7931
▁endowed	-7932
▁eršemma	-7933
▁extreme	-7934
▁furious	-7935
▁intones	-7936
▁kernels	-7937
▁leaders	-7938
▁massive	-7939
▁outpost	-7940
▁quinces	-7941
▁sheikhs	-7942
▁working	-7943
.32'][2]:	-7944
.75'][1]:	-7945
.80'][1]:	-7946
.87'][1]:	-7947
.89'][1]:	-7948
0.6'][1]:	-7949
003710.11	-7950
igallians	-7951
šezibanni	-7952
▁collated	-7953
▁drinking	-7954
▁informed	-7955
▁judgment	-7956
▁repeated	-7957
▁seizures	-7958
0.20'][1]:	-7959
1.23'][1]:	-7960
4.35'][1]:	-7961
4.36'][1]:	-7962
5.27'][1]:	-7963
7.30'][1]:	-7964
7.32'][1]:	-7965
8.30'][1]:	-7966
▁Destinies	-7967
▁childhood	-7968
▁correctly	-7969
▁dwellings	-7970
▁forgotten	-7971
▁remaining	-7972
▁stretched	-7973
lamentation	-7974
▁stretching	-7975
▁Yasubigallians	-7976
";	-7977
Es	-7978
cu	-7979
200	-7980
Per	-7981
Sin	-7982
adu	-7983
amz	-7984
azu	-7985
eze	-7986
kka	-7987
pes	-7988
ryg	-7989
sam	-7990
▁36	-7991
▁Go	-7992
▁Ta	-7993
▁ti	-7994
▁tu	-7995
0041	-7996
47',	-7997
50',	-7998
67',	-7999
75',	-8000
85',	-8001
88',	-8002
blos	-8003
cked	-8004
gold	-8005
irtu	-8006
keys	-8007
made	-8008
umig	-8009
weet	-8010
▁85)	-8011
▁Arb	-8012
▁Ken	-8013
▁Kiš	-8014
▁Tem	-8015
▁Ziz	-8016
▁bod	-8017
▁fle	-8018
▁fro	-8019
▁hot	-8020
▁kur	-8021
▁mis	-8022
▁sap	-8023
▁Šer	-8024
23824	-8025
24031	-8026
abbar	-8027
adanu	-8028
azing	-8029
lašme	-8030
leads	-8031
▁Alzu	-8032
▁Antu	-8033
▁Erra	-8034
▁Gilz	-8035
▁born	-8036
▁gown	-8037
▁harm	-8038
▁lack	-8039
▁seek	-8040
▁sees	-8041
▁slew	-8042
▁wick	-8043
.36']:	-8044
0.23',	-8045
003327	-8046
003475	-8047
003951	-8048
003960	-8049
005621	-8050
005837	-8051
1.6']:	-8052
237326	-8053
237562	-8054
238965	-8055
238977	-8056
240140	-8057
3.37',	-8058
313425	-8059
313545	-8060
313560	-8061
313569	-8062
313575	-8063
313720	-8064
313946	-8065
314341	-8066
333975	-8067
334178	-8068
334429	-8069
334825	-8070
334831	-8071
334933	-8072
335069	-8073
335151	-8074
335160	-8075
335526	-8076
335668	-8077
335685	-8078
335783	-8079
335844	-8080
335876	-8081
335960	-8082
336067	-8083
336340	-8084
336628	-8085
336641	-8086
39.2',	-8087
4.4']:	-8088
48.2',	-8089
50.2',	-8090
6.35',	-8091
6.39',	-8092
71.7',	-8093
77.2',	-8094
79.2',	-8095
8.36',	-8096
Inurta	-8097
estine	-8098
ingent	-8099
kalama	-8100
mušeṣi	-8101
proper	-8102
tribes	-8103
▁First	-8104
▁Parsu	-8105
▁Phryg	-8106
▁banks	-8107
▁chair	-8108
▁fifth	-8109
▁fumig	-8110
▁gener	-8111
▁ready	-8112
▁share	-8113
▁sixty	-8114
▁snake	-8115
▁vanqu	-8116
▁waste	-8117
▁wells	-8118
▁Ḫusur	-8119
▁Asallu	-8120
▁Byblos	-8121
▁Nadinu	-8122
▁Naṣiru	-8123
▁Nobody	-8124
▁bodies	-8125
▁cloudy	-8126
▁domest	-8127
▁heroic	-8128
▁plough	-8129
▁repres	-8130
▁scouts	-8131
▁useful	-8132
▁writes	-8133
003426.1	-8134
003489.3	-8135
003490.4	-8136
003496.1	-8137
003496.3	-8138
003704.1	-8139
003706.2	-8140
003706.4	-8141
003710.6	-8142
05'][1]:	-8143
313563.4	-8144
33'][1]:	-8145
333951.4	-8146
336132.1	-8147
336598.2	-8148
36'][1]:	-8149
426369.4	-8150
63'][1]:	-8151
67'][1]:	-8152
70'][1]:	-8153
▁Kurbail	-8154
▁Mazamua	-8155
▁Ninuayu	-8156
▁apprent	-8157
▁decided	-8158
▁guarant	-8159
▁mankind	-8160
▁prevent	-8161
▁squares	-8162
▁surpass	-8163
.26'][2]:	-8164
.28'][2]:	-8165
.73'][1]:	-8166
.76'][1]:	-8167
.85'][1]:	-8168
.88'][1]:	-8169
mediately	-8170
▁1)'][3]:	-8171
▁advanced	-8172
▁interced	-8173
▁lengthen	-8174
▁obsidian	-8175
▁required	-8176
▁withheld	-8177
2.33'][1]:	-8178
5.23'][1]:	-8179
5.26'][1]:	-8180
6.34'][1]:	-8181
7.25'][1]:	-8182
7.27'][1]:	-8183
7.29'][1]:	-8184
9.27'][1]:	-8185
▁countless	-8186
▁harnessed	-8187
▁housekeep	-8188
▁knowledge	-8189
▁altogether	-8190
▁arrangement	-8191
▁forefathers	-8192
▁disappearance	-8193
Ab	-8194
Do	-8195
Se	-8196
500	-8197
Sîn	-8198
fto	-8199
ilâ	-8200
ipâ	-8201
orp	-8202
rid	-8203
two	-8204
udû	-8205
ātu	-8206
ššu	-8207
▁32	-8208
32.3	-8209
40',	-8210
61',	-8211
76',	-8212
77',	-8213
84',	-8214
86',	-8215
alhu	-8216
also	-8217
city	-8218
dish	-8219
icol	-8220
idqâ	-8221
inni	-8222
irsu	-8223
spab	-8224
ubaš	-8225
šūma	-8226
▁1/4	-8227
▁150	-8228
▁400	-8229
▁80)	-8230
▁Ayy	-8231
▁Maš	-8232
▁Sur	-8233
▁bou	-8234
▁cru	-8235
▁rav	-8236
.78',	-8237
.86',	-8238
23934	-8239
33405	-8240
33506	-8241
amzaḫ	-8242
arrān	-8243
asted	-8244
idden	-8245
illon	-8246
ipped	-8247
itude	-8248
milki	-8249
ongue	-8250
seeds	-8251
▁Ahhe	-8252
▁Anzû	-8253
▁Etem	-8254
▁Lull	-8255
▁Mand	-8256
▁eans	-8257
▁ilku	-8258
▁next	-8259
▁peak	-8260
▁rode	-8261
▁suck	-8262
▁vast	-8263
▁wail	-8264
▁wear	-8265
0.21',	-8266
0.25',	-8267
0.29',	-8268
003277	-8269
003943	-8270
1.28',	-8271
2.6']:	-8272
224433	-8273
23.5',	-8274
237536	-8275
238839	-8276
24.2',	-8277
29.2',	-8278
334301	-8279
334795	-8280
335020	-8281
335033	-8282
335168	-8283
335195	-8284
335377	-8285
335500	-8286
335538	-8287
335746	-8288
335755	-8289
336201	-8290
336327	-8291
393621	-8292
393627	-8293
42.2',	-8294
56.2',	-8295
7.31',	-8296
71.6',	-8297
8.30',	-8298
8.33',	-8299
9.32',	-8300
9.34',	-8301
9.4']:	-8302
ainers	-8303
bunaya	-8304
making	-8305
worthy	-8306
▁Ašipâ	-8307
▁Ubulu	-8308
▁chest	-8309
▁drawn	-8310
▁drove	-8311
▁exist	-8312
▁freed	-8313
▁overt	-8314
▁valor	-8315
▁wives	-8316
▁wrath	-8317
ftovers	-8318
spabāra	-8319
▁Ayyāru	-8320
▁Dilbat	-8321
▁Inside	-8322
▁Zabinu	-8323
▁bearer	-8324
▁deaths	-8325
▁debris	-8326
▁eighth	-8327
▁ordeal	-8328
▁sacred	-8329
▁series	-8330
▁showed	-8331
▁slaves	-8332
▁speaks	-8333
▁thrown	-8334
▁weaver	-8335
003230.5	-8336
003491.4	-8337
003491.5	-8338
003705.6	-8339
003705.8	-8340
003706.6	-8341
003712.1	-8342
313516.5	-8343
336260.4	-8344
336598.1	-8345
41'][1]:	-8346
45'][1]:	-8347
57'][1]:	-8348
65'][1]:	-8349
Kilamzaḫ	-8350
tersweet	-8351
Šarrukin	-8352
▁Hittite	-8353
▁Shamash	-8354
▁afflict	-8355
▁bruised	-8356
▁buckled	-8357
▁closely	-8358
▁clothes	-8359
▁members	-8360
▁reduced	-8361
▁renders	-8362
▁sisalhu	-8363
▁smaller	-8364
▁strikes	-8365
▁thereon	-8366
▁worried	-8367
.10'][2]:	-8368
.25'][2]:	-8369
.79'][1]:	-8370
.83'][1]:	-8371
.92'][1]:	-8372
.93'][1]:	-8373
Palestine	-8374
commander	-8375
▁accounts	-8376
▁besieged	-8377
▁bouillon	-8378
▁detached	-8379
▁fullness	-8380
▁multicol	-8381
▁opponent	-8382
▁repaired	-8383
▁supervis	-8384
1.30'][1]:	-8385
5.22'][1]:	-8386
▁bracelets	-8387
▁carnelian	-8388
▁boundaries	-8389
▁chieftains	-8390
▁positioned	-8391
▁bittersweet	-8392
▁immediately	-8393
▁information	-8394
▁investigate	-8395
▁supplications	-8396
.,	-8397
Lû	-8398
Ur	-8399
ny	-8400
nî	-8401
▁ē	-8402
231	-8403
Imb	-8404
aṭu	-8405
bur	-8406
epu	-8407
keh	-8408
lib	-8409
maš	-8410
str	-8411
sue	-8412
zer	-8413
īru	-8414
▁Ex	-8415
▁Nē	-8416
29',	-8417
3960	-8418
4221	-8419
4231	-8420
43',	-8421
71',	-8422
72',	-8423
94',	-8424
97',	-8425
aked	-8426
atua	-8427
aḫḫē	-8428
bird	-8429
bred	-8430
etel	-8431
ginu	-8432
ilic	-8433
inti	-8434
mans	-8435
prov	-8436
unar	-8437
▁(25	-8438
▁Nar	-8439
▁Nir	-8440
▁Ram	-8441
▁Upp	-8442
▁ens	-8443
▁ing	-8444
▁ord	-8445
▁rib	-8446
▁sev	-8447
▁Ḫan	-8448
00329	-8449
00468	-8450
00581	-8451
23705	-8452
24038	-8453
24040	-8454
33406	-8455
33456	-8456
33659	-8457
Adini	-8458
Bring	-8459
Yakin	-8460
build	-8461
cibly	-8462
deeds	-8463
field	-8464
fifty	-8465
lings	-8466
tekeh	-8467
udges	-8468
ution	-8469
▁Enem	-8470
▁Ereš	-8471
▁Kark	-8472
▁curs	-8473
▁disk	-8474
▁dust	-8475
▁fame	-8476
▁feed	-8477
▁less	-8478
▁pots	-8479
▁roam	-8480
▁skin	-8481
▁test	-8482
▁till	-8483
▁type	-8484
.119',	-8485
.45']:	-8486
003335	-8487
003492	-8488
004791	-8489
1.29',	-8490
237421	-8491
237550	-8492
238648	-8493
238771	-8494
238938	-8495
31.2',	-8496
313440	-8497
313664	-8498
313824	-8499
314141	-8500
32.2',	-8501
334623	-8502
334669	-8503
334737	-8504
334838	-8505
334844	-8506
334849	-8507
334920	-8508
335137	-8509
335225	-8510
335237	-8511
335239	-8512
335424	-8513
335501	-8514
335551	-8515
335726	-8516
335794	-8517
335795	-8518
335830	-8519
335920	-8520
335968	-8521
425166	-8522
5.33',	-8523
6.8']:	-8524
7.34',	-8525
7.35',	-8526
7.37',	-8527
7.38',	-8528
71.3',	-8529
76.2',	-8530
8.34',	-8531
8.39',	-8532
atives	-8533
igalzu	-8534
▁3,000	-8535
▁Check	-8536
▁Eridu	-8537
▁Imgur	-8538
▁Larak	-8539
▁Melid	-8540
▁Samsi	-8541
▁belie	-8542
▁blows	-8543
▁deity	-8544
▁dying	-8545
▁entry	-8546
▁gowns	-8547
▁griev	-8548
▁nails	-8549
▁poles	-8550
▁rumor	-8551
▁sever	-8552
▁works	-8553
▁worry	-8554
4.10']:	-8555
5.10']:	-8556
5.15']:	-8557
7.19']:	-8558
71.14',	-8559
71.15',	-8560
8.13']:	-8561
8.15']:	-8562
9'][4]:	-8563
9.16']:	-8564
manship	-8565
▁Damunu	-8566
▁Gambul	-8567
▁Hazael	-8568
▁alters	-8569
▁batter	-8570
▁beasts	-8571
▁bridge	-8572
▁consum	-8573
▁crimes	-8574
▁curled	-8575
▁dagger	-8576
▁depart	-8577
▁kindly	-8578
▁pulled	-8579
▁select	-8580
▁spouse	-8581
▁swords	-8582
▁tunics	-8583
▁wicked	-8584
▁winter	-8585
▁Šumaya	-8586
▁Šūzubu	-8587
003490.6	-8588
003497.3	-8589
003701.1	-8590
003705.4	-8591
28'][1]:	-8592
334936.1	-8593
335608.5	-8594
335608.7	-8595
336245.6	-8596
336316.6	-8597
51'][1]:	-8598
68'][1]:	-8599
Šarrukku	-8600
▁Damkina	-8601
▁Eltekeh	-8602
▁Setting	-8603
▁bedroom	-8604
▁checked	-8605
▁fortune	-8606
▁founded	-8607
▁numbers	-8608
▁product	-8609
▁reddish	-8610
▁scribal	-8611
▁smashed	-8612
▁strives	-8613
.14'][2]:	-8614
.27'][2]:	-8615
.30'][2]:	-8616
.78'][1]:	-8617
.94'][1]:	-8618
.99'][1]:	-8619
uballissu	-8620
▁Hubuškia	-8621
▁boundary	-8622
▁forcibly	-8623
▁inquired	-8624
▁outposts	-8625
▁properly	-8626
▁rejoiced	-8627
▁reverent	-8628
▁somebody	-8629
2.31'][1]:	-8630
2.39'][1]:	-8631
4.33'][1]:	-8632
4.38'][1]:	-8633
5.25'][1]:	-8634
5.29'][1]:	-8635
6.35'][1]:	-8636
9.29'][1]:	-8637
▁adversary	-8638
▁agreement	-8639
▁battering	-8640
▁confident	-8641
▁threshold	-8642
Sennacherib	-8643
▁determined	-8644
▁discovered	-8645
▁divination	-8646
▁incantation	-8647
▁successfully	-8648
no	-8649
Con	-8650
apa	-8651
ded	-8652
dub	-8653
kir	-8654
mud	-8655
rog	-8656
tro	-8657
zaš	-8658
ḫru	-8659
▁3,	-8660
▁Eš	-8661
▁Ha	-8662
▁ra	-8663
0036	-8664
48',	-8665
Imbî	-8666
Milk	-8667
apel	-8668
base	-8669
born	-8670
both	-8671
fice	-8672
ipes	-8673
išnu	-8674
ištu	-8675
nant	-8676
obed	-8677
oriz	-8678
qepu	-8679
umma	-8680
urzu	-8681
uses	-8682
ēreš	-8683
▁Nuh	-8684
▁Pap	-8685
▁Ull	-8686
▁buy	-8687
▁tub	-8688
.97',	-8689
.99',	-8690
00475	-8691
00576	-8692
00599	-8693
00628	-8694
22458	-8695
23874	-8696
39711	-8697
Illil	-8698
Write	-8699
arrow	-8700
assar	-8701
ingly	-8702
kitti	-8703
parna	-8704
rison	-8705
▁(20)	-8706
▁25')	-8707
▁Addî	-8708
▁Last	-8709
▁Tamn	-8710
▁Zizî	-8711
▁bind	-8712
▁clam	-8713
▁deep	-8714
▁grow	-8715
▁harb	-8716
▁lift	-8717
▁papp	-8718
▁plat	-8719
▁robb	-8720
▁unre	-8721
▁wing	-8722
.134',	-8723
.50']:	-8724
003707	-8725
2.31',	-8726
2.39',	-8727
2.46',	-8728
22.6',	-8729
224441	-8730
224976	-8731
23.4',	-8732
237046	-8733
237537	-8734
237830	-8735
238020	-8736
238092	-8737
238098	-8738
238500	-8739
238727	-8740
238968	-8741
239023	-8742
240130	-8743
28.5',	-8744
3.39',	-8745
313520	-8746
313540	-8747
314068	-8748
314301	-8749
334326	-8750
334370	-8751
334435	-8752
334747	-8753
334837	-8754
335026	-8755
335346	-8756
335448	-8757
335631	-8758
335679	-8759
335733	-8760
335759	-8761
335829	-8762
335843	-8763
335889	-8764
336048	-8765
336158	-8766
336429	-8767
336526	-8768
34.5',	-8769
393640	-8770
396041	-8771
4.41',	-8772
4.8']:	-8773
43.2',	-8774
45.2',	-8775
51.2',	-8776
6.42',	-8777
6.7']:	-8778
65.2',	-8779
7.40',	-8780
7.9']:	-8781
80.2',	-8782
9.37',	-8783
900016	-8784
92.2',	-8785
Dakuri	-8786
ahunga	-8787
ekalli	-8788
orship	-8789
ušēzib	-8790
▁Kumme	-8791
▁Queen	-8792
▁overc	-8793
▁shown	-8794
▁troub	-8795
1'][3]:	-8796
7.13']:	-8797
71.13',	-8798
8.16']:	-8799
itimate	-8800
juniper	-8801
ourable	-8802
▁Etemen	-8803
▁Gurumu	-8804
▁consid	-8805
▁extrac	-8806
▁irginu	-8807
▁mounds	-8808
▁needed	-8809
▁refuse	-8810
▁silent	-8811
▁Šuanna	-8812
003230.4	-8813
003703.5	-8814
003705.9	-8815
333951.1	-8816
47'][1]:	-8817
59'][1]:	-8818
900016.1	-8819
coloured	-8820
ellation	-8821
▁bearers	-8822
▁distrib	-8823
▁diviner	-8824
▁sanctum	-8825
▁sceptre	-8826
▁treated	-8827
.15'][2]:	-8828
.35'][2]:	-8829
.71'][1]:	-8830
.81'][1]:	-8831
1.2'][1]:	-8832
opolassar	-8833
placement	-8834
▁Phrygian	-8835
▁almighty	-8836
▁annually	-8837
▁builders	-8838
▁confeder	-8839
▁grievous	-8840
▁observed	-8841
▁pastures	-8842
▁plotting	-8843
▁superior	-8844
▁trampled	-8845
006227.3',	-8846
1.24'][1]:	-8847
7.35'][1]:	-8848
7.36'][1]:	-8849
71.5'][1]:	-8850
8.32'][1]:	-8851
8.34'][1]:	-8852
8.35'][1]:	-8853
▁Cimmerian	-8854
▁completes	-8855
▁concerned	-8856
▁eršahunga	-8857
▁exorcists	-8858
▁flattened	-8859
▁fumigants	-8860
▁intercede	-8861
▁sacrifice	-8862
▁implements	-8863
▁yourselves	-8864
▁intercalary	-8865
▁lengthening	-8866
▁observation	-8867
▁processional	-8868
",	-8869
dâ	-8870
oe	-8871
rā	-8872
ḫi	-8873
.7(	-8874
007	-8875
399	-8876
All	-8877
aḫu	-8878
can	-8879
dec	-8880
div	-8881
fty	-8882
kud	-8883
nap	-8884
nir	-8885
oms	-8886
yth	-8887
īnu	-8888
īti	-8889
▁"(	-8890
▁Bi	-8891
▁Bā	-8892
▁Du	-8893
▁Pe	-8894
▁aš	-8895
.313	-8896
3955	-8897
3956	-8898
46',	-8899
62',	-8900
68',	-8901
74',	-8902
78',	-8903
83',	-8904
90',	-8905
99',	-8906
aisi	-8907
arsh	-8908
aššî	-8909
fall	-8910
ongh	-8911
ours	-8912
rant	-8913
urri	-8914
▁Acc	-8915
▁Ana	-8916
▁Azi	-8917
▁Don	-8918
▁Lub	-8919
▁Pur	-8920
▁exc	-8921
▁fun	-8922
▁lad	-8923
▁lux	-8924
▁non	-8925
.95',	-8926
00398	-8927
00471	-8928
00591	-8929
23697	-8930
23732	-8931
23770	-8932
23841	-8933
23847	-8934
23910	-8935
33443	-8936
33586	-8937
Dagan	-8938
ankal	-8939
betti	-8940
demon	-8941
elted	-8942
horse	-8943
ifest	-8944
iwork	-8945
manni	-8946
rehen	-8947
▁(651	-8948
▁Dadi	-8949
▁Dari	-8950
▁Egaš	-8951
▁Eṭir	-8952
▁Give	-8953
▁Once	-8954
▁aven	-8955
▁blow	-8956
▁cass	-8957
▁cler	-8958
▁dece	-8959
▁deer	-8960
▁dogs	-8961
▁expl	-8962
▁frag	-8963
▁mour	-8964
▁shak	-8965
▁suff	-8966
.51']:	-8967
0.22',	-8968
0.26',	-8969
003340	-8970
003500	-8971
005928	-8972
1.33',	-8973
22.2',	-8974
224439	-8975
237039	-8976
237044	-8977
237542	-8978
238427	-8979
238641	-8980
238810	-8981
240233	-8982
25.2',	-8983
313510	-8984
313624	-8985
313631	-8986
313745	-8987
313769	-8988
334099	-8989
334436	-8990
334441	-8991
334527	-8992
334535	-8993
334853	-8994
335169	-8995
335240	-8996
335431	-8997
335533	-8998
335572	-8999
335720	-9000
335867	-9001
335934	-9002
335938	-9003
336041	-9004
336115	-9005
336142	-9006
336732	-9007
336741	-9008
4.9']:	-9009
452648	-9010
46.5',	-9011
47.8',	-9012
49.5',	-9013
55.2',	-9014
6.9']:	-9015
61.2',	-9016
65.6',	-9017
66.2',	-9018
8.5']:	-9019
8.9']:	-9020
97.4',	-9021
closed	-9022
enance	-9023
origin	-9024
temple	-9025
▁Amman	-9026
▁Isana	-9027
▁Kakka	-9028
▁Scyth	-9029
▁Three	-9030
▁Waisi	-9031
▁altar	-9032
▁apart	-9033
▁consp	-9034
▁oblig	-9035
▁roads	-9036
▁sixth	-9037
▁skins	-9038
▁sworn	-9039
▁track	-9040
▁truly	-9041
▁Šamši	-9042
2.20']:	-9043
3.20']:	-9044
7'][4]:	-9045
7.11']:	-9046
8.11']:	-9047
Milkūti	-9048
atively	-9049
▁Review	-9050
▁bakers	-9051
▁blocks	-9052
▁dissol	-9053
▁ensure	-9054
▁except	-9055
▁finest	-9056
▁plague	-9057
▁please	-9058
▁vessel	-9059
003460.4	-9060
003489.1	-9061
003489.2	-9062
003491.1	-9063
003701.2	-9064
003708.1	-9065
003722.1	-9066
004035.1	-9067
004243.4	-9068
004622.1	-9069
223388.4	-9070
235242.6	-9071
238105.4	-9072
335389.4	-9073
335389.5	-9074
335608.6	-9075
335770.1	-9076
336230.5	-9077
336316.5	-9078
415762.4	-9079
48'][1]:	-9080
53'][1]:	-9081
69'][1]:	-9082
77'][1]:	-9083
90'][1]:	-9084
92'][1]:	-9085
95'][1]:	-9086
Mullissi	-9087
▁Gilzānu	-9088
▁Habasti	-9089
▁Mitinti	-9090
▁banquet	-9091
▁crushed	-9092
▁delayed	-9093
▁flashes	-9094
▁gateway	-9095
▁however	-9096
▁renewed	-9097
▁roasted	-9098
▁strongh	-9099
▁Šubrian	-9100
▁Ḫilakku	-9101
.17'][2]:	-9102
.19'][2]:	-9103
.91'][1]:	-9104
004243.21	-9105
▁Karkaššî	-9106
▁Tabalayu	-9107
▁blessing	-9108
▁carrying	-9109
▁conflict	-9110
▁conquest	-9111
▁dispatch	-9112
▁imprison	-9113
▁manifest	-9114
▁marching	-9115
▁merciful	-9116
▁reporter	-9117
2.35'][1]:	-9118
3.38'][1]:	-9119
4.31'][1]:	-9120
4.37'][1]:	-9121
5.28'][1]:	-9122
70.5'][1]:	-9123
71.4'][1]:	-9124
71.6'][1]:	-9125
9.23'][1]:	-9126
▁Egašankal	-9127
▁Urarṭians	-9128
▁handiwork	-9129
▁represent	-9130
▁utterance	-9131
▁Etemenanki	-9132
▁exercising	-9133
▁legitimate	-9134
▁overturned	-9135
▁repeatedly	-9136
▁terrifying	-9137
▁thoroughbred	-9138
,)	-9139
To	-9140
ga	-9141
.24	-9142
.6(	-9143
271	-9144
Zam	-9145
aši	-9146
cst	-9147
ism	-9148
jug	-9149
lif	-9150
nor	-9151
ths	-9152
tim	-9153
tly	-9154
udi	-9155
šim	-9156
ṣab	-9157
▁Ma	-9158
▁Op	-9159
▁je	-9160
54',	-9161
55',	-9162
70',	-9163
80',	-9164
89',	-9165
From	-9166
amar	-9167
ammu	-9168
angu	-9169
ania	-9170
aste	-9171
bank	-9172
dict	-9173
echo	-9174
elry	-9175
ingu	-9176
rock	-9177
urna	-9178
urtî	-9179
vess	-9180
ving	-9181
will	-9182
▁(30	-9183
▁(69	-9184
▁600	-9185
▁Are	-9186
▁Dim	-9187
▁Fav	-9188
▁Tom	-9189
▁amb	-9190
▁dur	-9191
▁fal	-9192
▁fit	-9193
▁hoe	-9194
▁peo	-9195
▁sie	-9196
.98',	-9197
00565	-9198
00567	-9199
23767	-9200
31366	-9201
aeans	-9202
eries	-9203
floor	-9204
ighed	-9205
irina	-9206
ister	-9207
psalm	-9208
ropri	-9209
still	-9210
ually	-9211
umptu	-9212
water	-9213
▁(645	-9214
▁Egal	-9215
▁Part	-9216
▁Sakk	-9217
▁Thus	-9218
▁barb	-9219
▁blue	-9220
▁cane	-9221
▁cart	-9222
▁crop	-9223
▁cust	-9224
▁ecst	-9225
▁ewes	-9226
▁haul	-9227
▁hide	-9228
▁milk	-9229
▁obed	-9230
▁perp	-9231
▁pest	-9232
▁plus	-9233
▁rock	-9234
▁sand	-9235
▁seas	-9236
▁torn	-9237
▁Šuma	-9238
▁Ḫard	-9239
.115',	-9240
.137',	-9241
.44']:	-9242
.47']:	-9243
004741	-9244
1.31',	-9245
1.34',	-9246
1.35',	-9247
2.7']:	-9248
21.6',	-9249
224950	-9250
236868	-9251
236977	-9252
237833	-9253
238175	-9254
238441	-9255
238790	-9256
239170	-9257
240128	-9258
313436	-9259
313822	-9260
313842	-9261
334340	-9262
334724	-9263
334770	-9264
334928	-9265
334944	-9266
335039	-9267
335050	-9268
335089	-9269
335101	-9270
335130	-9271
335135	-9272
335178	-9273
335371	-9274
335522	-9275
335589	-9276
335674	-9277
335731	-9278
335824	-9279
335832	-9280
335848	-9281
335894	-9282
335948	-9283
336101	-9284
336191	-9285
336523	-9286
336529	-9287
336572	-9288
336620	-9289
35.5',	-9290
38.2',	-9291
393636	-9292
393685	-9293
393853	-9294
4.42',	-9295
4.46',	-9296
4.7']:	-9297
40.7',	-9298
44.2',	-9299
452738	-9300
48.6',	-9301
55.6',	-9302
7.7']:	-9303
8.32',	-9304
8.37',	-9305
9.8']:	-9306
action	-9307
astern	-9308
aḫḫēšu	-9309
ranean	-9310
thirds	-9311
▁Ahabû	-9312
▁Enuma	-9313
▁Eriba	-9314
▁Iauta	-9315
▁Marad	-9316
▁Meḫru	-9317
▁Parrû	-9318
▁Qedar	-9319
▁agate	-9320
▁besee	-9321
▁catch	-9322
▁exhau	-9323
▁fully	-9324
▁harsh	-9325
▁langu	-9326
▁lunar	-9327
▁ornam	-9328
▁piece	-9329
▁reven	-9330
▁rolls	-9331
▁seats	-9332
▁shoot	-9333
▁sings	-9334
▁state	-9335
▁tremb	-9336
▁Šalim	-9337
2.14']:	-9338
3'][3]:	-9339
3.14']:	-9340
3.16']:	-9341
4.13']:	-9342
4.14']:	-9343
5.18']:	-9344
71.18',	-9345
9.12']:	-9346
Kubatti	-9347
courses	-9348
garment	-9349
lawsuit	-9350
▁Sirāra	-9351
▁Taklak	-9352
▁advice	-9353
▁commun	-9354
▁crafty	-9355
▁eighty	-9356
▁eldest	-9357
▁envoys	-9358
▁expand	-9359
▁flowed	-9360
▁joyful	-9361
▁kisses	-9362
▁market	-9363
▁narrow	-9364
▁plains	-9365
▁rained	-9366
▁reason	-9367
▁steady	-9368
▁strews	-9369
▁strugg	-9370
▁subjug	-9371
.5'][3]:	-9372
.8'][4]:	-9373
.9'][4]:	-9374
003334.2	-9375
003490.2	-9376
003490.3	-9377
003705.3	-9378
003710.4	-9379
005400.4	-9380
08'][1]:	-9381
224957.4	-9382
313432.6	-9383
333951.2	-9384
333951.3	-9385
335387.4	-9386
335681.6	-9387
49'][1]:	-9388
82'][1]:	-9389
97'][1]:	-9390
99'][1]:	-9391
original	-9392
▁Ebabbar	-9393
▁Sarduri	-9394
▁blesses	-9395
▁captive	-9396
▁commiss	-9397
▁cutting	-9398
▁disobed	-9399
▁drawing	-9400
▁freedom	-9401
▁holding	-9402
▁inexper	-9403
▁inflict	-9404
▁invited	-9405
▁kidneys	-9406
▁leaving	-9407
▁measure	-9408
▁pasture	-9409
▁peoples	-9410
▁serving	-9411
▁weighed	-9412
▁Ḫamrānu	-9413
.11'][4]:	-9414
.23'][3]:	-9415
.98'][1]:	-9416
priestess	-9417
▁Tomorrow	-9418
▁appoints	-9419
▁detailed	-9420
▁ecstatic	-9421
▁formerly	-9422
▁insolent	-9423
▁intellig	-9424
▁overlaid	-9425
▁platform	-9426
▁receives	-9427
▁revolted	-9428
▁summoned	-9429
▁totality	-9430
1.28'][1]:	-9431
1.29'][1]:	-9432
2.36'][1]:	-9433
21.4'][1]:	-9434
3.31'][1]:	-9435
3.32'][1]:	-9436
3.36'][1]:	-9437
3.37'][1]:	-9438
46.4'][1]:	-9439
6.39'][1]:	-9440
6.41'][1]:	-9441
7.34'][1]:	-9442
7.38'][1]:	-9443
9.32'][1]:	-9444
Esarhaddon	-9445
muballissu	-9446
šallimanni	-9447
▁certainly	-9448
▁container	-9449
▁dispersal	-9450
▁hostility	-9451
▁irrigated	-9452
▁leftovers	-9453
▁positions	-9454
▁prisoners	-9455
▁relatives	-9456
71.12'][1]:	-9457
▁considered	-9458
▁contingent	-9459
▁personally	-9460
▁annihilated	-9461
▁steadfastly	-9462
▁Nabopolassar	-9463
▁confederation	-9464
▁constellation	-9465
▁superintendent	-9466
'"	-9467
':	-9468
-)	-9469
100	-9470
424	-9471
aka	-9472
aly	-9473
ete	-9474
hee	-9475
htu	-9476
ibr	-9477
iln	-9478
oci	-9479
pan	-9480
paš	-9481
sal	-9482
▁1-	-9483
▁38	-9484
▁BC	-9485
▁Bū	-9486
▁Ra	-9487
▁Ya	-9488
▁ni	-9489
19',	-9490
2960	-9491
73',	-9492
98',	-9493
Dadi	-9494
Gula	-9495
Sang	-9496
apsi	-9497
arms	-9498
atar	-9499
attu	-9500
avil	-9501
circ	-9502
duce	-9503
ires	-9504
itch	-9505
išpu	-9506
just	-9507
like	-9508
lled	-9509
oute	-9510
pers	-9511
▁700	-9512
▁800	-9513
▁Cit	-9514
▁Edu	-9515
▁Kut	-9516
▁Nuš	-9517
▁Old	-9518
▁Qir	-9519
▁abs	-9520
▁ann	-9521
▁bas	-9522
▁dap	-9523
▁dir	-9524
▁inl	-9525
▁jug	-9526
▁lik	-9527
▁pil	-9528
▁pub	-9529
.96',	-9530
00331	-9531
00537	-9532
00545	-9533
00577	-9534
23842	-9535
31397	-9536
39949	-9537
45271	-9538
45285	-9539
abitu	-9540
aniye	-9541
dubbu	-9542
emony	-9543
ibūti	-9544
image	-9545
ittar	-9546
nāṣir	-9547
obbed	-9548
reans	-9549
river	-9550
sheep	-9551
▁30')	-9552
▁Anun	-9553
▁Atta	-9554
▁Dais	-9555
▁Even	-9556
▁Kenî	-9557
▁Kusu	-9558
▁Mali	-9559
▁Nash	-9560
▁Sarr	-9561
▁Siri	-9562
▁Star	-9563
▁Till	-9564
▁amid	-9565
▁didn	-9566
▁flee	-9567
▁kiln	-9568
▁pred	-9569
▁spec	-9570
▁ways	-9571
▁womb	-9572
.111',	-9573
.113',	-9574
.118',	-9575
00.5',	-9576
003233	-9577
003237	-9578
003359	-9579
003524	-9580
003709	-9581
003760	-9582
003950	-9583
2.3']:	-9584
224437	-9585
224960	-9586
237195	-9587
237327	-9588
237334	-9589
237560	-9590
237900	-9591
238524	-9592
238655	-9593
238844	-9594
239003	-9595
239176	-9596
239313	-9597
239328	-9598
240334	-9599
25.5',	-9600
27.6',	-9601
3.41',	-9602
3.7']:	-9603
313929	-9604
314336	-9605
314340	-9606
333960	-9607
334314	-9608
334797	-9609
334818	-9610
334860	-9611
335006	-9612
335045	-9613
335060	-9614
335345	-9615
335436	-9616
335445	-9617
335621	-9618
335658	-9619
335675	-9620
335741	-9621
335768	-9622
335858	-9623
335937	-9624
336054	-9625
336066	-9626
336070	-9627
336080	-9628
336100	-9629
336176	-9630
336633	-9631
336640	-9632
336673	-9633
336736	-9634
336760	-9635
39.5',	-9636
48.8',	-9637
49.7',	-9638
6.3']:	-9639
6.44',	-9640
6.46',	-9641
61.9',	-9642
67.6',	-9643
68.2',	-9644
Palace	-9645
akannu	-9646
assion	-9647
eroles	-9648
former	-9649
ighing	-9650
ingers	-9651
volent	-9652
▁Image	-9653
▁Nanna	-9654
▁Natnu	-9655
▁Rival	-9656
▁alert	-9657
▁exact	-9658
▁frost	-9659
▁funer	-9660
▁ident	-9661
▁pavil	-9662
▁prays	-9663
▁ramps	-9664
▁route	-9665
▁scorp	-9666
▁spate	-9667
▁start	-9668
▁suppl	-9669
▁swept	-9670
▁swift	-9671
▁turns	-9672
▁yield	-9673
2.13']:	-9674
5.14']:	-9675
6.11']:	-9676
71.10',	-9677
9.11']:	-9678
closure	-9679
quently	-9680
▁(645).	-9681
▁Hamath	-9682
▁Vizier	-9683
▁arrive	-9684
▁chapel	-9685
▁divide	-9686
▁figure	-9687
▁flocks	-9688
▁forest	-9689
▁jewell	-9690
▁loaded	-9691
▁pestil	-9692
▁public	-9693
▁served	-9694
▁shaken	-9695
▁tanner	-9696
▁travel	-9697
003461.2	-9698
003489.5	-9699
003490.1	-9700
003491.7	-9701
003703.4	-9702
003707.3	-9703
003708.2	-9704
003708.3	-9705
003710.7	-9706
005400.2	-9707
005983.9	-9708
006302.4	-9709
006302.6	-9710
223388.5	-9711
237107.4	-9712
237452.4	-9713
282609.1	-9714
313432.4	-9715
313452.4	-9716
313492.5	-9717
334390.4	-9718
335269.4	-9719
335330.3	-9720
335408.4	-9721
335542.2	-9722
335606.5	-9723
335678.1	-9724
335681.5	-9725
335701.4	-9726
335859.1	-9727
336245.4	-9728
62'][1]:	-9729
85'][1]:	-9730
86'][1]:	-9731
building	-9732
▁However	-9733
▁Nuhšaya	-9734
▁bedrock	-9735
▁believe	-9736
▁copings	-9737
▁daprānu	-9738
▁fashion	-9739
▁helpers	-9740
▁install	-9741
▁jewelry	-9742
▁knobbed	-9743
▁leading	-9744
▁looking	-9745
▁praised	-9746
▁praises	-9747
▁revived	-9748
▁stopped	-9749
▁uttered	-9750
▁worship	-9751
.16'][2]:	-9752
.29'][2]:	-9753
.97'][1]:	-9754
285518.21	-9755
terranean	-9756
▁Asalluhi	-9757
▁Naṣibina	-9758
▁Urzuhina	-9759
▁examined	-9760
▁litigate	-9761
▁marriage	-9762
▁securing	-9763
▁uprooted	-9764
▁Ḫardišpu	-9765
0.21'][1]:	-9766
1.31'][1]:	-9767
21.5'][1]:	-9768
4.41'][1]:	-9769
5.32'][1]:	-9770
6.37'][1]:	-9771
6.43'][1]:	-9772
7.37'][1]:	-9773
7.39'][1]:	-9774
8.31'][1]:	-9775
9.28'][1]:	-9776
residences	-9777
▁Performed	-9778
▁firmament	-9779
▁fragrance	-9780
▁ornaments	-9781
▁yesterday	-9782
ternatively	-9783
ursagkalama	-9784
▁casseroles	-9785
▁compassion	-9786
▁difficulty	-9787
▁harbakannu	-9788
▁irrigation	-9789
▁manageress	-9790
▁renovation	-9791
▁supervisor	-9792
▁administrat	-9793
▁outstanding	-9794
▁interruption	-9795
▁pomegranates	-9796
gy	-9797
pī	-9798
)?"	-9799
258	-9800
adâ	-9801
auš	-9802
bis	-9803
dag	-9804
gam	-9805
iḫu	-9806
mmu	-9807
rul	-9808
tle	-9809
uku	-9810
ura	-9811
uts	-9812
▁,"	-9813
▁5,	-9814
▁Ep	-9815
▁Ib	-9816
▁pi	-9817
87',	-9818
acle	-9819
apes	-9820
ator	-9821
aṣir	-9822
cons	-9823
endû	-9824
fort	-9825
illu	-9826
itor	-9827
namm	-9828
reši	-9829
tīya	-9830
ukki	-9831
wers	-9832
ēriš	-9833
šaru	-9834
▁(65	-9835
▁Add	-9836
▁Haš	-9837
▁Ila	-9838
▁Kib	-9839
▁Pro	-9840
▁Rib	-9841
▁Tan	-9842
▁ate	-9843
▁aya	-9844
▁cry	-9845
▁gaz	-9846
▁inf	-9847
▁paš	-9848
▁sen	-9849
▁Šid	-9850
00462	-9851
00561	-9852
23739	-9853
23785	-9854
33422	-9855
33596	-9856
39839	-9857
ality	-9858
arian	-9859
asons	-9860
ature	-9861
bound	-9862
claim	-9863
eenth	-9864
essed	-9865
idalu	-9866
ifies	-9867
isons	-9868
larim	-9869
lypty	-9870
plant	-9871
urten	-9872
usion	-9873
ṣirtu	-9874
▁(25)	-9875
▁Araḫ	-9876
▁Bact	-9877
▁Bari	-9878
▁Gibr	-9879
▁Humb	-9880
▁Kumm	-9881
▁Minu	-9882
▁Pill	-9883
▁Send	-9884
▁beds	-9885
▁dren	-9886
▁fold	-9887
▁fors	-9888
▁ghee	-9889
▁girl	-9890
▁hair	-9891
▁heap	-9892
▁inqu	-9893
▁join	-9894
▁legs	-9895
▁loin	-9896
▁pays	-9897
▁pile	-9898
▁slay	-9899
▁stud	-9900
▁šēdu	-9901
.112',	-9902
.114',	-9903
▁	-9904
e	-9905
t	-9906
a	-9907
o	-9908
n	-9909
i	-9910
'	-9911
3	-9912
r	-9913
h	-9914
s	-9915
.	-9916
d	-9917
,	-9918
l	-9919
1	-9920
[	-9921
]	-9922
u	-9923
2	-9924
P	-9925
m	-9926
f	-9927
0	-9928
5	-9929
4	-9930
g	-9931
y	-9932
c	-9933
6	-9934
:	-9935
7	-9936
p	-9937
w	-9938
8	-9939
b	-9940
9	-9941
k	-9942
)	-9943
(	-9944
v	-9945
I	-9946
-	-9947
š	-9948
A	-9949
Q	-9950
N	-9951
T	-9952
;	-9953
M	-9954
W	-9955
B	-9956
S	-9957
x	-9958
E	-9959
"	-9960
q	-9961
û	-9962
!	-9963
H	-9964
Š	-9965
z	-9966
D	-9967
—	-9968
G	-9969
j	-9970
K	-9971
ī	-9972
L	-9973
ā	-9974
U	-9975
?	-9976
ṣ	-9977
C	-9978
î	-9979
ḫ	-9980
F	-9981
“	-9982
O	-9983
R	-9984
”	-9985
Y	-9986
ē	-9987
Ḫ	-9988
X	-9989
ṭ	-9990
ū	-9991
Z	-9992
V	-9993
â	-9994
ʾ	-9995
/	-9996
