<unk>	0
<s>	0
</s>	0
▁t	-0
he	-1
▁the	-2
▁o	-3
in	-4
an	-5
▁of	-6
and	-7
er	-8
▁s	-9
..	-10
...	-11
▁w	-12
▁m	-13
it	-14
▁...	-15
re	-16
▁a	-17
ing	-18
or	-19
▁(	-20
on	-21
▁l	-22
▁h	-23
ar	-24
is	-25
▁c	-26
es	-27
ed	-28
at	-29
▁b	-30
en	-31
▁f	-32
ou	-33
▁and	-34
▁g	-35
▁I	-36
al	-37
▁p	-38
▁to	-39
▁d	-40
▁k	-41
▁king	-42
▁A	-43
il	-44
▁in	-45
▁my	-46
ur	-47
ro	-48
ad	-49
ay	-50
ord	-51
▁go	-52
ri	-53
▁T	-54
le	-55
▁wh	-56
as	-57
▁lord	-58
▁he	-59
ab	-60
ce	-61
▁N	-62
am	-63
▁n	-64
el	-65
ver	-66
▁th	-67
▁y	-68
▁his	-69
th	-70
▁M	-71
ess	-72
ir	-73
▁be	-74
om	-75
ent	-76
id	-77
ve	-78
▁re	-79
▁god	-80
ot	-81
im	-82
▁e	-83
▁you	-84
▁W	-85
▁it	-86
▁is	-87
▁The	-88
ill	-89
ith	-90
the	-91
ion	-92
ic	-93
se	-94
un	-95
▁on	-96
▁for	-97
▁who	-98
st	-99
ss	-100
▁B	-101
▁land	-102
▁with	-103
ld	-104
ard	-105
ow	-106
ut	-107
▁S	-108
ul	-109
et	-110
gh	-111
ity	-112
all	-113
▁me	-114
▁1	-115
▁st	-116
ac	-117
rom	-118
šš	-119
▁E	-120
ant	-121
▁will	-122
ness	-123
▁an	-124
ak	-125
ššur	-126
ght	-127
▁or	-128
od	-129
itness	-130
▁as	-131
▁sh	-132
ers	-133
▁Witness	-134
ap	-135
▁that	-136
▁your	-137
oun	-138
ple	-139
▁Aššur	-140
▁not	-141
est	-142
▁al	-143
ain	-144
ct	-145
ru	-146
ave	-147
▁from	-148
reat	-149
▁com	-150
▁their	-151
▁city	-152
um	-153
▁se	-154
▁them	-155
▁him	-156
▁,	-157
em	-158
abû	-159
ace	-160
up	-161
),	-162
▁day	-163
▁Ass	-164
▁H	-165
▁Š	-166
ag	-167
iv	-168
▁gods	-169
▁Nabû	-170
▁pl	-171
▁are	-172
▁had	-173
▁they	-174
ore	-175
▁con	-176
qu	-177
▁great	-178
ig	-179
aš	-180
▁son	-181
yri	-182
▁—	-183
▁have	-184
us	-185
▁Assyri	-186
ich	-187
▁de	-188
▁D	-189
ation	-190
uk	-191
ly	-192
ear	-193
▁which	-194
ch	-195
ther	-196
to	-197
▁r	-198
ip	-199
▁Assyria	-200
erv	-201
▁"	-202
▁its	-203
if	-204
▁one	-205
▁v	-206
res	-207
▁all	-208
▁G	-209
▁serv	-210
▁2	-211
one	-212
▁has	-213
▁pe	-214
ter	-215
ive	-216
ep	-217
ate	-218
ount	-219
▁servant	-220
▁at	-221
ong	-222
▁ch	-223
ame	-224
ine	-225
▁K	-226
ople	-227
av	-228
wn	-229
ies	-230
ell	-231
▁up	-232
▁U	-233
her	-234
▁people	-235
▁May	-236
▁ab	-237
▁she	-238
ke	-239
our	-240
ood	-241
pp	-242
▁If	-243
▁un	-244
arduk	-245
ub	-246
der	-247
▁shall	-248
▁br	-249
te	-250
▁ex	-251
ors	-252
ge	-253
rib	-254
ted	-255
▁do	-256
▁en	-257
ould	-258
▁L	-259
out	-260
▁He	-261
▁by	-262
▁pro	-263
able	-264
urn	-265
▁Šam	-266
▁C	-267
ib	-268
ann	-269
▁ro	-270
ade	-271
ol	-272
▁'	-273
ah	-274
▁P	-275
ure	-276
▁Marduk	-277
▁pr	-278
os	-279
fore	-280
alace	-281
▁this	-282
▁NN	-283
▁sp	-284
▁was	-285
▁Šamaš	-286
ight	-287
▁dis	-288
▁off	-289
▁made	-290
▁there	-291
▁wor	-292
▁over	-293
end	-294
ated	-295
▁we	-296
ide	-297
▁To	-298
▁out	-299
▁before	-300
dad	-301
ought	-302
ound	-303
▁sil	-304
).	-305
hed	-306
▁may	-307
▁bl	-308
ans	-309
▁am	-310
▁comm	-311
ie	-312
▁silver	-313
ouse	-314
ous	-315
▁In	-316
▁bec	-317
▁ins	-318
▁min	-319
▁ag	-320
▁3	-321
▁ar	-322
ire	-323
aid	-324
ty	-325
▁year	-326
▁so	-327
▁whe	-328
ign	-329
tar	-330
II	-331
itto	-332
ment	-333
▁mo	-334
su	-335
ake	-336
art	-337
onth	-338
▁command	-339
oin	-340
yl	-341
alth	-342
▁ent	-343
ere	-344
ari	-345
▁x	-346
reg	-347
for	-348
ered	-349
ylon	-350
abylon	-351
▁about	-352
▁“	-353
▁;	-354
▁health	-355
▁As	-356
ince	-357
ho	-358
▁An	-359
▁qu	-360
ast	-361
▁Bel	-362
▁again	-363
▁should	-364
vern	-365
▁ditto	-366
▁say	-367
▁Iš	-368
rit	-369
▁F	-370
ck	-371
▁palace	-372
▁man	-373
ities	-374
▁le	-375
ance	-376
own	-377
ike	-378
▁O	-379
▁Babylon	-380
▁R	-381
ons	-382
▁app	-383
ra	-384
ect	-385
them	-386
of	-387
▁govern	-388
ull	-389
▁sheep	-390
rote	-391
▁j	-392
▁ad	-393
▁Ištar	-394
ok	-395
▁wrote	-396
▁fl	-397
▁Ar	-398
▁house	-399
▁Adad	-400
▁per	-401
▁moon	-402
▁tem	-403
▁gr	-404
att	-405
ps	-406
uṣ	-407
▁El	-408
▁set	-409
▁pres	-410
uil	-411
▁brought	-412
▁against	-413
▁let	-414
ands	-415
▁like	-416
▁place	-417
ice	-418
▁kings	-419
ning	-420
ry	-421
ome	-422
▁div	-423
▁co	-424
▁5	-425
yal	-426
▁ac	-427
ings	-428
▁come	-429
tu	-430
▁tim	-431
▁lo	-432
▁10	-433
form	-434
ud	-435
ence	-436
ort	-437
šar	-438
din	-439
▁Good	-440
▁well	-441
aw	-442
▁did	-443
▁mount	-444
▁cro	-445
▁whom	-446
uṣur	-447
▁into	-448
▁enem	-449
eld	-450
pt	-451
▁cities	-452
▁temple	-453
ress	-454
au	-455
ens	-456
▁prince	-457
▁Y	-458
▁were	-459
ather	-460
kk	-461
▁fi	-462
▁ri	-463
▁governor	-464
orses	-465
▁gold	-466
▁wat	-467
▁They	-468
dess	-469
▁Ḫ	-470
▁royal	-471
▁cont	-472
age	-473
gether	-474
▁whose	-475
▁time	-476
▁goddess	-477
ta	-478
ult	-479
very	-480
▁bless	-481
ony	-482
ack	-483
▁4	-484
▁horses	-485
▁down	-486
▁Es	-487
▁name	-488
iz	-489
pl	-490
▁lands	-491
▁sent	-492
▁can	-493
▁writ	-494
ite	-495
▁ne	-496
▁no	-497
app	-498
▁Ur	-499
my	-500
▁good	-501
ions	-502
▁divin	-503
šum	-504
▁upon	-505
▁what	-506
red	-507
cer	-508
▁mountain	-509
▁world	-510
crib	-511
▁together	-512
unu	-513
▁Elam	-514
▁plac	-515
▁give	-516
bel	-517
ife	-518
ose	-519
▁minas	-520
iver	-521
▁tro	-522
per	-523
▁bro	-524
▁tw	-525
▁see	-526
regard	-527
ban	-528
ops	-529
ish	-530
▁thr	-531
▁Dis	-532
▁pre	-533
▁ret	-534
ious	-535
▁troops	-536
▁divinity	-537
ust	-538
▁Disregard	-539
lit	-540
▁Nine	-541
veh	-542
▁im	-543
▁any	-544
▁bo	-545
▁buil	-546
▁ep	-547
ist	-548
ath	-549
ft	-550
man	-551
▁men	-552
▁Nineveh	-553
ates	-554
▁our	-555
lil	-556
ariot	-557
ial	-558
▁des	-559
▁kn	-560
▁days	-561
▁Z	-562
ind	-563
gal	-564
▁ext	-565
▁En	-566
▁chariot	-567
pos	-568
▁field	-569
uard	-570
▁own	-571
▁epony	-572
▁return	-573
ase	-574
arri	-575
-...	-576
▁fav	-577
ass	-578
ief	-579
ger	-580
▁been	-581
▁str	-582
▁perform	-583
urta	-584
cerning	-585
▁Akk	-586
arh	-587
▁father	-588
add	-589
hen	-590
▁On	-591
▁send	-592
▁sons	-593
attle	-594
00	-595
nu	-596
▁make	-597
▁Now	-598
▁conqu	-599
▁lit	-600
▁mess	-601
▁fe	-602
hes	-603
▁est	-604
suit	-605
ii	-606
▁crown	-607
▁brother	-608
▁become	-609
▁month	-610
▁dist	-611
▁work	-612
▁sub	-613
▁fort	-614
hip	-615
▁bre	-616
▁cl	-617
▁Month	-618
way	-619
▁her	-620
pa	-621
mu	-622
▁fir	-623
▁Akkad	-624
iš	-625
ais	-626
▁Se	-627
awsuit	-628
oney	-629
ares	-630
ched	-631
▁placed	-632
ars	-633
▁strong	-634
ments	-635
be	-636
addon	-637
▁said	-638
arhaddon	-639
▁town	-640
▁but	-641
▁enemy	-642
5)	-643
▁lawsuit	-644
ail	-645
▁cap	-646
▁took	-647
▁cam	-648
iss	-649
led	-650
▁saying	-651
▁Esarhaddon	-652
fter	-653
▁comple	-654
▁know	-655
iddin	-656
▁dest	-657
sel	-658
▁sun	-659
ār	-660
▁favor	-661
▁ter	-662
ergal	-663
▁From	-664
ach	-665
▁Enlil	-666
aya	-667
▁def	-668
▁res	-669
▁us	-670
du	-671
inurta	-672
▁built	-673
ni	-674
its	-675
īt	-676
▁life	-677
▁bel	-678
▁heav	-679
▁count	-680
itu	-681
anni	-682
ki	-683
▁bri	-684
."	-685
▁reg	-686
▁battle	-687
▁chief	-688
▁far	-689
▁dec	-690
▁eponym	-691
▁rem	-692
unuch	-693
ely	-694
els	-695
▁giv	-696
▁-	-697
▁6	-698
mer	-699
▁ho	-700
▁acc	-701
▁came	-702
ssar	-703
▁found	-704
ov	-705
▁two	-706
▁eunuch	-707
▁Nergal	-708
az	-709
ku	-710
As	-711
▁Let	-712
tal	-713
▁col	-714
▁gave	-715
▁long	-716
▁pers	-717
Aššur	-718
other	-719
▁lords	-720
anu	-721
▁mar	-722
')	-723
0)	-724
ten	-725
▁wom	-726
thing	-727
▁word	-728
▁offer	-729
▁conquered	-730
lean	-731
ruct	-732
▁scrib	-733
pe	-734
▁messen	-735
ody	-736
▁adj	-737
▁Bīt	-738
ever	-739
▁spe	-740
▁wall	-741
ary	-742
▁now	-743
▁when	-744
▁total	-745
▁heart	-746
ird	-747
▁prov	-748
ya	-749
▁away	-750
iddina	-751
his	-752
oke	-753
ards	-754
ished	-755
oining	-756
▁sup	-757
port	-758
▁fore	-759
▁water	-760
▁tr	-761
de	-762
▁left	-763
The	-764
▁sw	-765
so	-766
în	-767
▁order	-768
me	-769
▁feet	-770
▁presence	-771
annu	-772
ia	-773
ick	-774
ough	-775
▁adjoining	-776
ged	-777
hal	-778
▁Con	-779
▁tre	-780
▁might	-781
urned	-782
cl	-783
▁har	-784
▁pur	-785
▁money	-786
aught	-787
ady	-788
▁sur	-789
▁four	-790
▁hect	-791
ile	-792
umb	-793
▁foundation	-794
▁Ab	-795
▁att	-796
▁mina	-797
uš	-798
▁Q	-799
ian	-800
▁When	-801
▁under	-802
▁appoin	-803
ied	-804
▁ask	-805
lu	-806
▁ru	-807
▁Sîn	-808
osit	-809
▁scribe	-810
▁present	-811
▁pri	-812
urban	-813
hat	-814
ened	-815
▁those	-816
▁Palace	-817
▁Concerning	-818
pic	-819
ipal	-820
ute	-821
self	-822
▁You	-823
roy	-824
šumu	-825
▁rest	-826
▁inside	-827
▁throne	-828
urbanipal	-829
rac	-830
▁capt	-831
▁vice	-832
▁destroy	-833
▁At	-834
▁ox	-835
▁bow	-836
▁const	-837
▁hands	-838
▁ear	-839
ful	-840
wer	-841
▁these	-842
▁ev	-843
regent	-844
ents	-845
▁happ	-846
▁sold	-847
▁carri	-848
ased	-849
this	-850
šarru	-851
▁very	-852
igation	-853
▁su	-854
▁ob	-855
uture	-856
are	-857
inger	-858
▁whether	-859
▁messenger	-860
arr	-861
who	-862
▁pray	-863
arge	-864
▁firm	-865
▁side	-866
▁future	-867
uri	-868
▁pay	-869
▁unc	-870
▁servants	-871
ired	-872
▁put	-873
▁rul	-874
orn	-875
▁Who	-876
▁tru	-877
▁does	-878
▁mid	-879
▁then	-880
ti	-881
fect	-882
▁gl	-883
▁ans	-884
▁hectares	-885
atu	-886
ts	-887
ces	-888
na	-889
▁7	-890
hy	-891
con	-892
pper	-893
▁Mount	-894
ree	-895
▁defe	-896
▁contrac	-897
▁went	-898
▁written	-899
een	-900
▁sett	-901
▁litigation	-902
fic	-903
▁weap	-904
▁unclean	-905
ēl	-906
ahhe	-907
ats	-908
Adad	-909
well	-910
▁kill	-911
▁table	-912
ject	-913
then	-914
▁favorable	-915
iq	-916
▁bring	-917
▁guard	-918
▁Ah	-919
ower	-920
eep	-921
til	-922
under	-923
abl	-924
▁tal	-925
▁hand	-926
▁hear	-927
▁posit	-928
▁right	-929
▁po	-930
▁seen	-931
▁commander	-932
nac	-933
cri	-934
und	-935
▁old	-936
▁army	-937
▁stre	-938
row	-939
ennac	-940
herib	-941
ennacherib	-942
▁cut	-943
oty	-944
outh	-945
ron	-946
▁heaven	-947
!"	-948
▁nor	-949
ribute	-950
▁other	-951
ng	-952
ams	-953
ispic	-954
▁entire	-955
▁20	-956
▁answer	-957
ani	-958
med	-959
arru	-960
▁back	-961
▁take	-962
▁extispic	-963
li	-964
ayu	-965
▁rece	-966
▁extispicy	-967
ory	-968
bela	-969
▁brick	-970
▁Arbela	-971
cript	-972
▁booty	-973
▁Ninurta	-974
ks	-975
ānu	-976
▁plunder	-977
ise	-978
▁carried	-979
▁gar	-980
▁oil	-981
▁keep	-982
▁Sennacherib	-983
ll	-984
ceed	-985
▁heard	-986
▁8	-987
▁tribute	-988
▁Sin	-989
rict	-990
▁Ash	-991
▁given	-992
▁where	-993
▁sm	-994
▁gate	-995
▁being	-996
erc	-997
alled	-998
III	-999
▁Be	-1000
round	-1001
▁also	-1002
bi	-1003
sp	-1004
ili	-1005
▁rev	-1006
ured	-1007
▁dep	-1008
?"	-1009
oy	-1010
▁Will	-1011
▁inscript	-1012
▁after	-1013
ale	-1014
▁30	-1015
▁surround	-1016
▁fo	-1017
▁inc	-1018
▁shek	-1019
▁Assurbanipal	-1020
▁oxen	-1021
▁pass	-1022
inu	-1023
low	-1024
men	-1025
ived	-1026
Issar	-1027
▁district	-1028
▁Ad	-1029
▁tak	-1030
▁every	-1031
▁mountains	-1032
igh	-1033
issu	-1034
▁cour	-1035
▁Whoever	-1036
mb	-1037
aps	-1038
ible	-1039
▁seah	-1040
▁orac	-1041
▁complet	-1042
ives	-1043
▁road	-1044
▁estate	-1045
▁brothers	-1046
”)	-1047
eser	-1048
▁hal	-1049
▁years	-1050
▁without	-1051
cc	-1052
omes	-1053
▁ram	-1054
▁daught	-1055
eds	-1056
▁cult	-1057
▁We	-1058
▁kingship	-1059
▁if	-1060
▁(...	-1061
▁seal	-1062
▁inst	-1063
quired	-1064
▁mouth	-1065
▁mighty	-1066
):	-1067
ipp	-1068
ular	-1069
▁dwell	-1070
▁weapons	-1071
ṣir	-1072
▁vill	-1073
▁speak	-1074
▁op	-1075
▁reign	-1076
▁copper	-1077
▁univer	-1078
▁becomes	-1079
▁country	-1080
▁through	-1081
ause	-1082
ians	-1083
being	-1084
▁among	-1085
▁priest	-1086
▁enemies	-1087
▁person	-1088
▁destroyed	-1089
▁surrounded	-1090
old	-1091
ring	-1092
ḫu	-1093
▁resid	-1094
▁15	-1095
cted	-1096
▁mag	-1097
▁belong	-1098
umer	-1099
▁ten	-1100
▁body	-1101
▁earth	-1102
▁universe	-1103
ew	-1104
▁dr	-1105
▁sl	-1106
▁ass	-1107
▁here	-1108
▁became	-1109
ches	-1110
▁owner	-1111
▁establ	-1112
ront	-1113
▁dev	-1114
▁vis	-1115
guard	-1116
▁gard	-1117
▁garments	-1118
ix	-1119
▁paid	-1120
herd	-1121
▁magn	-1122
ug	-1123
▁dil	-1124
▁tow	-1125
▁Mull	-1126
idated	-1127
▁watch	-1128
▁woman	-1129
ša	-1130
apidated	-1131
▁opp	-1132
▁reb	-1133
pherd	-1134
▁wine	-1135
▁Mannu	-1136
▁completely	-1137
▁dilapidated	-1138
▁fa	-1139
▁rais	-1140
▁yoke	-1141
▁front	-1142
arg	-1143
ner	-1144
perty	-1145
posed	-1146
▁entered	-1147
▁shepherd	-1148
ants	-1149
▁Seal	-1150
ressed	-1151
▁purch	-1152
▁Mullissu	-1153
oc	-1154
iii	-1155
▁evil	-1156
▁large	-1157
000	-1158
▁14	-1159
ollow	-1160
▁glad	-1161
▁head	-1162
▁turned	-1163
▁received	-1164
wor	-1165
▁dispos	-1166
di	-1167
ery	-1168
▁talents	-1169
,000	-1170
▁gif	-1171
▁stand	-1172
iba	-1173
▁river	-1174
▁disposal	-1175
otal	-1176
ven	-1177
ves	-1178
ited	-1179
▁sac	-1180
▁With	-1181
Marduk	-1182
▁enter	-1183
▁inscrib	-1184
cend	-1185
▁purchased	-1186
whe	-1187
▁numb	-1188
▁bought	-1189
▁design	-1190
aḫ	-1191
▁sc	-1192
▁sing	-1193
arters	-1194
▁mak	-1195
ik	-1196
▁beer	-1197
▁small	-1198
▁Am	-1199
▁Total	-1200
▁follow	-1201
▁)	-1202
▁night	-1203
▁contracted	-1204
▁marched	-1205
▁inscribed	-1206
▁offerings	-1207
.'	-1208
▁Eg	-1209
▁acquired	-1210
ally	-1211
▁bar	-1212
uring	-1213
▁conf	-1214
▁until	-1215
▁quarters	-1216
▁treat	-1217
▁imposed	-1218
▁red	-1219
▁would	-1220
dle	-1221
iled	-1222
▁just	-1223
▁shekels	-1224
▁ple	-1225
ue	-1226
ws	-1227
▁Bēl	-1228
▁cub	-1229
▁write	-1230
▁Na	-1231
ites	-1232
▁And	-1233
ītu	-1234
▁fled	-1235
▁seiz	-1236
▁bodyguard	-1237
ze	-1238
ved	-1239
over	-1240
▁hom	-1241
ma	-1242
▁sacri	-1243
ced	-1244
▁Anu	-1245
▁rec	-1246
▁seed	-1247
▁It	-1248
▁Any	-1249
▁cross	-1250
▁visible	-1251
▁captured	-1252
▁ir	-1253
▁eat	-1254
▁Gate	-1255
▁stands	-1256
als	-1257
ank	-1258
with	-1259
▁many	-1260
▁prev	-1261
▁number	-1262
ders	-1263
▁dri	-1264
allim	-1265
▁best	-1266
▁mine	-1267
▁River	-1268
▁aband	-1269
hort	-1270
miss	-1271
▁cohort	-1272
adi	-1273
ges	-1274
▁Is	-1275
oid	-1276
antly	-1277
▁fear	-1278
▁bread	-1279
▁abandon	-1280
eru	-1281
ley	-1282
▁Bit	-1283
▁fire	-1284
nār	-1285
ārī	-1286
▁Bal	-1287
▁don	-1288
▁goes	-1289
nārārī	-1290
▁village	-1291
▁property	-1292
ones	-1293
oved	-1294
▁Esag	-1295
▁case	-1296
▁query	-1297
off	-1298
▁himself	-1299
wh	-1300
▁inter	-1301
▁plundered	-1302
īn	-1303
ṭu	-1304
amb	-1305
gin	-1306
iri	-1307
▁Il	-1308
▁ma	-1309
ared	-1310
▁For	-1311
▁tou	-1312
▁chan	-1313
▁void	-1314
▁happy	-1315
▁add	-1316
ction	-1317
▁object	-1318
ulty	-1319
▁cor	-1320
ark	-1321
bat	-1322
▁performed	-1323
ana	-1324
ified	-1325
▁sk	-1326
▁"...	-1327
▁Urar	-1328
▁cent	-1329
▁:	-1330
ict	-1331
ina	-1332
▁anc	-1333
▁taken	-1334
▁middle	-1335
▁positive	-1336
);	-1337
▁del	-1338
ition	-1339
▁sacrific	-1340
ilu	-1341
ored	-1342
ations	-1343
ocation	-1344
bal	-1345
key	-1346
aster	-1347
▁terr	-1348
▁accord	-1349
▁tablet	-1350
ibni	-1351
▁Mar	-1352
▁part	-1353
▁established	-1354
ater	-1355
▁star	-1356
vest	-1357
▁die	-1358
▁revocation	-1359
šu	-1360
▁sea	-1361
▁bull	-1362
halman	-1363
▁garden	-1364
amm	-1365
ash	-1366
ati	-1367
uty	-1368
clip	-1369
▁ren	-1370
▁way	-1371
▁poss	-1372
▁lordly	-1373
▁mother	-1374
akk	-1375
belu	-1376
edar	-1377
paign	-1378
▁flood	-1379
▁offic	-1380
▁cubits	-1381
halmaneser	-1382
ock	-1383
▁wife	-1384
▁Sumer	-1385
▁campaign	-1386
da	-1387
arp	-1388
land	-1389
third	-1390
▁eclip	-1391
▁treas	-1392
▁Te	-1393
▁each	-1394
▁lady	-1395
▁appear	-1396
▁fortress	-1397
ez	-1398
les	-1399
sted	-1400
usku	-1401
argon	-1402
▁defeat	-1403
▁belonging	-1404
ild	-1405
▁12	-1406
▁maj	-1407
▁faulty	-1408
▁provid	-1409
▁By	-1410
▁fri	-1411
▁camp	-1412
▁barley	-1413
▁grands	-1414
▁9	-1415
▁mu	-1416
head	-1417
▁look	-1418
▁driver	-1419
ier	-1420
atter	-1421
eriba	-1422
▁There	-1423
▁raised	-1424
▁treaty	-1425
▁concerning	-1426
▁bord	-1427
▁creat	-1428
▁pleas	-1429
▁anything	-1430
▁offering	-1431
af	-1432
cceed	-1433
iness	-1434
▁knows	-1435
▁queen	-1436
▁Sargon	-1437
ila	-1438
ung	-1439
ined	-1440
▁Dur	-1441
▁saw	-1442
▁live	-1443
▁rain	-1444
▁told	-1445
▁along	-1446
▁homers	-1447
▁succeed	-1448
abu	-1449
fold	-1450
haps	-1451
ules	-1452
▁lap	-1453
▁support	-1454
▁Shalmaneser	-1455
.”	-1456
la	-1457
eans	-1458
▁killed	-1459
▁sending	-1460
zu	-1461
▁joy	-1462
ument	-1463
▁ruler	-1464
▁possess	-1465
▁1,	-1466
▁Ea	-1467
▁Ub	-1468
▁top	-1469
▁must	-1470
▁descend	-1471
▁returned	-1472
ypt	-1473
▁ref	-1474
▁After	-1475
▁anoin	-1476
▁fields	-1477
▁eclipse	-1478
'-	-1479
day	-1480
kur	-1481
ages	-1482
▁comes	-1483
▁mules	-1484
▁oracle	-1485
▁within	-1486
ead	-1487
inc	-1488
ris	-1489
▁high	-1490
▁ordin	-1491
▁three	-1492
ped	-1493
aves	-1494
▁Per	-1495
▁Egypt	-1496
▁appro	-1497
Ninurta	-1498
▁settle	-1499
▁account	-1500
▁follows	-1501
uru	-1502
▁That	-1503
▁list	-1504
▁ritu	-1505
▁Issar	-1506
▁words	-1507
▁another	-1508
yy	-1509
▁1/	-1510
▁Tig	-1511
▁than	-1512
finger	-1513
▁cedar	-1514
▁persons	-1515
▁constantly	-1516
ech	-1517
ken	-1518
▁God	-1519
▁cup	-1520
▁women	-1521
▁100	-1522
▁exal	-1523
▁contest	-1524
▁dressed	-1525
▁magnates	-1526
Nabû	-1527
▁nob	-1528
▁ancest	-1529
uth	-1530
ient	-1531
▁All	-1532
halde	-1533
ukult	-1534
atever	-1535
▁grain	-1536
▁Chalde	-1537
▁bricks	-1538
▁construct	-1539
wood	-1540
illed	-1541
world	-1542
ins	-1543
ove	-1544
ting	-1545
▁Nis	-1546
▁equ	-1547
▁lim	-1548
▁prefect	-1549
▁ordinary	-1550
▁completed	-1551
▁governors	-1552
ily	-1553
ṭir	-1554
ereš	-1555
▁lead	-1556
▁stone	-1557
▁abandoned	-1558
▁Zab	-1559
▁tenfold	-1560
▁fortified	-1561
ax	-1562
ioned	-1563
▁stay	-1564
▁exalted	-1565
ašm	-1566
▁bear	-1567
▁fall	-1568
▁hold	-1569
▁first	-1570
▁farmer	-1571
▁prayers	-1572
▁inscription	-1573
ahu	-1574
▁env	-1575
▁harvest	-1576
▁towards	-1577
pect	-1578
▁fam	-1579
▁fin	-1580
ached	-1581
▁rever	-1582
▁donkey	-1583
▁chariots	-1584
▁truth	-1585
▁?	-1586
utu	-1587
▁(1	-1588
▁letter	-1589
▁rebell	-1590
▁appointed	-1591
aks	-1592
alah	-1593
▁Ahu	-1594
▁nam	-1595
▁bron	-1596
▁host	-1597
▁seeks	-1598
▁Esagil	-1599
▁forces	-1600
▁owners	-1601
▁previous	-1602
▁ancestors	-1603
▁V	-1604
rim	-1605
ines	-1606
▁thick	-1607
▁orders	-1608
▁grandsons	-1609
šarra	-1610
▁stri	-1611
▁attack	-1612
▁bronze	-1613
pal	-1614
▁She	-1615
▁gift	-1616
▁pure	-1617
▁House	-1618
▁abund	-1619
▁goats	-1620
▁prote	-1621
▁places	-1622
▁soiled	-1623
lev	-1624
▁kind	-1625
▁oppos	-1626
▁om	-1627
iqbi	-1628
yyar	-1629
▁cons	-1630
▁Iyyar	-1631
▁Šarru	-1632
▁around	-1633
▁overse	-1634
▁territ	-1635
▁payment	-1636
▁Sh	-1637
▁af	-1638
cept	-1639
ters	-1640
anted	-1641
ience	-1642
▁full	-1643
spring	-1644
▁regular	-1645
lam	-1646
ool	-1647
▁Nisan	-1648
▁report	-1649
▁appearance	-1650
alt	-1651
ets	-1652
aries	-1653
▁halo	-1654
▁plan	-1655
estone	-1656
▁midst	-1657
▁regard	-1658
▁deities	-1659
bu	-1660
ši	-1661
▁16	-1662
iers	-1663
ific	-1664
▁laid	-1665
▁peace	-1666
▁streng	-1667
▁defeated	-1668
their	-1669
▁Bors	-1670
▁bowl	-1671
▁ever	-1672
liable	-1673
▁Nusku	-1674
▁former	-1675
▁limestone	-1676
fl	-1677
whel	-1678
▁cit	-1679
▁orch	-1680
▁light	-1681
▁seahs	-1682
▁warri	-1683
▁border	-1684
▁listen	-1685
▁daughter	-1686
ms	-1687
ph	-1688
ils	-1689
ush	-1690
▁ed	-1691
atti	-1692
orse	-1693
▁ang	-1694
▁tax	-1695
itted	-1696
▁since	-1697
▁Perhaps	-1698
▁changed	-1699
▁offspring	-1700
▁territory	-1701
hr	-1702
ink	-1703
alli	-1704
ruit	-1705
▁tell	-1706
▁Calah	-1707
▁omens	-1708
oreover	-1709
▁whatever	-1710
let	-1711
rus	-1712
that	-1713
▁stra	-1714
▁statu	-1715
▁This	-1716
▁burned	-1717
▁te	-1718
▁cav	-1719
▁fem	-1720
▁near	-1721
▁march	-1722
▁sword	-1723
▁Tukult	-1724
▁speech	-1725
▁settlements	-1726
alry	-1727
ukin	-1728
▁dom	-1729
▁much	-1730
▁news	-1731
▁Borsip	-1732
▁overseer	-1733
▁soldiers	-1734
ean	-1735
▁pal	-1736
▁wid	-1737
▁Mann	-1738
▁base	-1739
▁gates	-1740
▁subst	-1741
▁disapp	-1742
▁cavalry	-1743
▁settled	-1744
▁entirety	-1745
▁overwhel	-1746
▁š	-1747
ald	-1748
▁City	-1749
▁gone	-1750
▁harus	-1751
▁today	-1752
ulation	-1753
▁called	-1754
▁majest	-1755
▁opposite	-1756
▁reliable	-1757
tw	-1758
we	-1759
ren	-1760
enty	-1761
▁step	-1762
▁eponymy	-1763
▁possessions	-1764
cond	-1765
eṭir	-1766
▁mon	-1767
▁Šum	-1768
▁deputy	-1769
aq	-1770
▁kiss	-1771
▁young	-1772
▁female	-1773
▁myself	-1774
pi	-1775
tak	-1776
▁One	-1777
▁fac	-1778
▁foundations	-1779
▁inscriptions	-1780
hem	-1781
oss	-1782
tee	-1783
owed	-1784
urru	-1785
▁face	-1786
▁wide	-1787
▁wool	-1788
▁during	-1789
▁Moreover	-1790
by	-1791
Why	-1792
ost	-1793
▁sec	-1794
▁Borsippa	-1795
▁appointee	-1796
▁My	-1797
ivan	-1798
▁Sea	-1799
▁foot	-1800
▁Sivan	-1801
▁ritual	-1802
▁(6	-1803
arran	-1804
ccess	-1805
▁iron	-1806
▁deeds	-1807
▁Do	-1808
▁car	-1809
▁cra	-1810
aving	-1811
ūr	-1812
eng	-1813
read	-1814
uilt	-1815
▁Ilu	-1816
izier	-1817
press	-1818
▁done	-1819
▁prop	-1820
▁some	-1821
▁makes	-1822
ds	-1823
aba	-1824
but	-1825
nal	-1826
āya	-1827
ezib	-1828
mman	-1829
reed	-1830
▁Rem	-1831
▁Tab	-1832
ained	-1833
▁West	-1834
▁open	-1835
šallim	-1836
▁added	-1837
▁Tukultī	-1838
▁treasur	-1839
aru	-1840
ask	-1841
ulu	-1842
urs	-1843
nail	-1844
side	-1845
▁spl	-1846
▁burn	-1847
▁dais	-1848
▁spoke	-1849
missive	-1850
▁counted	-1851
▁crossed	-1852
ingernail	-1853
▁daughters	-1854
▁er	-1855
path	-1856
ples	-1857
▁Šul	-1858
ouses	-1859
▁says	-1860
▁stones	-1861
▁donkeys	-1862
▁therein	-1863
▁Assyrian	-1864
▁happiness	-1865
abs	-1866
gen	-1867
pex	-1868
iter	-1869
▁end	-1870
arpan	-1871
irons	-1872
ither	-1873
▁What	-1874
▁pour	-1875
▁horse	-1876
▁seized	-1877
▁environs	-1878
▁haruspex	-1879
▁lordship	-1880
▁act	-1881
▁ris	-1882
▁val	-1883
▁according	-1884
▁z	-1885
esc	-1886
pri	-1887
unn	-1888
sper	-1889
▁bed	-1890
▁colle	-1891
▁second	-1892
▁splend	-1893
ha	-1894
arc	-1895
allu	-1896
asir	-1897
▁Uru	-1898
▁hel	-1899
▁imp	-1900
▁rel	-1901
▁incre	-1902
▁forever	-1903
uni	-1904
hold	-1905
▁jud	-1906
tered	-1907
▁cast	-1908
▁leng	-1909
▁merc	-1910
upiter	-1911
▁power	-1912
▁white	-1913
▁distant	-1914
▁DN	-1915
▁int	-1916
▁Nipp	-1917
archem	-1918
▁fight	-1919
▁going	-1920
▁means	-1921
▁whole	-1922
umental	-1923
▁coloss	-1924
archemish	-1925
▁residence	-1926
▁ey	-1927
▁Tam	-1928
ickly	-1929
▁devast	-1930
▁divine	-1931
nd	-1932
ne	-1933
bed	-1934
aint	-1935
▁san	-1936
▁war	-1937
▁Tašm	-1938
▁half	-1939
▁mist	-1940
▁rele	-1941
▁Inner	-1942
▁camels	-1943
▁writing	-1944
ang	-1945
him	-1946
fully	-1947
▁sanct	-1948
▁prosper	-1949
▁contract	-1950
▁Carchemish	-1951
▁monumental	-1952
''	-1953
ept	-1954
enus	-1955
▁how	-1956
▁shr	-1957
Šarru	-1958
▁even	-1959
▁male	-1960
▁past	-1961
▁later	-1962
▁majesty	-1963
akin	-1964
clud	-1965
stand	-1966
tween	-1967
▁same	-1968
▁alive	-1969
▁citiz	-1970
asirpal	-1971
▁rulers	-1972
▁between	-1973
▁deliver	-1974
▁quickly	-1975
▁removed	-1976
urnasirpal	-1977
▁installed	-1978
Bel	-1979
anna	-1980
naṣir	-1981
▁area	-1982
▁beams	-1983
▁honey	-1984
▁Nippur	-1985
▁Zarpan	-1986
▁proceed	-1987
▁Westland	-1988
etu	-1989
▁aud	-1990
▁neck	-1991
▁canal	-1992
▁trees	-1993
▁filled	-1994
▁audience	-1995
▁Ashurnasirpal	-1996
adan	-1997
duri	-1998
šuma	-1999
▁1/2	-2000
▁bak	-2001
▁pit	-2002
▁rep	-2003
▁six	-2004
▁gall	-2005
▁doors	-2006
▁vizier	-2007
▁because	-2008
hu	-2009
Let	-2010
erod	-2011
ield	-2012
▁Lady	-2013
▁Mars	-2014
▁Arame	-2015
erodach	-2016
▁coming	-2017
▁overwhelmed	-2018
▁Why	-2019
there	-2020
▁Your	-2021
▁door	-2022
ensive	-2023
▁Umman	-2024
▁could	-2025
Babylon	-2026
▁temples	-2027
▁substant	-2028
▁disappear	-2029
▁everything	-2030
uz	-2031
ures	-2032
▁det	-2033
▁sign	-2034
▁vine	-2035
▁image	-2036
▁charge	-2037
▁official	-2038
▁sacrificial	-2039
▁substantial	-2040
ert	-2041
▁Ša	-2042
▁saf	-2043
itious	-2044
▁Venus	-2045
▁subject	-2046
▁propitious	-2047
now	-2048
▁11	-2049
dered	-2050
which	-2051
▁Adar	-2052
▁corn	-2053
▁plot	-2054
▁compl	-2055
▁doing	-2056
▁gives	-2057
▁lower	-2058
▁rites	-2059
▁attent	-2060
▁litres	-2061
▁opened	-2062
▁mistress	-2063
mal	-2064
ula	-2065
bail	-2066
uphr	-2067
▁Dam	-2068
▁rule	-2069
▁exerc	-2070
▁breaks	-2071
uphrates	-2072
▁touches	-2073
vi	-2074
rem	-2075
aged	-2076
cour	-2077
less	-2078
vere	-2079
▁Kar	-2080
▁Med	-2081
▁Sam	-2082
▁begin	-2083
▁plain	-2084
VII	-2085
▁13	-2086
apla	-2087
▁appe	-2088
litres	-2089
▁craft	-2090
▁depos	-2091
▁renov	-2092
▁steppe	-2093
▁service	-2094
uck	-2095
▁40	-2096
▁Say	-2097
▁lib	-2098
▁path	-2099
▁prais	-2100
▁asking	-2101
▁houses	-2102
ues	-2103
▁Ez	-2104
semb	-2105
▁lay	-2106
▁Uruk	-2107
▁angry	-2108
▁block	-2109
▁domin	-2110
▁stood	-2111
▁perfect	-2112
▁abundance	-2113
ret	-2114
bear	-2115
▁loc	-2116
ishri	-2117
▁horn	-2118
▁thir	-2119
▁vict	-2120
▁Tishri	-2121
▁ground	-2122
▁designs	-2123
”:	-2124
ukk	-2125
āni	-2126
aped	-2127
▁bot	-2128
▁lam	-2129
adder	-2130
iving	-2131
šarri	-2132
▁cann	-2133
▁oath	-2134
▁defic	-2135
▁Šulmu	-2136
▁assign	-2137
▁restore	-2138
aṣ	-2139
▁Ni	-2140
adin	-2141
▁Apl	-2142
stone	-2143
▁Should	-2144
▁accept	-2145
▁bright	-2146
▁cannot	-2147
▁dominion	-2148
▁increase	-2149
▁Euphrates	-2150
▁performance	-2151
ara	-2152
▁el	-2153
ding	-2154
▁Ari	-2155
▁beh	-2156
▁dif	-2157
▁lod	-2158
▁too	-2159
▁cook	-2160
▁fash	-2161
▁bound	-2162
▁things	-2163
▁position	-2164
▁deposited	-2165
erce	-2166
used	-2167
▁lie	-2168
▁ser	-2169
▁sit	-2170
▁disp	-2171
▁gras	-2172
▁wood	-2173
▁blood	-2174
▁eaten	-2175
▁Urarṭu	-2176
▁fierce	-2177
▁fright	-2178
▁altered	-2179
▁forehead	-2180
▁complaint	-2181
▁extensive	-2182
sh	-2183
rap	-2184
unk	-2185
ense	-2186
▁adv	-2187
ilani	-2188
▁bank	-2189
▁dire	-2190
▁eter	-2191
▁weak	-2192
▁assemb	-2193
▁breast	-2194
▁cultiv	-2195
▁sanctu	-2196
ān	-2197
iru	-2198
▁Re	-2199
illi	-2200
pted	-2201
▁Ubru	-2202
▁fell	-2203
▁fruit	-2204
▁lodges	-2205
▁oracular	-2206
▁descendant	-2207
,”	-2208
▁wa	-2209
plic	-2210
▁Dūr	-2211
orter	-2212
▁Urdu	-2213
▁clou	-2214
▁port	-2215
▁cattle	-2216
▁greatly	-2217
from	-2218
thus	-2219
▁get	-2220
▁arri	-2221
▁more	-2222
▁Urarṭ	-2223
▁cover	-2224
▁manag	-2225
▁normal	-2226
standing	-2227
▁orchards	-2228
▁designate	-2229
▁!	-2230
”),	-2231
▁Su	-2232
aled	-2233
atic	-2234
▁cle	-2235
irmed	-2236
▁bask	-2237
▁cens	-2238
▁black	-2239
▁entru	-2240
▁kissed	-2241
▁nether	-2242
▁bladder	-2243
▁colossi	-2244
▁conquer	-2245
▁eunuchs	-2246
ubmissive	-2247
ida	-2248
šir	-2249
▁Al	-2250
struct	-2251
▁drunk	-2252
▁favour	-2253
▁statue	-2254
▁station	-2255
▁netherworld	-2256
abi	-2257
sic	-2258
▁mer	-2259
▁wis	-2260
inces	-2261
those	-2262
▁Kush	-2263
▁bird	-2264
▁help	-2265
▁kept	-2266
▁prec	-2267
ypress	-2268
▁flour	-2269
▁towns	-2270
▁course	-2271
▁constructed	-2272
bet	-2273
▁25	-2274
ority	-2275
▁auth	-2276
▁mind	-2277
ulated	-2278
offered	-2279
▁Shebat	-2280
▁Remanni	-2281
▁anointed	-2282
▁beginning	-2283
ašu	-2284
gur	-2285
oub	-2286
uge	-2287
▁box	-2288
▁phy	-2289
▁meat	-2290
vereign	-2291
▁decreed	-2292
▁sovereign	-2293
ṣu	-2294
ems	-2295
muz	-2296
rew	-2297
▁iv	-2298
akku	-2299
▁bes	-2300
▁eyes	-2301
▁wild	-2302
▁ivory	-2303
▁thres	-2304
▁Tammuz	-2305
▁message	-2306
▁deficient	-2307
,"	-2308
▁18	-2309
▁Ki	-2310
most	-2311
▁His	-2312
▁cur	-2313
hered	-2314
▁subm	-2315
▁turn	-2316
▁decis	-2317
▁forts	-2318
▁bearing	-2319
▁citizens	-2320
▁favorite	-2321
▁authority	-2322
formulation	-2323
IV	-2324
assu	-2325
cher	-2326
▁Nab	-2327
▁why	-2328
alliṭ	-2329
▁bott	-2330
▁Ditto	-2331
▁carry	-2332
▁times	-2333
▁diffic	-2334
▁entrusted	-2335
!”	-2336
act	-2337
amu	-2338
▁ut	-2339
cess	-2340
▁aid	-2341
aches	-2342
▁hund	-2343
▁leave	-2344
▁while	-2345
▁Ḫatti	-2346
▁making	-2347
▁dwelling	-2348
▁finished	-2349
▁provides	-2350
▁rebellion	-2351
any	-2352
dom	-2353
ele	-2354
ned	-2355
orc	-2356
body	-2357
▁radi	-2358
▁vari	-2359
father	-2360
▁lives	-2361
▁trans	-2362
▁Ešarra	-2363
▁Tigris	-2364
entation	-2365
▁Chaldea	-2366
▁beloved	-2367
▁strength	-2368
.:	-2369
VI	-2370
min	-2371
vii	-2372
Ḫum	-2373
▁Ig	-2374
agon	-2375
hing	-2376
ised	-2377
▁obs	-2378
▁sat	-2379
▁exem	-2380
▁site	-2381
▁engen	-2382
▁stars	-2383
▁super	-2384
▁physic	-2385
▁appoint	-2386
▁cypress	-2387
▁hundred	-2388
▁ordered	-2389
▁residing	-2390
▁engendered	-2391
▁Ul	-2392
▁Muš	-2393
▁Nan	-2394
▁ere	-2395
▁esc	-2396
▁ill	-2397
umman	-2398
▁care	-2399
▁food	-2400
▁outer	-2401
▁archer	-2402
▁behind	-2403
▁height	-2404
▁length	-2405
▁prayer	-2406
▁centers	-2407
▁touched	-2408
▁Arameans	-2409
▁goddesses	-2410
▁Ashurbanipal	-2411
ka	-2412
emb	-2413
▁50	-2414
▁dy	-2415
akīn	-2416
deed	-2417
hose	-2418
ream	-2419
▁lung	-2420
▁soon	-2421
bearer	-2422
umbled	-2423
▁above	-2424
▁merch	-2425
▁third	-2426
▁matter	-2427
▁created	-2428
▁decares	-2429
ran	-2430
una	-2431
here	-2432
oured	-2433
▁anew	-2434
▁love	-2435
▁west	-2436
▁Šamš	-2437
▁Ezida	-2438
▁gifts	-2439
▁split	-2440
abaster	-2441
▁living	-2442
▁variant	-2443
▁fashioned	-2444
rd	-2445
ond	-2446
umm	-2447
▁Tar	-2448
ility	-2449
▁Elul	-2450
▁five	-2451
▁last	-2452
▁boats	-2453
▁grand	-2454
▁upper	-2455
▁bottom	-2456
▁loaves	-2457
▁twenty	-2458
▁hostile	-2459
▁jumbled	-2460
▁manager	-2461
▁presented	-2462
▁proceedings	-2463
',	-2464
He	-2465
go	-2466
You	-2467
lath	-2468
zeru	-2469
▁mor	-2470
▁run	-2471
▁sin	-2472
ippar	-2473
▁clay	-2474
▁roof	-2475
▁term	-2476
▁wind	-2477
ileser	-2478
▁clean	-2479
▁death	-2480
▁force	-2481
▁walls	-2482
▁treasurer	-2483
gs	-2484
zi	-2485
asî	-2486
iša	-2487
išk	-2488
▁22	-2489
gers	-2490
ital	-2491
▁gat	-2492
▁mus	-2493
ainer	-2494
uniaš	-2495
▁Kard	-2496
▁dark	-2497
▁corps	-2498
▁names	-2499
▁trust	-2500
▁Sippar	-2501
▁single	-2502
▁erected	-2503
▁terrace	-2504
▁gathered	-2505
▁warriors	-2506
▁understanding	-2507
agan	-2508
immer	-2509
▁crim	-2510
▁east	-2511
▁reach	-2512
▁Tiglath	-2513
▁inspect	-2514
▁precious	-2515
▁previously	-2516
▁sovereignty	-2517
ff	-2518
ls	-2519
op	-2520
air	-2521
val	-2522
ison	-2523
kkal	-2524
šumi	-2525
▁obe	-2526
nadin	-2527
tyard	-2528
wards	-2529
▁holy	-2530
▁lion	-2531
▁save	-2532
▁Arrap	-2533
▁asked	-2534
▁Šumma	-2535
▁Inurta	-2536
▁gladly	-2537
▁capital	-2538
Babylonia	-2539
▁captives	-2540
▁Karduniaš	-2541
,'	-2542
If	-2543
bo	-2544
jo	-2545
▁wr	-2546
▁Abi	-2547
▁fif	-2548
▁gro	-2549
▁abod	-2550
▁find	-2551
▁hero	-2552
uranni	-2553
▁Medes	-2554
▁Those	-2555
▁subdu	-2556
▁Šamšī	-2557
▁indeed	-2558
▁household	-2559
▁stationed	-2560
īl	-2561
den	-2562
ses	-2563
gged	-2564
raid	-2565
▁ele	-2566
▁Gamb	-2567
▁rejo	-2568
▁never	-2569
▁heavens	-2570
▁released	-2571
▁restored	-2572
ba	-2573
qq	-2574
col	-2575
adow	-2576
ward	-2577
offer	-2578
unnak	-2579
▁fast	-2580
orcist	-2581
▁cause	-2582
▁child	-2583
▁drink	-2584
▁viney	-2585
▁afraid	-2586
▁anoint	-2587
▁overth	-2588
▁stable	-2589
▁devastated	-2590
irc	-2591
▁Sc	-2592
mark	-2593
yrus	-2594
▁occ	-2595
chief	-2596
▁Belet	-2597
station	-2598
▁Anunnak	-2599
▁Urarṭian	-2600
▁confirmed	-2601
▁sacrifices	-2602
ḫa	-2603
5')	-2604
ala	-2605
ama	-2606
▁5)	-2607
▁Sū	-2608
ided	-2609
▁But	-2610
▁bit	-2611
▁neg	-2612
▁par	-2613
▁hall	-2614
▁seven	-2615
▁family	-2616
▁weapon	-2617
▁exorcist	-2618
▁courtyard	-2619
▁fortresses	-2620
gar	-2621
rat	-2622
use	-2623
▁17	-2624
unip	-2625
viii	-2626
▁age	-2627
▁ori	-2628
▁Ḫar	-2629
house	-2630
orted	-2631
ursag	-2632
▁Nikkal	-2633
▁Teumman	-2634
▁province	-2635
▁commanded	-2636
uli	-2637
umu	-2638
▁Th	-2639
vers	-2640
▁(5)	-2641
▁Tīl	-2642
▁fet	-2643
▁xth	-2644
cause	-2645
▁Gula	-2646
▁fine	-2647
▁mars	-2648
▁stor	-2649
▁true	-2650
selves	-2651
▁Nairi	-2652
▁below	-2653
▁recon	-2654
▁stret	-2655
pileser	-2656
▁having	-2657
emuranni	-2658
▁Tašmetu	-2659
▁foremost	-2660
▁mustered	-2661
▁difficult	-2662
'')	-2663
lak	-2664
lar	-2665
xed	-2666
▁Lu	-2667
▁Pu	-2668
▁Un	-2669
artu	-2670
iful	-2671
ized	-2672
▁Ban	-2673
▁Sub	-2674
▁inv	-2675
▁sky	-2676
▁“...	-2677
incial	-2678
Ḫumban	-2679
▁burnt	-2680
▁quest	-2681
▁straw	-2682
▁origin	-2683
▁rememb	-2684
ccession	-2685
▁archers	-2686
▁corpses	-2687
▁granted	-2688
▁justice	-2689
▁splendid	-2690
▁alabaster	-2691
▁fingernail	-2692
▁provincial	-2693
ains	-2694
beli	-2695
ival	-2696
ixed	-2697
last	-2698
ways	-2699
wise	-2700
▁Gur	-2701
▁fig	-2702
▁pap	-2703
šezib	-2704
▁exper	-2705
▁heavy	-2706
▁spans	-2707
▁nobody	-2708
▁rugged	-2709
▁protect	-2710
▁reaches	-2711
▁rebuilt	-2712
Ar	-2713
ea	-2714
lo	-2715
esh	-2716
ior	-2717
▁Ek	-2718
▁La	-2719
lier	-2720
utha	-2721
▁Der	-2722
▁Sil	-2723
▁bad	-2724
▁yet	-2725
▁Šub	-2726
agues	-2727
ammar	-2728
atial	-2729
▁dead	-2730
▁wait	-2731
▁Šarr	-2732
▁censer	-2733
▁threshing	-2734
mor	-2735
ury	-2736
▁(2	-2737
reme	-2738
▁10)	-2739
▁Kis	-2740
▁New	-2741
▁bag	-2742
▁swe	-2743
▁arom	-2744
icated	-2745
▁Cutha	-2746
▁Lower	-2747
▁coils	-2748
▁ruins	-2749
▁herald	-2750
▁aromatic	-2751
▁palatial	-2752
▁frightened	-2753
▁Babylonians	-2754
▁sanctuaries	-2755
▁insubmissive	-2756
bēl	-2757
gan	-2758
▁2-	-2759
akes	-2760
amaš	-2761
ases	-2762
bone	-2763
▁cho	-2764
▁new	-2765
▁elev	-2766
▁stip	-2767
▁colon	-2768
▁forth	-2769
▁mayor	-2770
ificent	-2771
▁master	-2772
▁passed	-2773
▁sealed	-2774
▁boxwood	-2775
▁continu	-2776
▁morning	-2777
▁protection	-2778
▁stipulated	-2779
In	-2780
▁em	-2781
rows	-2782
▁Ahi	-2783
iškun	-2784
▁Does	-2785
uniper	-2786
▁Upper	-2787
▁alone	-2788
▁mercy	-2789
▁named	-2790
cluding	-2791
▁Amurru	-2792
▁friend	-2793
▁meadow	-2794
▁papyrus	-2795
▁shrines	-2796
▁witness	-2797
▁straight	-2798
▁Zarpanitu	-2799
▁cupbearer	-2800
▁overthrow	-2801
▁submitted	-2802
▁underworld	-2803
▁magnificent	-2804
Then	-2805
hest	-2806
oves	-2807
▁Kum	-2808
▁got	-2809
lešir	-2810
Harran	-2811
▁judge	-2812
▁loves	-2813
lasting	-2814
▁inform	-2815
▁praise	-2816
▁reveres	-2817
▁commands	-2818
▁elevated	-2819
xt	-2820
abb	-2821
cep	-2822
idu	-2823
▁PN	-2824
▁eb	-2825
chie	-2826
oted	-2827
▁Kal	-2828
▁Mel	-2829
▁Nin	-2830
▁jar	-2831
azuli	-2832
rance	-2833
▁Sūḫu	-2834
▁mult	-2835
▁room	-2836
▁scep	-2837
▁achie	-2838
▁baked	-2839
▁faces	-2840
▁seize	-2841
▁planet	-2842
▁remain	-2843
▁shekel	-2844
▁blocked	-2845
▁princes	-2846
▁scepter	-2847
▁libation	-2848
▁radiance	-2849
▁approached	-2850
qa	-2851
ote	-2852
ilki	-2853
seah	-2854
▁arr	-2855
▁cri	-2856
▁hun	-2857
ative	-2858
iqiša	-2859
▁foes	-2860
▁surf	-2861
▁wear	-2862
vernor	-2863
▁Their	-2864
▁close	-2865
▁ebony	-2866
▁eleph	-2867
▁lapis	-2868
▁Cimmer	-2869
▁firmly	-2870
▁talent	-2871
Šarruken	-2872
▁gardens	-2873
▁gardener	-2874
aza	-2875
bil	-2876
gil	-2877
iti	-2878
oor	-2879
urt	-2880
▁26	-2881
▁II	-2882
▁Id	-2883
bani	-2884
iced	-2885
ides	-2886
▁Itu	-2887
litre	-2888
▁pull	-2889
▁sets	-2890
▁shin	-2891
ipment	-2892
▁Arabs	-2893
▁cloud	-2894
▁grant	-2895
▁sweet	-2896
▁Tammar	-2897
▁victor	-2898
▁arrived	-2899
▁eternal	-2900
▁grasped	-2901
▁surface	-2902
▁performs	-2903
▁provided	-2904
▁subjects	-2905
▁messengers	-2906
Am	-2907
nā	-2908
qi	-2909
▁”	-2910
ots	-2911
usu	-2912
inen	-2913
▁Aya	-2914
▁Kār	-2915
Yakīn	-2916
ement	-2917
igate	-2918
▁comp	-2919
▁held	-2920
▁salt	-2921
▁Kiṣir	-2922
▁Tebet	-2923
▁bowed	-2924
▁equal	-2925
▁flesh	-2926
▁lions	-2927
remanni	-2928
▁Harran	-2929
▁Šarrat	-2930
Merodach	-2931
▁pleasure	-2932
ape	-2933
aut	-2934
▁Le	-2935
▁Tu	-2936
ably	-2937
ades	-2938
gate	-2939
▁20)	-2940
▁dra	-2941
while	-2942
▁main	-2943
▁none	-2944
▁thus	-2945
▁bulls	-2946
▁taxes	-2947
ukkannu	-2948
▁encour	-2949
▁warrior	-2950
▁delivered	-2951
▁musukkannu	-2952
ns	-2953
hab	-2954
▁21	-2955
▁28	-2956
▁Ba	-2957
▁Eḫ	-2958
▁ša	-2959
appa	-2960
igaš	-2961
ship	-2962
they	-2963
▁Eri	-2964
▁dem	-2965
▁dim	-2966
anner	-2967
Šamaš	-2968
▁mass	-2969
▁read	-2970
▁used	-2971
▁Great	-2972
▁rises	-2973
▁stead	-2974
▁brilli	-2975
▁crimin	-2976
▁Arrapha	-2977
▁pitched	-2978
▁respect	-2979
▁assigned	-2980
▁Succession	-2981
Bal	-2982
ahi	-2983
lew	-2984
wes	-2985
yre	-2986
▁Wh	-2987
long	-2988
▁Qur	-2989
▁Sid	-2990
▁bal	-2991
▁ses	-2992
▁circ	-2993
▁only	-2994
orated	-2995
ullanu	-2996
▁numer	-2997
baladan	-2998
▁Mannea	-2999
▁famine	-3000
▁sesame	-3001
governor	-3002
▁evening	-3003
▁leagues	-3004
▁preserv	-3005
ification	-3006
▁numerous	-3007
▁committed	-3008
▁accordance	-3009
Ba	-3010
ada	-3011
ene	-3012
get	-3013
ibi	-3014
ney	-3015
apon	-3016
irth	-3017
▁200	-3018
▁Sun	-3019
ating	-3020
oving	-3021
▁infl	-3022
▁birth	-3023
▁serve	-3024
▁brings	-3025
▁either	-3026
▁exempt	-3027
▁fourth	-3028
▁earlier	-3029
▁merchant	-3030
▁original	-3031
▁including	-3032
▁construction	-3033
gū	-3034
og	-3035
pu	-3036
lip	-3037
azed	-3038
king	-3039
taku	-3040
▁Kan	-3041
▁und	-3042
iggur	-3043
▁fate	-3044
▁Sidon	-3045
▁linen	-3046
▁prepa	-3047
▁swear	-3048
osition	-3049
▁contro	-3050
▁hearts	-3051
▁refined	-3052
▁singers	-3053
▁slaught	-3054
adî	-3055
▁23	-3056
▁ve	-3057
▁šē	-3058
ilit	-3059
rees	-3060
stead	-3061
▁Urad	-3062
▁clot	-3063
▁seat	-3064
▁stat	-3065
▁agree	-3066
▁allow	-3067
▁curse	-3068
▁inner	-3069
▁north	-3070
▁crafts	-3071
▁remember	-3072
▁equipment	-3073
aṭ	-3074
cut	-3075
set	-3076
xes	-3077
▁2,	-3078
four	-3079
iant	-3080
teen	-3081
▁Ham	-3082
▁big	-3083
▁lab	-3084
▁duck	-3085
▁stru	-3086
▁Tabal	-3087
▁reeds	-3088
▁teams	-3089
ilitary	-3090
▁lazuli	-3091
▁trainer	-3092
▁distance	-3093
▁collected	-3094
▁opposition	-3095
▁lamentation	-3096
▁purification	-3097
asc	-3098
ows	-3099
ubu	-3100
īgū	-3101
▁29	-3102
▁ap	-3103
aplu	-3104
ephe	-3105
nuri	-3106
orpi	-3107
qqin	-3108
▁Bab	-3109
▁Kur	-3110
▁Sag	-3111
▁Sat	-3112
▁ruin	-3113
orpius	-3114
taqqin	-3115
▁nephe	-3116
▁produ	-3117
fection	-3118
uballiṭ	-3119
▁ascend	-3120
▁desert	-3121
▁looked	-3122
▁nobles	-3123
▁safely	-3124
▁allowed	-3125
▁courses	-3126
▁regions	-3127
▁terrain	-3128
▁Scorpius	-3129
▁destruct	-3130
▁attentive	-3131
ays	-3132
fav	-3133
▁60	-3134
VIII	-3135
aily	-3136
▁exp	-3137
▁disc	-3138
▁rein	-3139
▁sele	-3140
orable	-3141
▁eight	-3142
▁inhab	-3143
▁rains	-3144
▁rival	-3145
▁Moving	-3146
▁arable	-3147
▁circum	-3148
▁remote	-3149
▁singer	-3150
▁terror	-3151
▁ziggur	-3152
▁pleasing	-3153
▁chariotry	-3154
▁strengthen	-3155
En	-3156
alu	-3157
ify	-3158
ogn	-3159
par	-3160
āti	-3161
▁ca	-3162
atch	-3163
beer	-3164
lord	-3165
usur	-3166
▁15)	-3167
▁Kaš	-3168
▁Man	-3169
▁gre	-3170
▁lif	-3171
▁tri	-3172
ister	-3173
▁Like	-3174
▁acts	-3175
▁hung	-3176
▁lies	-3177
▁resp	-3178
rement	-3179
▁abode	-3180
▁Urtaku	-3181
▁daises	-3182
▁direct	-3183
▁golden	-3184
▁reconc	-3185
▁spring	-3186
▁Because	-3187
▁section	-3188
▁elephant	-3189
▁exercise	-3190
▁Fingernail	-3191
▁everlasting	-3192
rē	-3193
ṣi	-3194
bow	-3195
alla	-3196
osen	-3197
▁arm	-3198
▁ban	-3199
▁spr	-3200
aging	-3201
ouble	-3202
urbed	-3203
▁Urda	-3204
▁able	-3205
▁else	-3206
▁fish	-3207
taklak	-3208
▁Dagan	-3209
▁Ellip	-3210
▁Igīgū	-3211
▁build	-3212
▁shore	-3213
▁widen	-3214
▁Baltil	-3215
▁attend	-3216
▁dwells	-3217
▁keeper	-3218
▁reinfor	-3219
▁appropri	-3220
▁fastened	-3221
▁encouraged	-3222
▁forefather	-3223
▁No	-3224
aved	-3225
riba	-3226
ubuš	-3227
work	-3228
▁35)	-3229
▁5')	-3230
▁Bir	-3231
▁hon	-3232
▁pun	-3233
ables	-3234
ready	-3235
▁Ning	-3236
▁flow	-3237
▁These	-3238
▁admin	-3239
▁combat	-3240
▁hunger	-3241
▁herewith	-3242
ʾ,	-3243
eri	-3244
van	-3245
▁gu	-3246
With	-3247
aria	-3248
oken	-3249
tain	-3250
▁Dun	-3251
▁doc	-3252
▁hig	-3253
▁hum	-3254
▁lev	-3255
▁vic	-3256
built	-3257
▁Tyre	-3258
▁coll	-3259
▁meas	-3260
▁daily	-3261
▁exped	-3262
chesvan	-3263
▁caused	-3264
▁seated	-3265
▁spoken	-3266
▁tablets	-3267
▁addition	-3268
▁complete	-3269
▁attention	-3270
▁Marchesvan	-3271
▁descendants	-3272
fit	-3273
ini	-3274
kaš	-3275
ria	-3276
▁1)	-3277
▁Aḫ	-3278
▁Of	-3279
back	-3280
heck	-3281
igal	-3282
trib	-3283
▁Han	-3284
▁deb	-3285
▁ded	-3286
▁eld	-3287
▁kid	-3288
▁pop	-3289
▁tin	-3290
▁Ḫam	-3291
▁prom	-3292
▁1,000	-3293
▁heads	-3294
▁shine	-3295
Baladan	-3296
olished	-3297
▁Before	-3298
▁basket	-3299
▁center	-3300
▁chosen	-3301
▁destin	-3302
▁passes	-3303
▁waters	-3304
▁Subartu	-3305
▁success	-3306
▁physical	-3307
.)	-3308
May	-3309
aff	-3310
idm	-3311
iew	-3312
ips	-3313
usa	-3314
was	-3315
ayed	-3316
muḫu	-3317
vile	-3318
▁Its	-3319
▁clo	-3320
Enlil	-3321
anger	-3322
lamur	-3323
▁Arik	-3324
▁coun	-3325
▁forg	-3326
▁ones	-3327
ercury	-3328
kurkur	-3329
people	-3330
▁Eanna	-3331
▁Kanun	-3332
▁litre	-3333
▁store	-3334
▁takes	-3335
▁thous	-3336
whether	-3337
▁Aplaya	-3338
▁Damasc	-3339
▁extent	-3340
▁flagon	-3341
▁interp	-3342
▁region	-3343
▁thirty	-3344
▁towers	-3345
offering	-3346
▁covered	-3347
▁reached	-3348
▁powerful	-3349
▁vineyard	-3350
▁wherever	-3351
▁brilliance	-3352
▁expedition	-3353
dīn	-3354
omm	-3355
pro	-3356
udu	-3357
āru	-3358
▁19	-3359
rēša	-3360
▁Ple	-3361
▁dug	-3362
▁fog	-3363
▁Ḫal	-3364
House	-3365
icted	-3366
▁10')	-3367
▁Kakk	-3368
▁guil	-3369
▁ment	-3370
▁team	-3371
▁Šeru	-3372
urther	-3373
weapon	-3374
▁crime	-3375
▁herds	-3376
▁kinds	-3377
▁raise	-3378
▁slabs	-3379
▁Saturn	-3380
▁enters	-3381
▁rising	-3382
▁wishes	-3383
▁forward	-3384
▁Merodach	-3385
▁decision	-3386
▁question	-3387
▁Tammarītu	-3388
▁establish	-3389
▁favorably	-3390
▁acceptable	-3391
'.	-3392
aku	-3393
hur	-3394
ime	-3395
nat	-3396
▁Im	-3397
▁St	-3398
aven	-3399
even	-3400
▁dog	-3401
▁(10)	-3402
▁show	-3403
▁tail	-3404
▁wise	-3405
▁wish	-3406
iously	-3407
▁enlar	-3408
▁horns	-3409
▁insur	-3410
thereby	-3411
▁Kislev	-3412
▁erases	-3413
▁fought	-3414
▁remove	-3415
▁shrine	-3416
▁status	-3417
▁Elamite	-3418
▁Esaggil	-3419
▁Mercury	-3420
▁orchard	-3421
▁subdued	-3422
▁trusted	-3423
▁valiant	-3424
▁Assyrians	-3425
▁following	-3426
▁themselves	-3427
ēr	-3428
api	-3429
imm	-3430
iši	-3431
ētu	-3432
deem	-3433
when	-3434
▁Que	-3435
▁squ	-3436
agons	-3437
spect	-3438
▁poin	-3439
▁reve	-3440
▁sake	-3441
▁Illil	-3442
▁Silim	-3443
▁halls	-3444
▁holds	-3445
▁pious	-3446
▁Balasî	-3447
▁porter	-3448
▁redeem	-3449
▁regnal	-3450
together	-3451
▁Instead	-3452
▁carries	-3453
▁cleared	-3454
▁hectare	-3455
▁planted	-3456
▁supreme	-3457
▁enlarged	-3458
▁shoulder	-3459
▁Zarpanītu	-3460
▁officials	-3461
▁Cimmerians	-3462
50	-3463
bl	-3464
0')	-3465
hin	-3466
itt	-3467
ize	-3468
pped	-3469
sued	-3470
word	-3471
▁25)	-3472
▁30)	-3473
▁45)	-3474
▁Hal	-3475
▁Par	-3476
▁Raš	-3477
▁annu	-3478
▁arms	-3479
▁bags	-3480
▁cuts	-3481
▁hill	-3482
▁rise	-3483
▁summ	-3484
▁twel	-3485
priest	-3486
▁stele	-3487
▁veget	-3488
ganized	-3489
▁danger	-3490
▁manner	-3491
▁observ	-3492
▁replic	-3493
▁wooden	-3494
▁Gambulu	-3495
▁nothing	-3496
▁offered	-3497
▁statues	-3498
▁Anunnakū	-3499
▁thousand	-3500
adn	-3501
lig	-3502
▁(“	-3503
▁Er	-3504
▁Ne	-3505
They	-3506
hood	-3507
ofty	-3508
oles	-3509
only	-3510
▁How	-3511
▁Til	-3512
iades	-3513
iring	-3514
manus	-3515
nādin	-3516
royal	-3517
šakin	-3518
▁cell	-3519
▁fest	-3520
▁garr	-3521
▁lamb	-3522
▁situ	-3523
▁Qurdi	-3524
▁Yakin	-3525
▁accom	-3526
▁major	-3527
▁Šerua	-3528
▁Amanus	-3529
▁Ellipi	-3530
▁broken	-3531
▁giving	-3532
▁preced	-3533
▁recogn	-3534
▁weight	-3535
▁fathers	-3536
▁highest	-3537
▁juniper	-3538
▁nephews	-3539
▁privile	-3540
▁removes	-3541
▁shining	-3542
▁Kanunayu	-3543
▁administ	-3544
)-	-3545
We	-3546
dî	-3547
ex	-3548
si	-3549
šši	-3550
When	-3551
alam	-3552
hand	-3553
irtu	-3554
ocks	-3555
ukīn	-3556
▁300	-3557
▁40)	-3558
▁Muṣ	-3559
▁Raṣ	-3560
▁Zar	-3561
▁cop	-3562
▁low	-3563
▁ran	-3564
bread	-3565
ising	-3566
▁dele	-3567
▁free	-3568
▁rank	-3569
▁repa	-3570
▁sour	-3571
▁trim	-3572
▁want	-3573
ahhešu	-3574
iduous	-3575
▁Ashur	-3576
▁lofty	-3577
▁mound	-3578
rection	-3579
▁desire	-3580
▁escape	-3581
▁shield	-3582
▁strive	-3583
▁struck	-3584
kurkurra	-3585
▁Kushite	-3586
▁Tašmētu	-3587
▁baskets	-3588
▁fetters	-3589
favorable	-3590
▁Pleiades	-3591
▁fighting	-3592
▁villages	-3593
▁assiduous	-3594
▁dangerous	-3595
▁districts	-3596
▁lightning	-3597
▁Afterwards	-3598
▁continually	-3599
▁insurrection	-3600
▁strengthened	-3601
br	-3602
ob	-3603
ads	-3604
ssu	-3605
”).	-3606
▁Ak	-3607
aces	-3608
dari	-3609
fast	-3610
ittu	-3611
▁Mad	-3612
▁met	-3613
arant	-3614
means	-3615
these	-3616
▁Abdi	-3617
▁Kull	-3618
▁Lord	-3619
▁irri	-3620
Arbail	-3621
Nergal	-3622
atures	-3623
▁broad	-3624
▁floor	-3625
▁pours	-3626
▁twice	-3627
▁capture	-3628
▁provide	-3629
▁respons	-3630
▁features	-3631
▁preceded	-3632
▁impressed	-3633
▁interpret	-3634
▁population	-3635
gi	-3636
hi	-3637
iḫ	-3638
wa	-3639
kku	-3640
riv	-3641
āri	-3642
▁24	-3643
▁Ch	-3644
▁Ir	-3645
buil	-3646
rānu	-3647
▁Zak	-3648
▁tor	-3649
▁Šar	-3650
about	-3651
banon	-3652
▁Dann	-3653
▁call	-3654
idmuri	-3655
itants	-3656
▁aside	-3657
▁greet	-3658
attened	-3659
attered	-3660
▁Nanaya	-3661
▁secret	-3662
▁thirst	-3663
▁receive	-3664
increment	-3665
▁Manneans	-3666
▁Ummanald	-3667
▁belonged	-3668
▁treasure	-3669
▁Chaldeans	-3670
▁Ummanigaš	-3671
▁dedicated	-3672
▁destruction	-3673
Th	-3674
Who	-3675
ern	-3676
int	-3677
iya	-3678
kin	-3679
oot	-3680
tle	-3681
ume	-3682
▁27	-3683
▁Tw	-3684
What	-3685
ical	-3686
keep	-3687
ying	-3688
▁Abu	-3689
▁Bar	-3690
▁Can	-3691
▁Kil	-3692
▁Kud	-3693
▁Mut	-3694
▁awe	-3695
▁lot	-3696
▁use	-3697
▁Ḫab	-3698
ander	-3699
▁Ekur	-3700
▁fill	-3701
▁line	-3702
▁rams	-3703
▁safe	-3704
headed	-3705
ubuški	-3706
▁occur	-3707
▁razed	-3708
▁revol	-3709
▁storm	-3710
▁wears	-3711
▁fallen	-3712
▁guilty	-3713
▁office	-3714
▁punish	-3715
▁raging	-3716
▁struct	-3717
▁wagons	-3718
structed	-3719
▁builder	-3720
▁Damascus	-3721
▁assembled	-3722
▁craftsmen	-3723
▁steadfast	-3724
▁commanders	-3725
uḫ	-3726
But	-3727
alm	-3728
aḫḫ	-3729
bar	-3730
joy	-3731
rev	-3732
ual	-3733
ēri	-3734
▁(3	-3735
▁ak	-3736
apli	-3737
arqa	-3738
ccia	-3739
itti	-3740
ukku	-3741
▁Guz	-3742
▁Pro	-3743
▁bus	-3744
▁emb	-3745
▁pot	-3746
ently	-3747
quire	-3748
▁bond	-3749
▁died	-3750
▁maid	-3751
▁pick	-3752
isance	-3753
▁Assur	-3754
▁array	-3755
▁bowls	-3756
▁colum	-3757
▁enjoy	-3758
▁sends	-3759
▁staff	-3760
colored	-3761
▁anyone	-3762
▁source	-3763
▁undist	-3764
▁Eḫursag	-3765
▁Raṣappa	-3766
▁thereby	-3767
▁ascended	-3768
▁assembly	-3769
▁children	-3770
▁document	-3771
▁likewise	-3772
▁decisions	-3773
▁decorated	-3774
▁obeisance	-3775
▁privileged	-3776
▁superstruct	-3777
▁undisturbed	-3778
It	-3779
uf	-3780
šû	-3781
’)	-3782
Bēl	-3783
aim	-3784
bes	-3785
liš	-3786
ēšu	-3787
▁!"	-3788
▁).	-3789
▁ce	-3790
ague	-3791
emor	-3792
ices	-3793
mith	-3794
▁Mit	-3795
▁Mari	-3796
▁awes	-3797
▁reed	-3798
hinxes	-3799
stream	-3800
▁cella	-3801
▁conce	-3802
▁emiss	-3803
▁loyal	-3804
▁south	-3805
▁unriv	-3806
cession	-3807
▁Ningal	-3808
▁devour	-3809
▁facing	-3810
▁handed	-3811
▁others	-3812
▁prison	-3813
▁sinned	-3814
▁summon	-3815
▁twelve	-3816
▁breccia	-3817
▁columns	-3818
▁greater	-3819
▁incense	-3820
▁instead	-3821
▁situated	-3822
▁sphinxes	-3823
▁structure	-3824
▁reinforced	-3825
▁cultivation	-3826
▁interpretation	-3827
▁superstructure	-3828
Iš	-3829
zib	-3830
zuh	-3831
āra	-3832
▁Aš	-3833
▁GN	-3834
▁Qu	-3835
This	-3836
adel	-3837
alks	-3838
clos	-3839
idri	-3840
rain	-3841
rect	-3842
umen	-3843
▁Did	-3844
▁Pal	-3845
▁erš	-3846
▁fur	-3847
▁imm	-3848
▁won	-3849
ablet	-3850
again	-3851
mixed	-3852
▁Bull	-3853
▁Kish	-3854
▁arre	-3855
▁thro	-3856
zuhina	-3857
▁birds	-3858
▁deems	-3859
▁irrig	-3860
▁skill	-3861
▁Zababa	-3862
▁amount	-3863
▁concer	-3864
▁device	-3865
▁labour	-3866
▁neglig	-3867
▁Further	-3868
▁conclud	-3869
▁harness	-3870
▁mounted	-3871
▁recruit	-3872
▁victory	-3873
▁bringing	-3874
▁entrance	-3875
▁instruct	-3876
▁splendor	-3877
▁treasury	-3878
Ea	-3879
Go	-3880
eg	-3881
ūa	-3882
igi	-3883
▁?"	-3884
▁Da	-3885
▁Sa	-3886
ault	-3887
chol	-3888
laid	-3889
lamû	-3890
mati	-3891
redu	-3892
text	-3893
▁55)	-3894
▁Aša	-3895
▁Del	-3896
▁Nag	-3897
▁bur	-3898
beams	-3899
▁Zeru	-3900
▁heir	-3901
▁judg	-3902
▁obey	-3903
▁tree	-3904
▁šēpi	-3905
▁Ḫind	-3906
endent	-3907
inanni	-3908
morrow	-3909
▁dates	-3910
▁multi	-3911
▁slave	-3912
▁Deluge	-3913
▁cooked	-3914
▁extend	-3915
▁forgot	-3916
▁poured	-3917
▁prayed	-3918
garments	-3919
▁Ašaredu	-3920
▁advance	-3921
▁dispers	-3922
▁replica	-3923
▁abundant	-3924
▁destroys	-3925
▁rebelled	-3926
▁renovate	-3927
▁tomorrow	-3928
▁ziggurrat	-3929
▁demolished	-3930
bit	-3931
cub	-3932
ilī	-3933
isu	-3934
ket	-3935
mak	-3936
ūru	-3937
▁Iz	-3938
▁ol	-3939
arrû	-3940
cent	-3941
ging	-3942
kiah	-3943
ling	-3944
reng	-3945
šarr	-3946
▁Hab	-3947
▁art	-3948
▁dro	-3949
▁eng	-3950
▁sou	-3951
▁tra	-3952
▁Šep	-3953
Ištar	-3954
asing	-3955
balaṭ	-3956
ruits	-3957
ulayu	-3958
▁Gods	-3959
▁boat	-3960
▁mood	-3961
▁once	-3962
▁tear	-3963
nerari	-3964
zekiah	-3965
▁adorn	-3966
▁arrow	-3967
▁homer	-3968
mission	-3969
▁Arbail	-3970
▁always	-3971
▁centre	-3972
▁expert	-3973
▁locust	-3974
▁plenty	-3975
▁sought	-3976
▁wisdom	-3977
▁balance	-3978
▁bitumen	-3979
▁blessed	-3980
▁capable	-3981
▁keeping	-3982
▁mention	-3983
▁neither	-3984
▁resides	-3985
▁staying	-3986
organized	-3987
▁aromatics	-3988
▁inflicted	-3989
▁unrivalled	-3990
▁inhabitants	-3991
ux	-3992
ye	-3993
še	-3994
asu	-3995
kal	-3996
qar	-3997
▁Em	-3998
duru	-3999
isse	-4000
▁(64	-4001
▁Ind	-4002
▁Lah	-4003
▁dry	-4004
arted	-4005
aying	-4006
imals	-4007
ively	-4008
▁ally	-4009
▁anne	-4010
▁both	-4011
▁draw	-4012
▁farm	-4013
▁lips	-4014
▁moat	-4015
ensils	-4016
streng	-4017
▁beaut	-4018
▁fixed	-4019
▁known	-4020
▁piled	-4021
▁spent	-4022
▁think	-4023
▁Cancer	-4024
▁beside	-4025
▁elders	-4026
▁proper	-4027
▁provis	-4028
▁awesome	-4029
▁garment	-4030
▁outside	-4031
▁pleases	-4032
▁pursued	-4033
▁release	-4034
▁rituals	-4035
▁appealed	-4036
▁guardian	-4037
▁standing	-4038
▁Ummanaldašu	-4039
fe	-4040
ata	-4041
erm	-4042
nel	-4043
pty	-4044
uda	-4045
ḫul	-4046
▁sn	-4047
city	-4048
emon	-4049
eroy	-4050
irra	-4051
more	-4052
ross	-4053
umph	-4054
wine	-4055
ḫalt	-4056
▁Reg	-4057
▁Tah	-4058
▁cal	-4059
▁dyn	-4060
▁ver	-4061
apsed	-4062
nikaš	-4063
▁corv	-4064
▁heed	-4065
▁miss	-4066
▁quay	-4067
▁rear	-4068
▁tore	-4069
▁Where	-4070
▁dimin	-4071
▁ruled	-4072
▁schol	-4073
▁signs	-4074
▁tents	-4075
▁threw	-4076
▁utter	-4077
▁width	-4078
▁wrong	-4079
emorial	-4080
▁Tablet	-4081
▁mounts	-4082
▁reside	-4083
▁taking	-4084
▁Lebanon	-4085
▁Ululayu	-4086
▁counsel	-4087
▁someone	-4088
▁viceroy	-4089
▁business	-4090
▁relative	-4091
▁utensils	-4092
▁exercised	-4093
▁immemorial	-4094
▁recognition	-4095
uh	-4096
00,	-4097
Nan	-4098
asi	-4099
fer	-4100
ikh	-4101
ilk	-4102
tem	-4103
usâ	-4104
uti	-4105
▁(7	-4106
▁So	-4107
Thus	-4108
abbu	-4109
ener	-4110
lace	-4111
said	-4112
yria	-4113
▁Dil	-4114
▁aug	-4115
ident	-4116
odder	-4117
olent	-4118
▁Kass	-4119
▁logs	-4120
▁omen	-4121
▁suit	-4122
▁ture	-4123
ficial	-4124
▁akītu	-4125
▁etern	-4126
▁plant	-4127
ibility	-4128
ušallim	-4129
▁change	-4130
▁guards	-4131
▁sheikh	-4132
strength	-4133
▁Kudurru	-4134
▁borders	-4135
▁collect	-4136
▁locusts	-4137
▁supplic	-4138
▁waiting	-4139
▁attacked	-4140
▁messages	-4141
▁prefects	-4142
▁weakened	-4143
▁beautiful	-4144
▁vegetable	-4145
▁possession	-4146
▁procession	-4147
▁recruitment	-4148
▁reorganized	-4149
do	-4150
sâ	-4151
ali	-4152
des	-4153
dān	-4154
eps	-4155
hil	-4156
mon	-4157
nam	-4158
pur	-4159
utî	-4160
zar	-4161
▁Ru	-4162
)...	-4163
ibtu	-4164
ieft	-4165
otro	-4166
ēlet	-4167
▁Lab	-4168
▁Mug	-4169
▁Nur	-4170
▁Yas	-4171
▁van	-4172
▁Ḫil	-4173
board	-4174
iless	-4175
light	-4176
thood	-4177
where	-4178
▁(15)	-4179
▁Puqu	-4180
▁band	-4181
▁bath	-4182
▁buck	-4183
▁clos	-4184
▁crus	-4185
▁drag	-4186
▁jars	-4187
▁lear	-4188
▁sage	-4189
otropa	-4190
overed	-4191
▁Ekron	-4192
▁Milki	-4193
▁Rašil	-4194
▁fault	-4195
▁leads	-4196
▁rings	-4197
▁short	-4198
▁During	-4199
▁attain	-4200
▁chieft	-4201
▁fodder	-4202
▁roofed	-4203
▁wonder	-4204
lordship	-4205
▁Dannaya	-4206
▁annexed	-4207
▁assault	-4208
▁correct	-4209
▁escaped	-4210
▁passage	-4211
▁triumph	-4212
ellations	-4213
▁Chaldean	-4214
▁confined	-4215
▁directed	-4216
▁garrison	-4217
▁priestly	-4218
▁revealed	-4219
▁Arbailayu	-4220
▁conqueror	-4221
▁scattered	-4222
▁favourable	-4223
▁overlordship	-4224
)?	-4225
gu	-4226
▁ṣ	-4227
arm	-4228
kel	-4229
met	-4230
rie	-4231
▁Si	-4232
▁av	-4233
Amuk	-4234
biṣu	-4235
irst	-4236
rise	-4237
room	-4238
▁60)	-4239
▁Day	-4240
▁Kiš	-4241
▁Kul	-4242
▁led	-4243
▁mur	-4244
ašmaš	-4245
duced	-4246
kelon	-4247
place	-4248
wered	-4249
▁Atar	-4250
▁Land	-4251
▁braz	-4252
▁humb	-4253
atched	-4254
▁dream	-4255
▁keeps	-4256
▁moved	-4257
▁pries	-4258
▁renew	-4259
▁thing	-4260
▁throw	-4261
▁tower	-4262
Kidmuri	-4263
incense	-4264
▁Dunānu	-4265
▁assist	-4266
▁clouds	-4267
▁consid	-4268
▁decree	-4269
▁finish	-4270
otropaic	-4271
▁Mugallu	-4272
▁adorned	-4273
▁animals	-4274
▁clothed	-4275
▁desired	-4276
▁leather	-4277
▁shorter	-4278
▁thought	-4279
▁Ashkelon	-4280
▁Mušallim	-4281
▁approach	-4282
▁building	-4283
▁creation	-4284
▁deported	-4285
▁Akkullanu	-4286
▁witnesses	-4287
▁confection	-4288
▁performing	-4289
▁priesthood	-4290
▁slaughtered	-4291
20	-4292
ṭi	-4293
aha	-4294
alû	-4295
dan	-4296
lic	-4297
reš	-4298
she	-4299
uly	-4300
une	-4301
urb	-4302
ūtu	-4303
▁),	-4304
▁Li	-4305
aṣir	-4306
kill	-4307
year	-4308
āssu	-4309
▁50)	-4310
▁Nam	-4311
▁Thr	-4312
▁Two	-4313
▁Zer	-4314
agger	-4315
inate	-4316
lemen	-4317
olesc	-4318
omers	-4319
ption	-4320
▁Hind	-4321
▁date	-4322
▁hole	-4323
▁loot	-4324
▁thri	-4325
▁usuf	-4326
▁wadi	-4327
atters	-4328
ertain	-4329
ourage	-4330
ourney	-4331
šumāti	-4332
▁Bēlet	-4333
▁chant	-4334
▁check	-4335
▁mixed	-4336
▁mobil	-4337
spiring	-4338
▁appeal	-4339
▁caught	-4340
▁stored	-4341
▁tureen	-4342
▁Mušezib	-4343
▁adolesc	-4344
▁conting	-4345
▁devoted	-4346
▁officer	-4347
▁prolong	-4348
▁secured	-4349
▁springs	-4350
▁whoever	-4351
▁eternity	-4352
▁joyfully	-4353
▁kindness	-4354
▁military	-4355
▁usufruct	-4356
▁criminals	-4357
▁entourage	-4358
▁merciless	-4359
▁dispatched	-4360
▁punishment	-4361
Is	-4362
ua	-4363
zû	-4364
▁q	-4365
)."	-4366
.).	-4367
Pro	-4368
dam	-4369
eed	-4370
god	-4371
īša	-4372
▁80	-4373
▁Az	-4374
Rusâ	-4375
aced	-4376
alim	-4377
anda	-4378
asty	-4379
dden	-4380
flow	-4381
half	-4382
innu	-4383
kenu	-4384
outs	-4385
rian	-4386
ries	-4387
rily	-4388
udah	-4389
▁Gil	-4390
▁Ull	-4391
▁obl	-4392
arsip	-4393
ishes	-4394
itute	-4395
quest	-4396
smith	-4397
trees	-4398
▁Barh	-4399
▁Uraš	-4400
▁affl	-4401
▁cren	-4402
▁grew	-4403
▁most	-4404
▁tall	-4405
▁wage	-4406
ašared	-4407
ritten	-4408
ḫaltaš	-4409
▁baker	-4410
▁bands	-4411
▁cubit	-4412
▁fifty	-4413
▁level	-4414
▁necks	-4415
▁sharp	-4416
▁still	-4417
▁thigh	-4418
▁canals	-4419
▁longer	-4420
▁stalks	-4421
iliation	-4422
▁destiny	-4423
▁pointed	-4424
▁telling	-4425
▁achieved	-4426
▁answered	-4427
▁delegate	-4428
▁festival	-4429
▁location	-4430
▁personal	-4431
▁suitable	-4432
▁apotropaic	-4433
▁submissive	-4434
▁unfavorable	-4435
▁preservation	-4436
▁crenellations	-4437
▁expeditionary	-4438
▁responsibility	-4439
cal	-4440
cam	-4441
cap	-4442
elf	-4443
ics	-4444
lum	-4445
sts	-4446
▁Me	-4447
▁Nē	-4448
pass	-4449
uḫḫa	-4450
zeri	-4451
▁Bur	-4452
▁cow	-4453
▁dam	-4454
▁due	-4455
▁vir	-4456
▁wal	-4457
Syria	-4458
gress	-4459
▁Hitt	-4460
▁Sams	-4461
▁Ursâ	-4462
▁bene	-4463
▁repe	-4464
▁vess	-4465
balliṭ	-4466
homers	-4467
saying	-4468
▁Chief	-4469
▁Iddin	-4470
▁Kalḫu	-4471
▁clear	-4472
▁goods	-4473
▁plann	-4474
▁saved	-4475
▁waste	-4476
ubuškia	-4477
šarrani	-4478
▁10,000	-4479
▁Hamath	-4480
▁Heaven	-4481
▁allies	-4482
▁choice	-4483
▁double	-4484
▁floods	-4485
▁gather	-4486
▁intent	-4487
▁nights	-4488
▁tables	-4489
official	-4490
▁Muṣaṣir	-4491
▁Samaria	-4492
▁Sealand	-4493
▁Through	-4494
▁achieve	-4495
▁ancient	-4496
▁marshes	-4497
inspiring	-4498
▁arrested	-4499
▁daylight	-4500
▁prepared	-4501
▁selected	-4502
▁regularly	-4503
▁appropriate	-4504
alâ	-4505
ašš	-4506
esp	-4507
gas	-4508
psû	-4509
sol	-4510
wad	-4511
ēnu	-4512
▁Up	-4513
abši	-4514
ails	-4515
amua	-4516
ason	-4517
eous	-4518
ists	-4519
peas	-4520
▁70)	-4521
▁Dan	-4522
▁Kat	-4523
▁Kub	-4524
▁Laq	-4525
▁Pan	-4526
▁Sar	-4527
▁Zaz	-4528
▁uns	-4529
▁vig	-4530
akkil	-4531
ching	-4532
ellig	-4533
igned	-4534
ilayu	-4535
items	-4536
unaya	-4537
uspic	-4538
▁(5')	-4539
▁15')	-4540
▁20')	-4541
▁Sasî	-4542
▁Susa	-4543
▁glor	-4544
▁loan	-4545
▁pity	-4546
▁tram	-4547
Nanaya	-4548
cubits	-4549
formed	-4550
ounded	-4551
purple	-4552
▁Arwad	-4553
▁While	-4554
▁chick	-4555
▁older	-4556
▁rebel	-4557
attukku	-4558
fitting	-4559
▁Barhal	-4560
▁Puqudu	-4561
▁across	-4562
▁progen	-4563
▁revere	-4564
▁secure	-4565
▁strike	-4566
▁toward	-4567
▁Mannean	-4568
▁angrily	-4569
▁brazier	-4570
▁dynasty	-4571
▁farmers	-4572
▁illness	-4573
▁setting	-4574
uspicious	-4575
▁Anunnaki	-4576
▁Kassites	-4577
▁Mutakkil	-4578
▁hostages	-4579
▁peaceful	-4580
▁negligent	-4581
▁physician	-4582
▁sanctuary	-4583
constructed	-4584
▁Babylonian	-4585
▁commandant	-4586
▁circumspect	-4587
▁grandfather	-4588
▁shepherding	-4589
▁reconciliation	-4590
fts	-4591
oom	-4592
▁Uš	-4593
▁bu	-4594
ašuh	-4595
cuts	-4596
domo	-4597
hect	-4598
idus	-4599
tled	-4600
uted	-4601
šunu	-4602
▁Sim	-4603
▁gir	-4604
▁sal	-4605
▁wea	-4606
Where	-4607
abibi	-4608
ailed	-4609
ashed	-4610
elebr	-4611
ening	-4612
▁Adda	-4613
▁clad	-4614
▁gent	-4615
▁lieu	-4616
▁need	-4617
▁onto	-4618
▁supp	-4619
▁valu	-4620
Ešarra	-4621
onidus	-4622
▁advan	-4623
▁anger	-4624
▁liver	-4625
▁loved	-4626
▁torch	-4627
▁annual	-4628
▁celebr	-4629
▁courti	-4630
▁invest	-4631
▁months	-4632
▁repair	-4633
▁spread	-4634
▁street	-4635
hectares	-4636
▁Katmuḫu	-4637
▁Meluḫḫa	-4638
▁Taharqa	-4639
▁Tarbiṣu	-4640
▁certain	-4641
▁journey	-4642
▁objects	-4643
▁priests	-4644
▁criminal	-4645
▁grandson	-4646
▁interest	-4647
▁sattukku	-4648
▁forgotten	-4649
▁inspector	-4650
▁instigate	-4651
▁renovated	-4652
▁adolescent	-4653
▁meadowland	-4654
iṣ	-4655
lī	-4656
qâ	-4657
tr	-4658
fif	-4659
nip	-4660
orm	-4661
rag	-4662
rif	-4663
thy	-4664
uba	-4665
uma	-4666
▁Ag	-4667
▁Ap	-4668
▁Mu	-4669
▁Šu	-4670
airs	-4671
anki	-4672
arem	-4673
cell	-4674
eder	-4675
rick	-4676
rite	-4677
time	-4678
▁Nat	-4679
▁ful	-4680
▁kne	-4681
ament	-4682
idian	-4683
iqīša	-4684
iting	-4685
lišir	-4686
▁News	-4687
▁Town	-4688
▁anni	-4689
▁cone	-4690
▁corp	-4691
▁exam	-4692
▁flew	-4693
▁home	-4694
▁poor	-4695
▁puts	-4696
▁soil	-4697
▁swam	-4698
▁Šala	-4699
▁šand	-4700
horses	-4701
levant	-4702
▁(10')	-4703
▁break	-4704
▁forty	-4705
▁spare	-4706
▁trade	-4707
portant	-4708
▁Erišum	-4709
▁august	-4710
▁determ	-4711
▁eating	-4712
▁lifted	-4713
▁olives	-4714
▁ruined	-4715
▁tailor	-4716
▁terrif	-4717
▁fifteen	-4718
▁incited	-4719
▁letters	-4720
▁missing	-4721
▁outflow	-4722
▁skilled	-4723
▁Elamites	-4724
▁Hezekiah	-4725
▁conquest	-4726
▁Nabonidus	-4727
▁befitting	-4728
▁inspected	-4729
▁auspicious	-4730
▁cavalrymen	-4731
▁Furthermore	-4732
▁instructions	-4733
-(	-4734
bb	-4735
oo	-4736
sl	-4737
yu	-4738
za	-4739
aki	-4740
hau	-4741
ift	-4742
izi	-4743
ušu	-4744
zaḫ	-4745
ūri	-4746
▁Iq	-4747
▁Mo	-4748
▁Ti	-4749
akka	-4750
akki	-4751
aktu	-4752
held	-4753
lets	-4754
rent	-4755
reṣu	-4756
upon	-4757
urtu	-4758
▁65)	-4759
▁Set	-4760
▁Sir	-4761
▁Tak	-4762
▁Zik	-4763
▁eag	-4764
▁eff	-4765
▁pet	-4766
▁pig	-4767
▁sto	-4768
There	-4769
acher	-4770
after	-4771
armer	-4772
eared	-4773
ilāni	-4774
inter	-4775
oment	-4776
rated	-4777
▁Kipp	-4778
▁Nabu	-4779
▁Padî	-4780
▁aslu	-4781
▁bese	-4782
▁dues	-4783
▁duty	-4784
▁ears	-4785
▁form	-4786
▁memb	-4787
▁prel	-4788
▁prot	-4789
▁sick	-4790
▁turt	-4791
▁walk	-4792
unders	-4793
▁2,000	-4794
▁Eridu	-4795
▁Mukin	-4796
▁Palil	-4797
▁Regul	-4798
▁avail	-4799
▁brace	-4800
▁burns	-4801
▁deser	-4802
▁negle	-4803
▁parts	-4804
espread	-4805
▁kidney	-4806
▁massac	-4807
▁relied	-4808
killanni	-4809
▁Aramean	-4810
▁divided	-4811
▁massive	-4812
▁palaces	-4813
▁plotted	-4814
▁prevent	-4815
▁progeny	-4816
▁rations	-4817
▁rejoice	-4818
▁streets	-4819
▁wording	-4820
offerings	-4821
▁advanced	-4822
▁entering	-4823
▁exempted	-4824
▁officers	-4825
▁relevant	-4826
▁treacher	-4827
▁Babylonia	-4828
▁brickwork	-4829
▁devastate	-4830
▁something	-4831
▁vineyards	-4832
▁Kakkullanu	-4833
▁attendants	-4834
▁cultivated	-4835
▁emissaries	-4836
▁widespread	-4837
▁disappeared	-4838
Be	-4839
Now	-4840
aqq	-4841
emp	-4842
idi	-4843
jug	-4844
law	-4845
ump	-4846
▁33	-4847
▁Or	-4848
Dakk	-4849
aded	-4850
almu	-4851
amur	-4852
ange	-4853
asti	-4854
both	-4855
ends	-4856
erve	-4857
whom	-4858
▁(65	-4859
▁1/3	-4860
▁75)	-4861
▁Kap	-4862
▁Kip	-4863
▁Nip	-4864
▁fra	-4865
▁leg	-4866
▁pen	-4867
eness	-4868
loose	-4869
nipha	-4870
ously	-4871
tribe	-4872
▁Ever	-4873
▁King	-4874
▁Ninu	-4875
▁belt	-4876
▁brib	-4877
▁deep	-4878
▁mule	-4879
emphis	-4880
remely	-4881
shaped	-4882
▁beard	-4883
▁claim	-4884
▁goose	-4885
▁grasp	-4886
▁hills	-4887
▁opens	-4888
▁sides	-4889
▁troub	-4890
already	-4891
contain	-4892
▁Ahlamû	-4893
▁Guzana	-4894
▁Thebes	-4895
▁advers	-4896
▁formed	-4897
▁itself	-4898
▁plants	-4899
▁repres	-4900
▁sister	-4901
▁spiced	-4902
▁subjug	-4903
▁supply	-4904
▁throws	-4905
▁trampl	-4906
▁yearly	-4907
Property	-4908
▁Madaktu	-4909
▁citizen	-4910
▁control	-4911
▁decrees	-4912
▁interru	-4913
▁located	-4914
▁planned	-4915
▁trained	-4916
▁crossing	-4917
▁departed	-4918
▁obsidian	-4919
▁occurred	-4920
▁thunders	-4921
▁upstream	-4922
▁valuable	-4923
containers	-4924
▁gentlemen	-4925
▁preserved	-4926
▁shepherds	-4927
▁victories	-4928
▁boundaries	-4929
▁skillfully	-4930
▁storehouse	-4931
▁victorious	-4932
▁confectioner	-4933
Sh	-4934
Te	-4935
bs	-4936
ūn	-4937
▁ḫ	-4938
How	-4939
bur	-4940
dod	-4941
ira	-4942
kab	-4943
pad	-4944
āte	-4945
ūma	-4946
ūti	-4947
▁70	-4948
▁ty	-4949
Come	-4950
Send	-4951
buch	-4952
duty	-4953
five	-4954
foot	-4955
gran	-4956
imme	-4957
immu	-4958
inth	-4959
itud	-4960
ouch	-4961
pani	-4962
ummu	-4963
yada	-4964
ṣill	-4965
▁500	-4966
▁Has	-4967
▁Her	-4968
▁eye	-4969
▁ind	-4970
▁nom	-4971
▁pie	-4972
▁tie	-4973
▁tun	-4974
▁urn	-4975
▁Šab	-4976
adnez	-4977
arrow	-4978
enter	-4979
flour	-4980
isted	-4981
ledge	-4982
mukin	-4983
quake	-4984
ution	-4985
▁Also	-4986
▁Gaza	-4987
▁Then	-4988
▁cold	-4989
▁post	-4990
▁pron	-4991
▁scar	-4992
▁snow	-4993
▁spir	-4994
▁sust	-4995
▁Ḫiri	-4996
reṣuwa	-4997
should	-4998
stones	-4999
▁Gabbu	-5000
▁Remut	-5001
▁Until	-5002
▁early	-5003
▁fraud	-5004
▁grass	-5005
▁grown	-5006
▁marsh	-5007
▁paths	-5008
▁peaks	-5009
▁seals	-5010
balassu	-5011
balāssu	-5012
omegran	-5013
▁Ashdod	-5014
▁Having	-5015
▁Kippat	-5016
▁alters	-5017
▁bestow	-5018
▁corpse	-5019
▁decide	-5020
▁excell	-5021
▁heaped	-5022
▁leader	-5023
▁onions	-5024
▁refuge	-5025
▁review	-5026
▁scared	-5027
▁strife	-5028
▁superv	-5029
▁theirs	-5030
▁walled	-5031
▁wealth	-5032
▁šandab	-5033
military	-5034
▁anybody	-5035
▁creator	-5036
▁lamassu	-5037
▁scribes	-5038
▁started	-5039
buchadnez	-5040
▁Arzuhina	-5041
▁Babilayu	-5042
▁Egyptian	-5043
▁chanters	-5044
▁chariote	-5045
▁controls	-5046
▁diminish	-5047
▁necklace	-5048
▁repeated	-5049
▁reported	-5050
▁scholars	-5051
▁withheld	-5052
▁yourself	-5053
▁concluded	-5054
▁extremely	-5055
▁regarding	-5056
▁righteous	-5057
▁stretches	-5058
▁assignment	-5059
▁considered	-5060
▁contingent	-5061
▁rebellious	-5062
Il	-5063
ek	-5064
mi	-5065
āṭ	-5066
Sîn	-5067
aḫi	-5068
irm	-5069
niš	-5070
rid	-5071
rum	-5072
son	-5073
urr	-5074
uṭu	-5075
yes	-5076
ūnu	-5077
alik	-5078
comm	-5079
reak	-5080
unks	-5081
▁Abī	-5082
▁Ber	-5083
▁Gir	-5084
▁Lar	-5085
▁Sap	-5086
▁ayu	-5087
▁bol	-5088
▁ens	-5089
ammiq	-5090
ances	-5091
ashes	-5092
ately	-5093
brick	-5094
ences	-5095
icing	-5096
imate	-5097
lands	-5098
omach	-5099
paths	-5100
rible	-5101
▁Qutu	-5102
▁blue	-5103
▁hamm	-5104
▁inex	-5105
▁meet	-5106
▁palm	-5107
▁sell	-5108
cepted	-5109
farmer	-5110
iliary	-5111
utians	-5112
▁Akitu	-5113
▁Tebil	-5114
▁Yasub	-5115
▁agate	-5116
▁ahead	-5117
▁court	-5118
▁displ	-5119
▁envoy	-5120
▁faith	-5121
▁freed	-5122
▁lambs	-5123
▁loose	-5124
▁marri	-5125
▁noble	-5126
▁parap	-5127
▁rides	-5128
▁togas	-5129
▁Ḫabḫu	-5130
▁Rising	-5131
▁abodes	-5132
▁arrows	-5133
▁common	-5134
▁cultic	-5135
▁felled	-5136
▁murder	-5137
▁swamps	-5138
▁urnutu	-5139
aranteed	-5140
portions	-5141
▁Bulluṭu	-5142
▁Memphis	-5143
▁Regulus	-5144
▁Without	-5145
▁appears	-5146
▁citadel	-5147
▁foreign	-5148
▁inquire	-5149
▁matters	-5150
▁product	-5151
▁pronoun	-5152
▁request	-5153
▁stomach	-5154
▁Ḫindānu	-5155
▁fattened	-5156
▁interior	-5157
▁judgment	-5158
▁measured	-5159
▁speaking	-5160
▁available	-5161
▁countless	-5162
▁goldsmith	-5163
▁libations	-5164
▁rejoicing	-5165
▁remainder	-5166
▁slaughter	-5167
▁earthquake	-5168
▁šandabakku	-5169
buchadnezzar	-5170
▁accordingly	-5171
▁unsubmissive	-5172
60	-5173
On	-5174
bâ	-5175
rê	-5176
dur	-5177
elt	-5178
usi	-5179
īya	-5180
▁Uq	-5181
Give	-5182
adad	-5183
dalâ	-5184
dini	-5185
epsy	-5186
epuš	-5187
hinu	-5188
ighb	-5189
ilic	-5190
ilku	-5191
leep	-5192
line	-5193
made	-5194
post	-5195
ried	-5196
ugit	-5197
umin	-5198
uruš	-5199
uzur	-5200
wall	-5201
ēzib	-5202
šaya	-5203
▁120	-5204
▁Arz	-5205
▁Laṣ	-5206
▁Nad	-5207
▁Naṣ	-5208
▁aux	-5209
▁cer	-5210
▁fer	-5211
▁hin	-5212
▁mal	-5213
▁ped	-5214
Ashur	-5215
arrān	-5216
thern	-5217
▁(20)	-5218
▁Haza	-5219
▁Laqû	-5220
▁Ukku	-5221
▁agre	-5222
▁dust	-5223
▁dyed	-5224
▁epil	-5225
▁move	-5226
▁nind	-5227
▁shut	-5228
▁talk	-5229
▁thor	-5230
▁tomb	-5231
▁upro	-5232
Barsip	-5233
aining	-5234
imirra	-5235
ration	-5236
ušabši	-5237
ušezib	-5238
▁Arpad	-5239
▁Belat	-5240
▁Igigi	-5241
▁Našuh	-5242
▁Parsu	-5243
▁Seven	-5244
▁banqu	-5245
▁emble	-5246
▁fugit	-5247
▁overc	-5248
▁sleep	-5249
▁yours	-5250
▁Kaštar	-5251
▁Kilizi	-5252
▁bridle	-5253
▁fallow	-5254
▁mounds	-5255
▁narrow	-5256
▁neighb	-5257
▁ruling	-5258
▁swings	-5259
▁virile	-5260
▁Tebilti	-5261
▁accompl	-5262
▁ceasing	-5263
▁censers	-5264
▁express	-5265
▁prelate	-5266
▁prepare	-5267
▁produce	-5268
▁reduced	-5269
▁Indabibi	-5270
▁accepted	-5271
▁detained	-5272
▁pleasant	-5273
▁pomegran	-5274
▁thorough	-5275
▁auxiliary	-5276
▁cultivate	-5277
▁massacred	-5278
▁merchants	-5279
▁shoulders	-5280
▁experience	-5281
▁permission	-5282
▁substitute	-5283
)!	-5284
Gu	-5285
nî	-5286
▁i	-5287
Aya	-5288
Kur	-5289
irr	-5290
kes	-5291
mat	-5292
ral	-5293
six	-5294
ḫar	-5295
▁(4	-5296
▁Eb	-5297
Mull	-5298
agal	-5299
bowl	-5300
conf	-5301
edge	-5302
inua	-5303
issi	-5304
kind	-5305
metu	-5306
tees	-5307
ving	-5308
zana	-5309
▁Bub	-5310
▁Har	-5311
▁Sur	-5312
▁alm	-5313
▁ant	-5314
▁cre	-5315
▁fle	-5316
▁hid	-5317
▁hit	-5318
▁jew	-5319
▁ket	-5320
▁lar	-5321
▁mis	-5322
▁rab	-5323
▁sho	-5324
▁ste	-5325
▁vac	-5326
amban	-5327
eroom	-5328
estin	-5329
icked	-5330
līšir	-5331
āṭāya	-5332
▁Aqar	-5333
▁Bahi	-5334
▁Dadî	-5335
▁Fear	-5336
▁Have	-5337
▁Sang	-5338
▁Sard	-5339
▁Step	-5340
▁apsû	-5341
▁carp	-5342
▁lock	-5343
▁lore	-5344
▁pack	-5345
▁ring	-5346
▁sown	-5347
▁stew	-5348
▁suff	-5349
▁trav	-5350
Tukult	-5351
ritual	-5352
tribes	-5353
turned	-5354
šumati	-5355
▁Media	-5356
▁Nipur	-5357
▁Puzur	-5358
▁Sagab	-5359
▁Zakir	-5360
▁besie	-5361
▁depor	-5362
▁harem	-5363
▁meets	-5364
▁oppon	-5365
▁ready	-5366
▁behalf	-5367
▁flayed	-5368
▁heroic	-5369
▁humble	-5370
▁larger	-5371
▁moment	-5372
▁pulled	-5373
▁revolt	-5374
▁rivers	-5375
▁thrown	-5376
▁vacant	-5377
▁Šubaru	-5378
▁Bahianu	-5379
▁already	-5380
▁effaced	-5381
▁endowed	-5382
▁hinhinu	-5383
▁sunrise	-5384
▁trodden	-5385
intendent	-5386
▁Balāṭāya	-5387
▁epilepsy	-5388
▁hammurtu	-5389
▁intellig	-5390
▁petition	-5391
▁troubled	-5392
Guaranteed	-5393
▁Kaštaritu	-5394
▁alongside	-5395
▁collapsed	-5396
▁important	-5397
▁transport	-5398
galkurkurra	-5399
▁assistance	-5400
▁irrigation	-5401
▁prosperity	-5402
▁provisions	-5403
▁questioned	-5404
▁terrifying	-5405
▁Nebuchadnezzar	-5406
?”	-5407
Ur	-5408
lū	-5409
pâ	-5410
sw	-5411
ūz	-5412
.'"	-5413
Kil	-5414
Kub	-5415
Pal	-5416
aur	-5417
auš	-5418
ham	-5419
mar	-5420
oud	-5421
ram	-5422
sed	-5423
yan	-5424
ība	-5425
ššu	-5426
▁Ph	-5427
▁cr	-5428
alem	-5429
aned	-5430
auta	-5431
cont	-5432
emma	-5433
erus	-5434
ibly	-5435
igin	-5436
oked	-5437
opol	-5438
rabi	-5439
unga	-5440
view	-5441
▁Arb	-5442
▁Dēr	-5443
▁III	-5444
▁Ina	-5445
▁Son	-5446
▁fat	-5447
▁fro	-5448
▁gho	-5449
▁kur	-5450
▁vat	-5451
Ninua	-5452
abbar	-5453
erday	-5454
field	-5455
igall	-5456
ighth	-5457
inner	-5458
otted	-5459
resid	-5460
rison	-5461
ūzubu	-5462
▁Gabb	-5463
▁Gilz	-5464
▁Mard	-5465
▁Mati	-5466
▁Rapi	-5467
▁arch	-5468
▁harm	-5469
▁skin	-5470
▁soup	-5471
▁such	-5472
arruqu	-5473
ateans	-5474
nelian	-5475
reated	-5476
▁Erība	-5477
▁armed	-5478
▁beast	-5479
▁confl	-5480
▁debts	-5481
▁deity	-5482
▁depri	-5483
▁empty	-5484
▁exist	-5485
▁fates	-5486
▁honor	-5487
▁human	-5488
▁ornam	-5489
▁rooms	-5490
▁strew	-5491
▁wells	-5492
▁wives	-5493
closure	-5494
ensions	-5495
juniper	-5496
▁Nagītu	-5497
▁Rivers	-5498
▁Zarutî	-5499
▁arrang	-5500
▁dagger	-5501
▁endure	-5502
▁gained	-5503
▁mouths	-5504
▁pedest	-5505
▁pledge	-5506
▁really	-5507
▁rebuil	-5508
▁stayed	-5509
▁submit	-5510
▁Šubria	-5511
▁Ḫarḫar	-5512
antation	-5513
attering	-5514
erusalem	-5515
esterday	-5516
▁Barruqu	-5517
▁Emašmaš	-5518
▁Zikirtu	-5519
▁changes	-5520
▁eršemma	-5521
▁extreme	-5522
▁fighter	-5523
▁perhaps	-5524
▁prevail	-5525
▁refused	-5526
▁renders	-5527
▁steward	-5528
▁turtled	-5529
▁working	-5530
igallians	-5531
▁attached	-5532
▁colossus	-5533
▁imprison	-5534
▁interced	-5535
▁seizures	-5536
▁superior	-5537
▁terrible	-5538
▁agreeable	-5539
▁countries	-5540
▁deportees	-5541
▁harnessed	-5542
▁knowledge	-5543
lamentation	-5544
▁dimensions	-5545
▁obligation	-5546
▁forefathers	-5547
▁supplications	-5548
▁Yasubigallians	-5549
";	-5550
(-	-5551
Bun	-5552
For	-5553
azu	-5554
ety	-5555
oth	-5556
pes	-5557
sam	-5558
sil	-5559
sue	-5560
tro	-5561
udê	-5562
ātu	-5563
īru	-5564
▁ef	-5565
▁ha	-5566
▁ti	-5567
fice	-5568
iber	-5569
keys	-5570
kina	-5571
mina	-5572
rand	-5573
urer	-5574
weet	-5575
yond	-5576
▁Bet	-5577
▁Ken	-5578
▁Leo	-5579
▁Lib	-5580
▁Maš	-5581
▁Met	-5582
▁boy	-5583
▁hot	-5584
▁sap	-5585
▁sis	-5586
▁sol	-5587
▁zaḫ	-5588
Nusku	-5589
adanu	-5590
amber	-5591
frain	-5592
ighty	-5593
inent	-5594
itude	-5595
orrow	-5596
uball	-5597
usunu	-5598
whose	-5599
▁Išme	-5600
▁Mand	-5601
▁Moab	-5602
▁aven	-5603
▁brid	-5604
▁budê	-5605
▁fact	-5606
▁fame	-5607
▁feed	-5608
▁gown	-5609
▁grie	-5610
▁kern	-5611
▁lack	-5612
▁lays	-5613
▁meal	-5614
▁slew	-5615
▁suck	-5616
▁weep	-5617
igants	-5618
lation	-5619
urušpâ	-5620
▁Every	-5621
▁First	-5622
▁Yakīn	-5623
▁areas	-5624
▁banks	-5625
▁bones	-5626
▁broke	-5627
▁drove	-5628
▁grove	-5629
▁mares	-5630
▁occup	-5631
▁scept	-5632
▁sixth	-5633
▁sixty	-5634
▁wrath	-5635
Amukani	-5636
foreign	-5637
verness	-5638
▁Destin	-5639
▁Nobody	-5640
▁Rapiqu	-5641
▁brewer	-5642
▁deaths	-5643
▁images	-5644
▁joyful	-5645
▁layers	-5646
▁trunks	-5647
▁writes	-5648
▁zaḫalû	-5649
▁Hittite	-5650
▁Written	-5651
▁afflict	-5652
▁annihil	-5653
▁apprent	-5654
▁bearded	-5655
▁buckled	-5656
▁captive	-5657
▁chamber	-5658
▁closely	-5659
▁deliber	-5660
▁freedom	-5661
▁kernels	-5662
▁leaders	-5663
▁members	-5664
▁quinces	-5665
▁revered	-5666
▁squares	-5667
▁surpass	-5668
▁Ḫilakku	-5669
šezibanni	-5670
▁Whatever	-5671
▁accounts	-5672
▁clothing	-5673
▁collated	-5674
▁intercal	-5675
▁lengthen	-5676
▁required	-5677
confection	-5678
▁Destinies	-5679
▁battering	-5680
▁bracelets	-5681
▁correctly	-5682
▁housekeep	-5683
▁remaining	-5684
▁sacrifice	-5685
▁stretched	-5686
▁discovered	-5687
▁personally	-5688
▁repeatedly	-5689
▁arrangement	-5690
▁charioteers	-5691
▁information	-5692
▁translation	-5693
▁turtledoves	-5694
▁appropriated	-5695
▁disappearance	-5696
';	-5697
Ab	-5698
All	-5699
Per	-5700
Sin	-5701
ahh	-5702
bro	-5703
dec	-5704
epu	-5705
ilâ	-5706
ipâ	-5707
isf	-5708
kka	-5709
orp	-5710
ryg	-5711
str	-5712
ulî	-5713
ṣur	-5714
▁Go	-5715
▁ur	-5716
alhu	-5717
ania	-5718
arsa	-5719
atar	-5720
aḫḫē	-5721
blos	-5722
dāri	-5723
inti	-5724
olds	-5725
vess	-5726
your	-5727
šūma	-5728
ṣiru	-5729
▁1/4	-5730
▁85)	-5731
▁Kab	-5732
▁Lub	-5733
▁Maz	-5734
▁Qat	-5735
▁Ram	-5736
▁Sal	-5737
▁Sul	-5738
▁Sum	-5739
▁Upp	-5740
▁Ziz	-5741
▁bod	-5742
▁ing	-5743
▁rav	-5744
▁Ḫan	-5745
Adini	-5746
Bring	-5747
Kilam	-5748
Yakin	-5749
amash	-5750
asted	-5751
betti	-5752
build	-5753
ented	-5754
ilaya	-5755
leads	-5756
metal	-5757
seeds	-5758
sworn	-5759
▁Banî	-5760
▁eans	-5761
▁grow	-5762
▁harb	-5763
▁ilku	-5764
▁peak	-5765
▁sees	-5766
▁sure	-5767
▁wail	-5768
Should	-5769
astern	-5770
estine	-5771
igalzu	-5772
illaya	-5773
proper	-5774
▁Ašipâ	-5775
▁Imgur	-5776
▁Melid	-5777
▁Nēmed	-5778
▁Phryg	-5779
▁Since	-5780
▁belie	-5781
▁chair	-5782
▁fifth	-5783
▁imple	-5784
▁picks	-5785
▁quant	-5786
▁share	-5787
▁spear	-5788
▁state	-5789
▁tremb	-5790
▁vanqu	-5791
▁wheat	-5792
▁Byblos	-5793
▁Inside	-5794
▁Lahiru	-5795
▁Zabinu	-5796
▁access	-5797
▁archit	-5798
▁beyond	-5799
▁bodies	-5800
▁curled	-5801
▁domest	-5802
▁extrac	-5803
▁kindly	-5804
▁satisf	-5805
▁scouts	-5806
▁select	-5807
▁showed	-5808
▁thrice	-5809
▁useful	-5810
▁weaned	-5811
▁winter	-5812
▁Šūzubu	-5813
Kilamzaḫ	-5814
tersweet	-5815
▁Balassu	-5816
▁Kummuḫu	-5817
▁Ninuayu	-5818
▁Refrain	-5819
▁bearers	-5820
▁dragged	-5821
▁furious	-5822
▁guarant	-5823
▁invited	-5824
▁learned	-5825
▁mankind	-5826
▁outpost	-5827
▁pasture	-5828
▁radiant	-5829
▁sheikhs	-5830
▁sisalhu	-5831
▁strikes	-5832
▁thereon	-5833
commander	-5834
▁besieged	-5835
▁dispatch	-5836
▁entirely	-5837
▁fullness	-5838
▁informed	-5839
▁opponent	-5840
▁rejoiced	-5841
▁carnelian	-5842
▁childhood	-5843
▁dwellings	-5844
▁excellent	-5845
▁governess	-5846
▁afterwards	-5847
▁altogether	-5848
▁chieftains	-5849
▁overturned	-5850
▁reconciled	-5851
▁bittersweet	-5852
Es	-5853
ih	-5854
ny	-5855
▁ē	-5856
200	-5857
500	-5858
Con	-5859
Dak	-5860
apa	-5861
maš	-5862
two	-5863
▁3,	-5864
▁34	-5865
▁Pa	-5866
agar	-5867
also	-5868
altâ	-5869
away	-5870
ašme	-5871
band	-5872
bred	-5873
dish	-5874
gold	-5875
icol	-5876
inni	-5877
mans	-5878
meas	-5879
medi	-5880
muše	-5881
qepu	-5882
spab	-5883
uses	-5884
▁150	-5885
▁80)	-5886
▁Lam	-5887
▁bas	-5888
▁dap	-5889
▁dit	-5890
▁fum	-5891
▁gra	-5892
▁ord	-5893
▁Šer	-5894
Write	-5895
fifty	-5896
ipped	-5897
lings	-5898
plant	-5899
temen	-5900
udges	-5901
▁Antu	-5902
▁Babu	-5903
▁Comm	-5904
▁Enem	-5905
▁dece	-5906
▁less	-5907
▁loss	-5908
▁papp	-5909
▁plat	-5910
▁rage	-5911
▁roam	-5912
▁robb	-5913
▁rode	-5914
▁roll	-5915
▁test	-5916
▁type	-5917
Inurta	-5918
bunaya	-5919
making	-5920
menanu	-5921
silver	-5922
urable	-5923
ušēzib	-5924
▁3,000	-5925
▁Kumme	-5926
▁Later	-5927
▁Naṣib	-5928
▁Ubulu	-5929
▁chest	-5930
▁dying	-5931
▁entry	-5932
▁gener	-5933
▁gowns	-5934
▁impro	-5935
▁shiny	-5936
▁snake	-5937
▁stock	-5938
▁vines	-5939
▁Ḫusur	-5940
continu	-5941
manship	-5942
spabāra	-5943
thening	-5944
▁Etemen	-5945
▁Gambul	-5946
▁Nanāya	-5947
▁Naṣiru	-5948
▁beasts	-5949
▁crimes	-5950
▁debris	-5951
▁eighty	-5952
▁finest	-5953
▁inlaid	-5954
▁needed	-5955
▁plough	-5956
▁quakes	-5957
▁refuse	-5958
▁series	-5959
▁silent	-5960
▁speaks	-5961
▁tunics	-5962
▁weaver	-5963
▁wicked	-5964
▁Ḫarrān	-5965
▁Ḫursag	-5966
▁Karalla	-5967
▁Setting	-5968
▁clothes	-5969
▁daprānu	-5970
▁diviner	-5971
▁fortune	-5972
▁reddish	-5973
▁sanctum	-5974
▁smaller	-5975
▁strives	-5976
▁worried	-5977
Palestine	-5978
confirmed	-5979
▁Hubuškia	-5980
▁boundary	-5981
▁confeder	-5982
▁darkness	-5983
▁drinking	-5984
▁friendly	-5985
▁merciful	-5986
▁multicol	-5987
▁plotting	-5988
▁provider	-5989
▁somebody	-5990
▁adversary	-5991
▁agreement	-5992
▁courtiers	-5993
▁destinies	-5994
▁flattened	-5995
▁fumigants	-5996
▁intercede	-5997
▁represent	-5998
▁threshold	-5999
▁divination	-6000
▁quantities	-6001
▁stretching	-6002
▁successfully	-6003
.,	-6004
30	-6005
Do	-6006
Lû	-6007
Se	-6008
ga	-6009
āt	-6010
Imb	-6011
aṭu	-6012
fto	-6013
iod	-6014
lib	-6015
mun	-6016
nir	-6017
ths	-6018
tub	-6019
zaš	-6020
▁Bi	-6021
▁Ex	-6022
▁aš	-6023
aisi	-6024
aked	-6025
amar	-6026
appu	-6027
atua	-6028
deal	-6029
fall	-6030
idqâ	-6031
ours	-6032
oute	-6033
prov	-6034
sing	-6035
umma	-6036
urna	-6037
▁(67	-6038
▁400	-6039
▁Ayy	-6040
▁Nar	-6041
▁Not	-6042
▁Nuh	-6043
▁Yad	-6044
▁bru	-6045
▁buy	-6046
▁fit	-6047
▁fre	-6048
▁inf	-6049
▁nat	-6050
▁rib	-6051
▁sev	-6052
▁tub	-6053
▁wed	-6054
Dagan	-6055
Illil	-6056
assar	-6057
bowls	-6058
cibly	-6059
deeds	-6060
demon	-6061
ifest	-6062
kitti	-6063
lašme	-6064
ongue	-6065
parna	-6066
ually	-6067
▁Alzu	-6068
▁Anzû	-6069
▁Ereš	-6070
▁Erra	-6071
▁Give	-6072
▁Kark	-6073
▁Kiss	-6074
▁Lull	-6075
▁Nanî	-6076
▁Part	-6077
▁bind	-6078
▁born	-6079
▁cass	-6080
▁dogs	-6081
▁frag	-6082
▁lift	-6083
▁mour	-6084
▁pots	-6085
▁pred	-6086
▁seek	-6087
▁sits	-6088
▁wing	-6089
ahunga	-6090
ainers	-6091
enance	-6092
mušeṣi	-6093
▁Check	-6094
▁Larsa	-6095
▁Salam	-6096
▁Samsi	-6097
▁Three	-6098
▁Waisi	-6099
▁acted	-6100
▁arran	-6101
▁consp	-6102
▁drawn	-6103
▁griev	-6104
▁poles	-6105
▁roast	-6106
▁route	-6107
▁rumor	-6108
▁valor	-6109
▁worry	-6110
ftovers	-6111
▁Asallu	-6112
▁Ayyāru	-6113
▁Hazael	-6114
▁Nadinu	-6115
▁bearer	-6116
▁cloudy	-6117
▁depart	-6118
▁eighth	-6119
▁expand	-6120
▁plague	-6121
▁sacred	-6122
▁swords	-6123
▁Šuanna	-6124
Šarrukin	-6125
▁Gilzānu	-6126
▁Kurbail	-6127
▁Mitinti	-6128
▁Shamash	-6129
▁banquet	-6130
▁bruised	-6131
▁checked	-6132
▁commiss	-6133
▁flashes	-6134
▁intones	-6135
▁numbers	-6136
▁smashed	-6137
▁stopped	-6138
▁treated	-6139
▁wedding	-6140
mediately	-6141
opolassar	-6142
▁annually	-6143
▁detached	-6144
▁forcibly	-6145
▁inquired	-6146
▁insolent	-6147
▁manifest	-6148
▁observed	-6149
▁supervis	-6150
▁trampled	-6151
▁completes	-6152
▁eršahunga	-6153
▁mountings	-6154
▁utterance	-6155
Sennacherib	-6156
▁incantation	-6157
▁investigate	-6158
▁processional	-6159
,1	-6160
80	-6161
co	-6162
cu	-6163
dâ	-6164
gg	-6165
rā	-6166
Bīt	-6167
Zab	-6168
Zam	-6169
adu	-6170
asa	-6171
cst	-6172
div	-6173
kir	-6174
mud	-6175
pan	-6176
rog	-6177
īti	-6178
▁Bā	-6179
▁Du	-6180
▁Eš	-6181
▁Ma	-6182
From	-6183
Imbî	-6184
arsh	-6185
aššî	-6186
bari	-6187
base	-6188
bird	-6189
elry	-6190
etel	-6191
ikni	-6192
ipes	-6193
obed	-6194
▁Ana	-6195
▁Ara	-6196
▁Hat	-6197
▁Kam	-6198
▁Nir	-6199
▁Tem	-6200
▁abs	-6201
▁ago	-6202
▁bou	-6203
▁dir	-6204
▁fal	-6205
▁fly	-6206
▁fun	-6207
▁inl	-6208
▁lad	-6209
▁pil	-6210
ašank	-6211
elted	-6212
floor	-6213
horse	-6214
illon	-6215
ingly	-6216
irina	-6217
manni	-6218
milki	-6219
mount	-6220
rehen	-6221
umptu	-6222
▁Dadi	-6223
▁Eṭir	-6224
▁Once	-6225
▁Sarr	-6226
▁Zizî	-6227
▁blow	-6228
▁chap	-6229
▁clam	-6230
▁clim	-6231
▁crop	-6232
▁curs	-6233
▁cust	-6234
▁disk	-6235
▁ecst	-6236
▁flee	-6237
▁fold	-6238
▁gran	-6239
▁perp	-6240
▁pest	-6241
▁rock	-6242
▁rout	-6243
▁sand	-6244
▁tent	-6245
▁till	-6246
▁torn	-6247
ilicia	-6248
kalama	-6249
origin	-6250
thirds	-6251
▁Bikni	-6252
▁Daltâ	-6253
▁Kakka	-6254
▁Marad	-6255
▁Musku	-6256
▁Qedar	-6257
▁ashes	-6258
▁besee	-6259
▁blows	-6260
▁board	-6261
▁exhau	-6262
▁lived	-6263
▁nails	-6264
▁roads	-6265
▁sever	-6266
▁sings	-6267
▁skins	-6268
▁track	-6269
▁works	-6270
▁Ḫaldi	-6271
▁Damunu	-6272
▁Review	-6273
▁Urzana	-6274
▁bridge	-6275
▁ensure	-6276
▁envoys	-6277
▁except	-6278
▁kisses	-6279
▁market	-6280
▁ordeal	-6281
▁plains	-6282
▁please	-6283
▁record	-6284
▁slaves	-6285
ellation	-6286
Šarrukku	-6287
▁Damkina	-6288
▁Ebabbar	-6289
▁Egašank	-6290
▁Habasti	-6291
▁Mazamua	-6292
▁Sebetti	-6293
▁Sutians	-6294
▁bedroom	-6295
▁measure	-6296
▁nindanu	-6297
▁praises	-6298
▁roasted	-6299
▁sceptre	-6300
placement	-6301
▁Karkaššî	-6302
▁Phrygian	-6303
▁almighty	-6304
▁blessing	-6305
▁bouillon	-6306
▁builders	-6307
▁conflict	-6308
▁ecstatic	-6309
▁grievous	-6310
▁marching	-6311
▁outposts	-6312
▁pastures	-6313
▁reverent	-6314
▁revolted	-6315
▁summoned	-6316
▁Cimmerian	-6317
▁concerned	-6318
▁confident	-6319
▁irrigated	-6320
▁ornaments	-6321
▁treachery	-6322
▁determined	-6323
▁exercising	-6324
▁renovation	-6325
▁subjugated	-6326
▁immediately	-6327
▁intercalary	-6328
▁obligations	-6329
▁steadfastly	-6330
▁intelligence	-6331
▁thoroughbred	-6332
▁confederation	-6333
",	-6334
,)	-6335
-)	-6336
oe	-6337
1).	-6338
Lag	-6339
aly	-6340
can	-6341
gum	-6342
htu	-6343
ien	-6344
iln	-6345
inn	-6346
ism	-6347
keh	-6348
kud	-6349
nor	-6350
oms	-6351
uku	-6352
zer	-6353
īnu	-6354
ṣab	-6355
▁32	-6356
▁90	-6357
▁Bū	-6358
▁Pe	-6359
▁ra	-6360
▁tu	-6361
angu	-6362
avil	-6363
ginu	-6364
irsu	-6365
išnu	-6366
ištu	-6367
just	-6368
lled	-6369
nant	-6370
ongh	-6371
oriz	-6372
rant	-6373
rock	-6374
unar	-6375
unna	-6376
urtî	-6377
▁(69	-6378
▁600	-6379
▁Acc	-6380
▁Cit	-6381
▁Dim	-6382
▁Kut	-6383
▁Old	-6384
▁Pap	-6385
▁Pis	-6386
▁amb	-6387
▁exc	-6388
▁lik	-6389
▁non	-6390
▁sie	-6391
▁Ḫum	-6392
abria	-6393
eries	-6394
ighed	-6395
psalm	-6396
sheep	-6397
tekeh	-6398
water	-6399
▁(25)	-6400
▁25')	-6401
▁30')	-6402
▁Addî	-6403
▁Ahhe	-6404
▁Anun	-6405
▁Egal	-6406
▁Even	-6407
▁Last	-6408
▁Star	-6409
▁Thus	-6410
▁afar	-6411
▁amid	-6412
▁cane	-6413
▁cart	-6414
▁deer	-6415
▁kiln	-6416
▁legs	-6417
▁milk	-6418
▁next	-6419
▁obed	-6420
▁seas	-6421
▁shak	-6422
▁unre	-6423
▁vast	-6424
▁womb	-6425
▁wors	-6426
▁Ḫard	-6427
akannu	-6428
closed	-6429
eroles	-6430
ranean	-6431
▁Andia	-6432
▁Lands	-6433
▁Larak	-6434
▁Nanna	-6435
▁Parrû	-6436
▁Queen	-6437
▁carav	-6438
▁catch	-6439
▁depic	-6440
▁exact	-6441
▁feroc	-6442
▁frost	-6443
▁fully	-6444
▁harsh	-6445
▁langu	-6446
▁music	-6447
▁pavil	-6448
▁seats	-6449
▁shown	-6450
▁spate	-6451
▁swift	-6452
▁weigh	-6453
▁yield	-6454
▁Šalim	-6455
▁Šamši	-6456
Kubatti	-6457
bearers	-6458
garment	-6459
itimate	-6460
▁Dilbat	-6461
▁Gurumu	-6462
▁Kissik	-6463
▁Sirāra	-6464
▁bakers	-6465
▁blocks	-6466
▁consum	-6467
▁dissol	-6468
▁figure	-6469
▁flowed	-6470
▁hidden	-6471
▁quiver	-6472
▁spouse	-6473
Mullissi	-6474
original	-6475
▁Eltekeh	-6476
▁However	-6477
▁copings	-6478
▁cutting	-6479
▁delayed	-6480
▁distrib	-6481
▁entreat	-6482
▁founded	-6483
▁gateway	-6484
▁helpers	-6485
▁holding	-6486
▁inflict	-6487
▁jewelry	-6488
▁kidneys	-6489
▁leaving	-6490
▁marshal	-6491
▁praying	-6492
▁recover	-6493
▁renewed	-6494
▁scribal	-6495
▁strongh	-6496
▁weighed	-6497
▁Šubrian	-6498
priestess	-6499
terranean	-6500
uballissu	-6501
▁Tabalayu	-6502
▁appoints	-6503
▁carrying	-6504
▁formerly	-6505
▁platform	-6506
▁receives	-6507
▁repaired	-6508
▁dispersal	-6509
▁dispersed	-6510
▁enclosure	-6511
▁fragrance	-6512
▁leftovers	-6513
▁positions	-6514
▁requested	-6515
▁yesterday	-6516
▁Etemenanki	-6517
▁casseroles	-6518
▁difficulty	-6519
▁directions	-6520
▁harbakannu	-6521
▁implements	-6522
▁positioned	-6523
▁administrat	-6524
▁Nabopolassar	-6525
▁administration	-6526
▁superintendent	-6527
.’	-6528
To	-6529
no	-6530
ḫi	-6531
5).	-6532
aka	-6533
aze	-6534
azi	-6535
aši	-6536
ded	-6537
fty	-6538
hee	-6539
lif	-6540
nap	-6541
thr	-6542
udi	-6543
udû	-6544
yth	-6545
ḫru	-6546
▁"(	-6547
▁BC	-6548
▁Ep	-6549
▁Op	-6550
▁je	-6551
▁ni	-6552
bank	-6553
duce	-6554
ereb	-6555
ingu	-6556
išpu	-6557
pert	-6558
stay	-6559
will	-6560
▁Azi	-6561
▁Don	-6562
▁Edu	-6563
▁Kib	-6564
▁Mal	-6565
▁Pur	-6566
▁Tan	-6567
▁Tom	-6568
▁ann	-6569
▁cry	-6570
▁inn	-6571
▁mud	-6572
aeans	-6573
great	-6574
iding	-6575
lumur	-6576
obbed	-6577
reans	-6578
ropri	-6579
still	-6580
usion	-6581
▁Bact	-6582
▁Dari	-6583
▁Kenî	-6584
▁Marq	-6585
▁Minu	-6586
▁Pill	-6587
▁Sakk	-6588
▁Siri	-6589
▁Tamn	-6590
▁beat	-6591
▁cler	-6592
▁didn	-6593
▁dren	-6594
▁expl	-6595
▁ghee	-6596
▁heap	-6597
▁impl	-6598
▁pays	-6599
▁rich	-6600
▁sins	-6601
▁wash	-6602
▁Šuma	-6603
Dakuri	-6604
Hamban	-6605
Laguda	-6606
atives	-6607
blocks	-6608
camels	-6609
houses	-6610
teenth	-6611
temple	-6612
▁Ahabû	-6613
▁Amman	-6614
▁Ariye	-6615
▁Natnu	-6616
▁Right	-6617
▁Scyth	-6618
▁alter	-6619
▁funer	-6620
▁heaps	-6621
▁ident	-6622
▁prays	-6623
▁pulls	-6624
▁ramps	-6625
▁scent	-6626
▁scorp	-6627
▁swept	-6628
▁sworn	-6629
▁tereb	-6630
▁truly	-6631
▁wings	-6632
courses	-6633
lawsuit	-6634
▁Gurgum	-6635
▁Taklak	-6636
▁Vizier	-6637
▁banded	-6638
▁deluge	-6639
▁felted	-6640
▁flocks	-6641
▁irginu	-6642
▁period	-6643
▁severe	-6644
▁spared	-6645
▁steady	-6646
▁sumptu	-6647
▁travel	-6648
▁vessel	-6649
▁waited	-6650
▁Šumaya	-6651
building	-6652
coloured	-6653
▁Citadel	-6654
▁Nuhšaya	-6655
▁bedrock	-6656
▁believe	-6657
▁consume	-6658
▁decided	-6659
▁disobed	-6660
▁however	-6661
▁knobbed	-6662
▁praised	-6663
▁revived	-6664
▁vessels	-6665
▁wherein	-6666
▁Ḫamrānu	-6667
▁Bactrian	-6668
▁Tomorrow	-6669
▁Ullusunu	-6670
▁detailed	-6671
▁enduring	-6672
▁litigate	-6673
▁parapets	-6674
▁reporter	-6675
▁Ḫardišpu	-6676
Esarhaddon	-6677
residences	-6678
▁Performed	-6679
▁Urarṭians	-6680
▁beseeched	-6681
▁certainly	-6682
▁container	-6683
▁firmament	-6684
▁mobilized	-6685
▁terebinth	-6686
▁discontinu	-6687
▁legitimate	-6688
▁manageress	-6689
▁lengthening	-6690
▁observation	-6691
▁imprisonment	-6692
▁interruption	-6693
▁pomegranates	-6694
▁subterranean	-6695
▁constellation	-6696
▁Eḫursagkurkurra	-6697
'"	-6698
':	-6699
10	-6700
;)	-6701
)?"	-6702
acy	-6703
adâ	-6704
ber	-6705
bis	-6706
dub	-6707
iet	-6708
mmu	-6709
oci	-6710
ogh	-6711
rul	-6712
tel	-6713
vel	-6714
zan	-6715
ālu	-6716
šim	-6717
▁1-	-6718
▁35	-6719
▁Ra	-6720
▁Ta	-6721
▁di	-6722
▁pi	-6723
Dadi	-6724
Gula	-6725
ammu	-6726
apes	-6727
apsi	-6728
arms	-6729
arra	-6730
aste	-6731
attu	-6732
born	-6733
circ	-6734
endû	-6735
fort	-6736
immê	-6737
like	-6738
namm	-6739
peak	-6740
pers	-6741
ukki	-6742
urri	-6743
urzu	-6744
▁800	-6745
▁Add	-6746
▁Are	-6747
▁Dai	-6748
▁Fav	-6749
▁Ila	-6750
▁Sik	-6751
▁Umb	-6752
▁aff	-6753
▁aya	-6754
▁hoe	-6755
▁job	-6756
▁jug	-6757
▁pon	-6758
▁pub	-6759
▁sen	-6760
▁wol	-6761
▁Šad	-6762
▁Šib	-6763
Ammon	-6764
Milki	-6765
abitu	-6766
ality	-6767
along	-6768
aniye	-6769
bound	-6770
damiq	-6771
dubbu	-6772
emony	-6773
idalu	-6774
image	-6775
iwork	-6776
larim	-6777
lypty	-6778
orges	-6779
rehtu	-6780
river	-6781
sting	-6782
ulḫul	-6783
urten	-6784
▁(30)	-6785
▁(35)	-6786
▁Atta	-6787
▁Bari	-6788
▁Dais	-6789
▁Edom	-6790
▁Iqbi	-6791
▁Kusu	-6792
▁Send	-6793
▁calf	-6794
▁ewes	-6795
▁fors	-6796
▁hair	-6797
▁hide	-6798
▁inac	-6799
▁join	-6800
▁nest	-6801
▁onsl	-6802
▁pile	-6803
▁plus	-6804
▁shed	-6805
▁ship	-6806
▁spec	-6807
▁stud	-6808
▁ways	-6809
action	-6810
aggers	-6811
argilâ	-6812
aḫḫēšu	-6813
establ	-6814
former	-6815
fruits	-6816
ingers	-6817
nammir	-6818
oghurt	-6819
volent	-6820
worthy	-6821
▁6,000	-6822
▁Akkud	-6823
▁Break	-6824
▁Ekall	-6825
▁Eriba	-6826
▁Image	-6827
▁Isana	-6828
▁Kulla	-6829
▁Rival	-6830
▁accum	-6831
▁alert	-6832
▁altar	-6833
▁bales	-6834
▁camel	-6835
▁ducks	-6836
▁extra	-6837
▁fetch	-6838
▁lying	-6839
▁pendû	-6840
▁piece	-6841
▁pierc	-6842
▁plans	-6843
▁pride	-6844
▁quiet	-6845
▁respl	-6846
▁reven	-6847
▁shoot	-6848
▁siege	-6849
▁trays	-6850
▁using	-6851
artinnu	-6852
cements	-6853
cripted	-6854
eminent	-6855
ference	-6856
lyptych	-6857
ourable	-6858
priests	-6859
quently	-6860
▁Arbayu	-6861
▁Parsua	-6862
▁Ulluba	-6863
▁amidst	-6864
▁arrive	-6865
▁chapel	-6866
▁crafty	-6867
▁deceit	-6868
▁deport	-6869
▁divide	-6870
▁dragon	-6871
▁eldest	-6872
▁fruits	-6873
▁happen	-6874
▁jewell	-6875
▁leaves	-6876
▁loaded	-6877
▁offers	-6878
▁ordain	-6879
▁perish	-6880
▁pestil	-6881
▁public	-6882
▁rained	-6883
▁reason	-6884
▁riding	-6885
▁senior	-6886
▁served	-6887
▁shaken	-6888
▁spirit	-6889
▁strews	-6890
cessible	-6891
natively	-6892
▁Arrapḫa	-6893
▁Enemies	-6894
▁belongs	-6895
▁ceremon	-6896
▁crushed	-6897
▁disturb	-6898
▁drawing	-6899
▁fashion	-6900
▁heroism	-6901
▁knotted	-6902
▁leading	-6903
▁pleased	-6904
▁running	-6905
▁serving	-6906
▁thunder	-6907
▁travers	-6908
▁trouble	-6909
▁uttered	-6910
▁worship	-6911
▁Ḫirimmu	-6912
decorated	-6913
▁Asalluhi	-6914
▁Barhalzi	-6915
▁Urzuhina	-6916
▁appurten	-6917
▁constant	-6918
▁creature	-6919
▁depicted	-6920
▁deprived	-6921
▁fearless	-6922
▁inexpert	-6923
▁mainstay	-6924
▁marriage	-6925
▁overlaid	-6926
▁portends	-6927
▁properly	-6928
▁securing	-6929
▁suckling	-6930
▁suffered	-6931
▁totality	-6932
▁uprooted	-6933
muballissu	-6934
▁Tammaritu	-6935
▁chieftain	-6936
▁exemption	-6937
▁foreigner	-6938
▁fugitives	-6939
▁guarantor	-6940
▁handiwork	-6941
▁hostility	-6942
▁inhabited	-6943
▁onslaught	-6944
▁relatives	-6945
▁renovates	-6946
▁storeroom	-6947
established	-6948
▁yourselves	-6949
▁accumulated	-6950
▁conscripted	-6951
▁resplendent	-6952
▁trustworthy	-6953
▁accomplished	-6954
▁discontinued	-6955
▁inaccessible	-6956
▁shepherdship	-6957
▁Ḫursagkalama	-6958
!’	-6959
So	-6960
dī	-6961
nû	-6962
tî	-6963
ām	-6964
dem	-6965
dep	-6966
gir	-6967
iga	-6968
imu	-6969
kīn	-6970
may	-6971
opy	-6972
paš	-6973
pie	-6974
uts	-6975
āṭu	-6976
ūlu	-6977
▁(5	-6978
▁,"	-6979
▁,”	-6980
▁44	-6981
▁47	-6982
▁Ib	-6983
▁Tr	-6984
▁Uk	-6985
▁Ya	-6986
▁dw	-6987
▁vi	-6988
abri	-6989
ales	-6990
cons	-6991
dict	-6992
egis	-6993
esim	-6994
eter	-6995
ffic	-6996
illê	-6997
kins	-6998
manu	-6999
part	-7000
reši	-7001
rown	-7002
some	-7003
uber	-7004
ults	-7005
upat	-7006
wers	-7007
ēreš	-7008
ēriš	-7009
šiku	-7010
šēri	-7011
▁700	-7012
▁90)	-7013
▁Gib	-7014
▁Huz	-7015
▁Lip	-7016
▁Muq	-7017
▁Paš	-7018
▁Qir	-7019
▁Rib	-7020
▁Tur	-7021
▁Uri	-7022
▁ate	-7023
▁dow	-7024
▁ean	-7025
▁gaz	-7026
▁lac	-7027
▁lux	-7028
▁peo	-7029
▁pus	-7030
▁rod	-7031
▁tur	-7032
▁Šid	-7033
Umman	-7034
acing	-7035
amanu	-7036
asons	-7037
claim	-7038
ecess	-7039
eenth	-7040
elled	-7041
every	-7042
ibūti	-7043
ifies	-7044
imony	-7045
ittar	-7046
kabti	-7047
kibtu	-7048
nāṣir	-7049
udimm	-7050
ṣirtu	-7051
▁Araḫ	-7052
▁Care	-7053
▁Come	-7054
▁Make	-7055
▁Mali	-7056
▁Puṭu	-7057
▁beds	-7058
▁bolt	-7059
▁deed	-7060
▁drew	-7061
▁exch	-7062
▁hewn	-7063
▁lost	-7064
▁mare	-7065
▁quar	-7066
▁rods	-7067
▁slay	-7068
▁thie	-7069
Palace	-7070
aneans	-7071
anical	-7072
ekalli	-7073
essunu	-7074
loaves	-7075
onging	-7076
spread	-7077
▁5,000	-7078
▁Alter	-7079
▁Aramu	-7080
▁Enuma	-7081
▁Epony	-7082
▁Haldi	-7083
▁Kummu	-7084
▁Meḫru	-7085
▁Namri	-7086
▁Tabnî	-7087
▁Ulāya	-7088
▁Zaban	-7089
▁aegis	-7090
▁apart	-7091
▁desol	-7092
▁encam	-7093
▁falls	-7094
▁flask	-7095
▁forms	-7096
▁guide	-7097
▁issue	-7098
▁knees	-7099
▁learn	-7100
▁lunar	-7101
▁point	-7102
▁rolls	-7103
▁sound	-7104
▁start	-7105
▁turns	-7106
▁value	-7107
▁vener	-7108
▁vigil	-7109
▁worth	-7110
Dakkūri	-7111
against	-7112
estival	-7113
hamatua	-7114
igalbat	-7115
outside	-7116
regnant	-7117
settled	-7118
▁(645).	-7119
▁(651).	-7120
▁Commag	-7121
▁Dayyan	-7122
▁Herald	-7123
▁Kubabu	-7124
▁Mounts	-7125
▁Simānu	-7126
▁Tabale	-7127
▁advice	-7128
▁associ	-7129
▁bitter	-7130
▁bribes	-7131
▁canebr	-7132
▁commun	-7133
▁emblem	-7134
▁gorges	-7135
▁grapes	-7136
▁helped	-7137
▁instit	-7138
▁invoke	-7139
▁little	-7140
▁mortar	-7141
▁routes	-7142
▁scarce	-7143
▁tanner	-7144
▁though	-7145
▁wanted	-7146
▁Šabire	-7147
appropri	-7148
assigned	-7149
ordinate	-7150
ritually	-7151
therwise	-7152
▁Anunitu	-7153
▁Eḫulḫul	-7154
▁Ninšiku	-7155
▁Pillatu	-7156
▁figures	-7157
▁forsake	-7158
▁happens	-7159
▁install	-7160
▁kettled	-7161
▁killing	-7162
▁neglect	-7163
▁opening	-7164
▁peoples	-7165
▁plaster	-7166
▁rainbow	-7167
▁refuses	-7168
▁strange	-7169
▁Gurreans	-7170
▁Naṣibina	-7171
▁Property	-7172
▁appeared	-7173
▁arranged	-7174
▁conclude	-7175
▁confused	-7176
▁distress	-7177
▁eclipsed	-7178
▁emissary	-7179
▁funerary	-7180
▁glorious	-7181
▁herdsman	-7182
▁language	-7183
▁managers	-7184
▁mourning	-7185
▁regarded	-7186
▁stomachs	-7187
▁thinking	-7188
▁vanguard	-7189
šallimanni	-7190
▁attendant	-7191
▁botanical	-7192
▁buildings	-7193
▁disclosed	-7194
▁exhausted	-7195
▁ferocious	-7196
▁greatness	-7197
▁horseback	-7198
▁jewellery	-7199
▁neglected	-7200
▁predecess	-7201
▁treasures	-7202
▁benevolent	-7203
▁distressed	-7204
▁overwhelms	-7205
▁pestilence	-7206
▁plundering	-7207
▁remembered	-7208
▁supervisor	-7209
▁transgress	-7210
▁Unfavorable	-7211
▁administers	-7212
▁annihilated	-7213
▁distributed	-7214
▁supplication	-7215
▁Alternatively	-7216
▁multicoloured	-7217
▁reinforcements	-7218
/3	-7219
Im	-7220
Wh	-7221
gy	-7222
uc	-7223
yp	-7224
300	-7225
600	-7226
aga	-7227
alc	-7228
apu	-7229
arâ	-7230
bra	-7231
gam	-7232
gim	-7233
inû	-7234
iḫu	-7235
ntu	-7236
pak	-7237
tab	-7238
tes	-7239
umn	-7240
yss	-7241
šub	-7242
▁5,	-7243
▁Ay	-7244
▁Bo	-7245
▁Hu	-7246
▁Ik	-7247
▁Uz	-7248
▁nu	-7249
Milk	-7250
Sang	-7251
allî	-7252
cles	-7253
echo	-7254
emed	-7255
full	-7256
iana	-7257
iram	-7258
ires	-7259
ises	-7260
itor	-7261
mess	-7262
pada	-7263
quer	-7264
roph	-7265
suri	-7266
tles	-7267
utam	-7268
ween	-7269
writ	-7270
▁180	-7271
▁2/3	-7272
▁Ahû	-7273
▁DNN	-7274
▁Ent	-7275
▁Haš	-7276
▁Hum	-7277
▁Laḫ	-7278
▁Ner	-7279
▁Nuš	-7280
▁Sup	-7281
▁Too	-7282
▁dig	-7283
▁enl	-7284
▁gen	-7285
▁ign	-7286
▁išk	-7287
▁med	-7288
▁net	-7289
▁Ḫat	-7290
Ditto	-7291
ading	-7292
aggil	-7293
alaḫu	-7294
amnir	-7295
aratu	-7296
ashir	-7297
essed	-7298
etent	-7299
first	-7300
isons	-7301
otion	-7302
pices	-7303
right	-7304
tebra	-7305
yprus	-7306
▁Apla	-7307
▁Aplu	-7308
▁Balṭ	-7309
▁Humb	-7310
▁Kumm	-7311
▁Narg	-7312
▁Puṭi	-7313
▁Riba	-7314
▁Tard	-7315
▁Tarḫ	-7316
▁Ukke	-7317
▁bund	-7318
▁cond	-7319
▁girl	-7320
▁graz	-7321
▁inqu	-7322
▁nine	-7323
▁outs	-7324
▁palû	-7325
▁rose	-7326
▁slip	-7327
▁stab	-7328
▁vass	-7329
▁ēntu	-7330
arding	-7331
assion	-7332
asters	-7333
ašanni	-7334
enters	-7335
icious	-7336
immeri	-7337
nišēšu	-7338
ording	-7339
ubištu	-7340
šumate	-7341
▁1,500	-7342
▁10'')	-7343
▁4,000	-7344
▁Abyss	-7345
▁Gibrê	-7346
▁Iauta	-7347
▁Nabay	-7348
▁Tillê	-7349
▁absol	-7350
▁couch	-7351
▁ditch	-7352
▁drive	-7353
▁eagle	-7354
▁finds	-7355
▁glare	-7356
▁irons	-7357
▁looks	-7358
▁lumin	-7359
▁nomin	-7360
▁organ	-7361
▁outri	-7362
▁reply	-7363
▁shape	-7364
▁steps	-7365
▁tiara	-7366
▁Ḫamat	-7367
Dakkuri	-7368
Tukulti	-7369
andered	-7370
appings	-7371
bessunu	-7372
everthe	-7373
išnugal	-7374
rophied	-7375
udimmud	-7376
vessels	-7377
▁Daiēnu	-7378
▁Kisiru	-7379
▁Qirbit	-7380
▁bigger	-7381
▁bonded	-7382
▁conver	-7383
▁covers	-7384
▁eagles	-7385
▁garlic	-7386
▁glance	-7387
▁heeded	-7388
▁inlays	-7389
▁joyous	-7390
▁poorly	-7391
▁prophe	-7392
▁refurb	-7393
▁sprink	-7394
▁strugg	-7395
▁thighs	-7396
▁treads	-7397
▁wastel	-7398
▁wrists	-7399
anything	-7400
Šarrukīn	-7401
▁Akkuddu	-7402
▁Apladad	-7403
▁Belšunu	-7404
▁Gabbaru	-7405
▁Mandanu	-7406
▁Sarduri	-7407
▁Tukulti	-7408
▁boatmen	-7409
▁breasts	-7410
▁central	-7411
▁conceal	-7412
▁guarded	-7413
▁hitched	-7414
▁marches	-7415
▁meadows	-7416
▁monthly	-7417
▁offices	-7418
▁pierced	-7419
▁pursuit	-7420
▁ravaged	-7421
▁subduer	-7422
▁villain	-7423
▁visited	-7424
Kurigalzu	-7425
▁Barhalza	-7426
▁Nudimmud	-7427
▁diviners	-7428
▁examined	-7429
▁expertly	-7430
▁listened	-7431
▁majestic	-7432
▁neighbor	-7433
▁outflows	-7434
▁pregnant	-7435
▁prompted	-7436
▁saplings	-7437
▁vertebra	-7438
▁Šabirešu	-7439
▁Belonging	-7440
▁architect	-7441
▁atrophied	-7442
▁condition	-7443
▁dissolved	-7444
▁disturbed	-7445
▁exorcists	-7446
▁highlands	-7447
▁perfected	-7448
▁prisoners	-7449
▁pronounce	-7450
▁recovered	-7451
▁sharpened	-7452
▁sumptuous	-7453
evertheless	-7454
▁compassion	-7455
▁haruspices	-7456
▁perfection	-7457
▁protective	-7458
▁stronghold	-7459
▁Ḫanigalbat	-7460
▁countryside	-7461
▁establishes	-7462
▁fingernails	-7463
▁outstanding	-7464
▁responsible	-7465
▁storehouses	-7466
▁celebrations	-7467
▁satisfaction	-7468
▁triumphantly	-7469
▁victoriously	-7470
/4	-7471
My	-7472
gl	-7473
kn	-7474
pī	-7475
)!"	-7476
Did	-7477
Naḫ	-7478
anâ	-7479
asp	-7480
bid	-7481
cle	-7482
com	-7483
don	-7484
ees	-7485
fig	-7486
how	-7487
ilû	-7488
isk	-7489
ius	-7490
ler	-7491
sak	-7492
taš	-7493
uss	-7494
usî	-7495
vil	-7496
you	-7497
zag	-7498
ūgi	-7499
▁38	-7500
▁52	-7501
▁7,	-7502
▁75	-7503
▁95	-7504
▁Br	-7505
▁Di	-7506
▁Fl	-7507
▁Ia	-7508
▁Ka	-7509
▁Kê	-7510
▁Ro	-7511
▁Rū	-7512
▁—,	-7513
Your	-7514
acle	-7515
anks	-7516
apil	-7517
aqqu	-7518
arda	-7519
ator	-7520
aḫum	-7521
bbed	-7522
ider	-7523
illu	-7524
išši	-7525
liaš	-7526
madi	-7527
nger	-7528
pair	-7529
qaya	-7530
qunu	-7531
rank	-7532
rope	-7533
rush	-7534
ruth	-7535
tīya	-7536
ubil	-7537
ulmu	-7538
utes	-7539
zanu	-7540
šaru	-7541
▁10,	-7542
▁20,	-7543
▁360	-7544
▁Arg	-7545
▁Ear	-7546
▁Hub	-7547
▁Kid	-7548
▁Mak	-7549
▁Men	-7550
▁Niq	-7551
▁Pat	-7552
▁Qar	-7553
▁Und	-7554
▁beg	-7555
▁che	-7556
▁few	-7557
▁pac	-7558
▁paš	-7559
▁roe	-7560
▁spo	-7561
▁try	-7562
▁Šur	-7563
Barrû	-7564
Lower	-7565
Mount	-7566
abānu	-7567
acked	-7568
akkan	-7569
alcit	-7570
aning	-7571
asper	-7572
aways	-7573
court	-7574
cribe	-7575
ested	-7576
gates	-7577
kuṣur	-7578
lamši	-7579
leans	-7580
pašir	-7581
▁Duri	-7582
▁Fire	-7583
▁Five	-7584
▁Gold	-7585
▁Nunn	-7586
▁Raḫi	-7587
▁Saba	-7588
▁anom	-7589
▁argu	-7590
▁blew	-7591
▁bows	-7592
▁bury	-7593
▁emer	-7594
▁exac	-7595
▁fulf	-7596
▁game	-7597
▁gems	-7598
▁haul	-7599
▁huge	-7600
▁lest	-7601
▁levy	-7602
▁loin	-7603
▁mold	-7604
▁rely	-7605
▁sear	-7606
▁šēdu	-7607
Cyprus	-7608
aching	-7609
amašši	-7610
facing	-7611
issiya	-7612
itated	-7613
rising	-7614
single	-7615
utamon	-7616
▁Adian	-7617
▁Dimtu	-7618
▁Eṭiru	-7619
▁Kašii	-7620
▁Kittu	-7621
▁Lugal	-7622
▁Maybe	-7623
▁Nadin	-7624
▁Nargî	-7625
▁Nemed	-7626
▁Sukki	-7627
▁Tiara	-7628
▁Ulūlu	-7629
▁Zamua	-7630
▁armch	-7631
▁boars	-7632
▁bribe	-7633
▁crops	-7634
▁demon	-7635
▁girls	-7636
▁hears	-7637
▁initi	-7638
▁jubil	-7639
▁pitch	-7640
▁plent	-7641
▁pluck	-7642
▁price	-7643
▁proud	-7644
▁rafts	-7645
▁risen	-7646
▁rules	-7647
▁sided	-7648
▁skull	-7649
▁smith	-7650
▁spend	-7651
▁stage	-7652
▁suppl	-7653
▁swing	-7654
▁visit	-7655
▁Šarur	-7656
Milkūti	-7657
Mušēzib	-7658
because	-7659
brother	-7660
▁Aḫlamû	-7661
▁Balaṭu	-7662
▁Ilumma	-7663
▁Izalla	-7664
▁Kipani	-7665
▁Nabatu	-7666
▁Sirius	-7667
▁Undasu	-7668
▁absent	-7669
▁agreed	-7670
▁ambush	-7671
▁choose	-7672
▁claims	-7673
▁clergy	-7674
▁effect	-7675
▁enough	-7676
▁feared	-7677
▁forbid	-7678
▁iškāru	-7679
▁kamanu	-7680
▁reject	-7681
▁remind	-7682
▁roamed	-7683
▁safety	-7684
▁string	-7685
▁walked	-7686
▁worked	-7687
festival	-7688
ittarius	-7689
▁Bēltīya	-7690
▁Hubuški	-7691
▁Kišesim	-7692
▁Lullumu	-7693
▁Meturna	-7694
▁Rūkibtu	-7695
▁arrival	-7696
▁barbari	-7697
▁blesses	-7698
▁bondage	-7699
▁crowned	-7700
▁custody	-7701
▁damaged	-7702
▁durable	-7703
▁estates	-7704
▁forests	-7705
▁friends	-7706
▁getting	-7707
▁looking	-7708
▁masters	-7709
▁pounded	-7710
▁returns	-7711
▁seventh	-7712
▁silence	-7713
▁utterly	-7714
▁wailing	-7715
▁weeping	-7716
▁younger	-7717
▁Ḫindaru	-7718
alabaster	-7719
alcitrant	-7720
▁Sakkannu	-7721
▁assemble	-7722
▁deserted	-7723
▁discards	-7724
▁drenched	-7725
▁extended	-7726
▁goodness	-7727
▁implored	-7728
▁obedient	-7729
▁openings	-7730
▁overcast	-7731
▁possible	-7732
▁prisoner	-7733
▁recessed	-7734
▁recorded	-7735
▁relented	-7736
▁runaways	-7737
▁sartinnu	-7738
▁standard	-7739
▁ziggurat	-7740
▁Ḫararatu	-7741
▁Ḫubuškia	-7742
▁Nunnamnir	-7743
▁Otherwise	-7744
▁Tanutamon	-7745
▁brilliant	-7746
▁deserters	-7747
▁disregard	-7748
▁garrisons	-7749
▁granaries	-7750
▁increased	-7751
▁pedestals	-7752
▁proceeded	-7753
▁providing	-7754
▁splendour	-7755
▁therefore	-7756
▁traversed	-7757
Shalmaneser	-7758
appropriate	-7759
▁Thereafter	-7760
▁apprentice	-7761
▁carpenters	-7762
▁disappears	-7763
▁downstream	-7764
▁everywhere	-7765
▁kettledrum	-7766
▁respectful	-7767
▁submission	-7768
▁successful	-7769
▁villainous	-7770
▁Nabayateans	-7771
▁Sagittarius	-7772
▁housekeepers	-7773
▁recalcitrant	-7774
▁administrator	-7775
▁circumference	-7776
▁reconstructed	-7777
▁thoroughbreds	-7778
▁representative	-7779
15	-7780
An	-7781
ec	-7782
lâ	-7783
po	-7784
šî	-7785
▁0	-7786
Rez	-7787
adī	-7788
amû	-7789
aph	-7790
beh	-7791
igl	-7792
inâ	-7793
isa	-7794
rug	-7795
sag	-7796
sal	-7797
teg	-7798
tow	-7799
zēr	-7800
āna	-7801
āsi	-7802
ūzu	-7803
▁31	-7804
▁41	-7805
▁59	-7806
▁6,	-7807
▁Bu	-7808
▁Eh	-7809
▁Pl	-7810
▁Us	-7811
▁da	-7812
Take	-7813
That	-7814
Zual	-7815
addî	-7816
bīti	-7817
deni	-7818
ezes	-7819
fare	-7820
hati	-7821
hatu	-7822
ieth	-7823
ipar	-7824
išti	-7825
jamb	-7826
lime	-7827
matu	-7828
olen	-7829
oned	-7830
opes	-7831
oses	-7832
pest	-7833
ploy	-7834
ranu	-7835
rook	-7836
sons	-7837
take	-7838
urrī	-7839
yges	-7840
yoke	-7841
ūnum	-7842
▁190	-7843
▁3/4	-7844
▁Bas	-7845
▁Bun	-7846
▁Din	-7847
▁Had	-7848
▁Kir	-7849
▁Kun	-7850
▁Mes	-7851
▁Qab	-7852
▁Qum	-7853
▁Riḫ	-7854
▁Sas	-7855
▁Tuš	-7856
▁Whe	-7857
▁bef	-7858
▁cul	-7859
▁maṣ	-7860
▁neš	-7861
▁tot	-7862
▁vot	-7863
▁Šap	-7864
Kapsi	-7865
Rezin	-7866
Tešub	-7867
ababa	-7868
abiya	-7869
adarâ	-7870
allak	-7871
aller	-7872
aqqin	-7873
assus	-7874
birds	-7875
doing	-7876
erily	-7877
erved	-7878
ilies	-7879
inder	-7880
issar	-7881
iture	-7882
kirts	-7883
oking	-7884
osion	-7885
paled	-7886
power	-7887
rites	-7888
salim	-7889
stood	-7890
▁(40)	-7891
▁35')	-7892
▁Adia	-7893
▁Bird	-7894
▁Elen	-7895
▁Firm	-7896
▁Isse	-7897
▁Itti	-7898
▁Izbu	-7899
▁Munn	-7900
▁Opis	-7901
▁Phil	-7902
▁Pisī	-7903
▁appl	-7904
▁dise	-7905
▁drug	-7906
▁furn	-7907
▁hang	-7908
▁late	-7909
▁nose	-7910
▁size	-7911
▁song	-7912
▁vats	-7913
▁viol	-7914
adnana	-7915
ammaku	-7916
ardilû	-7917
before	-7918
glazed	-7919
hiding	-7920
idence	-7921
images	-7922
isting	-7923
orizon	-7924
repair	-7925
ricted	-7926
settle	-7927
uments	-7928
vation	-7929
▁(15')	-7930
▁15'')	-7931
▁Above	-7932
▁Aries	-7933
▁Banbâ	-7934
▁Birat	-7935
▁Field	-7936
▁Grand	-7937
▁Halah	-7938
▁Muṣri	-7939
▁Necho	-7940
▁Nirbu	-7941
▁Nušku	-7942
▁Purul	-7943
▁Sanda	-7944
▁Ubudu	-7945
▁artis	-7946
▁bolts	-7947
▁cloak	-7948
▁cones	-7949
▁crush	-7950
▁dance	-7951
▁doves	-7952
▁dowry	-7953
▁dress	-7954
▁drops	-7955
▁dwelt	-7956
▁elite	-7957
▁faint	-7958
▁gallû	-7959
▁ghost	-7960
▁incom	-7961
▁intro	-7962
▁oaths	-7963
▁pater	-7964
▁princ	-7965
▁range	-7966
▁sense	-7967
▁shame	-7968
▁sting	-7969
▁sweep	-7970
▁tears	-7971
▁tenth	-7972
▁train	-7973
▁tubes	-7974
▁victu	-7975
▁Ḫilmu	-7976
cedures	-7977
created	-7978
donkeys	-7979
ilities	-7980
kudurrī	-7981
ranking	-7982
writing	-7983
written	-7984
šimanni	-7985
▁Aḫšēri	-7986
▁Bitter	-7987
▁Ikūnum	-7988
▁Kalkal	-7989
▁Laḫīru	-7990
▁Maniye	-7991
▁Mašmaš	-7992
▁Narudi	-7993
▁Nerigl	-7994
▁Riḫiḫu	-7995
▁Scribe	-7996
▁Subnat	-7997
▁Ukkean	-7998
▁Within	-7999
▁Zabban	-8000
▁affect	-8001
▁basalt	-8002
▁bucket	-8003
▁chased	-8004
▁damage	-8005
▁deadly	-8006
▁exceed	-8007
▁ghosts	-8008
▁groats	-8009
▁groves	-8010
▁impost	-8011
▁jasper	-8012
▁ledges	-8013
▁legate	-8014
▁livers	-8015
▁locked	-8016
▁luxuri	-8017
▁moving	-8018
▁nephew	-8019
▁perman	-8020
▁profit	-8021
▁relief	-8022
▁season	-8023
▁shaved	-8024
▁shoots	-8025
▁shouts	-8026
▁square	-8027
▁stolen	-8028
▁straps	-8029
▁sunset	-8030
▁taught	-8031
▁tongue	-8032
▁united	-8033
▁upward	-8034
▁washed	-8035
▁winged	-8036
▁Ḫamānu	-8037
▁Ḫidalu	-8038
lyptychs	-8039
mudammiq	-8040
rushwood	-8041
▁Issaran	-8042
▁Ninagal	-8043
▁Philist	-8044
▁Whether	-8045
▁Yadaqqu	-8046
▁beneath	-8047
▁brewers	-8048
▁chopped	-8049
▁concern	-8050
▁cornice	-8051
▁drivers	-8052
▁erosion	-8053
▁horizon	-8054
▁impaled	-8055
▁loyalty	-8056
▁maṣhatu	-8057
▁nešakku	-8058
▁observe	-8059
▁oppress	-8060
▁parched	-8061
▁perpetu	-8062
▁prophet	-8063
▁raining	-8064
▁rebuild	-8065
▁regards	-8066
▁retreat	-8067
▁scholar	-8068
▁selling	-8069
▁seventy	-8070
▁singing	-8071
▁spirits	-8072
▁streams	-8073
▁sublime	-8074
▁thieves	-8075
▁tremble	-8076
▁warfare	-8077
▁washing	-8078
▁watched	-8079
tubašanni	-8080
▁Umbadarâ	-8081
▁appeased	-8082
▁concerns	-8083
▁exchange	-8084
▁faithful	-8085
▁families	-8086
▁flourish	-8087
▁goodwill	-8088
▁humility	-8089
▁nominate	-8090
▁opposing	-8091
▁paternal	-8092
▁presents	-8093
▁promoted	-8094
▁purchase	-8095
▁rendered	-8096
▁uprising	-8097
everything	-8098
▁Commagene	-8099
▁Gambulian	-8100
▁Scythians	-8101
▁accession	-8102
▁barbarian	-8103
▁circumamb	-8104
▁colleague	-8105
▁competent	-8106
▁concealed	-8107
▁conceived	-8108
▁determine	-8109
▁disrepair	-8110
▁documents	-8111
▁ecstatics	-8112
▁elephants	-8113
▁extracted	-8114
▁judgement	-8115
▁mentioned	-8116
▁neighbour	-8117
▁outskirts	-8118
▁pavilions	-8119
▁protected	-8120
▁thickness	-8121
▁confidence	-8122
▁entreaties	-8123
▁leadership	-8124
▁pappardilû	-8125
▁procedures	-8126
▁protectors	-8127
▁surpassing	-8128
▁victualler	-8129
▁Neriglissar	-8130
▁constricted	-8131
▁commissioned	-8132
▁neighborhood	-8133
▁craftsmanship	-8134
,’	-8135
14	-8136
Le	-8137
NN	-8138
No	-8139
eb	-8140
nê	-8141
ox	-8142
rî	-8143
sa	-8144
sy	-8145
400	-8146
Dag	-8147
She	-8148
Und	-8149
abî	-8150
adû	-8151
amp	-8152
amê	-8153
apt	-8154
atî	-8155
ayy	-8156
equ	-8157
eti	-8158
ffs	-8159
gue	-8160
hop	-8161
iff	-8162
igs	-8163
kar	-8164
kun	-8165
loc	-8166
nad	-8167
new	-8168
opp	-8169
rec	-8170
rua	-8171
ton	-8172
ugu	-8173
upp	-8174
utû	-8175
uṣu	-8176
zig	-8177
ūmu	-8178
Ḫal	-8179
ṣar	-8180
▁55	-8181
▁64	-8182
▁Gi	-8183
▁Ha	-8184
▁Pr	-8185
▁Rā	-8186
▁Ut	-8187
▁Za	-8188
▁mē	-8189
''')	-8190
Isra	-8191
Lady	-8192
Yate	-8193
aboo	-8194
aean	-8195
arna	-8196
arry	-8197
auld	-8198
bina	-8199
biya	-8200
buru	-8201
ecut	-8202
gods	-8203
ibur	-8204
niše	-8205
oors	-8206
pale	-8207
phor	-8208
qamu	-8209
race	-8210
rate	-8211
reas	-8212
serv	-8213
ugul	-8214
ulli	-8215
undi	-8216
ural	-8217
urra	-8218
vari	-8219
were	-8220
▁130	-8221
▁Bag	-8222
▁Dag	-8223
▁Gem	-8224
▁Iss	-8225
▁Kas	-8226
▁Kaḫ	-8227
▁Kit	-8228
▁Kuš	-8229
▁Mud	-8230
▁Qib	-8231
▁Rah	-8232
▁Sad	-8233
▁Ter	-8234
▁Tup	-8235
▁Urk	-8236
▁Yab	-8237
▁bat	-8238
▁bīt	-8239
▁fow	-8240
▁hus	-8241
▁mod	-8242
▁mut	-8243
▁veh	-8244
▁ven	-8245
▁Ḫaz	-8246
While	-8247
ahhir	-8248
alama	-8249
aling	-8250
allal	-8251
amaya	-8252
aring	-8253
atati	-8254
cakes	-8255
cuffs	-8256
damqu	-8257
gamil	-8258
haust	-8259
idean	-8260
ketti	-8261
nadbi	-8262
nyard	-8263
order	-8264
oring	-8265
osing	-8266
phist	-8267
reath	-8268
ruler	-8269
secut	-8270
statu	-8271
sters	-8272
umuna	-8273
urrum	-8274
utely	-8275
ṣabat	-8276
▁40')	-8277
▁5'')	-8278
▁700,	-8279
▁800,	-8280
▁Ammi	-8281
▁Anti	-8282
▁Arzâ	-8283
▁Bāzu	-8284
▁Būdi	-8285
▁Eris	-8286
▁Erua	-8287
▁Four	-8288
▁Gall	-8289
▁Habr	-8290
▁Išum	-8291
▁Labd	-8292
▁Mitâ	-8293
▁Nann	-8294
▁Pars	-8295
▁Pulu	-8296
▁Raši	-8297
▁Sukk	-8298
▁Talm	-8299
▁Unqi	-8300
▁Uṣur	-8301
▁batt	-8302
▁cows	-8303
▁cups	-8304
▁debt	-8305
▁decl	-8306
▁dirt	-8307
▁disl	-8308
▁ease	-8309
▁exit	-8310
▁exto	-8311
▁ginû	-8312
▁grou	-8313
▁gush	-8314
▁hord	-8315
▁kall	-8316
▁kids	-8317
▁pert	-8318
▁quot	-8319
▁scul	-8320
▁soot	-8321
▁stel	-8322
▁stop	-8323
▁ward	-8324
Israel	-8325
Zamani	-8326
Zarpan	-8327
alamma	-8328
arikka	-8329
arried	-8330
balaṭi	-8331
column	-8332
course	-8333
dagger	-8334
demons	-8335
driver	-8336
object	-8337
onight	-8338
uṣalla	-8339
Ḫumria	-8340
▁1,200	-8341
▁Adapa	-8342
▁Booty	-8343
▁Brook	-8344
▁Bēlat	-8345
▁Dummu	-8346
▁Grain	-8347
▁Hadad	-8348
▁Samnu	-8349
▁Third	-8350
▁Would	-8351
▁advis	-8352
▁amūmu	-8353
▁cakes	-8354
▁carts	-8355
▁cauld	-8356
▁charm	-8357
▁condu	-8358
▁decap	-8359
▁diver	-8360
▁figur	-8361
▁glaze	-8362
▁green	-8363
▁hards	-8364
▁haršu	-8365
▁hides	-8366
▁ingen	-8367
▁labor	-8368
▁limbs	-8369
▁loins	-8370
▁lover	-8371
▁maker	-8372
▁midru	-8373
▁olive	-8374
▁plots	-8375
▁qirsu	-8376
▁raged	-8377
▁ropes	-8378
▁rough	-8379
▁seeds	-8380
▁stays	-8381
▁taboo	-8382
▁tells	-8383
▁tombs	-8384
▁twent	-8385
▁vehic	-8386
▁wants	-8387
▁wield	-8388
▁Šadik	-8389
▁Ḫagar	-8390
Cilicia	-8391
Perhaps	-8392
Tukultī	-8393
aughter	-8394
banigaš	-8395
endents	-8396
gimilli	-8397
gressed	-8398
hearted	-8399
ivalent	-8400
located	-8401
mešarra	-8402
respect	-8403
spector	-8404
various	-8405
▁Anyone	-8406
▁Aplāya	-8407
▁Banitu	-8408
▁Bubilu	-8409
▁Dananu	-8410
▁Egipar	-8411
▁Eponym	-8412
▁Gemini	-8413
▁Inurtî	-8414
▁Issete	-8415
▁Izirtu	-8416
▁Ninkur	-8417
▁People	-8418
▁Samsim	-8419
▁Series	-8420
▁Tuqunu	-8421
▁amphor	-8422
▁begins	-8423
▁behold	-8424
▁bowmen	-8425
▁burden	-8426
▁chains	-8427
▁cloaks	-8428
▁corrid	-8429
▁depths	-8430
▁differ	-8431
▁edging	-8432
▁eleven	-8433
▁embank	-8434
▁engine	-8435
▁execut	-8436
▁expend	-8437
▁flying	-8438
▁issued	-8439
▁lackey	-8440
▁lights	-8441
▁masons	-8442
▁nature	-8443
▁nought	-8444
▁obtain	-8445
▁occupy	-8446
▁pieces	-8447
▁prepar	-8448
▁prostr	-8449
▁render	-8450
▁ripped	-8451
▁slopes	-8452
▁unable	-8453
▁vigour	-8454
Hezekiah	-8455
Ispabāra	-8456
eṭiranni	-8457
libation	-8458
umerable	-8459
▁Elenzaš	-8460
▁Halahhu	-8461
▁Hindanu	-8462
▁Kidmuri	-8463
▁Marqasa	-8464
▁Neither	-8465
▁Raḫiānu	-8466
▁Sukkaya	-8467
▁Surappu	-8468
▁battles	-8469
▁beseech	-8470
▁climbed	-8471
▁copious	-8472
▁daytime	-8473
▁deficit	-8474
▁discuss	-8475
▁disease	-8476
▁display	-8477
▁eastern	-8478
▁emblems	-8479
▁exactly	-8480
▁exempts	-8481
▁exposed	-8482
▁friezes	-8483
▁heights	-8484
▁honored	-8485
▁insides	-8486
▁insight	-8487
▁invoked	-8488
▁leveled	-8489
▁married	-8490
▁portent	-8491
▁putting	-8492
▁quality	-8493
▁quivers	-8494
▁recited	-8495
▁reports	-8496
▁sandals	-8497
▁serious	-8498
▁sitting	-8499
▁slander	-8500
▁sophist	-8501
▁stepped	-8502
▁tempest	-8503
▁turning	-8504
▁watered	-8505
▁weavers	-8506
Zarpanītu	-8507
haustible	-8508
sequently	-8509
▁Hittites	-8510
▁Kašiiari	-8511
▁Kutatati	-8512
▁Melidean	-8513
▁barnyard	-8514
▁capturer	-8515
▁courtier	-8516
▁cresting	-8517
▁firewood	-8518
▁gatekeep	-8519
▁gateways	-8520
▁guarding	-8521
▁hardship	-8522
▁harvests	-8523
▁likeness	-8524
▁pedestal	-8525
▁polished	-8526
▁protects	-8527
▁rebuilds	-8528
▁remained	-8529
▁restores	-8530
▁secretly	-8531
▁trusting	-8532
▁whenever	-8533
▁Ḫagarānu	-8534
Concerning	-8535
▁Hubuškian	-8536
▁Munnabitu	-8537
▁blessings	-8538
▁broadened	-8539
▁brushwood	-8540
▁conquests	-8541
▁conscript	-8542
▁creatures	-8543
▁delegates	-8544
▁domestics	-8545
▁gardeners	-8546
▁luxuriant	-8547
▁plentiful	-8548
▁provision	-8549
▁returning	-8550
▁twentieth	-8551
▁vertebrae	-8552
▁Everything	-8553
▁absolutely	-8554
▁bodyguards	-8555
▁containers	-8556
▁embankment	-8557
▁pronounced	-8558
▁thresholds	-8559
▁vanquished	-8560
▁Ḫumbanigaš	-8561
▁battlements	-8562
▁celebration	-8563
▁consumption	-8564
▁decapitated	-8565
▁hostilities	-8566
▁innumerable	-8567
▁refurbished	-8568
▁predecessors	-8569
▁transgressed	-8570
▁inappropriate	-8571
▁inexhaustible	-8572
▁righteousness	-8573
▁sophisticated	-8574
!'	-8575
(!	-8576
Aḫ	-8577
Sa	-8578
Uk	-8579
dr	-8580
sg	-8581
zâ	-8582
zē	-8583
šê	-8584
Reg	-8585
agi	-8586
apî	-8587
aše	-8588
bir	-8589
cav	-8590
dug	-8591
eks	-8592
elo	-8593
esi	-8594
eze	-8595
gid	-8596
han	-8597
ipl	-8598
irâ	-8599
isc	-8600
išt	-8601
mic	-8602
mir	-8603
mus	-8604
not	-8605
qia	-8606
quo	-8607
riš	-8608
ruc	-8609
ulê	-8610
urc	-8611
urg	-8612
īpu	-8613
īsu	-8614
ūnī	-8615
ḫil	-8616
▁'"	-8617
▁1.	-8618
▁3-	-8619
▁37	-8620
▁39	-8621
▁Ua	-8622
▁li	-8623
▁sy	-8624
▁Ši	-8625
Bāri	-8626
Zabd	-8627
addi	-8628
alty	-8629
asta	-8630
ayab	-8631
beru	-8632
cake	-8633
cked	-8634
empt	-8635
ench	-8636
gabb	-8637
gium	-8638
gunu	-8639
hari	-8640
idas	-8641
immi	-8642
imru	-8643
išhu	-8644
lain	-8645
marû	-8646
mena	-8647
napš	-8648
oast	-8649
oppa	-8650
quis	-8651
resp	-8652
ukua	-8653
ullu	-8654
unch	-8655
unnu	-8656
utur	-8657
zēri	-8658
ḫūru	-8659
▁160	-8660
▁208	-8661
▁Amb	-8662
▁App	-8663
▁Bow	-8664
▁Gab	-8665
▁Hur	-8666
▁Ikk	-8667
▁Ish	-8668
▁Kus	-8669
▁Kuz	-8670
▁Mah	-8671
▁Mam	-8672
▁Mil	-8673
▁Mus	-8674
▁Paq	-8675
▁Sah	-8676
▁San	-8677
▁Taš	-8678
▁Tum	-8679
▁Uar	-8680
▁Upa	-8681
▁Zan	-8682
▁anx	-8683
▁bif	-8684
▁enc	-8685
▁fed	-8686
▁fil	-8687
▁hem	-8688
▁kor	-8689
▁lep	-8690
▁lip	-8691
▁mix	-8692
▁pan	-8693
▁sim	-8694
▁sum	-8695
▁tex	-8696
▁unf	-8697
'-...	-8698
Speak	-8699
acles	-8700
adānu	-8701
angor	-8702
aniba	-8703
aninu	-8704
antry	-8705
apiku	-8706
arged	-8707
assed	-8708
azing	-8709
aḫlum	-8710
bitqi	-8711
ender	-8712
fifth	-8713
gines	-8714
icate	-8715
icest	-8716
isher	-8717
liest	-8718
osmic	-8719
plete	-8720
prise	-8721
raved	-8722
suing	-8723
tabni	-8724
ultiv	-8725
unior	-8726
uties	-8727
šmarû	-8728
▁'...	-8729
▁100)	-8730
▁Ammu	-8731
▁Amul	-8732
▁Anat	-8733
▁Badn	-8734
▁Bubê	-8735
▁Cour	-8736
▁Dakk	-8737
▁Down	-8738
▁Ebeh	-8739
▁Haya	-8740
▁Hear	-8741
▁Lulî	-8742
▁Padd	-8743
▁Year	-8744
▁Zerî	-8745
▁bend	-8746
▁bone	-8747
▁cage	-8748
▁conv	-8749
▁copy	-8750
▁cous	-8751
▁cres	-8752
▁doub	-8753
▁edge	-8754
▁flat	-8755
▁gird	-8756
▁goat	-8757
▁heat	-8758
▁hunt	-8759
▁jugs	-8760
▁lone	-8761
▁malt	-8762
▁mēzu	-8763
▁oust	-8764
▁pānu	-8765
▁resc	-8766
▁serp	-8767
▁shel	-8768
▁sort	-8769
▁styl	-8770
▁trap	-8771
▁twin	-8772
▁undo	-8773
▁Šumu	-8774
Bunaki	-8775
Undāsi	-8776
apping	-8777
arrows	-8778
cavity	-8779
circle	-8780
getter	-8781
ienced	-8782
lazuli	-8783
ported	-8784
quoise	-8785
ummānu	-8786
ursion	-8787
utukua	-8788
▁Adūnī	-8789
▁Agade	-8790
▁Azuru	-8791
▁Bless	-8792
▁Dayan	-8793
▁Halzi	-8794
▁Kapar	-8795
▁Makes	-8796
▁Sulum	-8797
▁Tamnâ	-8798
▁Treas	-8799
▁Tummu	-8800
▁Ubaru	-8801
▁Zabdî	-8802
▁Zazaz	-8803
▁adult	-8804
▁alley	-8805
▁apple	-8806
▁behav	-8807
▁blasp	-8808
▁chann	-8809
▁chose	-8810
▁color	-8811
▁contr	-8812
▁cried	-8813
▁drank	-8814
▁dread	-8815
▁emmer	-8816
▁fills	-8817
▁flame	-8818
▁glory	-8819
▁invol	-8820
▁kimru	-8821
▁leeks	-8822
▁legal	-8823
▁lines	-8824
▁ninth	-8825
▁piles	-8826
▁pipes	-8827
▁resin	-8828
▁scion	-8829
▁separ	-8830
▁solid	-8831
▁stole	-8832
▁stool	-8833
▁story	-8834
▁suits	-8835
▁tried	-8836
▁wines	-8837
▁Ḫubuš	-8838
Amukāni	-8839
Daganna	-8840
Pileser	-8841
Teumman	-8842
Whoever	-8843
Zabdāni	-8844
estines	-8845
himself	-8846
however	-8847
icating	-8848
isterns	-8849
itution	-8850
joining	-8851
objects	-8852
ormally	-8853
rogated	-8854
trodden	-8855
upahhir	-8856
▁20,000	-8857
▁Addaru	-8858
▁Araḫtu	-8859
▁Dilmun	-8860
▁Nashir	-8861
▁Ninlil	-8862
▁Qumānu	-8863
▁Second	-8864
▁armory	-8865
▁bifurc	-8866
▁comply	-8867
▁consol	-8868
▁culmin	-8869
▁curses	-8870
▁defect	-8871
▁deline	-8872
▁domain	-8873
▁exuber	-8874
▁finger	-8875
▁furrow	-8876
▁grasps	-8877
▁honest	-8878
▁judges	-8879
▁junior	-8880
▁ladies	-8881
▁laying	-8882
▁league	-8883
▁motion	-8884
▁occurs	-8885
▁prompt	-8886
▁purple	-8887
▁result	-8888
▁shadow	-8889
▁shines	-8890
▁subdue	-8891
▁suffic	-8892
▁surely	-8893
▁uncles	-8894
▁wolves	-8895
▁worthy	-8896
ayabarqa	-8897
mušallim	-8898
▁Balṭaya	-8899
▁Chariot	-8900
▁Earlier	-8901
▁Eastern	-8902
▁Egalzag	-8903
▁Ehursag	-8904
▁Hindana	-8905
▁Parsuaš	-8906
▁Tarditu	-8907
▁anomaly	-8908
▁appease	-8909
▁applied	-8910
▁burning	-8911
▁caravan	-8912
▁clangor	-8913
▁consent	-8914
▁content	-8915
▁engines	-8916
▁enlarge	-8917
▁existed	-8918
▁fetched	-8919
▁fleeing	-8920
▁gaining	-8921
▁grazing	-8922
▁lacking	-8923
▁lasting	-8924
▁oracles	-8925
▁passing	-8926
▁penalty	-8927
▁sheaves	-8928
▁stretch	-8929
▁vehicle	-8930
▁verdict	-8931
▁wounded	-8932
Sangibūti	-8933
Ummanigaš	-8934
inspector	-8935
therefore	-8936
▁Allabria	-8937
▁Ammanāna	-8938
▁Ispabāra	-8939
▁Together	-8940
▁Tumurrum	-8941
▁accompan	-8942
▁antimony	-8943
▁artisans	-8944
▁bathroom	-8945
▁begetter	-8946
▁bestowed	-8947
▁carriage	-8948
▁ceremony	-8949
▁choosing	-8950
▁covering	-8951
▁crescent	-8952
▁designed	-8953
▁doorways	-8954
▁downfall	-8955
▁earliest	-8956
▁encamped	-8957
▁equipped	-8958
▁finishes	-8959
▁fugitive	-8960
▁happened	-8961
▁luminary	-8962
▁moreover	-8963
▁pondered	-8964
▁portable	-8965
▁preserve	-8966
▁princess	-8967
▁proclaim	-8968
▁progress	-8969
▁punished	-8970
▁recruits	-8971
▁scorpion	-8972
▁shallots	-8973
▁struggle	-8974
▁supplies	-8975
▁treaties	-8976
▁Šibaniba	-8977
taqqinanni	-8978
▁Egyptians	-8979
▁Guzummānu	-8980
▁Kummaḫlum	-8981
▁Treasurer	-8982
▁campaigns	-8983
▁carpenter	-8984
▁collegium	-8985
▁comprehen	-8986
▁consigned	-8987
▁conspired	-8988
▁corridors	-8989
▁deceitful	-8990
▁different	-8991
▁engineers	-8992
▁forecourt	-8993
▁handcuffs	-8994
▁incursion	-8995
▁objective	-8996
▁organized	-8997
▁outriders	-8998
▁overwhelm	-8999
▁relations	-9000
▁reporters	-9001
▁turquoise	-9002
▁undertake	-9003
▁abundantly	-9004
▁additional	-9005
▁approaches	-9006
▁battleline	-9007
▁completion	-9008
▁flourished	-9009
▁friendship	-9010
▁inexpertly	-9011
▁intestines	-9012
▁sufficient	-9013
▁sustenance	-9014
▁understand	-9015
▁wrongdoing	-9016
▁Banayabarqa	-9017
▁apprentices	-9018
▁approaching	-9019
▁bifurcation	-9020
▁chamberlain	-9021
▁countenance	-9022
▁cultivating	-9023
▁destructive	-9024
▁experienced	-9025
▁housekeeper	-9026
▁replacement	-9027
▁treacherous	-9028
▁Egašankalama	-9029
▁appurtenance	-9030
▁surroundings	-9031
/6	-9032
AR	-9033
Ag	-9034
At	-9035
Aš	-9036
BI	-9037
Ig	-9038
nī	-9039
pr	-9040
rī	-9041
zā	-9042
āb	-9043
ēt	-9044
ēḫ	-9045
Ša	-9046
ḫī	-9047
ṣî	-9048
’-	-9049
Anu	-9050
Bit	-9051
Ilu	-9052
Lib	-9053
Mar	-9054
cts	-9055
dun	-9056
dūr	-9057
fam	-9058
iia	-9059
ika	-9060
ipe	-9061
ium	-9062
oll	-9063
oti	-9064
que	-9065
rah	-9066
ruk	-9067
sec	-9068
ste	-9069
ura	-9070
vey	-9071
yet	-9072
yps	-9073
zin	-9074
ēši	-9075
īte	-9076
šap	-9077
ūna	-9078
ʾ),	-9079
▁2:	-9080
▁3:	-9081
▁4,	-9082
▁45	-9083
▁5;	-9084
▁69	-9085
▁Mi	-9086
▁Ri	-9087
▁aw	-9088
▁ps	-9089
▁ya	-9090
,150	-9091
Fear	-9092
Kari	-9093
Make	-9094
agil	-9095
aith	-9096
amme	-9097
anim	-9098
appi	-9099
arhu	-9100
bāni	-9101
come	-9102
cruc	-9103
ctor	-9104
elle	-9105
ells	-9106
hour	-9107
iašu	-9108
iltu	-9109
kumu	-9110
oded	-9111
omin	-9112
palê	-9113
rion	-9114
rāmu	-9115
sell	-9116
tter	-9117
ugal	-9118
ukka	-9119
umaš	-9120
umzu	-9121
uous	-9122
upap	-9123
uppu	-9124
urse	-9125
ušpa	-9126
zera	-9127
ēṭir	-9128
šadû	-9129
▁1,1	-9130
▁11,	-9131
▁140	-9132
▁5/6	-9133
▁Baq	-9134
▁Dar	-9135
▁Gag	-9136
▁Gub	-9137
▁Ian	-9138
▁Iba	-9139
▁Ili	-9140
▁Kad	-9141
▁Kiq	-9142
▁Lit	-9143
▁Nah	-9144
▁Niḫ	-9145
▁Pit	-9146
▁Rim	-9147
▁Tiš	-9148
▁abl	-9149
▁cou	-9150
▁den	-9151
▁hab	-9152
▁mes	-9153
▁riv	-9154
▁wax	-9155
▁Šuz	-9156
Arame	-9157
These	-9158
abled	-9159
ammes	-9160
argaz	-9161
asion	-9162
ature	-9163
ayabi	-9164
cloth	-9165
colle	-9166
ended	-9167
heart	-9168
hurtu	-9169
ilanu	-9170
irred	-9171
kettu	-9172
kigal	-9173
known	-9174
lišhu	-9175
mannu	-9176
night	-9177
odged	-9178
raise	-9179
tment	-9180
ulara	-9181
urity	-9182
šumma	-9183
▁(45)	-9184
▁(648	-9185
▁45')	-9186
▁Adin	-9187
▁Amat	-9188
▁Fort	-9189
▁Hall	-9190
▁Hand	-9191
▁Hanî	-9192
▁Happ	-9193
▁Issi	-9194
▁Kaqq	-9195
▁Luqu	-9196
▁Near	-9197
▁Over	-9198
▁Qiti	-9199
▁Upon	-9200
▁Uqnû	-9201
▁Yoke	-9202
▁axes	-9203
▁boys	-9204
▁cans	-9205
▁cure	-9206
▁deaf	-9207
▁dism	-9208
▁figs	-9209
▁fury	-9210
▁gore	-9211
▁grac	-9212
▁hate	-9213
▁latt	-9214
▁lush	-9215
▁lyre	-9216
▁mart	-9217
▁mete	-9218
▁mušš	-9219
▁nice	-9220
▁oven	-9221
▁pard	-9222
▁pige	-9223
▁plen	-9224
▁popl	-9225
▁reck	-9226
▁repl	-9227
▁sack	-9228
▁sate	-9229
▁seac	-9230
▁span	-9231
▁surv	-9232
▁tray	-9233
▁trib	-9234
▁unto	-9235
▁zamû	-9236
▁Šumâ	-9237
barley	-9238
cluded	-9239
copper	-9240
cosmic	-9241
ctions	-9242
dammiq	-9243
divine	-9244
double	-9245
elling	-9246
ending	-9247
ential	-9248
entine	-9249
family	-9250
follow	-9251
ground	-9252
handed	-9253
ibitti	-9254
ighted	-9255
irrutu	-9256
itions	-9257
liness	-9258
minent	-9259
onical	-9260
ourish	-9261
paleya	-9262
pleted	-9263
plices	-9264
queror	-9265
ulates	-9266
velous	-9267
ēḫasta	-9268
▁Abund	-9269
▁Asari	-9270
▁Attar	-9271
▁Cults	-9272
▁Dilil	-9273
▁Egall	-9274
▁Gambu	-9275
▁Manṣu	-9276
▁Ninev	-9277
▁Orion	-9278
▁Qatnu	-9279
▁Sinqi	-9280
▁Taboo	-9281
▁Uaite	-9282
▁Uallî	-9283
▁Whose	-9284
▁arbit	-9285
▁braid	-9286
▁cease	-9287
▁crack	-9288
▁decor	-9289
▁decre	-9290
▁drain	-9291
▁feast	-9292
▁genie	-9293
▁grave	-9294
▁insub	-9295
▁kneel	-9296
▁local	-9297
▁lowly	-9298
▁maids	-9299
▁meals	-9300
▁merry	-9301
▁mišhu	-9302
▁naked	-9303
▁newly	-9304
▁psalm	-9305
▁quite	-9306
▁reput	-9307
▁robes	-9308
▁rocky	-9309
▁sated	-9310
▁scout	-9311
▁secre	-9312
▁ships	-9313
▁shoes	-9314
▁smoke	-9315
▁socle	-9316
▁thorn	-9317
▁unfav	-9318
▁walks	-9319
▁youth	-9320
▁Ḫabur	-9321
Zualzaš	-9322
aithful	-9323
centers	-9324
daggers	-9325
divided	-9326
figures	-9327
iveness	-9328
lifting	-9329
napšati	-9330
statues	-9331
through	-9332
tiliašu	-9333
zigallu	-9334
▁Banaya	-9335
▁Barsip	-9336
▁Battle	-9337
▁Eunuch	-9338
▁Ibašši	-9339
▁Sharru	-9340
▁Silver	-9341
▁Tabira	-9342
▁Teušpa	-9343
▁Uarbis	-9344
▁Zazaya	-9345
▁announ	-9346
▁apport	-9347
▁arches	-9348
▁avenge	-9349
▁bathed	-9350
▁better	-9351
▁breath	-9352
▁closed	-9353
▁commit	-9354
▁create	-9355
▁darkly	-9356
▁decare	-9357
▁dinner	-9358
▁disuse	-9359
▁draped	-9360
▁eroded	-9361
▁evildo	-9362
▁ešmarû	-9363
▁falcon	-9364
▁famous	-9365
▁fellow	-9366
▁festiv	-9367
▁freely	-9368
▁grains	-9369
▁grants	-9370
▁guided	-9371
▁hauled	-9372
▁impose	-9373
▁incess	-9374
▁instig	-9375
▁intact	-9376
▁negoti	-9377
▁parūtu	-9378
▁picked	-9379
▁purify	-9380
▁pushed	-9381
▁ration	-9382
▁recite	-9383
▁remiss	-9384
▁rescue	-9385
▁retrie	-9386
▁scream	-9387
▁signet	-9388
▁spoils	-9389
▁storms	-9390
▁suited	-9391
▁waging	-9392
▁warden	-9393
▁Šakkan	-9394
▁Šargaz	-9395
▁Ḫarutu	-9396
▁Ḫirimu	-9397
Arameans	-9398
cription	-9399
crucible	-9400
province	-9401
suitable	-9402
▁208,000	-9403
▁Dummuqu	-9404
▁Goddess	-9405
▁Išmanni	-9406
▁Lamassu	-9407
▁Mitatti	-9408
▁Nisannu	-9409
▁Sulumal	-9410
▁Sumurzu	-9411
▁Tupliaš	-9412
▁Urkittu	-9413
▁aggress	-9414
▁bundles	-9415
▁consult	-9416
▁cooking	-9417
▁defeats	-9418
▁donated	-9419
▁elapsed	-9420
▁enabled	-9421
▁equally	-9422
▁exacted	-9423
▁favours	-9424
▁filling	-9425
▁further	-9426
▁glorify	-9427
▁happily	-9428
▁husband	-9429
▁keepers	-9430
▁kurunnu	-9431
▁magnify	-9432
▁malaria	-9433
▁papparm	-9434
▁revenge	-9435
▁robbers	-9436
▁sapping	-9437
▁several	-9438
▁torches	-9439
▁totally	-9440
▁traitor	-9441
▁uplands	-9442
▁weighty	-9443
▁Ḫubušna	-9444
dinutukua	-9445
following	-9446
heartedly	-9447
kuṣuranni	-9448
reviously	-9449
▁Ekallate	-9450
▁Entrance	-9451
▁Kummeans	-9452
▁Mutaqqin	-9453
▁Salamanu	-9454
▁Wherever	-9455
▁ancestor	-9456
▁apprehen	-9457
▁attained	-9458
▁controll	-9459
▁declared	-9460
▁deserved	-9461
▁disorder	-9462
▁domestic	-9463
▁downward	-9464
▁elammaku	-9465
▁engraved	-9466
▁figurine	-9467
▁lamassus	-9468
▁mobilize	-9469
▁planting	-9470
▁portents	-9471
▁portions	-9472
▁princely	-9473
▁replicas	-9474
▁reviewed	-9475
▁saplišhu	-9476
▁seacoast	-9477
▁transfer	-9478
▁vanquish	-9479
▁watering	-9480
▁Ḫamatite	-9481
consisting	-9482
šallimšunu	-9483
▁Abundance	-9484
▁Damascene	-9485
▁Ekišnugal	-9486
▁Ereškigal	-9487
▁Kaqqadanu	-9488
▁Purulumzu	-9489
▁Tabaleans	-9490
▁Tarḫulara	-9491
▁Ummanappa	-9492
▁afflicted	-9493
▁answering	-9494
▁carefully	-9495
▁confusion	-9496
▁converted	-9497
▁cornfield	-9498
▁direction	-9499
▁dislodged	-9500
▁displayed	-9501
▁exception	-9502
▁excrement	-9503
▁ingenious	-9504
▁majesties	-9505
▁marvelous	-9506
▁overpower	-9507
▁overthrew	-9508
▁plenitude	-9509
▁respected	-9510
▁revetment	-9511
▁safeguard	-9512
▁servitude	-9513
▁thundered	-9514
▁venerable	-9515
▁Egallammes	-9516
▁Gambulians	-9517
▁Kaštiliašu	-9518
▁burzigallu	-9519
▁colleagues	-9520
▁delineated	-9521
▁enterprise	-9522
▁generation	-9523
▁instituted	-9524
▁ordinances	-9525
▁petitioned	-9526
▁reputation	-9527
▁serpentine	-9528
▁shepherded	-9529
▁subdivided	-9530
▁throughout	-9531
▁abandonment	-9532
▁accompanied	-9533
▁accomplices	-9534
▁battlefield	-9535
▁disobedient	-9536
▁emplacement	-9537
▁expenditure	-9538
▁interrupted	-9539
▁pomegranate	-9540
▁surrounding	-9541
▁tempestuous	-9542
▁transported	-9543
▁interrogated	-9544
▁sufficiently	-9545
▁transgresses	-9546
▁Egašankalamma	-9547
▁insubordinate	-9548
▁pronouncement	-9549
▁wholeheartedly	-9550
,5	-9551
/2	-9552
?)	-9553
Re	-9554
ey	-9555
lā	-9556
lē	-9557
qû	-9558
rû	-9559
wr	-9560
xe	-9561
yn	-9562
yâ	-9563
ʾʾ	-9564
ḫe	-9565
!,”	-9566
).”	-9567
2).	-9568
Abt	-9569
Ass	-9570
Can	-9571
Kud	-9572
Rem	-9573
Set	-9574
Sul	-9575
Tig	-9576
Ukû	-9577
ble	-9578
dus	-9579
enu	-9580
haw	-9581
ibu	-9582
ico	-9583
ikk	-9584
ipi	-9585
iše	-9586
kad	-9587
kil	-9588
kul	-9589
nun	-9590
qqi	-9591
qus	-9592
ubi	-9593
unî	-9594
ēpu	-9595
ūsu	-9596
▁3.	-9597
▁36	-9598
▁49	-9599
▁53	-9600
▁57	-9601
▁9,	-9602
▁Hi	-9603
▁Um	-9604
▁Yā	-9605
▁gi	-9606
▁la	-9607
▁lā	-9608
▁ta	-9609
▁ug	-9610
▁šu	-9611
▁“(	-9612
Lord	-9613
Only	-9614
abbi	-9615
abor	-9616
abua	-9617
ager	-9618
akil	-9619
ammû	-9620
anšê	-9621
bali	-9622
ball	-9623
baši	-9624
danu	-9625
dina	-9626
dūrī	-9627
enem	-9628
ezer	-9629
hara	-9630
ibar	-9631
illy	-9632
inct	-9633
kala	-9634
lâma	-9635
mašê	-9636
mule	-9637
rane	-9638
ridu	-9639
ruti	-9640
sign	-9641
stri	-9642
suḫī	-9643
tešî	-9644
tier	-9645
tiya	-9646
umps	-9647
unda	-9648
undu	-9649
verb	-9650
what	-9651
yata	-9652
ṣabi	-9653
ṣeri	-9654
▁250	-9655
▁420	-9656
▁440	-9657
▁95)	-9658
▁Abd	-9659
▁Adâ	-9660
▁Arm	-9661
▁Arr	-9662
▁Aru	-9663
▁Dum	-9664
▁Gun	-9665
▁Ill	-9666
▁Mas	-9667
▁Maḫ	-9668
▁Naq	-9669
▁Neš	-9670
▁Out	-9671
▁Pil	-9672
▁Tuḫ	-9673
▁Ušû	-9674
▁Yah	-9675
▁Yam	-9676
▁Yet	-9677
▁amu	-9678
▁cat	-9679
▁cun	-9680
▁ešš	-9681
▁foe	-9682
▁fox	-9683
▁hur	-9684
▁kin	-9685
▁lal	-9686
▁nin	-9687
▁pat	-9688
▁rus	-9689
▁sed	-9690
▁Šim	-9691
▁Ḫay	-9692
Iauta	-9693
Matti	-9694
Venus	-9695
Zabid	-9696
ahuṭu	-9697
aming	-9698
amshi	-9699
anate	-9700
anūnu	-9701
augur	-9702
aṣbat	-9703
bartu	-9704
blank	-9705
dwell	-9706
grand	-9707
iling	-9708
inded	-9709
iracy	-9710
isure	-9711
kadru	-9712
kannu	-9713
kašid	-9714
maker	-9715
onded	-9716
ounds	-9717
piece	-9718
raqqi	-9719
stret	-9720
tiles	-9721
uarri	-9722
ufact	-9723
ukkal	-9724
ulate	-9725
ulmaš	-9726
usāte	-9727
▁(70)	-9728
▁Abdî	-9729
▁Apsû	-9730
▁Baal	-9731
▁Bani	-9732
▁Bitt	-9733
▁Dūru	-9734
▁Evil	-9735
▁Giri	-9736
▁Harg	-9737
▁Harh	-9738
▁Haur	-9739
▁Hiri	-9740
▁Kamm	-9741
▁Kirr	-9742
▁Misu	-9743
▁Paps	-9744
▁Prov	-9745
▁Rear	-9746
▁Rubu	-9747
▁Some	-9748
▁Tand	-9749
▁Ubur	-9750
▁Ukka	-9751
▁Vill	-9752
▁bell	-9753
▁bent	-9754
▁craw	-9755
▁dawn	-9756
▁dred	-9757
▁fail	-9758
▁fiss	-9759
▁fron	-9760
▁hard	-9761
▁impa	-9762
▁ladd	-9763
▁lent	-9764
▁mutu	-9765
▁mūgi	-9766
▁pier	-9767
▁pole	-9768
▁preb	-9769
▁prof	-9770
▁rite	-9771
▁shot	-9772
▁text	-9773
▁thin	-9774
▁tuft	-9775
▁ugly	-9776
▁unit	-9777
▁whip	-9778
▁wire	-9779
▁wrap	-9780
▁Ḫaya	-9781
Abtāni	-9782
Malaḫu	-9783
Nobody	-9784
Sulāya	-9785
Zamāni	-9786
allaya	-9787
ankind	-9788
areans	-9789
arture	-9790
atient	-9791
broken	-9792
ervent	-9793
estial	-9794
idmuru	-9795
illanu	-9796
inally	-9797
incere	-9798
isters	-9799
labria	-9800
leaves	-9801
lifted	-9802
living	-9803
natkil	-9804
nother	-9805
ointed	-9806
ounder	-9807
passed	-9808
person	-9809
steeds	-9810
suḫīli	-9811
throne	-9812
uṣalli	-9813
vessel	-9814
Ḫamban	-9815
▁Again	-9816
▁Arama	-9817
▁Aḫunu	-9818
▁Const	-9819
▁Dugul	-9820
▁Guard	-9821
▁Ianzû	-9822
▁Irḫul	-9823
▁Kalbi	-9824
▁Kannu	-9825
▁Lanšê	-9826
▁Makan	-9827
▁Mardî	-9828
▁Mouth	-9829
▁Niqqu	-9830
▁Nēmet	-9831
▁Papḫu	-9832
▁Place	-9833
▁Royal	-9834
▁Sirqu	-9835
▁Tarṣî	-9836
▁Ulaya	-9837
▁Under	-9838
▁Which	-9839
▁Write	-9840
▁adjut	-9841
▁allot	-9842
▁bears	-9843
▁bount	-9844
▁boxes	-9845
▁cooks	-9846
▁crews	-9847
▁defin	-9848
▁fears	-9849
▁fever	-9850
▁giver	-9851
▁glass	-9852
▁guile	-9853
▁hangs	-9854
▁holes	-9855
▁horde	-9856
▁ignor	-9857
▁laden	-9858
▁metal	-9859
▁nests	-9860
▁penet	-9861
▁quota	-9862
▁round	-9863
▁sched	-9864
▁smash	-9865
▁solar	-9866
▁spect	-9867
▁tamar	-9868
▁tired	-9869
▁touch	-9870
▁urine	-9871
▁valid	-9872
▁wagon	-9873
▁waist	-9874
▁Šidir	-9875
▁Šulpa	-9876
▁Šurda	-9877
▁šēdus	-9878
▁Ḫupap	-9879
Because	-9880
Bunakki	-9881
Dargilâ	-9882
However	-9883
Kurbail	-9884
Lebanon	-9885
Naḫundu	-9886
elliger	-9887
lâmašši	-9888
resides	-9889
service	-9890
taining	-9891
yoghurt	-9892
▁Asakku	-9893
▁Bamaya	-9894
▁Birati	-9895
▁Ikkaru	-9896
▁Indian	-9897
▁Kaprid	-9898
▁Kubaba	-9899
▁Liphur	-9900
▁Maliḫu	-9901
▁Mesean	-9902
▁Mišaru	-9903
▁Nagīte	-9904
▁	-9905
e	-9906
t	-9907
a	-9908
o	-9909
i	-9910
n	-9911
r	-9912
h	-9913
s	-9914
d	-9915
.	-9916
l	-9917
u	-9918
m	-9919
f	-9920
,	-9921
g	-9922
y	-9923
c	-9924
p	-9925
w	-9926
b	-9927
k	-9928
)	-9929
(	-9930
v	-9931
I	-9932
-	-9933
š	-9934
A	-9935
T	-9936
N	-9937
;	-9938
M	-9939
:	-9940
W	-9941
'	-9942
B	-9943
S	-9944
1	-9945
0	-9946
x	-9947
E	-9948
q	-9949
"	-9950
û	-9951
!	-9952
H	-9953
z	-9954
Š	-9955
2	-9956
D	-9957
—	-9958
G	-9959
j	-9960
5	-9961
K	-9962
ī	-9963
U	-9964
ā	-9965
L	-9966
ṣ	-9967
?	-9968
C	-9969
3	-9970
P	-9971
4	-9972
î	-9973
ḫ	-9974
“	-9975
R	-9976
”	-9977
F	-9978
O	-9979
Y	-9980
6	-9981
ē	-9982
Ḫ	-9983
ṭ	-9984
ū	-9985
Z	-9986
â	-9987
V	-9988
7	-9989
8	-9990
ʾ	-9991
’	-9992
/	-9993
Q	-9994
9	-9995
ê	-9996
